{
  "version": "1.0",
  "truncation": null,
  "padding": null,
  "added_tokens": [
    {
      "id": 0,
      "content": "<|endoftext|>",
      "single_word": false,
      "lstrip": false,
      "rstrip": false,
      "normalized": false,
      "special": true
    }
  ],
  "normalizer": null,
  "pre_tokenizer": {
    "type": "ByteLevel",
    "add_prefix_space": false,
    "trim_offsets": true,
    "use_regex": true
  },
  "post_processor": {
    "type": "ByteLevel",
    "add_prefix_space": true,
    "trim_offsets": false,
    "use_regex": true
  },
  "decoder": {
    "type": "ByteLevel",
    "add_prefix_space": true,
    "trim_offsets": true,
    "use_regex": true
  },
  "model": {
    "type": "BPE",
    "dropout": null,
    "unk_token": null,
    "continuing_subword_prefix": "",
    "end_of_word_suffix": "",
    "fuse_unk": false,
    "vocab": {
      "<|endoftext|>": 0,
      "!": 1,
      "\"": 2,
      "#": 3,
      "$": 4,
      "%": 5,
      "&": 6,
      "'": 7,
      "(": 8,
      ")": 9,
      "*": 10,
      "+": 11,
      ",": 12,
      "-": 13,
      ".": 14,
      "/": 15,
      "0": 16,
      "1": 17,
      "2": 18,
      "3": 19,
      "4": 20,
      "5": 21,
      "6": 22,
      "7": 23,
      "8": 24,
      "9": 25,
      ":": 26,
      ";": 27,
      "<": 28,
      "=": 29,
      ">": 30,
      "?": 31,
      "@": 32,
      "A": 33,
      "B": 34,
      "C": 35,
      "D": 36,
      "E": 37,
      "F": 38,
      "G": 39,
      "H": 40,
      "I": 41,
      "J": 42,
      "K": 43,
      "L": 44,
      "M": 45,
      "N": 46,
      "O": 47,
      "P": 48,
      "Q": 49,
      "R": 50,
      "S": 51,
      "T": 52,
      "U": 53,
      "V": 54,
      "W": 55,
      "X": 56,
      "Y": 57,
      "Z": 58,
      "[": 59,
      "\\": 60,
      "]": 61,
      "^": 62,
      "_": 63,
      "`": 64,
      "a": 65,
      "b": 66,
      "c": 67,
      "d": 68,
      "e": 69,
      "f": 70,
      "g": 71,
      "h": 72,
      "i": 73,
      "j": 74,
      "k": 75,
      "l": 76,
      "m": 77,
      "n": 78,
      "o": 79,
      "p": 80,
      "q": 81,
      "r": 82,
      "s": 83,
      "t": 84,
      "u": 85,
      "v": 86,
      "w": 87,
      "x": 88,
      "y": 89,
      "z": 90,
      "{": 91,
      "|": 92,
      "}": 93,
      "~": 94,
      "¡": 95,
      "¢": 96,
      "£": 97,
      "¤": 98,
      "¥": 99,
      "¦": 100,
      "§": 101,
      "¨": 102,
      "©": 103,
      "ª": 104,
      "«": 105,
      "¬": 106,
      "®": 107,
      "¯": 108,
      "°": 109,
      "±": 110,
      "²": 111,
      "³": 112,
      "´": 113,
      "µ": 114,
      "¶": 115,
      "·": 116,
      "¸": 117,
      "¹": 118,
      "º": 119,
      "»": 120,
      "¼": 121,
      "½": 122,
      "¾": 123,
      "¿": 124,
      "À": 125,
      "Á": 126,
      "Â": 127,
      "Ã": 128,
      "Ä": 129,
      "Å": 130,
      "Æ": 131,
      "Ç": 132,
      "È": 133,
      "É": 134,
      "Ê": 135,
      "Ë": 136,
      "Ì": 137,
      "Í": 138,
      "Î": 139,
      "Ï": 140,
      "Ð": 141,
      "Ñ": 142,
      "Ò": 143,
      "Ó": 144,
      "Ô": 145,
      "Õ": 146,
      "Ö": 147,
      "×": 148,
      "Ø": 149,
      "Ù": 150,
      "Ú": 151,
      "Û": 152,
      "Ü": 153,
      "Ý": 154,
      "Þ": 155,
      "ß": 156,
      "à": 157,
      "á": 158,
      "â": 159,
      "ã": 160,
      "ä": 161,
      "å": 162,
      "æ": 163,
      "ç": 164,
      "è": 165,
      "é": 166,
      "ê": 167,
      "ë": 168,
      "ì": 169,
      "í": 170,
      "î": 171,
      "ï": 172,
      "ð": 173,
      "ñ": 174,
      "ò": 175,
      "ó": 176,
      "ô": 177,
      "õ": 178,
      "ö": 179,
      "÷": 180,
      "ø": 181,
      "ù": 182,
      "ú": 183,
      "û": 184,
      "ü": 185,
      "ý": 186,
      "þ": 187,
      "ÿ": 188,
      "Ā": 189,
      "ā": 190,
      "Ă": 191,
      "ă": 192,
      "Ą": 193,
      "ą": 194,
      "Ć": 195,
      "ć": 196,
      "Ĉ": 197,
      "ĉ": 198,
      "Ċ": 199,
      "ċ": 200,
      "Č": 201,
      "č": 202,
      "Ď": 203,
      "ď": 204,
      "Đ": 205,
      "đ": 206,
      "Ē": 207,
      "ē": 208,
      "Ĕ": 209,
      "ĕ": 210,
      "Ė": 211,
      "ė": 212,
      "Ę": 213,
      "ę": 214,
      "Ě": 215,
      "ě": 216,
      "Ĝ": 217,
      "ĝ": 218,
      "Ğ": 219,
      "ğ": 220,
      "Ġ": 221,
      "ġ": 222,
      "Ģ": 223,
      "ģ": 224,
      "Ĥ": 225,
      "ĥ": 226,
      "Ħ": 227,
      "ħ": 228,
      "Ĩ": 229,
      "ĩ": 230,
      "Ī": 231,
      "ī": 232,
      "Ĭ": 233,
      "ĭ": 234,
      "Į": 235,
      "į": 236,
      "İ": 237,
      "ı": 238,
      "Ĳ": 239,
      "ĳ": 240,
      "Ĵ": 241,
      "ĵ": 242,
      "Ķ": 243,
      "ķ": 244,
      "ĸ": 245,
      "Ĺ": 246,
      "ĺ": 247,
      "Ļ": 248,
      "ļ": 249,
      "Ľ": 250,
      "ľ": 251,
      "Ŀ": 252,
      "ŀ": 253,
      "Ł": 254,
      "ł": 255,
      "Ń": 256,
      "ĠĠ": 257,
      "ä¸": 258,
      "Ġt": 259,
      "ï¼": 260,
      "ï¼Į": 261,
      "Ġa": 262,
      "he": 263,
      "in": 264,
      "ãĢ": 265,
      "çļ": 266,
      "çļĦ": 267,
      "re": 268,
      "on": 269,
      "äº": 270,
      "Ġthe": 271,
      "ĠĠĠĠ": 272,
      "er": 273,
      "at": 274,
      "Ġs": 275,
      "en": 276,
      "Ġo": 277,
      "ãĢĤ": 278,
      "æľ": 279,
      "åı": 280,
      "Ġw": 281,
      "ä»": 282,
      "Ġc": 283,
      "åħ": 284,
      "is": 285,
      "it": 286,
      "or": 287,
      "ed": 288,
      "es": 289,
      "å¤": 290,
      "an": 291,
      "å®": 292,
      "al": 293,
      "Ġp": 294,
      "åĪ": 295,
      "è¿": 296,
      "Ġf": 297,
      "ä½": 298,
      "Ġb": 299,
      "Ġan": 300,
      "ing": 301,
      "åĲ": 302,
      "çĶ": 303,
      "æĺ": 304,
      "Ġof": 305,
      "ar": 306,
      "Ġin": 307,
      "ou": 308,
      "ãĢģ": 309,
      "åľ": 310,
      "Ġd": 311,
      "Ġm": 312,
      "åĬ": 313,
      "âĢ": 314,
      "ion": 315,
      "ç»": 316,
      "ic": 317,
      "Ġto": 318,
      "æĪ": 319,
      "le": 320,
      "--": 321,
      "as": 322,
      "Ġand": 323,
      "ä¹": 324,
      "è¯": 325,
      "ä¸Ģ": 326,
      "åŃ": 327,
      "æĸ": 328,
      "æĺ¯": 329,
      "ro": 330,
      "ĠĠĠĠĠĠĠĠ": 331,
      "å°": 332,
      "è®": 333,
      "Ġh": 334,
      "åĽ": 335,
      "æĹ": 336,
      "Ġth": 337,
      "ä¼": 338,
      "ent": 339,
      "å¹": 340,
      "ct": 341,
      "ä¸į": 342,
      "æľī": 343,
      "åľ¨": 344,
      "å·": 345,
      "æĿ": 346,
      "et": 347,
      "el": 348,
      "Ġre": 349,
      "Ġn": 350,
      "åį": 351,
      "å¸": 352,
      "st": 353,
      "om": 354,
      "æī": 355,
      "äºº": 356,
      "éĩ": 357,
      "Ġl": 358,
      "æķ": 359,
      "å¼": 360,
      "èĢ": 361,
      "äºĨ": 362,
      "il": 363,
      "Ġe": 364,
      "åº": 365,
      "å¯": 366,
      "è¡": 367,
      "åĨ": 368,
      "å¾": 369,
      "åĩ": 370,
      "ĥ½": 371,
      "id": 372,
      "éĢ": 373,
      "åĮ": 374,
      "ä¸Ń": 375,
      "æł": 376,
      "çĽ": 377,
      "è§": 378,
      "ot": 379,
      "im": 380,
      "è´": 381,
      "åĴ": 382,
      "ig": 383,
      "åŃ¦": 384,
      "Ġg": 385,
      "ve": 386,
      "æĬ": 387,
      "ut": 388,
      "æĢ": 389,
      "ä¸º": 390,
      "åĴĮ": 391,
      "çĶŁ": 392,
      "ĠI": 393,
      "ĠT": 394,
      "å¥": 395,
      "¦ģ": 396,
      "Ġis": 397,
      "ol": 398,
      "è¦ģ": 399,
      "am": 400,
      "å¤§": 401,
      "çİ": 402,
      "Ġ(": 403,
      "----": 404,
      "èµ": 405,
      "ly": 406,
      "ac": 407,
      "us": 408,
      "ç§": 409,
      "ation": 410,
      "å±": 411,
      "ow": 412,
      "Ġbe": 413,
      "ad": 414,
      "ur": 415,
      "Ġfor": 416,
      "æĶ": 417,
      "ä»¥": 418,
      "å¿": 419,
      "ĠS": 420,
      "éĹ": 421,
      "æĹ¶": 422,
      "èĩ": 423,
      "ä¸ª": 424,
      "Ġthat": 425,
      "âĢľ": 426,
      "æĪĳ": 427,
      "Ġon": 428,
      "ä¸Ĭ": 429,
      "un": 430,
      "00": 431,
      "æ°": 432,
      "éĿ": 433,
      "âĢĿ": 434,
      "å½": 435,
      "çī": 436,
      "ä½ľ": 437,
      "ĠA": 438,
      "æ³": 439,
      "åİ": 440,
      "èĥ½": 441,
      "éĻ": 442,
      "è¿Ļ": 443,
      "ä¼ļ": 444,
      "Ġst": 445,
      "æŃ": 446,
      "ä¸ļ": 447,
      "åĳ": 448,
      "ver": 449,
      "ĠC": 450,
      "çĲ": 451,
      "ä¿": 452,
      "ay": 453,
      "çº": 454,
      "çĶ¨": 455,
      "ith": 456,
      "åıĳ": 457,
      "ul": 458,
      "æİ": 459,
      "å¯¹": 460,
      "ce": 461,
      "å·¥": 462,
      "æŀ": 463,
      "Ġ1": 464,
      "é¢": 465,
      "çŃ": 466,
      "if": 467,
      "æĥ": 468,
      "se": 469,
      "åĪ°": 470,
      "Ġy": 471,
      "è¡Į": 472,
      "å¹´": 473,
      "æ²": 474,
      "ĠĠĠ": 475,
      "Ġwith": 476,
      "ir": 477,
      "çľ": 478,
      "Ġhe": 479,
      "æĪĲ": 480,
      "åĽ½": 481,
      "æĿ¥": 482,
      "æ¯": 483,
      "æµ": 484,
      "Ġcon": 485,
      "åı¯": 486,
      "ch": 487,
      "çĲĨ": 488,
      "Ġas": 489,
      "Ġ\"": 490,
      "åĩº": 491,
      "èĤ": 492,
      "ĠĠĠĠĠĠĠĠĠĠĠĠĠĠĠĠ": 493,
      "ter": 494,
      "æĮ": 495,
      "ï¼ļ": 496,
      "æĦ": 497,
      "è¾": 498,
      "od": 499,
      "è½": 500,
      "åĵ": 501,
      "æĸ¹": 502,
      "Ġit": 503,
      "ä»¬": 504,
      "èĩª": 505,
      "å°±": 506,
      "åĪĨ": 507,
      "ĠM": 508,
      "æĭ": 509,
      "Ġpro": 510,
      "åĬ¨": 511,
      "å¤ļ": 512,
      "Ġal": 513,
      "ag": 514,
      "ab": 515,
      "è¿Ľ": 516,
      "em": 517,
      "å¦": 518,
      "Ġwe": 519,
      "åŁ": 520,
      "åľ°": 521,
      "äºİ": 522,
      "um": 523,
      "ç®": 524,
      "pp": 525,
      "Ġv": 526,
      "å®¶": 527,
      "Ġwh": 528,
      "ri": 529,
      "ate": 530,
      "å®ŀ": 531,
      "çİ°": 532,
      "è¿ĩ": 533,
      "Ġwas": 534,
      "Ġyou": 535,
      "20": 536,
      "ĠP": 537,
      "é«": 538,
      "åģ": 539,
      "åĲİ": 540,
      "é«ĺ": 541,
      "åī": 542,
      "ä¹Ł": 543,
      "Ġ$": 544,
      "qu": 545,
      "Ġde": 546,
      "éĺ": 547,
      "åĬĽ": 548,
      "æ´": 549,
      "ä¸ĭ": 550,
      "res": 551,
      "os": 552,
      "ä½ĵ": 553,
      "pe": 554,
      "ra": 555,
      "æ±": 556,
      "ç»ı": 557,
      "æ¬": 558,
      "her": 559,
      "ĠB": 560,
      "å¥½": 561,
      "==": 562,
      "çĤ": 563,
      "æķĻ": 564,
      "éĿ¢": 565,
      "ĠThe": 566,
      "ç¨": 567,
      "ist": 568,
      "å®ļ": 569,
      "ht": 570,
      "est": 571,
      "æ³ķ": 572,
      "Ġex": 573,
      "åħ¨": 574,
      "æı": 575,
      "ant": 576,
      "Ġat": 577,
      "åħ¬": 578,
      "ä¾": 579,
      "ç«": 580,
      "Ġcom": 581,
      "éĥ": 582,
      "ĠH": 583,
      "éģ": 584,
      "ä»ĸ": 585,
      "åŃĲ": 586,
      "ç½": 587,
      "Ġor": 588,
      "çŃī": 589,
      "äº§": 590,
      "ld": 591,
      "å°ı": 592,
      "Ġr": 593,
      "åĲĮ": 594,
      "--------": 595,
      "æĢ§": 596,
      "éķ": 597,
      "th": 598,
      "åĮĸ": 599,
      "åĲĪ": 600,
      "ä¸İ": 601,
      "and": 602,
      "æ¸": 603,
      "Ġse": 604,
      "Ġ\\": 605,
      "å¼Ģ": 606,
      "ers": 607,
      "é¡": 608,
      "æĸ°": 609,
      "iv": 610,
      "Ġsu": 611,
      "ain": 612,
      "æľ¬": 613,
      "ess": 614,
      "ĠD": 615,
      "Ġare": 616,
      "ĠF": 617,
      "oc": 618,
      "èĢĮ": 619,
      "å¸Ĥ": 620,
      "Ġby": 621,
      "ill": 622,
      "è·": 623,
      "rom": 624,
      "ore": 625,
      "å¾Ĺ": 626,
      "ä¸»": 627,
      "å»": 628,
      "ke": 629,
      "éĥ¨": 630,
      "op": 631,
      "çŁ": 632,
      "ĠW": 633,
      "ity": 634,
      "å¿ĥ": 635,
      "åħ³": 636,
      "è°": 637,
      "éĩį": 638,
      "éĥ½": 639,
      "æĽ": 640,
      "oun": 641,
      "åĬł": 642,
      "åº¦": 643,
      "å¦Ĥ": 644,
      "çĿ": 645,
      "ç¤": 646,
      "Ġha": 647,
      "Ġnot": 648,
      "åĨħ": 649,
      "Ġ2": 650,
      "ĠR": 651,
      "ç¬": 652,
      "æľº": 653,
      "ment": 654,
      "åĢ": 655,
      "ĠL": 656,
      "èĢħ": 657,
      "çĤ¹": 658,
      "ction": 659,
      "è¶": 660,
      "èģ": 661,
      "åºĶ": 662,
      "åħ¶": 663,
      "ive": 664,
      "end": 665,
      "å±ķ": 666,
      "æĸĩ": 667,
      "è®¾": 668,
      "æīĢ": 669,
      "æıĲ": 670,
      "**": 671,
      "Ġne": 672,
      "åĪ¶": 673,
      "ight": 674,
      "Ġ-": 675,
      "äºĭ": 676,
      "ĠN": 677,
      "å»º": 678,
      "ort": 679,
      "æį": 680,
      "Ġ=": 681,
      "åīį": 682,
      "ç®¡": 683,
      "è¯´": 684,
      "ä¹ĭ": 685,
      "åĵģ": 686,
      "éķ¿": 687,
      "æĹ¥": 688,
      "èµĦ": 689,
      "Ġfrom": 690,
      "pt": 691,
      "æĥħ": 692,
      "red": 693,
      "ç¾": 694,
      "éĹ´": 695,
      "æľĢ": 696,
      "art": 697,
      "åĿ": 698,
      "'s": 699,
      "éĩı": 700,
      "ell": 701,
      "éĢļ": 702,
      "è¿ĺ": 703,
      "é£": 704,
      "æŁ": 705,
      "Ġthis": 706,
      "åĬ¡": 707,
      "ä½ł": 708,
      "èī": 709,
      "ç³": 710,
      "å·¥ä½ľ": 711,
      "ç¨ĭ": 712,
      "åıĬ": 713,
      "ud": 714,
      "Ġsh": 715,
      "éļ": 716,
      "å¢": 717,
      "æ¶": 718,
      "Ġun": 719,
      "å¾Ī": 720,
      "Ġus": 721,
      "te": 722,
      "å¤©": 723,
      "ä¿Ŀ": 724,
      "ĠE": 725,
      "ĠG": 726,
      "åĽł": 727,
      "æĻ": 728,
      "ç§į": 729,
      "ä½į": 730,
      "çĽ®": 731,
      "æ°´": 732,
      "pl": 733,
      "é¢ĺ": 734,
      "201": 735,
      "ren": 736,
      "æ´»": 737,
      "ies": 738,
      "åĳĺ": 739,
      "èĬ": 740,
      "Ġch": 741,
      "ould": 742,
      "éĽ": 743,
      ".\"": 744,
      "åľº": 745,
      "ial": 746,
      "çĦ": 747,
      "çĶµ": 748,
      "Ġhave": 749,
      "ä¸Ģä¸ª": 750,
      "éĶ": 751,
      "è®¡": 752,
      "æĦı": 753,
      "åħ¥": 754,
      "fe": 755,
      "æľĪ": 756,
      "ated": 757,
      "all": 758,
      "âĢĻ": 759,
      "our": 760,
      "å½ĵ": 761,
      "Ġle": 762,
      "ç¡": 763,
      "çĿĢ": 764,
      "çľĭ": 765,
      "æľŁ": 766,
      "ç©": 767,
      "æĪĳä»¬": 768,
      "Ĥ£": 769,
      "çĽ¸": 770,
      "çĹ": 771,
      "ure": 772,
      "å§": 773,
      "æŀľ": 774,
      "ine": 775,
      "çī©": 776,
      "åĮº": 777,
      "ï¼Ľ": 778,
      "éľ": 779,
      "ä¹Ī": 780,
      "æĽ´": 781,
      "og": 782,
      "æ¡": 783,
      "ust": 784,
      "ç³»": 785,
      "ä»İ": 786,
      "å°Ĩ": 787,
      "ç´": 788,
      "çĸ": 789,
      "æ¯Ķ": 790,
      "ä¸ī": 791,
      "è¡¨": 792,
      "ge": 793,
      "çł": 794,
      "Ġk": 795,
      "éģĵ": 796,
      "å®ī": 797,
      "èĲ": 798,
      "ä¿¡": 799,
      "å¹¶": 800,
      "ich": 801,
      "ie": 802,
      "å¸¸": 803,
      "æĺİ": 804,
      "åģļ": 805,
      "çĦ¶": 806,
      "èµ·": 807,
      "æģ": 808,
      "å¤ĸ": 809,
      "åı¯ä»¥": 810,
      "per": 811,
      "ard": 812,
      "ĠĠĠĠĠĠĠ": 813,
      "å·±": 814,
      "ack": 815,
      "å¹³": 816,
      "ical": 817,
      "æķ°": 818,
      "äºĽ": 819,
      "{\\": 820,
      "éĹ®": 821,
      "çĪ": 822,
      "çķ": 823,
      "åŃ¦çĶŁ": 824,
      "è§£": 825,
      "ĠO": 826,
      "ç¬¬": 827,
      "èĩªå·±": 828,
      "Ġcan": 829,
      "ä½Ĩ": 830,
      "éħ": 831,
      "è½¦": 832,
      "å¼ı": 833,
      ").": 834,
      "Ġ*": 835,
      "Ġ0": 836,
      "å¸Ī": 837,
      "æĥ³": 838,
      "è´¨": 839,
      "iz": 840,
      "ä½¿": 841,
      "èĢĥ": 842,
      "Ġme": 843,
      "æ¬¡": 844,
      "ç»ĵ": 845,
      "ç¼": 846,
      "æł·": 847,
      "Ġj": 848,
      "up": 849,
      "æĪĸ": 850,
      "ĊĠĠĠ": 851,
      "ame": 852,
      "æ²¡": 853,
      "out": 854,
      "ome": 855,
      "ç²": 856,
      "çĻ": 857,
      "ib": 858,
      "ï¼Ł": 859,
      "æ°ĳ": 860,
      "æŃ£": 861,
      "age": 862,
      "Ġab": 863,
      "Ġwhe": 864,
      "10": 865,
      "ue": 866,
      "der": 867,
      "æ·": 868,
      "å¼º": 869,
      "çŁ¥": 870,
      "è§Ħ": 871,
      "ç±": 872,
      "ä¹ł": 873,
      "ost": 874,
      "æīĭ": 875,
      "åĪ©": 876,
      "able": 877,
      "åŁº": 878,
      "Ġtr": 879,
      "çĥ": 880,
      "Ġ3": 881,
      "å¯¼": 882,
      "æĹł": 883,
      "èĥ": 884,
      "éĩĳ": 885,
      "éĴ": 886,
      "æĦŁ": 887,
      "éĩĮ": 888,
      "Ġwere": 889,
      "cl": 890,
      "èĤ²": 891,
      "æłĩ": 892,
      "Ġpl": 893,
      "Ġres": 894,
      "ult": 895,
      "ide": 896,
      "åĲĦ": 897,
      "ĠIn": 898,
      "Ġcl": 899,
      "ç¾İ": 900,
      "æĶ¿": 901,
      "The": 902,
      "ĠJ": 903,
      "ast": 904,
      "åİ»": 905,
      "æľ¯": 906,
      "ç½ĳ": 907,
      "åıĳå±ķ": 908,
      "åķ": 909,
      "æĬĢ": 910,
      "èº": 911,
      "ther": 912,
      "ans": 913,
      "æŃ¤": 914,
      "åĪĽ": 915,
      "Ġcomp": 916,
      "Ġall": 917,
      "ase": 918,
      "çī¹": 919,
      "æ±Ĥ": 920,
      "act": 921,
      "ç»Ħ": 922,
      "âĢĶ": 923,
      "èĦ": 924,
      "åĸ": 925,
      "Ġdo": 926,
      "ãĢĭ": 927,
      "ath": 928,
      "è¿Ľè¡Į": 929,
      "Ġhis": 930,
      "è®©": 931,
      "ä¼ģ": 932,
      "ak": 933,
      "åı¸": 934,
      "Ġad": 935,
      "æķĪ": 936,
      "Ġim": 937,
      "ip": 938,
      "ass": 939,
      "éª": 940,
      "ound": 941,
      "..": 942,
      "ç§ĳ": 943,
      "ãĢĬ": 944,
      "åĲį": 945,
      "ind": 946,
      "====": 947,
      "ap": 948,
      "Ġcont": 949,
      "äºĮ": 950,
      "orm": 951,
      "èº«": 952,
      "oug": 953,
      "one": 954,
      "ign": 955,
      "ous": 956,
      "ok": 957,
      "ç¥": 958,
      "ä¸ĵ": 959,
      "èĭ": 960,
      "åįķ": 961,
      "éľĢ": 962,
      "Ġwhich": 963,
      "ï¼ģ": 964,
      "é¡¹": 965,
      "ä»·": 966,
      "Ġbut": 967,
      "éĤ£": 968,
      "æį®": 969,
      "ĠU": 970,
      "äº¤": 971,
      "ä»£": 972,
      "è¢": 973,
      "ä¼ģä¸ļ": 974,
      "ä»»": 975,
      "èį": 976,
      "ub": 977,
      "ç®¡çĲĨ": 978,
      "ong": 979,
      "ition": 980,
      "æľį": 981,
      "ĊĊ": 982,
      "åİŁ": 983,
      "ç¤¾": 984,
      "æĬ¥": 985,
      "æİ¥": 986,
      "Ġint": 987,
      "ph": 988,
      "Ġen": 989,
      "çģ": 990,
      "cc": 991,
      "ĠĠĠĠĠĠĠĠĠĠĠĠĠĠĠĠĠĠĠĠĠĠĠĠĠĠĠĠĠĠĠĠ": 992,
      "åŀ": 993,
      "èĪ": 994,
      "Ġ[": 995,
      "èĢģ": 996,
      "ice": 997,
      "Ġwor": 998,
      "åĲĳ": 999,
      "æĮģ": 1000,
      "å¤Ħ": 1001,
      "Ġar": 1002,
      "åıª": 1003,
      "åıĺ": 1004,
      "è°ĥ": 1005,
      "ç»Ł": 1006,
      "çĶ±": 1007,
      "ime": 1008,
      "ary": 1009,
      "åħ¬åı¸": 1010,
      "è·¯": 1011,
      "æł¼": 1012,
      "å½¢": 1013,
      "æĶ¶": 1014,
      "åħĥ": 1015,
      "éĵ": 1016,
      "ä»¶": 1017,
      "é¦": 1018,
      "ep": 1019,
      "ä¸¤": 1020,
      "ty": 1021,
      "Ġapp": 1022,
      "Ġ{": 1023,
      "Ġhas": 1024,
      "æ¯ı": 1025,
      ");": 1026,
      "éĹ®é¢ĺ": 1027,
      "Ġdis": 1028,
      "æµģ": 1029,
      "è£": 1030,
      "åħ·": 1031,
      "è®¤": 1032,
      "Ġ+": 1033,
      "ç»Ļ": 1034,
      "ress": 1035,
      "åıĹ": 1036,
      "----------------": 1037,
      "è¯Ĩ": 1038,
      "Ġout": 1039,
      "çº¿": 1040,
      "du": 1041,
      "æł¡": 1042,
      "æ²¡æľī": 1043,
      "Ġhad": 1044,
      "æº": 1045,
      "ne": 1046,
      "),": 1047,
      "å°ĳ": 1048,
      "ence": 1049,
      "Ġgo": 1050,
      "19": 1051,
      "å·²": 1052,
      "éĻ¢": 1053,
      "ff": 1054,
      "ear": 1055,
      "ens": 1056,
      "int": 1057,
      "ä¸ŃåĽ½": 1058,
      "ations": 1059,
      "ia": 1060,
      "æĸ½": 1061,
      "æ°Ķ": 1062,
      "æ»": 1063,
      "=\"": 1064,
      "è¿Ĳ": 1065,
      "å£": 1066,
      "ç¡®": 1067,
      "è¯¾": 1068,
      "Ġ4": 1069,
      "å®Į": 1070,
      "éĢł": 1071,
      "éĢī": 1072,
      "æĢ»": 1073,
      "éĹ¨": 1074,
      "Ġqu": 1075,
      "å®¹": 1076,
      "av": 1077,
      "ru": 1078,
      "æ£": 1079,
      "ose": 1080,
      "ace": 1081,
      "ĊĠĠĠĠĠĠĠĠ": 1082,
      "ĊĠ": 1083,
      "_{": 1084,
      "è¢«": 1085,
      "ile": 1086,
      "Ġone": 1087,
      "con": 1088,
      "å¢ŀ": 1089,
      "Ġwill": 1090,
      "çº§": 1091,
      "Âł": 1092,
      "ber": 1093,
      "åĪ«": 1094,
      "çľŁ": 1095,
      "é£İ": 1096,
      "Ġper": 1097,
      "æ²»": 1098,
      "ance": 1099,
      "12": 1100,
      "è¯ģ": 1101,
      "ents": 1102,
      "åĮ»": 1103,
      "ory": 1104,
      "åķĨ": 1105,
      "Ġso": 1106,
      "æĶ¹": 1107,
      "èĮ": 1108,
      "æ®": 1109,
      "æķĻèĤ²": 1110,
      "æĮĩ": 1111,
      "æĶ¾": 1112,
      "ally": 1113,
      "æĬĬ": 1114,
      "æ³¨": 1115,
      "åĩĨ": 1116,
      "èī²": 1117,
      "Ġup": 1118,
      "Ġthey": 1119,
      "æŁ¥": 1120,
      "ĠTh": 1121,
      "åŃ©": 1122,
      "è®°": 1123,
      "èĬĤ": 1124,
      "ely": 1125,
      "è¾ĥ": 1126,
      "è´¹": 1127,
      "è§Ĥ": 1128,
      "so": 1129,
      "çĹħ": 1130,
      "ä¼ł": 1131,
      "ough": 1132,
      "æķ´": 1133,
      "é©": 1134,
      "ire": 1135,
      "çłĶ": 1136,
      "Ġif": 1137,
      "ç¤º": 1138,
      "ang": 1139,
      "åħĪ": 1140,
      "åıĸ": 1141,
      "å¤ĩ": 1142,
      "è±": 1143,
      "åı£": 1144,
      "å¥³": 1145,
      "Ġ5": 1146,
      "åŀĭ": 1147,
      "ach": 1148,
      "å½±": 1149,
      "çĽ´": 1150,
      "æĹ¶éĹ´": 1151,
      "are": 1152,
      "ry": 1153,
      "æīį": 1154,
      "de": 1155,
      "åŃ¦ä¹ł": 1156,
      "ä¹¦": 1157,
      "Ġev": 1158,
      "Ġsa": 1159,
      "}}": 1160,
      "ĠK": 1161,
      "çİ¯": 1162,
      "åħ»": 1163,
      "å°±æĺ¯": 1164,
      "ite": 1165,
      "Ġtheir": 1166,
      "ç¦": 1167,
      "æĢĿ": 1168,
      "Ġher": 1169,
      "//": 1170,
      "è¯ķ": 1171,
      "Ġmy": 1172,
      "ll": 1173,
      "çħ": 1174,
      "11": 1175,
      "ç±»": 1176,
      "ions": 1177,
      "æģ¯": 1178,
      "ä¸ĩ": 1179,
      "æīĵ": 1180,
      "èĻ": 1181,
      "own": 1182,
      "Ġmore": 1183,
      "'t": 1184,
      "Ġthere": 1185,
      "rent": 1186,
      "èĩ³": 1187,
      "å²": 1188,
      "è¾¾": 1189,
      "åĬŀ": 1190,
      "port": 1191,
      "form": 1192,
      "æŃ¥": 1193,
      "Ġpart": 1194,
      "æĿ¡": 1195,
      "èĲ¥": 1196,
      "è®º": 1197,
      "å¸¦": 1198,
      "Ġyour": 1199,
      "æºĲ": 1200,
      "Ġli": 1201,
      "very": 1202,
      "è¯¥": 1203,
      "ç²¾": 1204,
      "æĸĻ": 1205,
      "ord": 1206,
      "ä»Ģ": 1207,
      "Ġman": 1208,
      "åįģ": 1209,
      "åĽŀ": 1210,
      "é»": 1211,
      "åŃ©åŃĲ": 1212,
      "xt": 1213,
      "èģĮ": 1214,
      "èģĶ": 1215,
      "è§Ĩ": 1216,
      "æĬķ": 1217,
      "ĉĉ": 1218,
      "Ġag": 1219,
      "æ¼": 1220,
      "ä»Ģä¹Ī": 1221,
      "Ġpre": 1222,
      "æİ¨": 1223,
      "éĽĨ": 1224,
      "æ¶Ī": 1225,
      "ook": 1226,
      "ake": 1227,
      "åĽ¾": 1228,
      "é¢Ĩ": 1229,
      "Ġno": 1230,
      "Ġother": 1231,
      "ors": 1232,
      "åĨµ": 1233,
      "Ġbeen": 1234,
      "æµ·": 1235,
      "¥¿": 1236,
      "åŁİ": 1237,
      "ä¼ĺ": 1238,
      "éĿŀ": 1239,
      "åĨ³": 1240,
      "ç´ł": 1241,
      "å¤´": 1242,
      "éªĮ": 1243,
      "æľįåĬ¡": 1244,
      "ĊĠĠĠĠĠĠĠ": 1245,
      "ft": 1246,
      "åĦ": 1247,
      "ect": 1248,
      "ail": 1249,
      "vel": 1250,
      "éĺ²": 1251,
      "ç«ĭ": 1252,
      "æ´»åĬ¨": 1253,
      "ä¸ľ": 1254,
      "Ġwould": 1255,
      "Ġgr": 1256,
      "çĪ±": 1257,
      "è¥¿": 1258,
      "Ġsp": 1259,
      "æĬĢæľ¯": 1260,
      "æ¡Ī": 1261,
      "è´£": 1262,
      "åĦ¿": 1263,
      "çĬ": 1264,
      "è¯Ŀ": 1265,
      "éĢļè¿ĩ": 1266,
      "åĨį": 1267,
      "å¹¿": 1268,
      "åħ±": 1269,
      "æŀĦ": 1270,
      "åıĤ": 1271,
      "åĶ": 1272,
      "åĽĽ": 1273,
      "we": 1274,
      "Ġ19": 1275,
      "Ġsc": 1276,
      "ç¤¾ä¼ļ": 1277,
      "ree": 1278,
      "èİ": 1279,
      "ks": 1280,
      "ys": 1281,
      "æ·±": 1282,
      "æĪ·": 1283,
      "ĠV": 1284,
      "Ġwho": 1285,
      "ĠSt": 1286,
      "æ¨": 1287,
      "urn": 1288,
      "lic": 1289,
      "æµİ": 1290,
      "å¸Ĥåľº": 1291,
      "aus": 1292,
      "æĪ¿": 1293,
      "Ġ<": 1294,
      "æĬ¤": 1295,
      "15": 1296,
      "åĬŁ": 1297,
      "ä»Ĭ": 1298,
      "æ¸ħ": 1299,
      "å¿«": 1300,
      "æĺĵ": 1301,
      "å¥¹": 1302,
      "è½¬": 1303,
      "Ġany": 1304,
      "è£ħ": 1305,
      "çı": 1306,
      "ä¾Ľ": 1307,
      "å¼ķ": 1308,
      "å¿ħ": 1309,
      "ä»ĸä»¬": 1310,
      "é£Ł": 1311,
      "com": 1312,
      "æķĻåŃ¦": 1313,
      "Ġabout": 1314,
      "Ġwhen": 1315,
      "å¤į": 1316,
      "ä½İ": 1317,
      "reat": 1318,
      "æĶ¯": 1319,
      "é¥": 1320,
      "éľĢè¦ģ": 1321,
      "Ġalso": 1322,
      "å¦Ĥæŀľ": 1323,
      "ç©¶": 1324,
      "Ġtime": 1325,
      "èħ": 1326,
      "200": 1327,
      "æł¹": 1328,
      "low": 1329,
      "å®ĥ": 1330,
      "ç§¯": 1331,
      "æĿĥ": 1332,
      "è¿ĳ": 1333,
      "ãĢĤ(": 1334,
      "ĠĠĠĠĠ": 1335,
      "åı°": 1336,
      "Ġ$\\": 1337,
      "[@": 1338,
      "erv": 1339,
      "çĶŁæ´»": 1340,
      "æ£Ģ": 1341,
      "wo": 1342,
      "çİĩ": 1343,
      "In": 1344,
      "å»ºè®¾": 1345,
      "æĤ": 1346,
      "åĢ¼": 1347,
      "ata": 1348,
      "eth": 1349,
      "åĪĻ": 1350,
      "ates": 1351,
      "Ġthan": 1352,
      "åıį": 1353,
      "éļ¾": 1354,
      "ç»ıæµİ": 1355,
      "å®īåħ¨": 1356,
      "åĨľ": 1357,
      "Ġro": 1358,
      "Ġover": 1359,
      "30": 1360,
      "åħļ": 1361,
      "åĮħ": 1362,
      "Ġsome": 1363,
      "è§ģ": 1364,
      "å¢ĥ": 1365,
      "çĥŃ": 1366,
      "ific": 1367,
      "è¿Ļä¸ª": 1368,
      "è¦ģæ±Ĥ": 1369,
      "éĺŁ": 1370,
      "Ġob": 1371,
      "åĢĻ": 1372,
      "ä½ķ": 1373,
      "ç©º": 1374,
      "erm": 1375,
      "åıĪ": 1376,
      "\\]": 1377,
      "Ġ'": 1378,
      "å¹²": 1379,
      "Ġkn": 1380,
      "æĢģ": 1381,
      "è¯Ń": 1382,
      "fter": 1383,
      "Ġits": 1384,
      "ric": 1385,
      "åĩł": 1386,
      "éĻħ": 1387,
      "Ġbet": 1388,
      "æĥħåĨµ": 1389,
      "çľģ": 1390,
      "math": 1391,
      "è¶Ĭ": 1392,
      "ays": 1393,
      "hat": 1394,
      "ob": 1395,
      "Ġshe": 1396,
      "å®¢": 1397,
      "å±Ģ": 1398,
      "åŃĺ": 1399,
      "ount": 1400,
      "éħį": 1401,
      "Ġfe": 1402,
      "éĢŁ": 1403,
      "Ġspe": 1404,
      "åĬ©": 1405,
      "åħī": 1406,
      "çĻ½": 1407,
      "éĩĩ": 1408,
      "æŀģ": 1409,
      "åĽłä¸º": 1410,
      "æĳ": 1411,
      "ces": 1412,
      "åįĹ": 1413,
      "Ġ&": 1414,
      "ove": 1415,
      "æ®µ": 1416,
      "çļĦäºº": 1417,
      "ä¸Ķ": 1418,
      "æ¨¡": 1419,
      "Ġinto": 1420,
      "ple": 1421,
      "ref": 1422,
      "irst": 1423,
      "è¯Ħ": 1424,
      "çĸĹ": 1425,
      "åĳ¨": 1426,
      "Ġam": 1427,
      "cre": 1428,
      "Ġte": 1429,
      "Ġass": 1430,
      "æ¸¸": 1431,
      "æĸŃ": 1432,
      "Ġ6": 1433,
      "æ¢": 1434,
      "åŁ¹": 1435,
      "ç¥ŀ": 1436,
      "ject": 1437,
      "åĻ": 1438,
      "Ġdes": 1439,
      "å±±": 1440,
      "Ġdif": 1441,
      "ĠY": 1442,
      "è±¡": 1443,
      "æİ§": 1444,
      "ings": 1445,
      "ä¸ĸ": 1446,
      "ied": 1447,
      "Ġgen": 1448,
      "åĮĹ": 1449,
      "ater": 1450,
      "ov": 1451,
      "èĥ½åĬĽ": 1452,
      "rib": 1453,
      "è§ī": 1454,
      "éĢĤ": 1455,
      "Ġthem": 1456,
      "000": 1457,
      "Ġsy": 1458,
      "ç»Ń": 1459,
      "èĮĥ": 1460,
      "lect": 1461,
      "çħ§": 1462,
      "ĠIt": 1463,
      "}$": 1464,
      "ä¹Ĳ": 1465,
      "æĸ¹éĿ¢": 1466,
      "æĮī": 1467,
      "åĵį": 1468,
      "äº§åĵģ": 1469,
      "ç½®": 1470,
      "åĪĴ": 1471,
      "iss": 1472,
      "ç»´": 1473,
      "åĳĬ": 1474,
      "fect": 1475,
      "Ġsaid": 1476,
      "hed": 1477,
      "æĿĳ": 1478,
      "éĩįè¦ģ": 1479,
      "çĭ": 1480,
      "Ġinter": 1481,
      "vers": 1482,
      "gr": 1483,
      "å¸ĥ": 1484,
      "ç®Ĺ": 1485,
      "è¯·": 1486,
      "row": 1487,
      "æİĴ": 1488,
      "ä¼Ĺ": 1489,
      "ä¹ī": 1490,
      "è®®": 1491,
      "çķĮ": 1492,
      "16": 1493,
      "çĲĥ": 1494,
      "åı·": 1495,
      "old": 1496,
      "éĻ¤": 1497,
      "clud": 1498,
      "æĿĲ": 1499,
      "é¢Ħ": 1500,
      "Ġoff": 1501,
      "13": 1502,
      "çª": 1503,
      "Ġnew": 1504,
      "éŁ": 1505,
      "è¿Ļæł·": 1506,
      "æĹ¶åĢĻ": 1507,
      "ĠAn": 1508,
      "äººåĳĺ": 1509,
      "åįĩ": 1510,
      "å§ĭ": 1511,
      "ian": 1512,
      "åıĭ": 1513,
      "Ġ}": 1514,
      "èĩ´": 1515,
      "é¡¹çĽ®": 1516,
      "Ġsub": 1517,
      "ĠHe": 1518,
      "Ġacc": 1519,
      "ced": 1520,
      "ink": 1521,
      "Ġlike": 1522,
      "Ġwhat": 1523,
      "18": 1524,
      "è¯»": 1525,
      "æ¬¾": 1526,
      "åĽ¢": 1527,
      "Ġget": 1528,
      "ä¸»è¦ģ": 1529,
      "åģ¥": 1530,
      "æĺ¾": 1531,
      "éĶĢ": 1532,
      "æĪĺ": 1533,
      "ç»ĩ": 1534,
      "Ġrec": 1535,
      "å¼ł": 1536,
      "èĬ±": 1537,
      "èĤ¡": 1538,
      "åĻ¨": 1539,
      "è¶³": 1540,
      "itt": 1541,
      "éĻĲ": 1542,
      "ish": 1543,
      "è®¾è®¡": 1544,
      "Ġhim": 1545,
      "Ġtwo": 1546,
      "ma": 1547,
      "^{": 1548,
      "ä½¿çĶ¨": 1549,
      "Ġonly": 1550,
      "Ġpe": 1551,
      "ps": 1552,
      "Ġunder": 1553,
      "Ġact": 1554,
      "èĩªå·±çļĦ": 1555,
      "14": 1556,
      "ause": 1557,
      "Ġcomm": 1558,
      "ä¿¡æģ¯": 1559,
      "æıĲé«ĺ": 1560,
      "å±Ĥ": 1561,
      "å¤Ł": 1562,
      "èµ°": 1563,
      "å§Ķ": 1564,
      "åı¯èĥ½": 1565,
      "ck": 1566,
      "ark": 1567,
      "Ġmod": 1568,
      "ick": 1569,
      "Ġour": 1570,
      "ĠâĢľ": 1571,
      "çłĶç©¶": 1572,
      "Ġcons": 1573,
      "Ġrel": 1574,
      "æľª": 1575,
      "Ġmay": 1576,
      "the": 1577,
      "ild": 1578,
      "åĲĮæĹ¶": 1579,
      "åį³": 1580,
      "ual": 1581,
      "50": 1582,
      "ious": 1583,
      "å¾Īå¤ļ": 1584,
      "Ġbl": 1585,
      "çĽĳ": 1586,
      "ĠCh": 1587,
      "äºĶ": 1588,
      "get": 1589,
      "åİĭ": 1590,
      "å¥½çļĦ": 1591,
      "çĬ¶": 1592,
      "Ġwork": 1593,
      "âĢĵ": 1594,
      "Ġbec": 1595,
      "çīĩ": 1596,
      "æĸ¹æ³ķ": 1597,
      "æ»¡": 1598,
      "ä¸¥": 1599,
      "ular": 1600,
      "ons": 1601,
      "åĬ¿": 1602,
      "åĽ½å®¶": 1603,
      "ade": 1604,
      "ert": 1605,
      "Ġfun": 1606,
      "çıŃ": 1607,
      "éĻ©": 1608,
      "åįİ": 1609,
      "igh": 1610,
      "æīĢä»¥": 1611,
      "ä¸įæĺ¯": 1612,
      "èı": 1613,
      "ä¾ĭ": 1614,
      "ãģ": 1615,
      "ative": 1616,
      "ç»Ĩ": 1617,
      "è¿ĩç¨ĭ": 1618,
      "Ġpos": 1619,
      "Ġstud": 1620,
      "ç»Ħç»ĩ": 1621,
      "Ġind": 1622,
      "ä¸ŃçļĦ": 1623,
      "èµĽ": 1624,
      "Ġem": 1625,
      "ç³»ç»Ł": 1626,
      "å·²ç»ı": 1627,
      "pect": 1628,
      "__": 1629,
      "ug": 1630,
      "è¶ħ": 1631,
      "Ġyear": 1632,
      "å½±åĵį": 1633,
      "éļı": 1634,
      "Ġfirst": 1635,
      "åĲĥ": 1636,
      "ä¾¿": 1637,
      "Ġreg": 1638,
      "Ġcould": 1639,
      "é¦ĸ": 1640,
      "ä½Ĩæĺ¯": 1641,
      "ring": 1642,
      "æĲ": 1643,
      "elf": 1644,
      "ä¸ĢäºĽ": 1645,
      "Ġdef": 1646,
      "çŃĸ": 1647,
      "Ġ7": 1648,
      "çĮ": 1649,
      "Ġco": 1650,
      "è¡Ģ": 1651,
      "Ġval": 1652,
      "Ġpr": 1653,
      "Ġtrans": 1654,
      "çĽĬ": 1655,
      "Ġjust": 1656,
      "ä»ħ": 1657,
      "Ġph": 1658,
      "æł¸": 1659,
      "æĴ": 1660,
      "å¤±": 1661,
      "========": 1662,
      "Ġsuch": 1663,
      "å¾Ģ": 1664,
      "çº¦": 1665,
      "åħħ": 1666,
      "æķĻå¸Ī": 1667,
      "Ġadd": 1668,
      "ock": 1669,
      "äººçļĦ": 1670,
      "æĭ©": 1671,
      "17": 1672,
      "iew": 1673,
      "Ġinv": 1674,
      "å¤ª": 1675,
      "è¨": 1676,
      "å·¥ç¨ĭ": 1677,
      "åĪĩ": 1678,
      "cess": 1679,
      "ased": 1680,
      "ä¸Ģå®ļ": 1681,
      "Ġform": 1682,
      "ä½ı": 1683,
      "æµĭ": 1684,
      "èŀ": 1685,
      "##": 1686,
      "è¨Ģ": 1687,
      "çĶŁäº§": 1688,
      "å®Ŀ": 1689,
      "ef": 1690,
      "ä¸ĵä¸ļ": 1691,
      "Ġdet": 1692,
      "ood": 1693,
      "åº·": 1694,
      "ont": 1695,
      "å¤§å®¶": 1696,
      "ä¹Łæĺ¯": 1697,
      "Ġwhere": 1698,
      "èİ·": 1699,
      "ç¾¤": 1700,
      "èį¯": 1701,
      "Ġthese": 1702,
      "oth": 1703,
      "Ġpres": 1704,
      "pro": 1705,
      "åĨħå®¹": 1706,
      "ĠThis": 1707,
      "Ġla": 1708,
      "æ²¹": 1709,
      "Ġthen": 1710,
      "ating": 1711,
      "å¾ĭ": 1712,
      "oint": 1713,
      "Ġafter": 1714,
      "è´Ł": 1715,
      "è®¸": 1716,
      "æĤ£": 1717,
      "èĲ½": 1718,
      "Ġ201": 1719,
      "Ġdiffe": 1720,
      "å¯¹äºİ": 1721,
      "ãĢĤâĢĿ": 1722,
      "ç¦»": 1723,
      "æ¼Ķ": 1724,
      "Ġcol": 1725,
      "Ġhow": 1726,
      "åĨĻ": 1727,
      "ĠWe": 1728,
      "ss": 1729,
      "æļ": 1730,
      "æĸĩåĮĸ": 1731,
      "ç«Ļ": 1732,
      "ient": 1733,
      "çİ¯å¢ĥ": 1734,
      "Ġatt": 1735,
      "æľĽ": 1736,
      "Ġret": 1737,
      "25": 1738,
      "éĢīæĭ©": 1739,
      "ç§°": 1740,
      "Ġ8": 1741,
      "æŀĲ": 1742,
      "stem": 1743,
      "æĵ": 1744,
      "å¨": 1745,
      "ä¾Ŀ": 1746,
      "ween": 1747,
      "åİĨ": 1748,
      "âĢĿï¼Į": 1749,
      "æĸ¹å¼ı": 1750,
      "ond": 1751,
      "åĥ": 1752,
      "Ġdid": 1753,
      "hen": 1754,
      "?\"": 1755,
      "Ġsign": 1756,
      "olog": 1757,
      "ode": 1758,
      "ä¿®": 1759,
      "Ġexp": 1760,
      "åł": 1761,
      "æ¹": 1762,
      "è´¢": 1763,
      "Ġ10": 1764,
      "è®Ń": 1765,
      "les": 1766,
      "çİ°åľ¨": 1767,
      "åŃĹ": 1768,
      "Ġpat": 1769,
      "çŁ¥è¯Ĩ": 1770,
      "Ġrem": 1771,
      "è¾¹": 1772,
      "Ġknow": 1773,
      "æ¸©": 1774,
      "åĽŃ": 1775,
      "çº¢": 1776,
      "åĩı": 1777,
      "Ġprov": 1778,
      "åŃ¦æł¡": 1779,
      "</": 1780,
      "ility": 1781,
      "](": 1782,
      "å¾·": 1783,
      "è®²": 1784,
      "ec": 1785,
      "æħ": 1786,
      "å¡": 1787,
      "Ġbetween": 1788,
      "ç¢": 1789,
      "è¿ĻäºĽ": 1790,
      "ä»½": 1791,
      "çľ¼": 1792,
      "ç¬¬ä¸Ģ": 1793,
      "é¾": 1794,
      "Ġset": 1795,
      "Ġneed": 1796,
      "åĸĦ": 1797,
      "Ġpol": 1798,
      "ta": 1799,
      "ä¸įåĲĮ": 1800,
      "io": 1801,
      "ä½ľä¸º": 1802,
      "ä¸įèĥ½": 1803,
      "ict": 1804,
      "å·ŀ": 1805,
      "ople": 1806,
      "ise": 1807,
      "å¾®": 1808,
      "çļĦæĺ¯": 1809,
      "ffect": 1810,
      "type": 1811,
      "ix": 1812,
      "Ġ_": 1813,
      "åĿĩ": 1814,
      "åĽ´": 1815,
      "è¿ĺæĺ¯": 1816,
      "ident": 1817,
      "åįı": 1818,
      "çļĦä¸Ģ": 1819,
      "åİ¿": 1820,
      "åĭ": 1821,
      "é¡»": 1822,
      "åĿļ": 1823,
      "ution": 1824,
      "é©¬": 1825,
      "æĬķèµĦ": 1826,
      "æıĲä¾Ľ": 1827,
      "Ġfl": 1828,
      "ç±³": 1829,
      "Ġ9": 1830,
      "}\\": 1831,
      "oy": 1832,
      "å®¡": 1833,
      "ç¼ĸ": 1834,
      "è´¨éĩı": 1835,
      "Ġback": 1836,
      "éĿŀå¸¸": 1837,
      "Ġcell": 1838,
      "ä½ľçĶ¨": 1839,
      "å¤§çļĦ": 1840,
      "è´Ń": 1841,
      "åľŁ": 1842,
      "åĥı": 1843,
      "Ġuse": 1844,
      "Ġi": 1845,
      "åįķä½į": 1846,
      "ex": 1847,
      "ä»¥åıĬ": 1848,
      "åĪ°äºĨ": 1849,
      "å®¤": 1850,
      "èŀį": 1851,
      "æĿ¿": 1852,
      "ollow": 1853,
      "Ġ\\[": 1854,
      "æł¹æį®": 1855,
      "rough": 1856,
      ",\"": 1857,
      "rit": 1858,
      "åĩºçİ°": 1859,
      "ange": 1860,
      "24": 1861,
      "Ġresult": 1862,
      "éĻį": 1863,
      "){": 1864,
      ".,": 1865,
      "ning": 1866,
      "å¼Ģå§ĭ": 1867,
      "ç»Ī": 1868,
      "æ¬¢": 1869,
      "åĸľ": 1870,
      "å¿µ": 1871,
      "éĥ¨åĪĨ": 1872,
      "æĪĲä¸º": 1873,
      "Ġac": 1874,
      "cept": 1875,
      "Ġsupp": 1876,
      "çİĭ": 1877,
      "Ġused": 1878,
      "ize": 1879,
      "right": 1880,
      "çģ«": 1881,
      "ible": 1882,
      "è¿ŀ": 1883,
      "ç®Ģ": 1884,
      "fore": 1885,
      "çĽ¸åħ³": 1886,
      "iel": 1887,
      "eg": 1888,
      "ä¹°": 1889,
      "Ġshow": 1890,
      "çīĮ": 1891,
      "fr": 1892,
      "èī¯": 1893,
      "ĠUn": 1894,
      "Ġsm": 1895,
      "å±ŀ": 1896,
      "Ġsee": 1897,
      "æī¿": 1898,
      "Ã©": 1899,
      "åĳ½": 1900,
      "fig": 1901,
      "Ġsur": 1902,
      "éĥ½æĺ¯": 1903,
      "æĻ¯": 1904,
      "åĪĹ": 1905,
      "æķħ": 1906,
      "æ¿": 1907,
      "als": 1908,
      "Ġinclud": 1909,
      "tern": 1910,
      "äºī": 1911,
      "çļ®": 1912,
      "éĿĴ": 1913,
      "Ġnum": 1914,
      "to": 1915,
      "ĊĠĠĠĠĠĠĠĠĠĠĠ": 1916,
      "èīº": 1917,
      "è§Ĵ": 1918,
      "äº¬": 1919,
      "ble": 1920,
      "åħį": 1921,
      "wn": 1922,
      "ĠÐ": 1923,
      "åºķ": 1924,
      "è½»": 1925,
      "äºĴ": 1926,
      "å¯Į": 1927,
      "éŁ³": 1928,
      "åŁŁ": 1929,
      "åĲ¬": 1930,
      "Ġshould": 1931,
      "cy": 1932,
      "Ġdist": 1933,
      "åħĭ": 1934,
      "åıĮ": 1935,
      "Ġdata": 1936,
      "ments": 1937,
      "åĳ¢": 1938,
      "éĥ¨éĹ¨": 1939,
      "æ¿Ģ": 1940,
      "çĶ·": 1941,
      "çļĦæĹ¶åĢĻ": 1942,
      "åį´": 1943,
      "Ġcor": 1944,
      "Ġvar": 1945,
      "ç¡Ģ": 1946,
      "its": 1947,
      "åŁºç¡Ģ": 1948,
      "åĪĨæŀĲ": 1949,
      "Ġspec": 1950,
      "æŁĲ": 1951,
      "Ġthrough": 1952,
      "æ±Ł": 1953,
      "mer": 1954,
      "Ġ|": 1955,
      "Ġmost": 1956,
      "li": 1957,
      "Ġsim": 1958,
      "ourt": 1959,
      "80": 1960,
      "åĶ®": 1961,
      "ull": 1962,
      "Ġpeople": 1963,
      "åºľ": 1964,
      "å©": 1965,
      "ues": 1966,
      "å£°": 1967,
      "Ġ.": 1968,
      "Ġfact": 1969,
      "æĢİ": 1970,
      "ctions": 1971,
      "Ġfollow": 1972,
      "äººæ°ĳ": 1973,
      "\",": 1974,
      "ited": 1975,
      "çŁ¥éģĵ": 1976,
      "è¿ľ": 1977,
      "æĹ©": 1978,
      "22": 1979,
      "40": 1980,
      "ms": 1981,
      "è¡¥": 1982,
      "å¦Ī": 1983,
      "å·®": 1984,
      "åıĳçİ°": 1985,
      "ruct": 1986,
      "å£«": 1987,
      "æłĩåĩĨ": 1988,
      "Ġagain": 1989,
      "èĭ±": 1990,
      "åĪĿ": 1991,
      "ined": 1992,
      "ins": 1993,
      "uch": 1994,
      "åıĳçĶŁ": 1995,
      "ä¸ĸçķĮ": 1996,
      "èĥ½å¤Ł": 1997,
      "ract": 1998,
      "60": 1999,
      "åħ´": 2000,
      "Ġwell": 2001,
      "ever": 2002,
      "Ġwant": 2003,
      "ç«ł": 2004,
      "Ġusing": 2005,
      "å¸®": 2006,
      "åħ·æľī": 2007,
      "Ġty": 2008,
      "ax": 2009,
      "æŃ¢": 2010,
      "æī¾": 2011,
      "other": 2012,
      "åĲ¦": 2013,
      "ublic": 2014,
      "ures": 2015,
      "æ¯Ķè¾ĥ": 2016,
      "ics": 2017,
      "uring": 2018,
      "ER": 2019,
      "éĺ³": 2020,
      "Ġbecause": 2021,
      "Ġclass": 2022,
      "æĭĽ": 2023,
      "äºĨè§£": 2024,
      "\"}": 2025,
      "äº²": 2026,
      "ä¸Ģç§į": 2027,
      "åħ¶ä»ĸ": 2028,
      "Ġend": 2029,
      "Ġsystem": 2030,
      "inal": 2031,
      "å¿Ĺ": 2032,
      "ãĢĳ": 2033,
      "Ġright": 2034,
      "23": 2035,
      "ĠĠĠĠĠĠ": 2036,
      "æ¥": 2037,
      "Ġinst": 2038,
      "åĲ«": 2039,
      "Ġlook": 2040,
      "çĻ¾": 2041,
      "å½ķ": 2042,
      "ateg": 2043,
      "--------------------------------": 2044,
      "è§Ħå®ļ": 2045,
      "æŀĹ": 2046,
      "æĸ¯": 2047,
      "pos": 2048,
      "ãĢĲ": 2049,
      "å®ŀçİ°": 2050,
      "èĢģå¸Ī": 2051,
      "ox": 2052,
      "ew": 2053,
      "èĪ¬": 2054,
      "å¿ħé¡»": 2055,
      "Ġrequ": 2056,
      "ield": 2057,
      "åŁºæľ¬": 2058,
      "ä¸Ńå¿ĥ": 2059,
      "åģ¥åº·": 2060,
      "é»Ħ": 2061,
      "St": 2062,
      "Ġent": 2063,
      "çĽ®åīį": 2064,
      "å®³": 2065,
      "è¿Ļç§į": 2066,
      "Ġprodu": 2067,
      "Ġgener": 2068,
      "ities": 2069,
      "ower": 2070,
      "sc": 2071,
      "çĨ": 2072,
      "ement": 2073,
      "æī§": 2074,
      "å°½": 2075,
      "çķĻ": 2076,
      "æĶ¿åºľ": 2077,
      "éĵ¶": 2078,
      "çŃĶ": 2079,
      "ä¸ĬçļĦ": 2080,
      "ful": 2081,
      "Ġeven": 2082,
      "Ġ[@": 2083,
      "Ġeach": 2084,
      "Ġchar": 2085,
      "oup": 2086,
      "sp": 2087,
      "ãĢĤâĢľ": 2088,
      "Ċĉĉ": 2089,
      "å¼Ģå±ķ": 2090,
      "Ġext": 2091,
      "åĽłæŃ¤": 2092,
      "Ġnow": 2093,
      "Ġhigh": 2094,
      "ward": 2095,
      "ized": 2096,
      "ily": 2097,
      "æĺŁ": 2098,
      "app": 2099,
      "å±ħ": 2100,
      "åĲ¸": 2101,
      "led": 2102,
      "uc": 2103,
      "imes": 2104,
      "åħ³ç³»": 2105,
      "çªģ": 2106,
      "æī¹": 2107,
      "çŁ³": 2108,
      "Ġdifferent": 2109,
      "æľīæķĪ": 2110,
      "Th": 2111,
      "éĶĻ": 2112,
      "...": 2113,
      "è´£ä»»": 2114,
      "æĻº": 2115,
      "æ²»çĸĹ": 2116,
      "åŁİå¸Ĥ": 2117,
      ")$": 2118,
      "æĻ®": 2119,
      "ä¸įæĸŃ": 2120,
      "æ¯į": 2121,
      "err": 2122,
      "Ċĉ": 2123,
      "ĠSe": 2124,
      "Ġway": 2125,
      "cond": 2126,
      "éĤ": 2127,
      "ä¸ªäºº": 2128,
      "å¾ħ": 2129,
      "Ġconst": 2130,
      "çĽ®æłĩ": 2131,
      "éĤ£ä¹Ī": 2132,
      "åºĹ": 2133,
      "ically": 2134,
      "Ġpar": 2135,
      "ä¸¾": 2136,
      "åĪ¶åº¦": 2137,
      "]{": 2138,
      "ĊĠĠĠĠĠ": 2139,
      "æĭī": 2140,
      "åĨĽ": 2141,
      "ï¼ļâĢľ": 2142,
      "Ġevery": 2143,
      "ç»ĥ": 2144,
      "å¯Ł": 2145,
      "ç§¯æŀģ": 2146,
      "Ġlong": 2147,
      "æķ°æį®": 2148,
      "Ġ200": 2149,
      "hes": 2150,
      "ational": 2151,
      "Ġmin": 2152,
      "çĶ»": 2153,
      "Ġeffect": 2154,
      "ger": 2155,
      "(\\": 2156,
      "let": 2157,
      "èµĦæºĲ": 2158,
      "åįĬ": 2159,
      "æĪĸèĢħ": 2160,
      "ĊĠĠĠĠĠĠĠĠĠĠĠĠĠĠĠ": 2161,
      "åºĶè¯¥": 2162,
      "Ġmake": 2163,
      "Ġdon": 2164,
      "æİ§åĪ¶": 2165,
      "Ġke": 2166,
      "åĬłå¼º": 2167,
      "ä¿ĥ": 2168,
      "sh": 2169,
      "è¡Įä¸ļ": 2170,
      "Ġel": 2171,
      "ork": 2172,
      "ç»©": 2173,
      "åĪĽæĸ°": 2174,
      "å°Ķ": 2175,
      "Ġdown": 2176,
      "æĭħ": 2177,
      "åĮ»éĻ¢": 2178,
      "Ġdi": 2179,
      "Ġhere": 2180,
      "Ġdoes": 2181,
      "åĪĽå»º": 2182,
      "ç¨İ": 2183,
      "ool": 2184,
      "äº§ä¸ļ": 2185,
      "ä¼¤": 2186,
      "åŃĺåľ¨": 2187,
      "äº¿": 2188,
      "Ġvery": 2189,
      "put": 2190,
      "æ¡£": 2191,
      "ç¼º": 2192,
      "ä»ĭ": 2193,
      "riv": 2194,
      "pr": 2195,
      "å®ĮæĪĲ": 2196,
      "Ġcar": 2197,
      "æ¤": 2198,
      "éħĴ": 2199,
      "Ġcall": 2200,
      "åĳ³": 2201,
      "éĿ©": 2202,
      "çīĪ": 2203,
      "ale": 2204,
      "ife": 2205,
      "ention": 2206,
      "Ġbefore": 2207,
      "ç¦ı": 2208,
      "æ¦": 2209,
      "Ġsame": 2210,
      "æ³¨æĦı": 2211,
      "ator": 2212,
      "èĳ": 2213,
      "éĴ±": 2214,
      "Ġtest": 2215,
      "air": 2216,
      "å¤ĦçĲĨ": 2217,
      "ç»ľ": 2218,
      "IN": 2219,
      "Ġbu": 2220,
      "ä¸ºäºĨ": 2221,
      "100": 2222,
      "Ġcase": 2223,
      "è§£åĨ³": 2224,
      "ting": 2225,
      "](#": 2226,
      "åĩ»": 2227,
      "],": 2228,
      "æ°´å¹³": 2229,
      "çĭ¬": 2230,
      "æĵį": 2231,
      "ince": 2232,
      "æĤ£èĢħ": 2233,
      "åĵª": 2234,
      "ä¸ĢèĪ¬": 2235,
      "é¢Ŀ": 2236,
      "28": 2237,
      "æĹħ": 2238,
      "Ð¾": 2239,
      "è´§": 2240,
      "Ġdec": 2241,
      "çĶ±äºİ": 2242,
      "read": 2243,
      "27": 2244,
      "()": 2245,
      "ç´§": 2246,
      "Ġfind": 2247,
      "ared": 2248,
      "ç§ĳåŃ¦": 2249,
      "éķĩ": 2250,
      "èŃ": 2251,
      "å¯Ĩ": 2252,
      "ç²¾ç¥ŀ": 2253,
      "Ġcur": 2254,
      "çķ¥": 2255,
      "Ġreturn": 2256,
      "åį«": 2257,
      "æľĭ": 2258,
      "å¤§åŃ¦": 2259,
      "æĸ½å·¥": 2260,
      "rm": 2261,
      "way": 2262,
      "èĢĮä¸Ķ": 2263,
      "Ġboth": 2264,
      "Ġinte": 2265,
      "éļľ": 2266,
      "arch": 2267,
      "Ġyears": 2268,
      "Ġstat": 2269,
      "å®ŀéĻħ": 2270,
      "rol": 2271,
      "æĭ¬": 2272,
      "è®¤ä¸º": 2273,
      "é¢Ĩå¯¼": 2274,
      "åı¦": 2275,
      "ants": 2276,
      "ĠâĢĵ": 2277,
      "æĿ¥çļĦ": 2278,
      "ients": 2279,
      "ĠĠĠĠĠĠĠĠĠĠĠĠĠĠĠĠĠĠĠĠĠĠĠĠĠĠĠĠĠĠĠĠĠĠĠĠĠĠĠĠĠĠĠĠĠĠĠĠĠĠĠĠĠĠĠĠĠĠĠĠĠĠĠĠ": 2280,
      "Ġthose": 2281,
      "Ġbel": 2282,
      "ript": 2283,
      "Ġpartic": 2284,
      "ines": 2285,
      "Ġhand": 2286,
      "Ġfound": 2287,
      "ç»¼": 2288,
      "26": 2289,
      "ave": 2290,
      "çł´": 2291,
      "Ġmed": 2292,
      "upp": 2293,
      "Ġop": 2294,
      "å¦Ĥä½ķ": 2295,
      "oci": 2296,
      "Ġanal": 2297,
      "èŃ¦": 2298,
      "Ġmat": 2299,
      "é¼": 2300,
      "rest": 2301,
      "çºª": 2302,
      "Ġmon": 2303,
      "ä¸´": 2304,
      "frac": 2305,
      "æĿİ": 2306,
      "æ²³": 2307,
      "par": 2308,
      "Ġpoint": 2309,
      "éĢģ": 2310,
      "ym": 2311,
      "Ġplay": 2312,
      "åı²": 2313,
      "ages": 2314,
      "èĻ½": 2315,
      "It": 2316,
      "è¿Ļä¸Ģ": 2317,
      "åŃ£": 2318,
      "Ġmany": 2319,
      "é¸": 2320,
      "Ġaut": 2321,
      "Ġincre": 2322,
      "ann": 2323,
      "An": 2324,
      "aint": 2325,
      "è¡Įä¸º": 2326,
      "åĬ³": 2327,
      "****": 2328,
      "âĢĿãĢĤ": 2329,
      "ethod": 2330,
      "æį¢": 2331,
      "æľĭåıĭ": 2332,
      "ute": 2333,
      "çŁŃ": 2334,
      "Ġgu": 2335,
      "Ġtra": 2336,
      "äº«": 2337,
      "90": 2338,
      "Ð°": 2339,
      "velop": 2340,
      "è·Ł": 2341,
      "cent": 2342,
      "è¿ĺæľī": 2343,
      "Ġbeing": 2344,
      "å½¢æĪĲ": 2345,
      "å®£": 2346,
      "çĹĩ": 2347,
      "Ġpers": 2348,
      "ä¸ĢæŃ¥": 2349,
      "21": 2350,
      "Ġche": 2351,
      "ev": 2352,
      "ank": 2353,
      "Ġmade": 2354,
      "Ġthink": 2355,
      "Ġser": 2356,
      "æĦ¿": 2357,
      "æķĪæŀľ": 2358,
      "_{\\": 2359,
      "Ġfunction": 2360,
      "æīĢæľī": 2361,
      "è¡¨ç¤º": 2362,
      "of": 2363,
      "å¸Į": 2364,
      "Ġest": 2365,
      "ç½ĳç»ľ": 2366,
      "ä»¥ä¸Ĭ": 2367,
      "aking": 2368,
      "Ġz": 2369,
      "åįļ": 2370,
      "]\\]": 2371,
      "Ġgood": 2372,
      "Ġloc": 2373,
      "Ġexam": 2374,
      "ases": 2375,
      "Ġexper": 2376,
      "æ±½": 2377,
      "æĿ¡ä»¶": 2378,
      "ç¨³": 2379,
      "æĿĲæĸĻ": 2380,
      "Ġmem": 2381,
      "æĪĳåĽ½": 2382,
      "åĬŁèĥ½": 2383,
      "æ£ĢæŁ¥": 2384,
      "å²ģ": 2385,
      "æįŁ": 2386,
      "çŃĳ": 2387,
      "->": 2388,
      "Ġnumber": 2389,
      "text": 2390,
      "99": 2391,
      "\">": 2392,
      "Ġresp": 2393,
      "åłĤ": 2394,
      "èµ·æĿ¥": 2395,
      "è®¾å¤ĩ": 2396,
      "ä»ĺ": 2397,
      "ä¹ĭåĲİ": 2398,
      "ON": 2399,
      "ç¬¬äºĮ": 2400,
      "Ġappro": 2401,
      "æĢĿæĥ³": 2402,
      "ç»§": 2403,
      "ä¹¡": 2404,
      "ody": 2405,
      "Ġdire": 2406,
      "çĵ": 2407,
      "æ¶Īè´¹": 2408,
      "æľīåħ³": 2409,
      "ason": 2410,
      "ature": 2411,
      "Ġ,": 2412,
      "Ġet": 2413,
      "è¯ī": 2414,
      "ĊĠĠĠĠĠĠĠĠĠĠĠĠĠĠĠĠ": 2415,
      "35": 2416,
      "yl": 2417,
      "over": 2418,
      "set": 2419,
      "Ġtri": 2420,
      "ä¸įè¦ģ": 2421,
      "Ġmuch": 2422,
      "ĠCom": 2423,
      "ä¸įä¼ļ": 2424,
      "è®¡åĪĴ": 2425,
      "äºĨä¸Ģ": 2426,
      "åħŃ": 2427,
      "Ġfil": 2428,
      "rence": 2429,
      "cal": 2430,
      "min": 2431,
      "âĢī": 2432,
      "day": 2433,
      "åĮħæĭ¬": 2434,
      "æ½": 2435,
      "åĲĪä½ľ": 2436,
      "åħ¶ä¸Ń": 2437,
      "ä»·æł¼": 2438,
      "Ġstr": 2439,
      "Ġ:": 2440,
      "Ġown": 2441,
      "æĺ¥": 2442,
      "ner": 2443,
      "åŁ¹åħ»": 2444,
      "åŁ¹è®Ń": 2445,
      "åĲĹ": 2446,
      "eng": 2447,
      "Ġins": 2448,
      "ng": 2449,
      "é»ĳ": 2450,
      "åģĩ": 2451,
      "].": 2452,
      "ĠÂ": 2453,
      "Ġsol": 2454,
      "tr": 2455,
      "ĠFor": 2456,
      "Ġhel": 2457,
      "é²": 2458,
      "è¾ĵ": 2459,
      "å¢ŀåĬł": 2460,
      "We": 2461,
      "åĲ§": 2462,
      "ought": 2463,
      "å¥ĸ": 2464,
      "ash": 2465,
      "70": 2466,
      "Ðµ": 2467,
      "Ġra": 2468,
      "Ġwhile": 2469,
      "é¾Ļ": 2470,
      "ism": 2471,
      "çī¹åĪ«": 2472,
      "))": 2473,
      "ĠAl": 2474,
      "ather": 2475,
      "]{}": 2476,
      "åįł": 2477,
      "val": 2478,
      "cer": 2479,
      "AT": 2480,
      "èĽ": 2481,
      "å¥Ĺ": 2482,
      "åĪ©çĶ¨": 2483,
      "ç¿": 2484,
      "Ġrep": 2485,
      "ç»ĵæŀĦ": 2486,
      "fl": 2487,
      "è¿°": 2488,
      "ense": 2489,
      "æİ¢": 2490,
      "be": 2491,
      "Ġprote": 2492,
      "$\\": 2493,
      "æľºæŀĦ": 2494,
      "Ġlar": 2495,
      "æĢİä¹Ī": 2496,
      "Ġ@": 2497,
      "Ġprocess": 2498,
      "äº§çĶŁ": 2499,
      "åĽ½éĻħ": 2500,
      "è¿Ļæĺ¯": 2501,
      "ively": 2502,
      "ç»ĵåĲĪ": 2503,
      "ually": 2504,
      "æĶ¿çŃĸ": 2505,
      "èĨ": 2506,
      "Ġread": 2507,
      "çĶ³": 2508,
      "gan": 2509,
      "Ġ\\[[@": 2510,
      "}{": 2511,
      "ained": 2512,
      "åī§": 2513,
      "æĪı": 2514,
      "els": 2515,
      "Ġpresent": 2516,
      "29": 2517,
      "åºŃ": 2518,
      "äºļ": 2519,
      "å®ŀæĸ½": 2520,
      "ä¸°": 2521,
      "åį¡": 2522,
      "éĵģ": 2523,
      "åİŁåĽł": 2524,
      "ç«ŀ": 2525,
      "br": 2526,
      "ified": 2527,
      "oid": 2528,
      "ah": 2529,
      "ret": 2530,
      "ression": 2531,
      "ired": 2532,
      "Ġgreat": 2533,
      "éĩįçĤ¹": 2534,
      "formation": 2535,
      "ç¥¨": 2536,
      "é¦Ļ": 2537,
      "ness": 2538,
      "èĤ¤": 2539,
      "å¼Ĥ": 2540,
      "Ġsom": 2541,
      "åĸľæ¬¢": 2542,
      "åĲĦç§į": 2543,
      "åı¤": 2544,
      "éĨ": 2545,
      "å¾ģ": 2546,
      "çĽĺ": 2547,
      "What": 2548,
      "ĠAnd": 2549,
      "Ġdisc": 2550,
      "gg": 2551,
      "33": 2552,
      "Ġthree": 2553,
      "èĦĳ": 2554,
      "éĴĪ": 2555,
      "Ġstudy": 2556,
      "åĮĹäº¬": 2557,
      "éĩĩçĶ¨": 2558,
      "Ġlevel": 2559,
      "Ġstart": 2560,
      "45": 2561,
      "ç»¼åĲĪ": 2562,
      "åį°": 2563,
      "ven": 2564,
      "åĽ°": 2565,
      "åıĬæĹ¶": 2566,
      "ä»·åĢ¼": 2567,
      "ved": 2568,
      "éģĩ": 2569,
      "åĽº": 2570,
      "åģľ": 2571,
      "Ġgiv": 2572,
      "Ġsecond": 2573,
      "åĤ": 2574,
      "æİª": 2575,
      "æĻļ": 2576,
      "è´Łè´£": 2577,
      "ä¸ļåĬ¡": 2578,
      "amp": 2579,
      "self": 2580,
      "è¿ĩç¨ĭä¸Ń": 2581,
      "left": 2582,
      "Ġ/": 2583,
      "ç§»": 2584,
      "ices": 2585,
      "éĺ¶": 2586,
      "é¢ĳ": 2587,
      "alk": 2588,
      "any": 2589,
      "èĻ½çĦ¶": 2590,
      "çĽ´æİ¥": 2591,
      "çĪ¶": 2592,
      "ĠLet": 2593,
      "ç¾İåĽ½": 2594,
      "åĿĹ": 2595,
      "åºĶçĶ¨": 2596,
      "fer": 2597,
      "ä¸įä»ħ": 2598,
      "Ġx": 2599,
      "ä¿ĿæĬ¤": 2600,
      "Ġdevelop": 2601,
      "æıĲåįĩ": 2602,
      "cul": 2603,
      "æŁĵ": 2604,
      "æı¡": 2605,
      "åĵģçīĮ": 2606,
      "éĶ®": 2607,
      "arly": 2608,
      "ĠBut": 2609,
      "çĿ£": 2610,
      "ategory": 2611,
      "å®ĺ": 2612,
      "çİ©": 2613,
      "æĽ´å¤ļ": 2614,
      "alth": 2615,
      "ole": 2616,
      "Ġgl": 2617,
      "ton": 2618,
      "ä¸Ģèµ·": 2619,
      "èıľ": 2620,
      "Ġwithout": 2621,
      "æĪĳçļĦ": 2622,
      "ä¹ĭéĹ´": 2623,
      "ision": 2624,
      "ç»Ŀ": 2625,
      "Â·": 2626,
      "ç»ıèĲ¥": 2627,
      "line": 2628,
      "ä½Ļ": 2629,
      "ĠAs": 2630,
      "è¿Ľåħ¥": 2631,
      "Ġposs": 2632,
      "med": 2633,
      "ç§ĳæĬĢ": 2634,
      "åįĥ": 2635,
      "åħ¶å®ŀ": 2636,
      "ĠPro": 2637,
      "åº§": 2638,
      "å¸ĮæľĽ": 2639,
      "åª": 2640,
      "çĹĽ": 2641,
      "ouse": 2642,
      "Ġreport": 2643,
      "Ġequ": 2644,
      "æĮ¥": 2645,
      "Ġserv": 2646,
      "Ġbr": 2647,
      "CR": 2648,
      "ES": 2649,
      "åıªæľī": 2650,
      "è°Ī": 2651,
      "å¹´çļĦ": 2652,
      "è¾¾åĪ°": 2653,
      "åħ¨åĽ½": 2654,
      "man": 2655,
      "åħ¨éĿ¢": 2656,
      "Ġduring": 2657,
      "Ġdep": 2658,
      "å¸®åĬ©": 2659,
      "ç¬Ķ": 2660,
      "ç«¯": 2661,
      "Ġfr": 2662,
      "çº³": 2663,
      "Ġvalue": 2664,
      "Ġcourt": 2665,
      "è·µ": 2666,
      "ä»£è¡¨": 2667,
      "è½½": 2668,
      "æĴŃ": 2669,
      "Ġmet": 2670,
      "uss": 2671,
      "ä½łçļĦ": 2672,
      "æĤ¨": 2673,
      "æŃ»": 2674,
      "Ġav": 2675,
      "NA": 2676,
      "èĩªçĦ¶": 2677,
      "ier": 2678,
      "32": 2679,
      "å»ºçŃĳ": 2680,
      "åĪ»": 2681,
      "éĢłæĪĲ": 2682,
      "%,": 2683,
      "èİ·å¾Ĺ": 2684,
      "He": 2685,
      "Ġterm": 2686,
      "æłĳ": 2687,
      "Ġnon": 2688,
      "æĿ¥è¯´": 2689,
      "ider": 2690,
      "ĠIf": 2691,
      "çĶļ": 2692,
      "erg": 2693,
      "Ġant": 2694,
      "AR": 2695,
      "ffic": 2696,
      "Ġsay": 2697,
      "èĥĮ": 2698,
      "ality": 2699,
      "æ¶²": 2700,
      "ams": 2701,
      "æ¯Ĵ": 2702,
      "ters": 2703,
      "igned": 2704,
      "å¯¼èĩ´": 2705,
      "ane": 2706,
      "ization": 2707,
      "Ġsupport": 2708,
      "str": 2709,
      "Ġstill": 2710,
      "è¡¨çİ°": 2711,
      "Ġmethod": 2712,
      "ç´¢": 2713,
      "è¿ĲåĬ¨": 2714,
      "Ġlet": 2715,
      "til": 2716,
      "åŃ¦çĶŁçļĦ": 2717,
      "å¹³åı°": 2718,
      "ument": 2719,
      "Ġcells": 2720,
      "èĢĥè¯ķ": 2721,
      "åī¯": 2722,
      "Ġorder": 2723,
      "://": 2724,
      "raph": 2725,
      "Ġperform": 2726,
      "æĶ¹éĿ©": 2727,
      "æĪĲåĬŁ": 2728,
      "oh": 2729,
      "åı³": 2730,
      "ross": 2731,
      "az": 2732,
      "ä¸Ģæ¬¡": 2733,
      "æĺ¯åĲ¦": 2734,
      "åħ·ä½ĵ": 2735,
      "å®¹æĺĵ": 2736,
      "æ¯ķ": 2737,
      "è¯¢": 2738,
      "Ġpublic": 2739,
      "æĢ¥": 2740,
      "ç»ĵæŀľ": 2741,
      "å·¦": 2742,
      "æıĲåĩº": 2743,
      "ists": 2744,
      "æĵįä½ľ": 2745,
      "lement": 2746,
      "åĪļ": 2747,
      "è¿Ľä¸ĢæŃ¥": 2748,
      "é¡º": 2749,
      "ä¸ĢçĽ´": 2750,
      "éľĢæ±Ĥ": 2751,
      "äºĳ": 2752,
      "Ġ18": 2753,
      "\":": 2754,
      "å¼Ģåıĳ": 2755,
      "ided": 2756,
      "Ġsmall": 2757,
      "Ġpa": 2758,
      "36": 2759,
      "åħ³æ³¨": 2760,
      "æĽ¾": 2761,
      "ç²ī": 2762,
      "éĴŁ": 2763,
      "Ã¤": 2764,
      "èĤī": 2765,
      "dition": 2766,
      "ä¸Ģæł·": 2767,
      "è¶£": 2768,
      "yn": 2769,
      "æīįèĥ½": 2770,
      "æĮīçħ§": 2771,
      "åĬª": 2772,
      "åĺ": 2773,
      "ially": 2774,
      "Ġmust": 2775,
      "å¢ŀéķ¿": 2776,
      "ency": 2777,
      "Ġpatients": 2778,
      "åıĤåĬł": 2779,
      "èĴ": 2780,
      "è¯į": 2781,
      "anc": 2782,
      "æħ¢": 2783,
      "Ġhelp": 2784,
      "$.": 2785,
      "land": 2786,
      "åľ°æĸ¹": 2787,
      "ä»Ĭå¤©": 2788,
      "ĠHow": 2789,
      "$,": 2790,
      "Ġ20": 2791,
      "rt": 2792,
      "æ´Ĺ": 2793,
      "'m": 2794,
      "æ¨¡å¼ı": 2795,
      "view": 2796,
      "ÑĤ": 2797,
      "Ġcount": 2798,
      "Ġstate": 2799,
      "ving": 2800,
      "Ġtake": 2801,
      "mathb": 2802,
      "åĿļæĮģ": 2803,
      "oad": 2804,
      ",\\": 2805,
      "ç»¿": 2806,
      "aw": 2807,
      "Ġlast": 2808,
      "æĬĵ": 2809,
      "You": 2810,
      "æĿ¾": 2811,
      "ds": 2812,
      "Ġline": 2813,
      "ç¾¤ä¼Ĺ": 2814,
      "éĶĢåĶ®": 2815,
      "Ġday": 2816,
      "Ġactiv": 2817,
      "Ġgroup": 2818,
      "å½©": 2819,
      "åĬªåĬĽ": 2820,
      "me": 2821,
      "æĹı": 2822,
      "éĢĲ": 2823,
      "çĨŁ": 2824,
      "çľĭåĪ°": 2825,
      "èµĦéĩĳ": 2826,
      "çļĦéĹ®é¢ĺ": 2827,
      "ç£": 2828,
      "çļĦäºĭ": 2829,
      "tt": 2830,
      "å©ļ": 2831,
      "éĴ¢": 2832,
      "è¿Ŀ": 2833,
      "æ¥¼": 2834,
      "Ġcle": 2835,
      "ãĤ": 2836,
      "åģļå¥½": 2837,
      "å®ŀè·µ": 2838,
      "è½¯": 2839,
      "Ġimport": 2840,
      "æĮĩå¯¼": 2841,
      "éĵ¶è¡Į": 2842,
      "çŃ¾": 2843,
      "åľ°åĮº": 2844,
      "ray": 2845,
      "å²Ĺ": 2846,
      "ç§Ģ": 2847,
      "è¿½": 2848,
      "æľĢåĲİ": 2849,
      "å¿ĥçĲĨ": 2850,
      "è§īå¾Ĺ": 2851,
      "Ġprev": 2852,
      "æĦıè¯Ĩ": 2853,
      "ron": 2854,
      "æľīçļĦ": 2855,
      "éħ¸": 2856,
      "Ġdesc": 2857,
      "Ġagainst": 2858,
      "éģ¿": 2859,
      "èģĶç³»": 2860,
      "éĺħ": 2861,
      "Ð¸": 2862,
      "Ġcent": 2863,
      "å¹¼": 2864,
      "¤Ĳ": 2865,
      "irc": 2866,
      "ç¯": 2867,
      "Ġname": 2868,
      "æ±½è½¦": 2869,
      "çĶļèĩ³": 2870,
      "aj": 2871,
      "Ġed": 2872,
      "OR": 2873,
      "æľīéĻĲ": 2874,
      "åĬ±": 2875,
      "èĸ": 2876,
      "',": 2877,
      "amb": 2878,
      "Ġproble": 2879,
      "mm": 2880,
      "åħ«": 2881,
      "æĶ¯æĮģ": 2882,
      "ç»į": 2883,
      "less": 2884,
      "Ġsignific": 2885,
      "atic": 2886,
      "Ġlead": 2887,
      "é¥®": 2888,
      "ulation": 2889,
      "Category": 2890,
      "åį±": 2891,
      "Ġchild": 2892,
      "å®¢æĪ·": 2893,
      "oot": 2894,
      "æĬĹ": 2895,
      "ify": 2896,
      "ä¿ĥè¿Ľ": 2897,
      "75": 2898,
      "æĭ¿": 2899,
      "ished": 2900,
      "Ġrun": 2901,
      "æľ¨": 2902,
      "Ġcre": 2903,
      "chn": 2904,
      "ability": 2905,
      "Ġdel": 2906,
      "ars": 2907,
      "Ġquest": 2908,
      "æ³¢": 2909,
      "ek": 2910,
      "34": 2911,
      "ĠYou": 2912,
      "ä¼łç»Ł": 2913,
      "æİĮ": 2914,
      "Ġfam": 2915,
      "åĲĮåŃ¦": 2916,
      "Ġexpl": 2917,
      "é£ŀ": 2918,
      "é£İéĻ©": 2919,
      "æ³ķå¾ĭ": 2920,
      ".âĢĿ": 2921,
      "äºĪ": 2922,
      "ä¿Ŀè¯ģ": 2923,
      "acter": 2924,
      "idence": 2925,
      "æİªæĸ½": 2926,
      "åħħåĪĨ": 2927,
      "not": 2928,
      "åĳĺå·¥": 2929,
      "ä¸¤ä¸ª": 2930,
      "ames": 2931,
      "æĻºèĥ½": 2932,
      "Ġperson": 2933,
      "âĢĶâĢĶ": 2934,
      "meric": 2935,
      "Ġfin": 2936,
      "åªĴ": 2937,
      "Ġart": 2938,
      "38": 2939,
      "Ġ//": 2940,
      "åİĤ": 2941,
      "Ġoper": 2942,
      "åĪ¤": 2943,
      "å·´": 2944,
      "èģĮä¸ļ": 2945,
      "åĢŁ": 2946,
      "éĿł": 2947,
      "é¡¾": 2948,
      "è®°èĢħ": 2949,
      "ST": 2950,
      "\\[": 2951,
      "Ġ**": 2952,
      "Ġ15": 2953,
      "ik": 2954,
      "(-": 2955,
      "éĻĪ": 2956,
      "Let": 2957,
      "Ġcontrol": 2958,
      "çĩ": 2959,
      "çĻ»": 2960,
      "ä¹ħ": 2961,
      "è®¡ç®Ĺ": 2962,
      "äººä»¬": 2963,
      "æ¹ĸ": 2964,
      "ä¿ĿæĮģ": 2965,
      "Ġpur": 2966,
      "è°¢": 2967,
      "çĸ¾": 2968,
      "å¾ĹåĪ°": 2969,
      "Ġvari": 2970,
      "æĸ°çļĦ": 2971,
      "64": 2972,
      "::": 2973,
      "æŃĮ": 2974,
      "ead": 2975,
      "!\"": 2976,
      "ä¸įè¿ĩ": 2977,
      "ç¬¦": 2978,
      "Fig": 2979,
      "åı¥": 2980,
      "ĠNew": 2981,
      "aim": 2982,
      "Ġgoing": 2983,
      "ç«¥": 2984,
      "und": 2985,
      "que": 2986,
      "ĠQ": 2987,
      "EN": 2988,
      "ä»¥ä¸ĭ": 2989,
      "çĦ¶åĲİ": 2990,
      "Ġdem": 2991,
      "Ġstand": 2992,
      "éº": 2993,
      "èº«ä½ĵ": 2994,
      "Ġhead": 2995,
      "ience": 2996,
      "Ġproper": 2997,
      "çİ°åľº": 2998,
      "ä¸½": 2999,
      "åıĺåĮĸ": 3000,
      "rict": 3001,
      "è®¨": 3002,
      "ww": 3003,
      "åħ³éĶ®": 3004,
      "å®¶åºŃ": 3005,
      "ĠÃ": 3006,
      "æ¦Ĥ": 3007,
      "itive": 3008,
      "æĪĲç»©": 3009,
      "Ġinc": 3010,
      "è¯¯": 3011,
      "ology": 3012,
      "æĭį": 3013,
      "Ġaround": 3014,
      "Ġdev": 3015,
      "IT": 3016,
      "Ġconf": 3017,
      "Ġdirect": 3018,
      "ittle": 3019,
      "é¤Ĳ": 3020,
      "çĲĨè®º": 3021,
      "éļıçĿĢ": 3022,
      "èĭ¦": 3023,
      "urther": 3024,
      "Ġhy": 3025,
      "'re": 3026,
      "Ġwr": 3027,
      "åĩĢ": 3028,
      "95": 3029,
      "åĨ·": 3030,
      "å°±ä¼ļ": 3031,
      "ĠShe": 3032,
      "éĩĳèŀį": 3033,
      "Ġopt": 3034,
      "atch": 3035,
      "05": 3036,
      "éĺ¶æ®µ": 3037,
      "æĭ¥": 3038,
      "hip": 3039,
      "ä¸ĵå®¶": 3040,
      "ä»ĭç»į": 3041,
      "arm": 3042,
      "ides": 3043,
      "Ġlife": 3044,
      "Ġpost": 3045,
      "éĢĢ": 3046,
      "å½¢å¼ı": 3047,
      "serv": 3048,
      "çĶ²": 3049,
      "åıĤä¸İ": 3050,
      "çĮ®": 3051,
      "Ġpass": 3052,
      "Ġsl": 3053,
      "è¯¾ç¨ĭ": 3054,
      "åħ³äºİ": 3055,
      "Ġtoo": 3056,
      "ets": 3057,
      "Ġinformation": 3058,
      "ä»ĸçļĦ": 3059,
      "ç©¿": 3060,
      "ç»ıéªĮ": 3061,
      "ysis": 3062,
      "æĹħæ¸¸": 3063,
      "ination": 3064,
      "æĢ§çļĦ": 3065,
      "ured": 3066,
      "37": 3067,
      "abel": 3068,
      "ium": 3069,
      "bl": 3070,
      "ĠÎ": 3071,
      "ource": 3072,
      "Ġmeas": 3073,
      "ior": 3074,
      "Ġbre": 3075,
      "äº®": 3076,
      "This": 3077,
      "Ġelect": 3078,
      "ĊĊĠĠĠ": 3079,
      "Ġmight": 3080,
      "ately": 3081,
      "å®¶éķ¿": 3082,
      "---": 3083,
      "åĲĪåĲĮ": 3084,
      "ott": 3085,
      "çİ°ä»£": 3086,
      "Ġcr": 3087,
      "è¡£": 3088,
      "éĿĻ": 3089,
      "æĪĲæľ¬": 3090,
      "ä½ĵç³»": 3091,
      "è§ĦèĮĥ": 3092,
      "ots": 3093,
      "eta": 3094,
      "Ġiss": 3095,
      "çĸĳ": 3096,
      "å®Ī": 3097,
      "Ġopen": 3098,
      "çģµ": 3099,
      "åįĪ": 3100,
      "åİĨåı²": 3101,
      "agn": 3102,
      "ä¸ĩåħĥ": 3103,
      "da": 3104,
      "Ġreal": 3105,
      "Ġanother": 3106,
      "ä¿Ŀéļľ": 3107,
      "Ġhum": 3108,
      "ç»§ç»Ń": 3109,
      "Ġsignificant": 3110,
      "å¥ĩ": 3111,
      "åıªæĺ¯": 3112,
      "è½®": 3113,
      "æŃ£ç¡®": 3114,
      "pha": 3115,
      "è®¤è¯Ĩ": 3116,
      "Ġworld": 3117,
      "Ġtype": 3118,
      "ething": 3119,
      "ç¬ĳ": 3120,
      "ç½Ĺ": 3121,
      "èĦ±": 3122,
      "for": 3123,
      "gen": 3124,
      "èĽĭ": 3125,
      "pec": 3126,
      "Ġresults": 3127,
      "ĠWh": 3128,
      "ural": 3129,
      "èĻĳ": 3130,
      "ä¼¼": 3131,
      "æĽ´åĬł": 3132,
      "Ġref": 3133,
      "ç³ĸ": 3134,
      "ï¼ĮâĢľ": 3135,
      "ission": 3136,
      "ml": 3137,
      "åĪĺ": 3138,
      "ĠZ": 3139,
      "Ġcare": 3140,
      "çĤİ": 3141,
      "ral": 3142,
      "æĪĳä»¬çļĦ": 3143,
      "åĽ½åĨħ": 3144,
      "Ġmult": 3145,
      "ä¸ĥ": 3146,
      ")ï¼Į": 3147,
      "å®£ä¼ł": 3148,
      "ĠTr": 3149,
      "Ġident": 3150,
      "ital": 3151,
      "åºĬ": 3152,
      "è´«": 3153,
      "æ¤į": 3154,
      "äº¤æµģ": 3155,
      "Ġcontin": 3156,
      "Ġwithin": 3157,
      "åĨ²": 3158,
      "æĥ¯": 3159,
      "äº¤éĢļ": 3160,
      "éŃ": 3161,
      "èĵ": 3162,
      "Ġerr": 3163,
      "ç¬¬ä¸ī": 3164,
      "Ġtreat": 3165,
      "here": 3166,
      "Ġmodel": 3167,
      "98": 3168,
      "ains": 3169,
      "ä»»ä½ķ": 3170,
      "Ġrest": 3171,
      "çĶ¨æĪ·": 3172,
      "è§ĦåĪĴ": 3173,
      "Ġu": 3174,
      "åįĸ": 3175,
      "ived": 3176,
      "èįī": 3177,
      "æī§è¡Į": 3178,
      "ently": 3179,
      "èģĺ": 3180,
      "ä»»åĬ¡": 3181,
      "65": 3182,
      "æĹ¢": 3183,
      "Ġdeterm": 3184,
      "é½": 3185,
      "ording": 3186,
      "çļĦå¤§": 3187,
      "orn": 3188,
      "Ġfollowing": 3189,
      "ä»Ĭå¹´": 3190,
      "48": 3191,
      "duct": 3192,
      "arn": 3193,
      "ä»¤": 3194,
      "åĩĨå¤ĩ": 3195,
      "def": 3196,
      "èĲ½å®ŀ": 3197,
      "Ġsince": 3198,
      "att": 3199,
      "Ġlaw": 3200,
      "ä¸Ģä¸ĭ": 3201,
      "Ġes": 3202,
      "çīĽ": 3203,
      "eral": 3204,
      "æĳĦ": 3205,
      "åĲ¯": 3206,
      "ivers": 3207,
      "ĠThey": 3208,
      "æŃ¦": 3209,
      "Ġlim": 3210,
      "2018": 3211,
      "Ġallow": 3212,
      "ways": 3213,
      "çļĦåıĳå±ķ": 3214,
      "æĸ¹æ¡Ī": 3215,
      "AL": 3216,
      "aterial": 3217,
      "lex": 3218,
      "è¿Ļæł·çļĦ": 3219,
      "akes": 3220,
      "æĦŁè§ī": 3221,
      "æ¯Ľ": 3222,
      "å¤«": 3223,
      "å»ºè®®": 3224,
      "Ġtem": 3225,
      "èĹ": 3226,
      "ä¸»ä¹ī": 3227,
      "åĽłç´ł": 3228,
      "by": 3229,
      "(\"": 3230,
      "æīĭæľº": 3231,
      "ä»į": 3232,
      "thing": 3233,
      "Ġbeh": 3234,
      "Ġstruct": 3235,
      "æīĺ": 3236,
      "åĨ³å®ļ": 3237,
      "ional": 3238,
      "name": 3239,
      "èīºæľ¯": 3240,
      "ably": 3241,
      "Ġturn": 3242,
      "å¹²éĥ¨": 3243,
      "Ġadv": 3244,
      "Ġimp": 3245,
      "æĺ¯ä¸Ģ": 3246,
      "èĭı": 3247,
      "åħ¸": 3248,
      "ration": 3249,
      "Ġpower": 3250,
      "ote": 3251,
      "work": 3252,
      "Ð½": 3253,
      "31": 3254,
      "çĲĨè§£": 3255,
      "Ġocc": 3256,
      "Ġmean": 3257,
      "æĿĤ": 3258,
      "è´´": 3259,
      "ts": 3260,
      "å³": 3261,
      "Ġinterest": 3262,
      "åĨľæĿĳ": 3263,
      "è·Ŀ": 3264,
      "æĶ¶åħ¥": 3265,
      "ĠAmeric": 3266,
      "èĮ¶": 3267,
      "èģļ": 3268,
      "åĬ³åĬ¨": 3269,
      "Ġmark": 3270,
      "ĠDe": 3271,
      "Ġnever": 3272,
      "ĠX": 3273,
      "AN": 3274,
      "01": 3275,
      "ential": 3276,
      "Ġsk": 3277,
      "ä¹İ": 3278,
      "è¿İ": 3279,
      "åıĳæĮ¥": 3280,
      "Ġlist": 3281,
      "Ġlittle": 3282,
      "æĩ": 3283,
      "iness": 3284,
      "mathcal": 3285,
      "æĽ²": 3286,
      "éĹ»": 3287,
      "ĠSh": 3288,
      "Ġtry": 3289,
      "Ġcondition": 3290,
      "éĢı": 3291,
      "è´µ": 3292,
      "Ġwom": 3293,
      "èĮĥåĽ´": 3294,
      "resent": 3295,
      "äººæīį": 3296,
      "å®ģ": 3297,
      "ä¸įå¾Ĺ": 3298,
      "ither": 3299,
      "ury": 3300,
      "ves": 3301,
      "éĻĦ": 3302,
      "ä¸Ŀ": 3303,
      "å¹ħ": 3304,
      "ĠNo": 3305,
      "ç©ºéĹ´": 3306,
      "è¯Ĭ": 3307,
      "Ġsing": 3308,
      "è®¤çľŁ": 3309,
      "Ġaddition": 3310,
      "å®ĮåĸĦ": 3311,
      "è°ĥæķ´": 3312,
      "æ··": 3313,
      "0000": 3314,
      "æİ¨è¿Ľ": 3315,
      "Ġask": 3316,
      "æ±ĩ": 3317,
      "iff": 3318,
      ")\\": 3319,
      "èĪª": 3320,
      "Ġseem": 3321,
      "Ġ12": 3322,
      "]\\].": 3323,
      "ç«ŀäºī": 3324,
      "ives": 3325,
      "Ġfew": 3326,
      "éĽ¨": 3327,
      "å¥¶": 3328,
      "äº¤æĺĵ": 3329,
      "âĪ": 3330,
      "æķĳ": 3331,
      "Ġvis": 3332,
      "æ¶¦": 3333,
      "æ¸¸æĪı": 3334,
      "uro": 3335,
      "ç¡®å®ļ": 3336,
      "Ġsomething": 3337,
      "CT": 3338,
      "Ġexample": 3339,
      "Ġhapp": 3340,
      "ĠCl": 3341,
      "å°Ħ": 3342,
      "face": 3343,
      "ĠOn": 3344,
      "çī¹çĤ¹": 3345,
      "è¶ħè¿ĩ": 3346,
      "Ġrece": 3347,
      "39": 3348,
      "å¹¸": 3349,
      "çĺ": 3350,
      "è¾Ĩ": 3351,
      "èĭ¥": 3352,
      "æĬ¥åĳĬ": 3353,
      "çļĦå·¥ä½ľ": 3354,
      "ä¸¥éĩį": 3355,
      "chool": 3356,
      "é¦Ĩ": 3357,
      "éĺ¿": 3358,
      "åºı": 3359,
      "è´·": 3360,
      "èµĦæĸĻ": 3361,
      "bers": 3362,
      "å¹¼åĦ¿": 3363,
      "æ±¡": 3364,
      "part": 3365,
      "Ex": 3366,
      "dd": 3367,
      "44": 3368,
      "____": 3369,
      "Ġplace": 3370,
      "Ġleft": 3371,
      "Ġcurrent": 3372,
      "Ġredu": 3373,
      "çłģ": 3374,
      "88": 3375,
      "çĸ«": 3376,
      "æİĪ": 3377,
      "çľŁæŃ£": 3378,
      "ç®Ģåįķ": 3379,
      "åį«çĶŁ": 3380,
      "è®¿": 3381,
      "æķ£": 3382,
      "éª¨": 3383,
      "Ġbas": 3384,
      "rel": 3385,
      "è¿ĻéĩĮ": 3386,
      "è¡ĮæĶ¿": 3387,
      "æĮģç»Ń": 3388,
      "åıĳå±ķçļĦ": 3389,
      "æĸ¹åĲĳ": 3390,
      "ä»İèĢĮ": 3391,
      "åĲĪçĲĨ": 3392,
      "å®ľ": 3393,
      "æ°¸": 3394,
      "æĺİæĺ¾": 3395,
      "ploy": 3396,
      "Ġrespect": 3397,
      "ä¼ĳ": 3398,
      "Ġreally": 3399,
      "Ġless": 3400,
      "Ġfield": 3401,
      "Ġchang": 3402,
      "ule": 3403,
      "çĽĸ": 3404,
      "ä¸°å¯Į": 3405,
      "stand": 3406,
      "ope": 3407,
      "ç¤¼": 3408,
      "åħ±åĲĮ": 3409,
      "åīĤ": 3410,
      "sec": 3411,
      "55": 3412,
      "cript": 3413,
      "è®¸å¤ļ": 3414,
      "çĶ³è¯·": 3415,
      "ä¹łæĥ¯": 3416,
      "alpha": 3417,
      "htt": 3418,
      "å»¶": 3419,
      "ä½ľèĢħ": 3420,
      "Ġgot": 3421,
      "ĠIs": 3422,
      "è¯¾åłĤ": 3423,
      "èĤ¥": 3424,
      "son": 3425,
      "Ġcommun": 3426,
      "æ¯ıå¤©": 3427,
      "}(": 3428,
      "Ġold": 3429,
      "é±": 3430,
      "åıĸå¾Ĺ": 3431,
      "Ġve": 3432,
      "Ġbest": 3433,
      "åºĵ": 3434,
      "Ġbus": 3435,
      "æĺİç¡®": 3436,
      "arg": 3437,
      "è¡Ĺ": 3438,
      "Ġpop": 3439,
      "æĹ¶ä»£": 3440,
      "åĪĨéĴŁ": 3441,
      "Ġrele": 3442,
      "å¸ģ": 3443,
      "çº¸": 3444,
      "Ġgiven": 3445,
      "Ġput": 3446,
      "Ch": 3447,
      "Ġpot": 3448,
      "Ġ{#": 3449,
      "Ġcome": 3450,
      "ertain": 3451,
      "åĩıå°ĳ": 3452,
      "Ġlight": 3453,
      "Ġlow": 3454,
      "æŀ¶": 3455,
      "Ġincluding": 3456,
      "å®ŀéªĮ": 3457,
      "ĠĠĠĠĠĠĠĠĠĠĠĠĠĠĠĠĠĠĠĠĠĠĠĠ": 3458,
      "ĠâĢĶ": 3459,
      "æ¸Ĳ": 3460,
      "ä¹ĭä¸Ģ": 3461,
      "çĽ®çļĦ": 3462,
      "æ´ģ": 3463,
      "é±¼": 3464,
      "å½Ĵ": 3465,
      "ety": 3466,
      "gram": 3467,
      "æİ¥åıĹ": 3468,
      "ç»ıè¿ĩ": 3469,
      "éĽĨåĽ¢": 3470,
      "è®¢": 3471,
      "ining": 3472,
      "é¢ĨåŁŁ": 3473,
      "Ñģ": 3474,
      "Ġcap": 3475,
      "ised": 3476,
      "ç¨ĭåº¦": 3477,
      "åĮ»çĸĹ": 3478,
      "ä¸Ĭæµ·": 3479,
      "oss": 3480,
      "å¤®": 3481,
      "ãĥ": 3482,
      "æ¶¨": 3483,
      "ene": 3484,
      "åħ°": 3485,
      "å¹¶ä¸Ķ": 3486,
      "åıĹåĪ°": 3487,
      "æŃ£å¸¸": 3488,
      "================": 3489,
      "hor": 3490,
      "çĽĳçĿ£": 3491,
      "æĹłæ³ķ": 3492,
      "):": 3493,
      "ä½ľåĵģ": 3494,
      "æī©": 3495,
      "ç´¯": 3496,
      "ä¼ļè®®": 3497,
      "eter": 3498,
      "ÑĢ": 3499,
      ")ãĢĤ": 3500,
      "66": 3501,
      "åªĴä½ĵ": 3502,
      "Ġinvest": 3503,
      "osed": 3504,
      "ä¹Łä¸į": 3505,
      "æ¸¯": 3506,
      "ĠThere": 3507,
      "éĺħè¯»": 3508,
      "æĿŁ": 3509,
      "ina": 3510,
      "æ¬§": 3511,
      "Ġhig": 3512,
      "èĥľ": 3513,
      "èľ": 3514,
      "çĶµè¯Ŀ": 3515,
      "vert": 3516,
      "Ġtechn": 3517,
      "Ġassoci": 3518,
      "çļ®èĤ¤": 3519,
      "çĶµåŃĲ": 3520,
      "åıĳå¸ĥ": 3521,
      "ends": 3522,
      "Ġmot": 3523,
      "Ġcal": 3524,
      "ĠHowever": 3525,
      "ype": 3526,
      "ç¨³å®ļ": 3527,
      "çļĦéĩįè¦ģ": 3528,
      "å°¤": 3529,
      "ä¼´": 3530,
      "åĩºæĿ¥": 3531,
      "Ġnext": 3532,
      "Ġprob": 3533,
      "apt": 3534,
      "Ġhome": 3535,
      "ä½³": 3536,
      "ĠRe": 3537,
      "mb": 3538,
      "æ¢¦": 3539,
      "æĶ¿æ²»": 3540,
      "ackage": 3541,
      "è°ĥæŁ¥": 3542,
      "ä¿ĿéĻ©": 3543,
      "Ġfour": 3544,
      "ĠCon": 3545,
      "åİŁåĪĻ": 3546,
      "æ¯Ķå¦Ĥ": 3547,
      "æĺ¯åľ¨": 3548,
      "é²ľ": 3549,
      "reg": 3550,
      "çĬ¶æĢģ": 3551,
      "é¦ĸåħĪ": 3552,
      "è¿Ľç¨ĭ": 3553,
      "æĸĩç«ł": 3554,
      "å°ıæĹ¶": 3555,
      "å¤ľ": 3556,
      "èĩªèº«": 3557,
      "Ġgover": 3558,
      "Ġgrow": 3559,
      "bs": 3560,
      "éĴĪå¯¹": 3561,
      "97": 3562,
      "Ã¡": 3563,
      "çĿ¡": 3564,
      "ĠWhat": 3565,
      "^{\\": 3566,
      "ivid": 3567,
      "Ġclaim": 3568,
      "è¯Ħä»·": 3569,
      "inc": 3570,
      "Ġbo": 3571,
      "ho": 3572,
      "å®Įåħ¨": 3573,
      "äº¿åħĥ": 3574,
      "å¦Īå¦Ī": 3575,
      "çĪ¸": 3576,
      "ij": 3577,
      "ä¹Ŀ": 3578,
      "åĿĲ": 3579,
      "èĦ¸": 3580,
      "Ġtop": 3581,
      "æľīäºĽ": 3582,
      "SE": 3583,
      "ery": 3584,
      "Ġobserv": 3585,
      "ç¡¬": 3586,
      "Ġarg": 3587,
      "æ±ī": 3588,
      "Re": 3589,
      "åı«": 3590,
      "çļĦè¯Ŀ": 3591,
      "ä¼ĺåĬ¿": 3592,
      "Ġbased": 3593,
      "çļĦå°ı": 3594,
      "åŃ¦éĻ¢": 3595,
      "Ġ*/": 3596,
      "ä¸ľè¥¿": 3597,
      "å±Ĭ": 3598,
      "Ġmonth": 3599,
      "ç¬¦åĲĪ": 3600,
      "éĽ¶": 3601,
      "ump": 3602,
      "åľĪ": 3603,
      "ength": 3604,
      "æľīéĻĲåħ¬åı¸": 3605,
      "abl": 3606,
      "åı¶": 3607,
      "æĲŃ": 3608,
      "yt": 3609,
      "åķĬ": 3610,
      "Ġimportant": 3611,
      "icro": 3612,
      "Ġ16": 3613,
      "Con": 3614,
      "ĠAr": 3615,
      "47": 3616,
      "æİĮæı¡": 3617,
      "æľªæĿ¥": 3618,
      "çĸ¾çĹħ": 3619,
      "æĢĢ": 3620,
      "aining": 3621,
      "rap": 3622,
      "æĺ¾ç¤º": 3623,
      "Ġsam": 3624,
      "Ġhealth": 3625,
      "ĊĊĠ": 3626,
      "æĺ¯ä¸Ģä¸ª": 3627,
      "ĊĠĠ": 3628,
      "é¥°": 3629,
      "Ġindic": 3630,
      "Pro": 3631,
      "æĿ¥è¶Ĭ": 3632,
      "æľºä¼ļ": 3633,
      "Ġder": 3634,
      "å¦ĩ": 3635,
      "å¼ķèµ·": 3636,
      "çİ°è±¡": 3637,
      "å°ļ": 3638,
      "lection": 3639,
      "ribut": 3640,
      "Ġlarge": 3641,
      "è¶ĬæĿ¥è¶Ĭ": 3642,
      "çģ¯": 3643,
      "ä¸ºä»Ģä¹Ī": 3644,
      "ĊĠĠĠĠ": 3645,
      "ä¸¥æł¼": 3646,
      "æľºåĪ¶": 3647,
      "Ġanalysis": 3648,
      "Ġtyp": 3649,
      "è®¯": 3650,
      "åĩºäºĨ": 3651,
      "Ġbetter": 3652,
      ")(": 3653,
      "new": 3654,
      "çĪ¶æ¯į": 3655,
      "äºĭä¸ļ": 3656,
      "Ġsit": 3657,
      "aps": 3658,
      "Ġbro": 3659,
      "85": 3660,
      "Ġleg": 3661,
      "éľ²": 3662,
      "åĪĽéĢł": 3663,
      "Ġbelie": 3664,
      "Ġparticular": 3665,
      "Ġapplic": 3666,
      "ern": 3667,
      "Ġobject": 3668,
      "Ġsugg": 3669,
      "æ¶ī": 3670,
      "æĶ¹åıĺ": 3671,
      "Ġsuggest": 3672,
      "æ¯ĶèµĽ": 3673,
      "Ġprof": 3674,
      "å·¥ä¸ļ": 3675,
      "æľŁéĹ´": 3676,
      "åģļåĪ°": 3677,
      "åĿı": 3678,
      "å®īæİĴ": 3679,
      "æĦıä¹ī": 3680,
      "por": 3681,
      "roll": 3682,
      "Ġdescrib": 3683,
      "96": 3684,
      "arget": 3685,
      "å¢ŀå¼º": 3686,
      "ats": 3687,
      "LE": 3688,
      "è°ģ": 3689,
      "co": 3690,
      "çĳ": 3691,
      "reen": 3692,
      "è§¦": 3693,
      "ä»ª": 3694,
      "ference": 3695,
      "é¥Ń": 3696,
      ")ãĢģ": 3697,
      ",âĢĿ": 3698,
      "Ġchange": 3699,
      "é¡¶": 3700,
      "åºĨ": 3701,
      "ird": 3702,
      "æ²Ļ": 3703,
      "åİĭåĬĽ": 3704,
      "ä¹ĭåīį": 3705,
      "ç»ıå¸¸": 3706,
      "ĠPh": 3707,
      "ee": 3708,
      "Ġcommon": 3709,
      "éĩıçļĦ": 3710,
      "æĭ¥æľī": 3711,
      "ccess": 3712,
      "Ġ$$\\": 3713,
      "Ġden": 3714,
      "èĦļ": 3715,
      "2017": 3716,
      "éĻ¤äºĨ": 3717,
      "uck": 3718,
      "Ġmen": 3719,
      "Ġgovern": 3720,
      "åĨľä¸ļ": 3721,
      "åĲİçļĦ": 3722,
      "ended": 3723,
      "å·¥ä½ľçļĦ": 3724,
      "åĢĴ": 3725,
      "å¤ı": 3726,
      "èį£": 3727,
      "Ġobt": 3728,
      "Ġ14": 3729,
      "æĸĩæ¡£": 3730,
      "Ġide": 3731,
      "è¸": 3732,
      "'ll": 3733,
      "Ġdr": 3734,
      "éĻįä½İ": 3735,
      "ä¸įåı¯": 3736,
      "å¨ģ": 3737,
      "Ġabove": 3738,
      "å·¦åı³": 3739,
      "Ġwater": 3740,
      "æ²Ł": 3741,
      "èµĦäº§": 3742,
      "èĢĥèĻĳ": 3743,
      "leg": 3744,
      "ĠSc": 3745,
      "Ġeas": 3746,
      "æĸĹ": 3747,
      "ä¾§": 3748,
      "ĠApp": 3749,
      "Ġmov": 3750,
      "Ġbi": 3751,
      "requ": 3752,
      "RE": 3753,
      "plic": 3754,
      "çĥŁ": 3755,
      "Ġthings": 3756,
      "åĪ¶å®ļ": 3757,
      "å¼±": 3758,
      "ç´łè´¨": 3759,
      "ĠPl": 3760,
      "var": 3761,
      "æķ´ä½ĵ": 3762,
      "éĥ½æľī": 3763,
      "ä¼ļè®¡": 3764,
      "ilar": 3765,
      "Ġthought": 3766,
      "pped": 3767,
      "éķ¿æľŁ": 3768,
      ")/": 3769,
      "æĶ»": 3770,
      "'ve": 3771,
      "ID": 3772,
      "Ġleast": 3773,
      "ä¼°": 3774,
      "hib": 3775,
      "é¼ĵ": 3776,
      "Ð¾Ð": 3777,
      "çĬ¯": 3778,
      "èĶ": 3779,
      "Ġhist": 3780,
      "ten": 3781,
      "oor": 3782,
      "å·¨": 3783,
      "Ġsw": 3784,
      "ification": 3785,
      "rop": 3786,
      "Ġconne": 3787,
      "èĦĤ": 3788,
      "Ġ30": 3789,
      "();": 3790,
      "èĤĮ": 3791,
      "Ġpath": 3792,
      "å®½": 3793,
      "'d": 3794,
      "isk": 3795,
      "Ġwhether": 3796,
      "Ġproduct": 3797,
      "ä¹Łæľī": 3798,
      "Ġview": 3799,
      "ples": 3800,
      "è·ĳ": 3801,
      "77": 3802,
      "çĥĪ": 3803,
      "IC": 3804,
      "ctor": 3805,
      "åĢº": 3806,
      "æĬĺ": 3807,
      "é¾Ħ": 3808,
      "åĨħæł¸": 3809,
      "As": 3810,
      "åĮºåŁŁ": 3811,
      "ç®±": 3812,
      "Ġposition": 3813,
      "èĪŀ": 3814,
      "Ġcharacter": 3815,
      "éĩĬ": 3816,
      "çĶŁåĳ½": 3817,
      "åĬŀæ³ķ": 3818,
      "çļĦæĥħåĨµ": 3819,
      "ç½ª": 3820,
      "Ġque": 3821,
      "Ġhard": 3822,
      "ĠFr": 3823,
      "ream": 3824,
      "æĢķ": 3825,
      "Ġvers": 3826,
      "åıªè¦ģ": 3827,
      "na": 3828,
      "And": 3829,
      "ĠAll": 3830,
      "è§Ħæ¨¡": 3831,
      "Ġ#": 3832,
      "æİ¨åĬ¨": 3833,
      "elta": 3834,
      "Ġfail": 3835,
      "éģ¿åħį": 3836,
      "çĶŁæĢģ": 3837,
      "æµª": 3838,
      "é©¾": 3839,
      "æ»¡è¶³": 3840,
      "Ġexpect": 3841,
      "çĶ°": 3842,
      "ä½ĵèĤ²": 3843,
      "Ġpossible": 3844,
      "onse": 3845,
      "####": 3846,
      "æ·±åħ¥": 3847,
      "Ġinvol": 3848,
      "Ġdidn": 3849,
      "ç³»åĪĹ": 3850,
      "Ġhaving": 3851,
      "åİļ": 3852,
      "Ġrecord": 3853,
      "å«": 3854,
      "ocument": 3855,
      "Ġdays": 3856,
      "$$": 3857,
      "amma": 3858,
      "ĠSo": 3859,
      "Ġconsider": 3860,
      "åĪĨåĪ«": 3861,
      "Ġalways": 3862,
      "ĠEx": 3863,
      "çī¹èī²": 3864,
      "èĹı": 3865,
      "Ġfile": 3866,
      "è¯ļ": 3867,
      "å¼ķå¯¼": 3868,
      "Ġproblem": 3869,
      "ç§Ł": 3870,
      "é£Łåĵģ": 3871,
      "éĿ¢ç§¯": 3872,
      "ä¼ĺç§Ģ": 3873,
      "æ¯ķä¸ļ": 3874,
      "Ġuntil": 3875,
      "Ġsever": 3876,
      "æİī": 3877,
      "action": 3878,
      "å¸¦æĿ¥": 3879,
      "ç¦ģ": 3880,
      "ien": 3881,
      "Ġside": 3882,
      "å²Ĺä½į": 3883,
      "ç¼©": 3884,
      "éĥ½ä¼ļ": 3885,
      "Ġopp": 3886,
      "Ġreason": 3887,
      "Ġgive": 3888,
      "Ġ11": 3889,
      "Ġself": 3890,
      "ä¸įå°ĳ": 3891,
      "æ¡¥": 3892,
      "Ġrese": 3893,
      "Ġcalled": 3894,
      "Ġfeel": 3895,
      "Ġwon": 3896,
      "è¿Ļä¹Ī": 3897,
      "ĠTo": 3898,
      "ormal": 3899,
      "æĿ¨": 3900,
      "éĢĶ": 3901,
      "Ġmus": 3902,
      "Ġknown": 3903,
      "ĠâĢ": 3904,
      "éĩĩåıĸ": 3905,
      "Ġtot": 3906,
      "è¯´æĺİ": 3907,
      "Ġvol": 3908,
      "cur": 3909,
      "ÃŃ": 3910,
      "AS": 3911,
      "ç«Ł": 3912,
      "è¯Ĺ": 3913,
      "å¼¹": 3914,
      "ambda": 3915,
      "rain": 3916,
      "2019": 3917,
      "ending": 3918,
      "è¡¡": 3919,
      "aut": 3920,
      "ä¸»åĬ¨": 3921,
      "ison": 3922,
      "Ġevidence": 3923,
      "åħ¨çĲĥ": 3924,
      "ç¡®ä¿Ŀ": 3925,
      "æ´²": 3926,
      "æĪĺçķ¥": 3927,
      "à¤": 3928,
      "æ¯ıä¸ª": 3929,
      "ware": 3930,
      "86": 3931,
      "çº·": 3932,
      "46": 3933,
      "åĴ¨": 3934,
      "Ġbig": 3935,
      "Ġquestion": 3936,
      "Ġimpro": 3937,
      "opy": 3938,
      "å±ŀäºİ": 3939,
      "åºĶå½ĵ": 3940,
      "ung": 3941,
      "åĬŀåħ¬": 3942,
      "Ġhuman": 3943,
      "Ġprom": 3944,
      "ä½įç½®": 3945,
      "å¾Ħ": 3946,
      "Ġrepresent": 3947,
      "åĳ¼": 3948,
      "che": 3949,
      "æķ´ä¸ª": 3950,
      "Ġbuild": 3951,
      "ä¸įåĪ°": 3952,
      "åģı": 3953,
      "åľĨ": 3954,
      "Ġ17": 3955,
      "Ġavail": 3956,
      "pi": 3957,
      "éļĲ": 3958,
      "éĵ¾": 3959,
      "åĴ¨è¯¢": 3960,
      "ances": 3961,
      "ä¸Ģå®ļè¦ģ": 3962,
      "mun": 3963,
      "ask": 3964,
      "è±Ĩ": 3965,
      "è¯Ńè¨Ģ": 3966,
      "igma": 3967,
      "ault": 3968,
      "åĵĪ": 3969,
      "add": 3970,
      "åĦ¿ç«¥": 3971,
      "åİħ": 3972,
      "Ġdue": 3973,
      "Ã³": 3974,
      "acy": 3975,
      "è´¹çĶ¨": 3976,
      "æĦıè§ģ": 3977,
      "Ġorgan": 3978,
      "aces": 3979,
      "ä¹³": 3980,
      "åĨĮ": 3981,
      "ĠĠĠĠĠĠĠĠĠĠĠ": 3982,
      "alse": 3983,
      "ividual": 3984,
      "Ġcour": 3985,
      "ÃĹ": 3986,
      "iod": 3987,
      "åĸĿ": 3988,
      "çīĻ": 3989,
      "Ġaway": 3990,
      "åĿĢ": 3991,
      "è¾ĳ": 3992,
      "AC": 3993,
      "ä¸»ä»»": 3994,
      "ling": 3995,
      "au": 3996,
      "hy": 3997,
      "But": 3998,
      "æ¶Īè´¹èĢħ": 3999,
      "ä½łä»¬": 4000,
      "ological": 4001,
      "å½ĵçĦ¶": 4002,
      "é½Ĳ": 4003,
      "ç¼ĵ": 4004,
      "Ġtreatment": 4005,
      "ãĢĭï¼Į": 4006,
      "ä»¥æĿ¥": 4007,
      "å½»": 4008,
      "ç»Łä¸Ģ": 4009,
      "Ġkeep": 4010,
      "ä»¥åĲİ": 4011,
      "æ´¾": 4012,
      "åħļåĳĺ": 4013,
      "ä¸ĢçĤ¹": 4014,
      "play": 4015,
      "åĩĿ": 4016,
      "è¿ĲçĶ¨": 4017,
      "åį·": 4018,
      "ä½ľä¸ļ": 4019,
      "mu": 4020,
      "ç¤¾åĮº": 4021,
      "To": 4022,
      "éĢŁåº¦": 4023,
      "2016": 4024,
      "Ġfree": 4025,
      "aring": 4026,
      "å°ģ": 4027,
      "iron": 4028,
      "çĶµè§Ĩ": 4029,
      "Ġsize": 4030,
      "èĨľ": 4031,
      "åįģåĪĨ": 4032,
      "æķħäºĭ": 4033,
      "æĪĲéķ¿": 4034,
      "åħ´è¶£": 4035,
      "IS": 4036,
      "Ġlater": 4037,
      "æľºåħ³": 4038,
      "Ġ--": 4039,
      "Â°": 4040,
      "Ġrad": 4041,
      "Ġsum": 4042,
      "çĶµå½±": 4043,
      "Ġ{\\": 4044,
      "ajor": 4045,
      "Ġfurther": 4046,
      "æľĢç»Ī": 4047,
      "éĩįè¦ģçļĦ": 4048,
      "æĬĢèĥ½": 4049,
      "label": 4050,
      "Ġshown": 4051,
      "Ġdiv": 4052,
      "cont": 4053,
      "raw": 4054,
      "ait": 4055,
      "éĨĴ": 4056,
      "though": 4057,
      "}^{": 4058,
      "rem": 4059,
      "rences": 4060,
      "Ġbook": 4061,
      "etic": 4062,
      "ç½ĳç«Ļ": 4063,
      "icle": 4064,
      "Ġlocal": 4065,
      "ĠGr": 4066,
      "å¡«": 4067,
      "æĬ¥åĲį": 4068,
      "çļĦé«ĺ": 4069,
      "%ãĢĤ": 4070,
      "hing": 4071,
      "epend": 4072,
      "éĩįè§Ĩ": 4073,
      "Ġfamily": 4074,
      "æī¶": 4075,
      "bar": 4076,
      "é¢ľ": 4077,
      "imal": 4078,
      "èģĶç½ĳ": 4079,
      "åĨ°": 4080,
      "è´¦": 4081,
      "èī¯å¥½çļĦ": 4082,
      "éŁ³ä¹Ĳ": 4083,
      "Ġinit": 4084,
      "ED": 4085,
      "Ġsingle": 4086,
      "94": 4087,
      "If": 4088,
      "ĠUnited": 4089,
      "é¹": 4090,
      "egin": 4091,
      "è®¾æĸ½": 4092,
      "èıĮ": 4093,
      "å®«": 4094,
      "åĤ¨": 4095,
      "èĻļ": 4096,
      "åĮĸçļĦ": 4097,
      "å°¤åħ¶": 4098,
      "ĠAd": 4099,
      "åĪº": 4100,
      "02": 4101,
      "çľŁçļĦ": 4102,
      "outh": 4103,
      "idd": 4104,
      "è§Ĥå¯Ł": 4105,
      "èĢĥçĶŁ": 4106,
      "Ġexpression": 4107,
      "Ġtell": 4108,
      "Ġmain": 4109,
      "æ»ĳ": 4110,
      "Ġelse": 4111,
      "Ġey": 4112,
      "sel": 4113,
      "åĩºçļĦ": 4114,
      "ograph": 4115,
      "Ġoffic": 4116,
      "ready": 4117,
      "ser": 4118,
      "è¾ħ": 4119,
      "Ġprevious": 4120,
      "æĢ»ç»ĵ": 4121,
      "è´¸": 4122,
      "åŃķ": 4123,
      "é«ĺçļĦ": 4124,
      "åĨł": 4125,
      "çİī": 4126,
      "æŃ£åľ¨": 4127,
      "çī©è´¨": 4128,
      "å¥¥": 4129,
      "ember": 4130,
      "pone": 4131,
      "ç¯ĩ": 4132,
      "ä½ĵéªĮ": 4133,
      "ä¸»é¢ĺ": 4134,
      "Ġfri": 4135,
      "ĠMr": 4136,
      "é£Łçī©": 4137,
      "....": 4138,
      "ä¹Ļ": 4139,
      "********": 4140,
      "mathbb": 4141,
      "col": 4142,
      "Cl": 4143,
      "87": 4144,
      "çļĦæĹ¶éĹ´": 4145,
      "usion": 4146,
      "ift": 4147,
      "å°¿": 4148,
      "Ġnet": 4149,
      "ĠThat": 4150,
      "é¸¡": 4151,
      "uff": 4152,
      "indow": 4153,
      "Ġtrue": 4154,
      "Ġtimes": 4155,
      "Ġorig": 4156,
      "Ġcomb": 4157,
      "æĸĩæĺİ": 4158,
      "Ġfar": 4159,
      "âĪĴ": 4160,
      "çĻĮ": 4161,
      "éĿ¢çļĦ": 4162,
      "åĨ¬": 4163,
      "Ġeither": 4164,
      "çº¯": 4165,
      "Ġseveral": 4166,
      "é©¶": 4167,
      "ĠAt": 4168,
      "Ġmar": 4169,
      "æĥł": 4170,
      "è¿Ĳè¡Į": 4171,
      "04": 4172,
      "ĠThese": 4173,
      "ressed": 4174,
      "}_": 4175,
      "èĥĥ": 4176,
      "å¹´æĿ¥": 4177,
      "Ġindividual": 4178,
      "ä¸įåĲĮçļĦ": 4179,
      "è®¾ç½®": 4180,
      "Ġpred": 4181,
      "çŁ¿": 4182,
      "Ġcirc": 4183,
      "ext": 4184,
      "ä¹ı": 4185,
      "Ġlik": 4186,
      "mat": 4187,
      "Ġsimilar": 4188,
      "ĠBl": 4189,
      "å¹¶ä¸į": 4190,
      "resp": 4191,
      "HE": 4192,
      "è¡ĮåĬ¨": 4193,
      "Ġprogram": 4194,
      "æī¬": 4195,
      "67": 4196,
      "ä¹±": 4197,
      "go": 4198,
      "ĠUS": 4199,
      "æĿ¥çľĭ": 4200,
      "éĽª": 4201,
      "Ġgeneral": 4202,
      "ä¹Łä¼ļ": 4203,
      "nd": 4204,
      "Com": 4205,
      "Ġpay": 4206,
      "iment": 4207,
      "éķľ": 4208,
      "=\\": 4209,
      "åĳĬè¯ī": 4210,
      "Ġ</": 4211,
      "ohn": 4212,
      "æ²ī": 4213,
      "},": 4214,
      "Ġprovide": 4215,
      "alf": 4216,
      "ĠInd": 4217,
      "æ¹¿": 4218,
      "sw": 4219,
      "Ġvi": 4220,
      "æĻ®éĢļ": 4221,
      "éĿ¢å¯¹": 4222,
      "ched": 4223,
      "å¸Ń": 4224,
      "itor": 4225,
      "ai": 4226,
      "Ġmeans": 4227,
      "éĽĨä¸Ń": 4228,
      "å°Ĭ": 4229,
      "çĪĨ": 4230,
      "Ġcost": 4231,
      "ç§ģ": 4232,
      "è¶ĭ": 4233,
      "å¢Ļ": 4234,
      "2015": 4235,
      "inf": 4236,
      "aken": 4237,
      "æļĸ": 4238,
      "ĠCol": 4239,
      "èĤ¯": 4240,
      "Ġappear": 4241,
      "iversity": 4242,
      "Ġable": 4243,
      "éģĹ": 4244,
      "Ġunderstand": 4245,
      "ĠLe": 4246,
      "Ġsure": 4247,
      "ered": 4248,
      "æĬ½": 4249,
      "ç½ļ": 4250,
      "ĠWhen": 4251,
      "Ġmove": 4252,
      "Ġalong": 4253,
      "Ġweek": 4254,
      "æľĢå¤§": 4255,
      "Ġbusiness": 4256,
      "ä¸įè¶³": 4257,
      "èĥŀ": 4258,
      "iple": 4259,
      "ĠCourt": 4260,
      "}_{": 4261,
      "åı¦å¤ĸ": 4262,
      "éģį": 4263,
      "oney": 4264,
      "èĢĥæł¸": 4265,
      "Ġcode": 4266,
      "Ġavailable": 4267,
      "Ġabs": 4268,
      "æĹ§": 4269,
      "Ġbody": 4270,
      "åĪ¸": 4271,
      "ergy": 4272,
      "begin": 4273,
      "å°ıåŃ¦": 4274,
      "çĽ¸ä¿¡": 4275,
      "æĺł": 4276,
      "ued": 4277,
      "Ġupon": 4278,
      "Ġwar": 4279,
      "nal": 4280,
      "ocial": 4281,
      "('": 4282,
      "éĽ·": 4283,
      "è´¯": 4284,
      "å±ĭ": 4285,
      "Ġplan": 4286,
      "è§Ĩé¢ĳ": 4287,
      "æĢĿç»´": 4288,
      "ĠStates": 4289,
      "~~": 4290,
      "Ġjud": 4291,
      "xx": 4292,
      "å²Ľ": 4293,
      "æīĭæľ¯": 4294,
      "çĲĨå¿µ": 4295,
      "back": 4296,
      "Ġ25": 4297,
      "Ġfull": 4298,
      "æĤī": 4299,
      "ours": 4300,
      "ĠSp": 4301,
      "Ġcho": 4302,
      "org": 4303,
      "osp": 4304,
      "å¯»": 4305,
      "å½ĵæĹ¶": 4306,
      "ä¸īä¸ª": 4307,
      "Ġchildren": 4308,
      "Ġemploy": 4309,
      "Ġmaterial": 4310,
      "Ġshort": 4311,
      "éĤ£äºĽ": 4312,
      "è´Ńä¹°": 4313,
      "oups": 4314,
      "ä¸Ńå¤®": 4315,
      "ored": 4316,
      "æĢĿèĢĥ": 4317,
      "ley": 4318,
      "ume": 4319,
      "æĮĳ": 4320,
      "åĽ¢éĺŁ": 4321,
      "åķĨä¸ļ": 4322,
      "æĿ¥æºĲ": 4323,
      "åĪ«äºº": 4324,
      "èĲ¥åħ»": 4325,
      "Ġsequ": 4326,
      "ĠMar": 4327,
      "åĪĽä¸ļ": 4328,
      "åĨħéĥ¨": 4329,
      "è®°å½ķ": 4330,
      "ering": 4331,
      "ister": 4332,
      "ä¸ĭæĿ¥": 4333,
      "Ġschool": 4334,
      "å¤ļçļĦ": 4335,
      "Ġ13": 4336,
      "Ġwhy": 4337,
      "è´¢åĬ¡": 4338,
      "æĸ°éĹ»": 4339,
      "Ġamong": 4340,
      "Ġphys": 4341,
      "æģ¶": 4342,
      "ler": 4343,
      "enc": 4344,
      "ried": 4345,
      "Ġgame": 4346,
      "èĩªæĪĳ": 4347,
      "unt": 4348,
      "cle": 4349,
      "ney": 4350,
      "rist": 4351,
      "mon": 4352,
      "é¡µ": 4353,
      "AP": 4354,
      "å·§": 4355,
      "Ġdiff": 4356,
      "Ġinfl": 4357,
      "Ġthough": 4358,
      "åĢį": 4359,
      "ns": 4360,
      "è´¥": 4361,
      "æľĿ": 4362,
      "Ġhigher": 4363,
      "æĿ¥èĩª": 4364,
      "æł·çļĦ": 4365,
      "è®Ńç»ĥ": 4366,
      "Ġstudies": 4367,
      "åħ¨éĥ¨": 4368,
      "Ġcertain": 4369,
      "orth": 4370,
      "Ġtold": 4371,
      "Ġalready": 4372,
      "opt": 4373,
      "ising": 4374,
      "itted": 4375,
      "Ġthing": 4376,
      "Ġcame": 4377,
      "å¤ļå°ĳ": 4378,
      "èĢĲ": 4379,
      "åĽ°éļ¾": 4380,
      "no": 4381,
      "å³°": 4382,
      "Ġsat": 4383,
      "æ°§": 4384,
      "åģ¿": 4385,
      "Ġperiod": 4386,
      "åķĨåĵģ": 4387,
      "yle": 4388,
      "Ġspecific": 4389,
      "å¾Ģå¾Ģ": 4390,
      "Ġvalues": 4391,
      "Ġhold": 4392,
      "angle": 4393,
      "illion": 4394,
      "div": 4395,
      "å¿«éĢŁ": 4396,
      "];": 4397,
      "ards": 4398,
      "éĺ»": 4399,
      "Ġeng": 4400,
      "éĢĤåĲĪ": 4401,
      "}$$": 4402,
      "Ġenough": 4403,
      "empt": 4404,
      "Ġsent": 4405,
      "sum": 4406,
      "å¦ĤæŃ¤": 4407,
      "èģĮå·¥": 4408,
      "ç§ĭ": 4409,
      "phi": 4410,
      "Ġarea": 4411,
      "Ġdone": 4412,
      "èµĦæł¼": 4413,
      "èĤĿ": 4414,
      "Î±": 4415,
      "Ġmajor": 4416,
      "For": 4417,
      "side": 4418,
      "Ġben": 4419,
      "çĶŁçļĦ": 4420,
      "äºĭæķħ": 4421,
      "åĬĽçļĦ": 4422,
      "iving": 4423,
      "åĩłä¸ª": 4424,
      "idth": 4425,
      "mp": 4426,
      "Ã¶": 4427,
      "mit": 4428,
      "Ġmom": 4429,
      "oper": 4430,
      "Ġproject": 4431,
      "åĪ¶éĢł": 4432,
      "æī£": 4433,
      "Ġcases": 4434,
      "ape": 4435,
      "åĽ¾çīĩ": 4436,
      "eb": 4437,
      "Ġsuper": 4438,
      "æķı": 4439,
      "ãĢģâĢľ": 4440,
      "Ġinf": 4441,
      "çĽ¸å¯¹": 4442,
      "æ¾": 4443,
      "aligned": 4444,
      "ĠRes": 4445,
      "å®īè£ħ": 4446,
      "vent": 4447,
      "Ġaction": 4448,
      "åħ¬åħ±": 4449,
      "eps": 4450,
      "data": 4451,
      "æ·»": 4452,
      "Ġ100": 4453,
      "Ġgovernment": 4454,
      "Ġkey": 4455,
      "Tr": 4456,
      "Ġoften": 4457,
      "Ġdesign": 4458,
      "olution": 4459,
      "mission": 4460,
      "å¥ĭ": 4461,
      "mod": 4462,
      "æĿĢ": 4463,
      "03": 4464,
      "æķĪçİĩ": 4465,
      "aster": 4466,
      "Ġdise": 4467,
      "68": 4468,
      "ustom": 4469,
      "å°±ä¸ļ": 4470,
      "è¿ĩåİ»": 4471,
      "erc": 4472,
      "ament": 4473,
      "49": 4474,
      "lected": 4475,
      "cd": 4476,
      "åŁºéĩĳ": 4477,
      "ari": 4478,
      "sq": 4479,
      "ries": 4480,
      "Ġstrong": 4481,
      "æ¢°": 4482,
      "Ġkind": 4483,
      "å§Ĳ": 4484,
      "æĮĤ": 4485,
      "Ġpri": 4486,
      "Ġprim": 4487,
      "Ġparam": 4488,
      "åĪ¶ä½ľ": 4489,
      "Ġteam": 4490,
      "èĤł": 4491,
      "Ġtotal": 4492,
      "æĩĤ": 4493,
      "èĢĮæĺ¯": 4494,
      "ä¼ģä¸ļçļĦ": 4495,
      "Ġlot": 4496,
      "çĶ¨äºİ": 4497,
      "most": 4498,
      "42": 4499,
      "åĲĦé¡¹": 4500,
      "utes": 4501,
      "è·Į": 4502,
      "ç»Łè®¡": 4503,
      "æľīä¸Ģ": 4504,
      "Ġlay": 4505,
      "Ġcrit": 4506,
      "ä»ĸä»¬çļĦ": 4507,
      "Ġexist": 4508,
      "Ġele": 4509,
      "Ġreview": 4510,
      "Ġport": 4511,
      "Ġsays": 4512,
      "urs": 4513,
      "åľŁåľ°": 4514,
      "åĪ©çĽĬ": 4515,
      "ounds": 4516,
      "èĩªåĬ¨": 4517,
      "fficient": 4518,
      "Ġsubject": 4519,
      "ç»ĦæĪĲ": 4520,
      "Ġmor": 4521,
      "-\\": 4522,
      "Ġmass": 4523,
      "èĵĿ": 4524,
      "II": 4525,
      "Ġcoun": 4526,
      "ĠOr": 4527,
      "åĵ¥": 4528,
      "2014": 4529,
      "åħĪè¿Ľ": 4530,
      "ĠCal": 4531,
      "Ġcourse": 4532,
      "Ġfore": 4533,
      "ands": 4534,
      "Ġpract": 4535,
      "åĭ¤": 4536,
      "ç»ª": 4537,
      "èĲ¥éĶĢ": 4538,
      "2012": 4539,
      "Ġrate": 4540,
      "åĶ±": 4541,
      "08": 4542,
      "chan": 4543,
      "åĬĽéĩı": 4544,
      "èĭ±è¯Ń": 4545,
      "Ġtarget": 4546,
      "ubl": 4547,
      "_\\": 4548,
      "Ġhowever": 4549,
      "Ġsens": 4550,
      "å¼ĢæĶ¾": 4551,
      "Ġneg": 4552,
      "å¥³æĢ§": 4553,
      "åŃ©åŃĲçļĦ": 4554,
      "çŀ": 4555,
      "Ġaccess": 4556,
      "ç§ĺ": 4557,
      "æķ°åŃ¦": 4558,
      "Ġpress": 4559,
      "af": 4560,
      "çŃĶæ¡Ī": 4561,
      "ables": 4562,
      "69": 4563,
      "No": 4564,
      "æĹłè®º": 4565,
      "Ġsuccess": 4566,
      "èĢ³": 4567,
      "æľ«": 4568,
      "Ġlevels": 4569,
      "Ġair": 4570,
      "è¯ģæĺİ": 4571,
      "å®Ŀå®Ŀ": 4572,
      "è¿·": 4573,
      "Ġwomen": 4574,
      "Ġtook": 4575,
      "äºĴèģĶç½ĳ": 4576,
      "Ġpriv": 4577,
      "Ġseen": 4578,
      "43": 4579,
      "ä¸ºä¸»": 4580,
      "æĭŁ": 4581,
      "RO": 4582,
      "Ġtrial": 4583,
      "å¾ª": 4584,
      "å°¼": 4585,
      "aug": 4586,
      "ii": 4587,
      "How": 4588,
      "Ġmil": 4589,
      "æ´ĭ": 4590,
      "æĶ¹åĸĦ": 4591,
      "ç¿»": 4592,
      "ä¸Ģå®ļçļĦ": 4593,
      "ä¹¦è®°": 4594,
      "æĹ¥å¸¸": 4595,
      "éĻĨ": 4596,
      "çªĹ": 4597,
      "ique": 4598,
      "ores": 4599,
      "Ġerror": 4600,
      "Ġpolit": 4601,
      "Ġdiscuss": 4602,
      "å°±åı¯ä»¥": 4603,
      "ç»Ĩèĥŀ": 4604,
      "æĶ¯ä»ĺ": 4605,
      "Ġmanag": 4606,
      "Ġtalk": 4607,
      "éĢļçŁ¥": 4608,
      "ogn": 4609,
      "Ġ>": 4610,
      "åıªèĥ½": 4611,
      "æ®Ĭ": 4612,
      "2013": 4613,
      "éº»": 4614,
      "è¯¦": 4615,
      "ä¼į": 4616,
      "Ġ!": 4617,
      "ened": 4618,
      "æ³Ľ": 4619,
      "bo": 4620,
      "ibility": 4621,
      "æĪĲäºĨ": 4622,
      "åĵªäºĽ": 4623,
      "éĩįå¤§": 4624,
      "Ġple": 4625,
      "æĥĬ": 4626,
      "ales": 4627,
      "uit": 4628,
      "èįĲ": 4629,
      "use": 4630,
      "sequ": 4631,
      "å´": 4632,
      "Ġroom": 4633,
      "78": 4634,
      "Ġdom": 4635,
      "ET": 4636,
      "çĩĥ": 4637,
      "èĪĴ": 4638,
      "æĹ¥æľ¬": 4639,
      "Ġinvestig": 4640,
      "ids": 4641,
      "ivity": 4642,
      "Ġnight": 4643,
      "çĹĩçĬ¶": 4644,
      "éļĶ": 4645,
      "Ġenc": 4646,
      "æ½ľ": 4647,
      "å¹¸ç¦ı": 4648,
      "Ġenergy": 4649,
      "åŃĶ": 4650,
      "asing": 4651,
      "ç»ĵæĿŁ": 4652,
      "æľīäºĨ": 4653,
      "Ġlo": 4654,
      "Ġassociated": 4655,
      "çĥ§": 4656,
      "Ġdefend": 4657,
      "Ġfac": 4658,
      "Ġbeg": 4659,
      "å¼ĥ": 4660,
      "uppose": 4661,
      "æ²ŁéĢļ": 4662,
      "çħ¤": 4663,
      "Ġspace": 4664,
      "å§Ķåĳĺ": 4665,
      "å½¢è±¡": 4666,
      "usep": 4667,
      "Ġcaus": 4668,
      "usepackage": 4669,
      "ush": 4670,
      "Ġevent": 4671,
      "ĠBe": 4672,
      "æĬķåħ¥": 4673,
      "Ð»": 4674,
      "On": 4675,
      "Ġrepl": 4676,
      "éĩİ": 4677,
      "Ġver": 4678,
      "å·Ŀ": 4679,
      "Ġreported": 4680,
      "åĭĩ": 4681,
      "ĠĠĠĠĠĠĠĠĠ": 4682,
      "Ġage": 4683,
      "Ġ==": 4684,
      "ä½ĵçļĦ": 4685,
      "åıĤèĢĥ": 4686,
      "cted": 4687,
      "çĽĽ": 4688,
      "}^": 4689,
      "Ġresponse": 4690,
      "å¿ħè¦ģ": 4691,
      "Ġphot": 4692,
      "æ°ĳæĹı": 4693,
      "çĤ¼": 4694,
      "uation": 4695,
      "å¹ķ": 4696,
      "éŁ©": 4697,
      "key": 4698,
      "93": 4699,
      "èª": 4700,
      "æĪĲç«ĭ": 4701,
      "gether": 4702,
      "Ġtogether": 4703,
      "æ³¡": 4704,
      "ä½ĵçİ°": 4705,
      "ç¾İåħĥ": 4706,
      "07": 4707,
      "åı¬": 4708,
      "rug": 4709,
      "Ġonce": 4710,
      "verage": 4711,
      "pm": 4712,
      "AM": 4713,
      "æł¹æľ¬": 4714,
      "åŃ¦ä¼ļ": 4715,
      "table": 4716,
      "ä¼Ļ": 4717,
      "ators": 4718,
      "AD": 4719,
      "LL": 4720,
      "lambda": 4721,
      "æ¥ļ": 4722,
      "http": 4723,
      "ged": 4724,
      "Ġhouse": 4725,
      "èµĦæľ¬": 4726,
      "ç»´æĬ¤": 4727,
      "})": 4728,
      "Ġbit": 4729,
      "ories": 4730,
      "éģĵè·¯": 4731,
      "æĪª": 4732,
      "ribution": 4733,
      "Ġwent": 4734,
      "bib": 4735,
      "stit": 4736,
      "Ġlower": 4737,
      "Ġaccount": 4738,
      "conom": 4739,
      "çĽ¸åºĶ": 4740,
      "viron": 4741,
      "è½¯ä»¶": 4742,
      "æĸ¹éĿ¢çļĦ": 4743,
      "å°ıç»Ħ": 4744,
      "ians": 4745,
      "Ġmaking": 4746,
      "å¹¿å¤§": 4747,
      "unction": 4748,
      "Ġlove": 4749,
      "Ġearly": 4750,
      "Al": 4751,
      "éĩĮçļĦ": 4752,
      "iver": 4753,
      "Ġgroups": 4754,
      "éĹŃ": 4755,
      "ä¹ĺ": 4756,
      "è¿ħ": 4757,
      "åı¯æĺ¯": 4758,
      "æļ´": 4759,
      "cret": 4760,
      "ux": 4761,
      "Ġ)": 4762,
      "Ġwrit": 4763,
      "çİ¯èĬĤ": 4764,
      "èĥ¶": 4765,
      "92": 4766,
      "è½¦è¾Ĩ": 4767,
      "æ£Ģæµĭ": 4768,
      "Ġamount": 4769,
      "uf": 4770,
      "ony": 4771,
      "ç»ķ": 4772,
      "wh": 4773,
      "çĽŁ": 4774,
      "¹ģ": 4775,
      "Ġcompared": 4776,
      "éĺ´": 4777,
      "Ġpotential": 4778,
      "57": 4779,
      "Ġactivity": 4780,
      "56": 4781,
      "ä¸ĭéĻį": 4782,
      "Ġdevelopment": 4783,
      "ception": 4784,
      "åĬłåħ¥": 4785,
      "é¢Ħéĺ²": 4786,
      "ival": 4787,
      "Ġrequired": 4788,
      "èĦı": 4789,
      "Ġever": 4790,
      "Ġinj": 4791,
      "åĬ¨åĬĽ": 4792,
      "itle": 4793,
      "ocus": 4794,
      "åĳĪ": 4795,
      "Ġaff": 4796,
      "Ġface": 4797,
      "å¡ĳ": 4798,
      "è®¨è®º": 4799,
      "%)": 4800,
      "Ġ||": 4801,
      "å¿ĺ": 4802,
      "å°ıç¼ĸ": 4803,
      "å¤§å¤ļ": 4804,
      "æĿ¯": 4805,
      "çģ¾": 4806,
      "Ġconv": 4807,
      "Ġacross": 4808,
      "æ±¡æŁĵ": 4809,
      "æķ¢": 4810,
      "return": 4811,
      "ä¸ĭçļĦ": 4812,
      "Ġmicro": 4813,
      "çļĦæĸ¹æ³ķ": 4814,
      "ä¼Ł": 4815,
      "æĭĵ": 4816,
      "Ġterms": 4817,
      "äºĭæĥħ": 4818,
      "è¡¨è¾¾": 4819,
      "Un": 4820,
      "ç¹ģ": 4821,
      "Ġlog": 4822,
      "Ġann": 4823,
      "åħ¬å¼Ģ": 4824,
      "çļĦåŁºç¡Ģ": 4825,
      "æİ¨èįĲ": 4826,
      "Name": 4827,
      "angu": 4828,
      "essage": 4829,
      "Ġworking": 4830,
      "éĽĦ": 4831,
      "çĶŁçī©": 4832,
      "èĥ¡": 4833,
      "Ġfinal": 4834,
      "å¹³åĿĩ": 4835,
      "ga": 4836,
      "sub": 4837,
      "ä¸įçŁ¥éģĵ": 4838,
      "iction": 4839,
      "å¹´è½»": 4840,
      "çļĦæĸ°": 4841,
      "----------------------------------------------------------------": 4842,
      "osis": 4843,
      "æ¢ģ": 4844,
      "çĽĲ": 4845,
      "è°ĵ": 4846,
      "dex": 4847,
      "Ġear": 4848,
      "Ġcult": 4849,
      "Ġrequire": 4850,
      "aintiff": 4851,
      "æĳ©": 4852,
      "Ġnecess": 4853,
      "çĦ¦": 4854,
      "è¿Ľè¡ĮäºĨ": 4855,
      "ä¹ĭéĹ´çļĦ": 4856,
      "Ġ([": 4857,
      "çĽĳç®¡": 4858,
      "Ġdou": 4859,
      "æ¯Ķä¾ĭ": 4860,
      "Ġcheck": 4861,
      "enn": 4862,
      "åĪ©äºİ": 4863,
      "åĬŀçĲĨ": 4864,
      "Ġ${\\": 4865,
      "ĊĠĠĠĠĠĠĠĠĠ": 4866,
      "ĠCo": 4867,
      "41": 4868,
      "ĠState": 4869,
      "æľīäºº": 4870,
      "inter": 4871,
      "Ġdeath": 4872,
      "89": 4873,
      "ĠAmerican": 4874,
      "ection": 4875,
      "atory": 4876,
      "æīĵéĢł": 4877,
      "èĤ¿": 4878,
      "åŁºå±Ĥ": 4879,
      "Ġred": 4880,
      "iation": 4881,
      "Ġrelations": 4882,
      "mber": 4883,
      "ystem": 4884,
      "500": 4885,
      "IG": 4886,
      "æĹĹ": 4887,
      "æĥħç»ª": 4888,
      "Ġvir": 4889,
      "å±ħæ°ĳ": 4890,
      "There": 4891,
      "çĭ¬ç«ĭ": 4892,
      "åįıè°ĥ": 4893,
      "å¾®ä¿¡": 4894,
      "è®©äºº": 4895,
      ".'": 4896,
      "å¼ºåĮĸ": 4897,
      "Ġbecome": 4898,
      "rodu": 4899,
      "åľ°äº§": 4900,
      "Ġpast": 4901,
      "ones": 4902,
      "å¯¹è±¡": 4903,
      "cm": 4904,
      "Ġ([@": 4905,
      "ä¹Łåı¯ä»¥": 4906,
      "è¿ĺè¦ģ": 4907,
      "åĨľæ°ĳ": 4908,
      "Ġexc": 4909,
      "é«ĺæł¡": 4910,
      "medi": 4911,
      "06": 4912,
      "Ġinclude": 4913,
      "æµĵ": 4914,
      "æ·¡": 4915,
      "Ġrisk": 4916,
      "Ġtw": 4917,
      "Ġappe": 4918,
      "ension": 4919,
      "èĦī": 4920,
      "atures": 4921,
      "æĬ¤çĲĨ": 4922,
      "æĮĩæłĩ": 4923,
      "une": 4924,
      "èģĶåĲĪ": 4925,
      "æĺ¯ä¸Ģç§į": 4926,
      "this": 4927,
      "åıįåºĶ": 4928,
      "]).": 4929,
      "clude": 4930,
      "class": 4931,
      "çŃ¹": 4932,
      "ï¼Ľ(": 4933,
      "ĠJohn": 4934,
      "éī": 4935,
      "æīĭæ®µ": 4936,
      "Ġauthor": 4937,
      "éĶħ": 4938,
      "ption": 4939,
      "ç»ıçĲĨ": 4940,
      "éĽħ": 4941,
      "Ġrange": 4942,
      "çĤ¹åĩ»": 4943,
      "ges": 4944,
      "{{\\": 4945,
      "éī´": 4946,
      "è·³": 4947,
      "Ġcomput": 4948,
      "ION": 4949,
      "my": 4950,
      "Ġimage": 4951,
      "\"}).": 4952,
      "OU": 4953,
      "éĢĤåºĶ": 4954,
      "æ³ķéĻ¢": 4955,
      "æķ°éĩı": 4956,
      "ç»ıåİĨ": 4957,
      "ĠUniversity": 4958,
      "Is": 4959,
      "ãĢģãĢĬ": 4960,
      "æŃ£å¼ı": 4961,
      "åĬłå¿«": 4962,
      "Ġdoing": 4963,
      "èħ¹": 4964,
      "head": 4965,
      "2011": 4966,
      "Ġconditions": 4967,
      "Ġasked": 4968,
      "Ġcomplet": 4969,
      "eters": 4970,
      "imate": 4971,
      "åĪĨäº«": 4972,
      "æĢ§èĥ½": 4973,
      "æľĹ": 4974,
      "çī¹æ®Ĭ": 4975,
      "ude": 4976,
      "09": 4977,
      "Ġissue": 4978,
      "oll": 4979,
      "Ġdetail": 4980,
      "istic": 4981,
      "^{-": 4982,
      "æ±ł": 4983,
      "åĲī": 4984,
      "æĭĽèģĺ": 4985,
      "sigma": 4986,
      "æľºæ¢°": 4987,
      "èļ": 4988,
      "Ġ`": 4989,
      "Ġchanges": 4990,
      "Ġdoesn": 4991,
      "Ġmeet": 4992,
      "Ġestabl": 4993,
      "Ġbar": 4994,
      "å¿Ĩ": 4995,
      "Ġdescribed": 4996,
      "bt": 4997,
      "lete": 4998,
      "åĨħçļĦ": 4999,
      "Ġprovided": 5000,
      "uture": 5001,
      "æĥ³è¦ģ": 5002,
      "æĢģåº¦": 5003,
      "čĊ": 5004,
      "Ġ24": 5005,
      "Ġeffects": 5006,
      "å½ĵåľ°": 5007,
      "Ġrespons": 5008,
      "è¯º": 5009,
      "ç¼ºä¹ı": 5010,
      "é¼ĵåĬ±": 5011,
      "Ġobserved": 5012,
      "è®©åŃ¦çĶŁ": 5013,
      "58": 5014,
      "ä¸Ĭå¸Ĥ": 5015,
      "ava": 5016,
      "éħįåĲĪ": 5017,
      "éĢĴ": 5018,
      "å·¥åħ·": 5019,
      "ĠEuro": 5020,
      "å±ı": 5021,
      "çļĦä½ľçĶ¨": 5022,
      "æ½®": 5023,
      "åıĮæĸ¹": 5024,
      "Ġtext": 5025,
      "ç½ĳåıĭ": 5026,
      "Ġmind": 5027,
      "æĦŁåıĹ": 5028,
      "Ġsepar": 5029,
      "irl": 5030,
      "eq": 5031,
      "2010": 5032,
      "åĬłå·¥": 5033,
      "èĢĹ": 5034,
      "Ġfrequ": 5035,
      "èĥĨ": 5036,
      "ĠĊ": 5037,
      "ç»ĻäºĪ": 5038,
      "éŀ": 5039,
      "èĩªä¸»": 5040,
      "å¿«ä¹Ĳ": 5041,
      "Ġcannot": 5042,
      "æ¯«": 5043,
      "Type": 5044,
      "respond": 5045,
      "Ġyet": 5046,
      "Ġep": 5047,
      "Ġaccording": 5048,
      "Ġrole": 5049,
      "ources": 5050,
      "Ġmoney": 5051,
      "Ġtoward": 5052,
      "Ġresearch": 5053,
      "Ġincreased": 5054,
      "èĤ¯å®ļ": 5055,
      "åħĪçĶŁ": 5056,
      "å¤Ħäºİ": 5057,
      "Ġcomplex": 5058,
      "Ġrather": 5059,
      "åĩŃ": 5060,
      "çŃīçŃī": 5061,
      "arrow": 5062,
      "çļĦäºĭæĥħ": 5063,
      "iter": 5064,
      "å¹¿åĳĬ": 5065,
      "Ġsurface": 5066,
      "test": 5067,
      "Ġmechan": 5068,
      "ibr": 5069,
      "åħļçļĦ": 5070,
      "Ġpercent": 5071,
      "elt": 5072,
      "Ġcompany": 5073,
      "hel": 5074,
      "åħµ": 5075,
      "Ġtre": 5076,
      "çĬ¶åĨµ": 5077,
      "atter": 5078,
      "èĩªçĶ±": 5079,
      "Ġincrease": 5080,
      "æ¶Ĥ": 5081,
      "åĲĪæł¼": 5082,
      "Ġmeasure": 5083,
      "æľĢå¥½": 5084,
      "çº¹": 5085,
      "ĠEng": 5086,
      "éĺµ": 5087,
      "ä¸ªæľĪ": 5088,
      "mathbf": 5089,
      "è´·æ¬¾": 5090,
      "nt": 5091,
      "çļĦå½±åĵį": 5092,
      "Ġcou": 5093,
      "ĠMay": 5094,
      "aced": 5095,
      "èµı": 5096,
      "å¿Ļ": 5097,
      "Ġothers": 5098,
      "CC": 5099,
      "åľ°åĿĢ": 5100,
      "Ġconduct": 5101,
      "Ġcountry": 5102,
      "æĳĨ": 5103,
      "ĊĠĠĠĠĠĠĠĠĠĠĠĠĠĠĠĠĠĠĠ": 5104,
      "èħĲ": 5105,
      "Id": 5106,
      "Ġparticip": 5107,
      "illed": 5108,
      "åı¦ä¸Ģ": 5109,
      "æ³¥": 5110,
      "Ġsignal": 5111,
      "èĥ½æºĲ": 5112,
      "çĻ»è®°": 5113,
      "Ġbase": 5114,
      "Ġcompon": 5115,
      "Ġsection": 5116,
      "Ph": 5117,
      "é»ĺ": 5118,
      "beta": 5119,
      "Ġpick": 5120,
      "ilon": 5121,
      "çİ°å®ŀ": 5122,
      "Ġmonths": 5123,
      "><": 5124,
      "è´¢æĶ¿": 5125,
      "å®ĥçļĦ": 5126,
      "æī¿æĭħ": 5127,
      "roid": 5128,
      "ceed": 5129,
      "ï¼ŁâĢĿ": 5130,
      "å·¥èµĦ": 5131,
      "Ġfive": 5132,
      "So": 5133,
      "Ġclear": 5134,
      "æıı": 5135,
      "off": 5136,
      "ä½Ľ": 5137,
      "æ¼«": 5138,
      "Ġservice": 5139,
      "DE": 5140,
      "æŃ¤å¤ĸ": 5141,
      "Ġwhole": 5142,
      "icy": 5143,
      "76": 5144,
      "å®Ĺ": 5145,
      "ĠCar": 5146,
      "Ġprotein": 5147,
      "çĮª": 5148,
      "éģµ": 5149,
      "Ġthird": 5150,
      "rew": 5151,
      "ĠThen": 5152,
      "æĹ¶æľŁ": 5153,
      "pa": 5154,
      "Ġmatter": 5155,
      "Ã¥": 5156,
      "æ´¥": 5157,
      "çļĦæĸ¹å¼ı": 5158,
      "ze": 5159,
      "ucle": 5160,
      "åĪ·": 5161,
      "time": 5162,
      "Ġstructure": 5163,
      "itch": 5164,
      "éĺŁä¼į": 5165,
      "Ġland": 5166,
      "now": 5167,
      "æĸ¹ä¾¿": 5168,
      "å±ķç¤º": 5169,
      "æķ¬": 5170,
      "å¹´é¾Ħ": 5171,
      "span": 5172,
      "Ġnormal": 5173,
      "èħº": 5174,
      "æĢ§åĴĮ": 5175,
      "ç£¨": 5176,
      "ortun": 5177,
      "Ġsoft": 5178,
      "Ġ%": 5179,
      "çªģåĩº": 5180,
      "ey": 5181,
      "èĪ¹": 5182,
      "ĠPr": 5183,
      "Res": 5184,
      "ĠGen": 5185,
      "å¤ļç§į": 5186,
      "Ġuser": 5187,
      "è¿Ļæ¬¡": 5188,
      "Ġsource": 5189,
      "ä¸įå¤Ł": 5190,
      "AG": 5191,
      "ĠOne": 5192,
      "æ¬¢è¿İ": 5193,
      "vironment": 5194,
      "84": 5195,
      "order": 5196,
      "53": 5197,
      "ä¸ĭéĿ¢": 5198,
      "Ġfactors": 5199,
      "Ġcorre": 5200,
      "ogen": 5201,
      "Ġtaken": 5202,
      "ç½ĳä¸Ĭ": 5203,
      "irm": 5204,
      "Ġblood": 5205,
      "Ġcalcul": 5206,
      "Ġjob": 5207,
      "alt": 5208,
      "\\_": 5209,
      "Ġclin": 5210,
      "ãĢĤãĢĲ": 5211,
      "æĹ¦": 5212,
      "ĠCoun": 5213,
      "è¯Ńæĸĩ": 5214,
      "ules": 5215,
      "éľĩ": 5216,
      "åĲ´": 5217,
      "001": 5218,
      "ĠCan": 5219,
      "æĮ¯": 5220,
      "ä¸Ģå¹´": 5221,
      "Ġcut": 5222,
      "ĠBr": 5223,
      "æľĢé«ĺ": 5224,
      "æ¸©åº¦": 5225,
      "91": 5226,
      "å®ĥä»¬": 5227,
      "ops": 5228,
      "æ³¨éĩį": 5229,
      "ino": 5230,
      "Ġid": 5231,
      "su": 5232,
      "83": 5233,
      "æĪĲæŀľ": 5234,
      "±ä¹Ĳ": 5235,
      "ä¼ļæľī": 5236,
      "Ġshowed": 5237,
      "ixed": 5238,
      "Ġsocial": 5239,
      "çļĦä¸»è¦ģ": 5240,
      "Ġstandard": 5241,
      "Ġcy": 5242,
      "Ġcontent": 5243,
      "ä¾Ŀæį®": 5244,
      "æİ¢ç´¢": 5245,
      "Ġagre": 5246,
      "rix": 5247,
      "ä¸Ģä¸ªäºº": 5248,
      "Ġflow": 5249,
      "âĢ¢": 5250,
      "çĦ¶èĢĮ": 5251,
      "Ġ50": 5252,
      "çĴ": 5253,
      "èĳ£": 5254,
      "Ġdri": 5255,
      "ä¸Ńåįİ": 5256,
      "çī¹åĪ«æĺ¯": 5257,
      "ependent": 5258,
      "ĠFig": 5259,
      "minist": 5260,
      "è·¨": 5261,
      "Ġperformed": 5262,
      "åĪĨä¸º": 5263,
      "ground": 5264,
      "èµµ": 5265,
      "ä¸´åºĬ": 5266,
      "Ġhalf": 5267,
      "Ġce": 5268,
      "Ġtemper": 5269,
      "é«ĺåº¦": 5270,
      "ober": 5271,
      "equ": 5272,
      "OT": 5273,
      "è¶ĭåĬ¿": 5274,
      "èĥİ": 5275,
      "ä¾µ": 5276,
      "èµŀ": 5277,
      "ĊĊĠĠĠĠĠĠĠ": 5278,
      "æ²¿": 5279,
      "Ġnothing": 5280,
      "icult": 5281,
      "æĸĩæľ¬": 5282,
      "å½ĵåīį": 5283,
      "mathrm": 5284,
      "Ġanything": 5285,
      "åºŁ": 5286,
      "Ġactually": 5287,
      "å¥¹çļĦ": 5288,
      "äººç±»": 5289,
      "éĢĲæ¸Ĳ": 5290,
      "raft": 5291,
      "åĩ¡": 5292,
      "åĲ¸å¼ķ": 5293,
      "sqrt": 5294,
      "å°¾": 5295,
      "å¦»": 5296,
      "www": 5297,
      "Ġdam": 5298,
      "å¯Ĵ": 5299,
      "æī¾åĪ°": 5300,
      "Ġmultiple": 5301,
      "åħ·å¤ĩ": 5302,
      "åĮ»çĶŁ": 5303,
      "Ġbelow": 5304,
      "å®ŀè¡Į": 5305,
      "ips": 5306,
      "åĬłå¤§": 5307,
      "æīİ": 5308,
      "æ®ĭ": 5309,
      "åĶ¯": 5310,
      "ĠSee": 5311,
      "Ġquant": 5312,
      "Ġsite": 5313,
      "è£ģ": 5314,
      "Ġprior": 5315,
      "Ġspecial": 5316,
      "éĶĻè¯¯": 5317,
      "å¾Īå¤ļäºº": 5318,
      "åĢ¼å¾Ĺ": 5319,
      "éĤ®": 5320,
      ".)": 5321,
      "log": 5322,
      "Ġdemon": 5323,
      "Ġvarious": 5324,
      "54": 5325,
      "è°Ĳ": 5326,
      "å·¥èīº": 5327,
      "éģĩåĪ°": 5328,
      "Ġbenef": 5329,
      "ches": 5330,
      "Ġversion": 5331,
      "bit": 5332,
      "æ¦Ĥå¿µ": 5333,
      "ruction": 5334,
      "ached": 5335,
      "ires": 5336,
      "åĪ©æ¶¦": 5337,
      "æĬµ": 5338,
      "Ġapproach": 5339,
      "ĠRep": 5340,
      "ä¾Ŀæ³ķ": 5341,
      "gment": 5342,
      "Ġut": 5343,
      "Ġsystems": 5344,
      "éĺ²æŃ¢": 5345,
      "Ġbehav": 5346,
      "Ġrequest": 5347,
      "Ġlimit": 5348,
      "52": 5349,
      "åĪĳ": 5350,
      "Ġshows": 5351,
      "ĠWith": 5352,
      "Ġdetect": 5353,
      "éĹ®é¢ĺçļĦ": 5354,
      "abor": 5355,
      "çĶ¨çļĦ": 5356,
      "51": 5357,
      "ç¼´": 5358,
      ".[": 5359,
      "åħ¬å®ī": 5360,
      "æĽ´æĺ¯": 5361,
      "æģ¢": 5362,
      "oph": 5363,
      "date": 5364,
      "é¼»": 5365,
      "è·Ŀç¦»": 5366,
      "ensity": 5367,
      "Ġmoment": 5368,
      "ç©ºæ°Ķ": 5369,
      "Ġer": 5370,
      "ĠAfter": 5371,
      "æķ°åŃĹ": 5372,
      "Ġsyn": 5373,
      "That": 5374,
      "âĢĿãĢģâĢľ": 5375,
      "Ġcorrespond": 5376,
      "Ġclos": 5377,
      "ci": 5378,
      "åħ¬åı¸çļĦ": 5379,
      "Ġregard": 5380,
      "æ°Ľ": 5381,
      "idered": 5382,
      "omet": 5383,
      "æľīçĿĢ": 5384,
      "ï¼ģâĢĿ": 5385,
      "ç¼ĺ": 5386,
      "ä¸Ģä½į": 5387,
      "Ġviol": 5388,
      "æģ©": 5389,
      "äºİæĺ¯": 5390,
      "å¹´åº¦": 5391,
      "çľŁå®ŀ": 5392,
      "æĸĳ": 5393,
      "ING": 5394,
      "æĶ¾åľ¨": 5395,
      "Ġdisease": 5396,
      "æĢ»æĺ¯": 5397,
      "äº¡": 5398,
      "èµ¶": 5399,
      "Ġbreak": 5400,
      "72": 5401,
      "å¹¿æ³Ľ": 5402,
      "ession": 5403,
      "äºĨä¸Ģä¸ª": 5404,
      "Ar": 5405,
      "Ġpositive": 5406,
      "ero": 5407,
      "æľĢè¿ĳ": 5408,
      "Ġfactor": 5409,
      "æĬ¥éģĵ": 5410,
      "éĵº": 5411,
      "Ġmembers": 5412,
      "cular": 5413,
      "å¡ŀ": 5414,
      "ike": 5415,
      "æİ¨å¹¿": 5416,
      "èªī": 5417,
      "æ¶Īæģ¯": 5418,
      "é©¾é©¶": 5419,
      "Ġalmost": 5420,
      "Ġq": 5421,
      "Ġmax": 5422,
      "è´Łè´£äºº": 5423,
      "èµ¢": 5424,
      "ĠĠĠĠĠĠĠĠĠĠ": 5425,
      "imum": 5426,
      "ĠTe": 5427,
      "æĺ¯ä»Ģä¹Ī": 5428,
      "Ġweight": 5429,
      "ĊĊĊ": 5430,
      "è¿ª": 5431,
      "posed": 5432,
      "å¯¹æĸ¹": 5433,
      "èĢħçļĦ": 5434,
      "åĢ¾": 5435,
      "82": 5436,
      "Ċĉĉĉĉ": 5437,
      "Ġfocus": 5438,
      "çİ¯ä¿Ŀ": 5439,
      "éģĵå¾·": 5440,
      "Ġconcer": 5441,
      "Ġlooking": 5442,
      "æĽ¿": 5443,
      "Ġconcent": 5444,
      "pping": 5445,
      "Ġlikely": 5446,
      "ief": 5447,
      "ä¸Ģæĺ¯": 5448,
      "Ġpoints": 5449,
      "Ġspect": 5450,
      "Ġconsidered": 5451,
      "åĩºçīĪ": 5452,
      "æĮĩåĩº": 5453,
      "inary": 5454,
      "å¿ĥçļĦ": 5455,
      "Sh": 5456,
      "}{\\": 5457,
      "ä¸»ä½ĵ": 5458,
      "Ġ(*": 5459,
      "List": 5460,
      "Ġcreate": 5461,
      "æ£®": 5462,
      "è¦": 5463,
      "Ġeval": 5464,
      "è§Ĵåº¦": 5465,
      "åį³åı¯": 5466,
      "âĨ": 5467,
      "æ³¨åĨĮ": 5468,
      "uration": 5469,
      "Ġmarket": 5470,
      "æĬ¢": 5471,
      "åĽºå®ļ": 5472,
      "gamma": 5473,
      "Ġmakes": 5474,
      "âĢ¦": 5475,
      "è¿½æ±Ĥ": 5476,
      "63": 5477,
      "ç»¿èī²": 5478,
      "åŃ¦ç§ĳ": 5479,
      "ĠMy": 5480,
      "td": 5481,
      "è§ĤçĤ¹": 5482,
      "Ċĉĉĉ": 5483,
      "rs": 5484,
      "aff": 5485,
      "æĻĵ": 5486,
      "Ġsix": 5487,
      "Ġobtained": 5488,
      "å¼ºè°ĥ": 5489,
      "Ġfood": 5490,
      "æ³°": 5491,
      "Ġexperience": 5492,
      "èº«ä»½": 5493,
      "where": 5494,
      "OS": 5495,
      "Â±": 5496,
      "æģ¢å¤į": 5497,
      "åºĦ": 5498,
      "å¿ĹæĦ¿": 5499,
      "å¿½": 5500,
      "Ġyoung": 5501,
      "Ġsus": 5502,
      "åŃĻ": 5503,
      "åĶĲ": 5504,
      "onal": 5505,
      ")*": 5506,
      "load": 5507,
      "æĢİæł·": 5508,
      "Ġnear": 5509,
      "Ġclose": 5510,
      "Ġcross": 5511,
      "Ġheart": 5512,
      "æ¸ł": 5513,
      "åĩĨç¡®": 5514,
      "åĲĮæł·": 5515,
      "åŃĲçļĦ": 5516,
      "Ġoccur": 5517,
      "ç¼ĸè¾ĳ": 5518,
      "ĠGod": 5519,
      "Ġblack": 5520,
      "çī©æµģ": 5521,
      "Figure": 5522,
      "å¦Ĥä¸ĭ": 5523,
      "è¿ŀç»Ń": 5524,
      "+\\": 5525,
      "ĠYork": 5526,
      "lim": 5527,
      "iding": 5528,
      "åıįæĺł": 5529,
      "ç½²": 5530,
      "String": 5531,
      "æľīæīĢ": 5532,
      "Ġdat": 5533,
      "Ġhtt": 5534,
      "å¦Ĥä»Ĭ": 5535,
      "Ġrat": 5536,
      "Ġste": 5537,
      "big": 5538,
      "Ġdevice": 5539,
      "è¿Ĳè¾ĵ": 5540,
      "Ġdifficult": 5541,
      "äºĭä»¶": 5542,
      "ĠâĢĺ": 5543,
      "Ġcreat": 5544,
      "Ġdig": 5545,
      "Ġaffect": 5546,
      "59": 5547,
      "åĵģè´¨": 5548,
      "ĠPat": 5549,
      "åŀĭçļĦ": 5550,
      "ror": 5551,
      "79": 5552,
      "Ġdecre": 5553,
      "æ¶Īéĺ²": 5554,
      "Ġtrying": 5555,
      "Ġdemonstr": 5556,
      "but": 5557,
      "Ð°Ð": 5558,
      "æĦŁæŁĵ": 5559,
      "App": 5560,
      "æĽ´å¥½": 5561,
      "çĽ¸äºĴ": 5562,
      "å¤§éĩı": 5563,
      "å»ī": 5564,
      "itting": 5565,
      "æĪĲåĳĺ": 5566,
      "å¼Ł": 5567,
      "è¿ĲèĲ¥": 5568,
      "net": 5569,
      "Ġcustom": 5570,
      "ä¼ĺåĮĸ": 5571,
      "see": 5572,
      "Cont": 5573,
      "cing": 5574,
      "çļĦè¦ģæ±Ĥ": 5575,
      "Ġbelieve": 5576,
      "\")": 5577,
      "Ġsex": 5578,
      "æŃ¤æ¬¡": 5579,
      "åıĺå¾Ĺ": 5580,
      "2000": 5581,
      "Ġadded": 5582,
      "åĲĦç±»": 5583,
      "æĺ¯æĮĩ": 5584,
      "Ġdrug": 5585,
      "ä¸ĢåĪĩ": 5586,
      "body": 5587,
      "Ñĥ": 5588,
      "Ġfuture": 5589,
      "300": 5590,
      "Ġentire": 5591,
      "umber": 5592,
      "Ġsil": 5593,
      ";(": 5594,
      "çļĦåľ°æĸ¹": 5595,
      "comm": 5596,
      "çĶŁç´ł": 5597,
      "Ġtable": 5598,
      "çĽ¸å½ĵ": 5599,
      "è¹": 5600,
      "string": 5601,
      "æĲľ": 5602,
      "åŁºåľ°": 5603,
      "ä»İäºĭ": 5604,
      "Ġcause": 5605,
      "è´Ŀ": 5606,
      "Val": 5607,
      "ĠChrist": 5608,
      "Ġill": 5609,
      "orld": 5610,
      "å°¤åħ¶æĺ¯": 5611,
      "Ġnat": 5612,
      "ideo": 5613,
      "èĤº": 5614,
      "éĿĴå¹´": 5615,
      "Ġproperty": 5616,
      "éĤ£ä¸ª": 5617,
      "struct": 5618,
      "anguage": 5619,
      "CH": 5620,
      "æ±¤": 5621,
      "ulated": 5622,
      "Ġfav": 5623,
      "æĿĨ": 5624,
      "uk": 5625,
      "è±ª": 5626,
      "è¿¹": 5627,
      "ties": 5628,
      "èĽĭçĻ½": 5629,
      "Ġconsist": 5630,
      "Ġmut": 5631,
      "äº«åıĹ": 5632,
      "Ġmagn": 5633,
      "Ġminutes": 5634,
      "Ġhom": 5635,
      "å±¥": 5636,
      "Ġfront": 5637,
      "éĽĨä½ĵ": 5638,
      "Ġintegr": 5639,
      "åĬĽåº¦": 5640,
      "æĽ´å¤ļçļĦ": 5641,
      "ä¸įå¥½": 5642,
      "Ġparent": 5643,
      "çī¹å¾ģ": 5644,
      "è£Ĥ": 5645,
      "æĬ±": 5646,
      "Ġhistory": 5647,
      "èĸĦ": 5648,
      "åĬ¨æľº": 5649,
      "ply": 5650,
      "åĨįæ¬¡": 5651,
      "èħ¿": 5652,
      "year": 5653,
      "Ġrelated": 5654,
      "è¿ħéĢŁ": 5655,
      "çļĩ": 5656,
      "74": 5657,
      "^\\": 5658,
      "ÂłÂł": 5659,
      "Ġapplication": 5660,
      "Ġheld": 5661,
      "------------": 5662,
      "ÏĦ": 5663,
      "Ġhimself": 5664,
      "å§ĵ": 5665,
      "ä¾ĽåºĶ": 5666,
      "äºĮæĺ¯": 5667,
      "çī©çļĦ": 5668,
      "ama": 5669,
      "73": 5670,
      "iet": 5671,
      "æ·»åĬł": 5672,
      "Ġcity": 5673,
      "ball": 5674,
      "ĠFl": 5675,
      "æī«": 5676,
      "ä¸įéĶĻ": 5677,
      "gl": 5678,
      "Ġincluded": 5679,
      "ternal": 5680,
      "aging": 5681,
      "Ġregion": 5682,
      "Ġeconom": 5683,
      "Ġpaper": 5684,
      "Ġtax": 5685,
      "ros": 5686,
      "value": 5687,
      "æķĻæĿĲ": 5688,
      "æ¬²": 5689,
      "71": 5690,
      "fully": 5691,
      "æĥħæĦŁ": 5692,
      "ilt": 5693,
      "ĠĠĠĠĠĠĠĠĠĠĠĠĠĠĠĠĠĠĠĠĠĠĠĠĠĠĠĠĠĠĠĠĠĠĠĠĠĠĠĠĠĠĠĠĠĠĠĠĠĠĠĠĠĠĠĠĠĠĠĠĠĠĠĠĠĠĠĠĠĠĠĠĠĠĠĠĠĠĠĠĠĠĠĠĠĠĠĠĠĠĠĠĠĠĠĠĠĠĠĠĠĠĠĠĠĠĠĠĠĠĠĠĠĠĠĠĠĠĠĠĠĠĠĠĠĠĠĠ": 5694,
      "Ġeyes": 5695,
      "AA": 5696,
      "èī¯å¥½": 5697,
      "62": 5698,
      "åĴĮè°Ĳ": 5699,
      "èĭĹ": 5700,
      "æ¬£": 5701,
      "etition": 5702,
      "æľĢå¤§çļĦ": 5703,
      "å¥³äºº": 5704,
      "å°±è¦ģ": 5705,
      "ĠAss": 5706,
      "Ġpo": 5707,
      "ç¤¾ä¼ļä¸»ä¹ī": 5708,
      "dis": 5709,
      "Ġansw": 5710,
      "æľ¬æ¬¡": 5711,
      "çļĦå¿ĥ": 5712,
      "å¤įæĿĤ": 5713,
      "import": 5714,
      "çĵľ": 5715,
      "åĬ¨ä½ľ": 5716,
      "resh": 5717,
      "Ġang": 5718,
      "Ġstory": 5719,
      "rho": 5720,
      "Ġstring": 5721,
      "Ġsolution": 5722,
      "çªģçł´": 5723,
      "èĬĤçĽ®": 5724,
      "],[@": 5725,
      "Ġcontr": 5726,
      "çķħ": 5727,
      "Ġidea": 5728,
      "ster": 5729,
      "çļĦä¸Ģä¸ª": 5730,
      "Ġrelationship": 5731,
      "Ġtrad": 5732,
      "aged": 5733,
      "æľ¬èº«": 5734,
      "ç¬¬åĽĽ": 5735,
      "ĠCent": 5736,
      "rown": 5737,
      "éĥĳ": 5738,
      "æĲŀ": 5739,
      "åį³ä½¿": 5740,
      "Ġflu": 5741,
      "æļĤ": 5742,
      "Ġfall": 5743,
      "æµĭè¯ķ": 5744,
      "itten": 5745,
      "æģĭ": 5746,
      "Ġassess": 5747,
      "æļĹ": 5748,
      "$-": 5749,
      "åħ¼": 5750,
      "çļĦçĶŁæ´»": 5751,
      "ĠSte": 5752,
      "æ¶īåıĬ": 5753,
      "Ġwalk": 5754,
      "Ġpubl": 5755,
      "çļĦå¥½": 5756,
      "æĴĳ": 5757,
      "chie": 5758,
      "çĲĨæĥ³": 5759,
      "Ġloss": 5760,
      "html": 5761,
      "Ġseries": 5762,
      "æ¸ħæ¥ļ": 5763,
      "èĴĻ": 5764,
      "Ġdeal": 5765,
      "Ġblock": 5766,
      "åľ³": 5767,
      "ems": 5768,
      "åľ¨äºİ": 5769,
      "Ġsaw": 5770,
      "lying": 5771,
      "å¦Ĥæŀľä½ł": 5772,
      "ä¾ĭå¦Ĥ": 5773,
      "Ġattack": 5774,
      "andom": 5775,
      "Ġdecl": 5776,
      "èĤ¾": 5777,
      "è¿ĽæŃ¥": 5778,
      "ening": 5779,
      "èĢĮè¨Ģ": 5780,
      "è¦Ĩ": 5781,
      "Ġrespectively": 5782,
      "Col": 5783,
      "çļĦåĲĮæĹ¶": 5784,
      "äººä½ĵ": 5785,
      "æ©": 5786,
      "ĠĠĠĠĠĠĠĠĠĠĠĠĠĠĠ": 5787,
      "ĠPar": 5788,
      "Ġ=>": 5789,
      "Ġaddress": 5790,
      "çĽ¸æ¯Ķ": 5791,
      "Ġur": 5792,
      "81": 5793,
      "æī©å¤§": 5794,
      "ä»¥åīį": 5795,
      "æ·±åľ³": 5796,
      "ç»ĥä¹ł": 5797,
      "Ġdefined": 5798,
      "ç§»åĬ¨": 5799,
      "When": 5800,
      "åĪĨç±»": 5801,
      "Ġreceived": 5802,
      "æĽ¾ç»ı": 5803,
      "pose": 5804,
      "å¡Ķ": 5805,
      "OM": 5806,
      "ĠBy": 5807,
      "Ġlength": 5808,
      "çıł": 5809,
      "Ġmaint": 5810,
      "ä¸Ģå¤©": 5811,
      "æ²»çĲĨ": 5812,
      "AB": 5813,
      "Ġseason": 5814,
      "She": 5815,
      "æµģç¨ĭ": 5816,
      "åĪ¤æĸŃ": 5817,
      "IM": 5818,
      "éĢļå¸¸": 5819,
      "æĦŁåĪ°": 5820,
      ":(": 5821,
      "iting": 5822,
      "çĶľ": 5823,
      "Ġgetting": 5824,
      "inn": 5825,
      "Ġsimple": 5826,
      "å°±èĥ½": 5827,
      "å°º": 5828,
      "çºł": 5829,
      "ada": 5830,
      "ĠAN": 5831,
      "like": 5832,
      "tau": 5833,
      "åĪĩå®ŀ": 5834,
      "ences": 5835,
      "izing": 5836,
      "åħįè´¹": 5837,
      "uly": 5838,
      "xi": 5839,
      "Ġwords": 5840,
      "ĠMore": 5841,
      "Ġcoll": 5842,
      "Ġcancer": 5843,
      "Ġvoid": 5844,
      "åħ¬å¸ĥ": 5845,
      "ledge": 5846,
      "ĠAm": 5847,
      "sk": 5848,
      "åĲİæĿ¥": 5849,
      "è§Ī": 5850,
      "Ġaccept": 5851,
      "ãĢĤãĢĬ": 5852,
      "çĸ¼": 5853,
      "Ġappl": 5854,
      "ili": 5855,
      "pecially": 5856,
      "Ġmiss": 5857,
      "Ġperformance": 5858,
      "éĻ·": 5859,
      "ç¨¿": 5860,
      "bed": 5861,
      "Ġsignificantly": 5862,
      "ache": 5863,
      "èĥ¸": 5864,
      "äººåı£": 5865,
      "æ¡Īä»¶": 5866,
      "2009": 5867,
      "æ¨ª": 5868,
      "åľ°ä½į": 5869,
      "../": 5870,
      "oud": 5871,
      "Ġthus": 5872,
      "/*": 5873,
      "Ġstarted": 5874,
      "çĬ¯ç½ª": 5875,
      "æİ¥è§¦": 5876,
      "åĬŀåħ¬å®¤": 5877,
      "ĠÂ§": 5878,
      "Ġworks": 5879,
      "plement": 5880,
      "è²": 5881,
      "æĦŁæĥħ": 5882,
      "èī²çļĦ": 5883,
      "é£İæł¼": 5884,
      "wise": 5885,
      "Ġlearn": 5886,
      "ä»ĵ": 5887,
      "Ġcamp": 5888,
      "åĪĢ": 5889,
      "äºĭå®ŀ": 5890,
      "æ¢ħ": 5891,
      "äººçĶŁ": 5892,
      "Ġimmun": 5893,
      "Ġmillion": 5894,
      "éĥ½ä¸į": 5895,
      "è§Ħå¾ĭ": 5896,
      "dro": 5897,
      "å¼ºçļĦ": 5898,
      "selves": 5899,
      "Ġfig": 5900,
      "åĮĸåŃ¦": 5901,
      "ises": 5902,
      "éĹ²": 5903,
      "*,": 5904,
      "verse": 5905,
      "æł¡åĽŃ": 5906,
      "obal": 5907,
      "artment": 5908,
      "æĭ¼": 5909,
      "Ġhours": 5910,
      "é¥®é£Ł": 5911,
      "mitted": 5912,
      "Ġbound": 5913,
      "Ġnetwork": 5914,
      "å¾Īå¤§": 5915,
      "æĳĺ": 5916,
      "åıĬåħ¶": 5917,
      "åİ»å¹´": 5918,
      "æĹ¶çļĦ": 5919,
      "ĠIN": 5920,
      "à¸": 5921,
      "isf": 5922,
      "è´¡": 5923,
      "è§Ĥå¿µ": 5924,
      "umn": 5925,
      "åįıè®®": 5926,
      "All": 5927,
      "Ġdefin": 5928,
      "file": 5929,
      "ĠEurope": 5930,
      "åĩłä¹İ": 5931,
      "åĪĬ": 5932,
      "æĪ¿åľ°äº§": 5933,
      "éĽĨæĪĲ": 5934,
      "æľĪä»½": 5935,
      "ĠHis": 5936,
      "Ġdecision": 5937,
      "åĩºåı£": 5938,
      "![": 5939,
      "comp": 5940,
      "oke": 5941,
      "å¸¸è§ģ": 5942,
      "æ¼ı": 5943,
      "ä¼¦": 5944,
      "Ġtum": 5945,
      "çĥ¦": 5946,
      "çī¢": 5947,
      "unch": 5948,
      "Ġadj": 5949,
      "çĽ¾": 5950,
      "more": 5951,
      "çĳŀ": 5952,
      "Ġdifference": 5953,
      "çľĭçľĭ": 5954,
      "Ġtoday": 5955,
      "åĸ·": 5956,
      "æ¹¾": 5957,
      "inding": 5958,
      "position": 5959,
      "ĠMed": 5960,
      "è¡ĮçļĦ": 5961,
      "Ġchall": 5962,
      "ãĢĭãĢģãĢĬ": 5963,
      "ols": 5964,
      "å±Ĥæ¬¡": 5965,
      "Ġstates": 5966,
      "Ġwanted": 5967,
      "åĨ³çŃĸ": 5968,
      "leq": 5969,
      "Ġcontact": 5970,
      "anced": 5971,
      "Ġlink": 5972,
      "é¡¿": 5973,
      "ç¢į": 5974,
      "éļ¾ä»¥": 5975,
      "do": 5976,
      "}}\\": 5977,
      "å°Ŀ": 5978,
      "Ġeff": 5979,
      "è½´": 5980,
      "ferences": 5981,
      "è¿Ŀæ³ķ": 5982,
      "Ġadditional": 5983,
      "çľł": 5984,
      "Ġpopulation": 5985,
      "Ġprivate": 5986,
      "ä½¿å¾Ĺ": 5987,
      "Ġvia": 5988,
      "Ġpattern": 5989,
      "ĠMc": 5990,
      "å£ģ": 5991,
      "tic": 5992,
      "è®¡ç®Ĺæľº": 5993,
      "View": 5994,
      "çłĶåıĳ": 5995,
      "ç¥Ŀ": 5996,
      "å¸Ŀ": 5997,
      "Ġshall": 5998,
      "Ġneeded": 5999,
      "Ġ\\\\": 6000,
      "Ġenvironment": 6001,
      "Ġcommunity": 6002,
      "anks": 6003,
      "å§ĭç»Ī": 6004,
      "Ġmethods": 6005,
      "Ġbad": 6006,
      "cher": 6007,
      "delta": 6008,
      "çıį": 6009,
      "Ġgrowth": 6010,
      "ä¸ĸçºª": 6011,
      "miss": 6012,
      "ä¸įèī¯": 6013,
      "å·ŀå¸Ĥ": 6014,
      "Ġpatient": 6015,
      "èĤ¡ä»½": 6016,
      "61": 6017,
      "è®©æĪĳ": 6018,
      "Ġfilm": 6019,
      "äºķ": 6020,
      "2008": 6021,
      "Ġdie": 6022,
      "iqu": 6023,
      "æ¸łéģĵ": 6024,
      "Ġinhib": 6025,
      "åķĨåĬ¡": 6026,
      "å¯¸": 6027,
      "ĠMan": 6028,
      "></": 6029,
      "istance": 6030,
      "èĳĹ": 6031,
      "èĥĮæĻ¯": 6032,
      "çģ°": 6033,
      "overed": 6034,
      "book": 6035,
      "åįĩçº§": 6036,
      "PE": 6037,
      "éĩįæĸ°": 6038,
      "éĶģ": 6039,
      "ĠEn": 6040,
      "Ġitself": 6041,
      "éĢĲæŃ¥": 6042,
      "åįıä¼ļ": 6043,
      "uth": 6044,
      "Ġ21": 6045,
      "PS": 6046,
      "æĪ´": 6047,
      "çĶĺ": 6048,
      "Ġindu": 6049,
      "è¾Ľ": 6050,
      "Ġparty": 6051,
      "FF": 6052,
      "oved": 6053,
      "æ¡£æ¡Ī": 6054,
      "ills": 6055,
      "theta": 6056,
      "Wh": 6057,
      "with": 6058,
      "inks": 6059,
      "Ġcompl": 6060,
      "Ġquick": 6061,
      "ocal": 6062,
      "Ġinflu": 6063,
      "ä¿Ĺ": 6064,
      "æ»¡æĦı": 6065,
      "çŃĸçķ¥": 6066,
      "ä¸ĭåįĪ": 6067,
      "æĻ¨": 6068,
      "åĲ¨": 6069,
      "æ¯ıå¹´": 6070,
      "Ġcard": 6071,
      "å¾Ĳ": 6072,
      "ĠĠĠĠĠĠĠĠĠĠĠĠ": 6073,
      "Ã¼": 6074,
      "Ġmother": 6075,
      "è¿ģ": 6076,
      "Ġimprove": 6077,
      "æ£ĢéªĮ": 6078,
      "æ³ķè§Ħ": 6079,
      "ensive": 6080,
      "éĥ½åľ¨": 6081,
      "åĲĦä¸ª": 6082,
      "ç±į": 6083,
      "atively": 6084,
      "çļĦåİŁåĽł": 6085,
      "ĠNot": 6086,
      "Ġlooked": 6087,
      "é«ĺéĢŁ": 6088,
      "Ġtherefore": 6089,
      "è´¯å½»": 6090,
      "Ġseems": 6091,
      "based": 6092,
      "Ġintrodu": 6093,
      "Ġsomeone": 6094,
      "Ġbegin": 6095,
      "æĭĨ": 6096,
      "Î¿": 6097,
      "Ġachie": 6098,
      "atal": 6099,
      "Ġword": 6100,
      "åŃ©åŃĲä»¬": 6101,
      "æįŁå¤±": 6102,
      "èį¯çī©": 6103,
      "Ġassum": 6104,
      "My": 6105,
      "Ġpain": 6106,
      "éħįç½®": 6107,
      "oms": 6108,
      "éĿ¢è¯ķ": 6109,
      "Ġdeg": 6110,
      "åĵ¦": 6111,
      "èµĶ": 6112,
      "ç¾Ĭ": 6113,
      "Ġlines": 6114,
      "ĠCor": 6115,
      "oo": 6116,
      "éĶ»": 6117,
      "èĪį": 6118,
      "ä¼ĺè´¨": 6119,
      "åħ¬éĩĮ": 6120,
      "reet": 6121,
      "ä¼¸": 6122,
      "çĵ¶": 6123,
      "Ġrecogn": 6124,
      "é²ģ": 6125,
      "è¯Ħä¼°": 6126,
      "èģĬ": 6127,
      "ender": 6128,
      "åĺī": 6129,
      "èħĶ": 6130,
      "çº¤": 6131,
      "Ġbehind": 6132,
      "çħ§çīĩ": 6133,
      "æıĲåīį": 6134,
      "ocr": 6135,
      "ç¥ĸ": 6136,
      "è°·": 6137,
      "ĠMe": 6138,
      "Ġprobably": 6139,
      "çĶŁæ´»ä¸Ń": 6140,
      "Ġattempt": 6141,
      "æĬĬæı¡": 6142,
      "è´¸æĺĵ": 6143,
      "atus": 6144,
      "Ġ$(": 6145,
      "come": 6146,
      "Ġlive": 6147,
      "yp": 6148,
      "Ġhost": 6149,
      "gress": 6150,
      "ĠAct": 6151,
      "Ġfoot": 6152,
      "Ġgirl": 6153,
      "Ġsearch": 6154,
      "ï¼ļ(": 6155,
      "2020": 6156,
      "1000": 6157,
      "çĿĽ": 6158,
      "ç»´çĶŁç´ł": 6159,
      "ä¹Łå°±æĺ¯": 6160,
      "çļĦåŃ¦ä¹ł": 6161,
      "amed": 6162,
      "æ¶µ": 6163,
      "ĠPol": 6164,
      "ç»ĺ": 6165,
      "åľ£": 6166,
      "åĨĴ": 6167,
      "iles": 6168,
      "æĮĸ": 6169,
      "ych": 6170,
      "éħĴåºĹ": 6171,
      "////": 6172,
      "define": 6173,
      "Ġpret": 6174,
      "Ġquite": 6175,
      "ĠGe": 6176,
      "å¹³æĸ¹": 6177,
      "ilities": 6178,
      "è¿Ķ": 6179,
      "ha": 6180,
      "å®ļæľŁ": 6181,
      "è£ħä¿®": 6182,
      "des": 6183,
      "eks": 6184,
      "vant": 6185,
      "ä½įäºİ": 6186,
      "èĻ«": 6187,
      "åĪºæ¿Ģ": 6188,
      "ying": 6189,
      "Ġinvolved": 6190,
      "word": 6191,
      "Ġinstead": 6192,
      "Ġtaking": 6193,
      "åħ¬è·¯": 6194,
      "è¡¨éĿ¢": 6195,
      "ä¼łæĴŃ": 6196,
      "Ġreve": 6197,
      "æłı": 6198,
      "åı¬å¼Ģ": 6199,
      "èħ¾": 6200,
      "partial": 6201,
      "Ġdest": 6202,
      "Ġground": 6203,
      "å°½éĩı": 6204,
      "Ø§": 6205,
      "å§Ķåĳĺä¼ļ": 6206,
      "light": 6207,
      "å·¥ä½ľäººåĳĺ": 6208,
      "ä¸įç®¡": 6209,
      "æĬĳ": 6210,
      "ç¾İä¸½": 6211,
      "èį·": 6212,
      "IR": 6213,
      "çĭĹ": 6214,
      "æĿ°": 6215,
      "ä¸ĢæĹ¦": 6216,
      "åľ¨ä¸Ģèµ·": 6217,
      "æīĵå¼Ģ": 6218,
      "çĶµèĦĳ": 6219,
      "comes": 6220,
      "åį±éĻ©": 6221,
      "odes": 6222,
      "Ġdisplay": 6223,
      "IL": 6224,
      "æĶ¹éĢł": 6225,
      "ste": 6226,
      "stant": 6227,
      "omega": 6228,
      "pri": 6229,
      "å¤§éĥ¨åĪĨ": 6230,
      "æĺ¯åĽłä¸º": 6231,
      "Ġfund": 6232,
      "Ġoriginal": 6233,
      "US": 6234,
      "Ġneeds": 6235,
      "ä¼¤å®³": 6236,
      "Ġknew": 6237,
      "Ġproblems": 6238,
      "æ§": 6239,
      "åĩī": 6240,
      "Ġwhite": 6241,
      "Table": 6242,
      "sm": 6243,
      "Ġmodels": 6244,
      "éĢĤå½ĵ": 6245,
      "gest": 6246,
      "å¦¹": 6247,
      "çĤĴ": 6248,
      "Ġproduction": 6249,
      "æĺ¨": 6250,
      "åĽŀçŃĶ": 6251,
      "Ġstep": 6252,
      ")}": 6253,
      "åĲĮåŃ¦ä»¬": 6254,
      "Ġpan": 6255,
      "éĻĲåĪ¶": 6256,
      "æŁ±": 6257,
      "ç¤ºèĮĥ": 6258,
      "å¹³è¡¡": 6259,
      "åŀĥ": 6260,
      "æģĴ": 6261,
      "è¡¥åħħ": 6262,
      "Ġexact": 6263,
      "aled": 6264,
      "äºĭé¡¹": 6265,
      "used": 6266,
      "åľ¾": 6267,
      "Ġmotion": 6268,
      "uments": 6269,
      "æĶ¶çĽĬ": 6270,
      "ederal": 6271,
      "æĦ¿æĦı": 6272,
      "hem": 6273,
      "IV": 6274,
      "nu": 6275,
      "Ġcomes": 6276,
      "èĤ¡ç¥¨": 6277,
      "è¿«": 6278,
      "åŀĥåľ¾": 6279,
      "æľĢä½³": 6280,
      "ĠDo": 6281,
      "çĶ·äºº": 6282,
      "Ġadminist": 6283,
      "Ġfalse": 6284,
      "éĩĮéĿ¢": 6285,
      "xim": 6286,
      "é¡ºåĪ©": 6287,
      "astic": 6288,
      "æľ¬æĸĩ": 6289,
      "æķĪçĽĬ": 6290,
      "Î¹": 6291,
      "æłĳç«ĭ": 6292,
      "ynam": 6293,
      "èŀįèµĦ": 6294,
      "è½¨": 6295,
      "åŃ¦ä¹łçļĦ": 6296,
      "æ³ī": 6297,
      "æľīæķĪçļĦ": 6298,
      "ĠDr": 6299,
      "åĬ¨çī©": 6300,
      "pre": 6301,
      "å®ĩ": 6302,
      "Ġeverything": 6303,
      "ç¼Ŀ": 6304,
      "è¯ģåĪ¸": 6305,
      "ae": 6306,
      "...\"": 6307,
      "Ġservices": 6308,
      "Ġpage": 6309,
      "lig": 6310,
      "Ġexec": 6311,
      "å¾Īéļ¾": 6312,
      "Ġexpected": 6313,
      "æį·": 6314,
      "çģŃ": 6315,
      "________": 6316,
      "è§Ĥä¼Ĺ": 6317,
      "}$,": 6318,
      "Ġess": 6319,
      "ä¸¾åĬŀ": 6320,
      "æĥ³åĪ°": 6321,
      "å±±ä¸ľ": 6322,
      "å¹¶ä¸įæĺ¯": 6323,
      "arr": 6324,
      "iddle": 6325,
      "éĥ½è¦ģ": 6326,
      "å¦Ĩ": 6327,
      "æīĢåľ¨": 6328,
      "Ġquality": 6329,
      "Ġgene": 6330,
      "å¿§": 6331,
      "ä¹Łè¦ģ": 6332,
      "Ġdefendant": 6333,
      "ç´«": 6334,
      "ĠGu": 6335,
      "ä¸ĢåĲį": 6336,
      "å·®å¼Ĥ": 6337,
      "ferred": 6338,
      "æ´ŀ": 6339,
      "åħħæ»¡": 6340,
      "Ġdoor": 6341,
      "Data": 6342,
      "åĲ¸æĶ¶": 6343,
      "Ġpredict": 6344,
      "å¤§å¤ļæķ°": 6345,
      "Ġcompar": 6346,
      "Ġdistribution": 6347,
      "éº¦": 6348,
      "ĠĠĠĠĠĠĠĠĠĠĠĠĠ": 6349,
      "æıĴ": 6350,
      "ites": 6351,
      "çļĦåŁºæľ¬": 6352,
      "æģĲ": 6353,
      "éĶĭ": 6354,
      "ana": 6355,
      "ĠCont": 6356,
      "è¢ĭ": 6357,
      "aving": 6358,
      "ram": 6359,
      "ecause": 6360,
      "é¢Ī": 6361,
      "ç¾İçļĦ": 6362,
      "å¤§åŃ¦çĶŁ": 6363,
      "èĸª": 6364,
      "ä¸ĬäºĨ": 6365,
      "ese": 6366,
      "èģĮè´£": 6367,
      "èħ°": 6368,
      "ĠGerm": 6369,
      "\");": 6370,
      "Ġ22": 6371,
      "ç²Ĵ": 6372,
      "ĠNational": 6373,
      "Ġinput": 6374,
      "Ġanti": 6375,
      "Ġproced": 6376,
      "olve": 6377,
      "Ġcontract": 6378,
      "æīĢè°ĵ": 6379,
      "Ġnucle": 6380,
      "ä¹Łè®¸": 6381,
      "æľ¬äºº": 6382,
      "æĦĪ": 6383,
      "times": 6384,
      "æµħ": 6385,
      "åľ¨è¿Ļ": 6386,
      "å¹¶æ²¡æľī": 6387,
      "Ġfriend": 6388,
      "æľīä»Ģä¹Ī": 6389,
      "åĪ°åºķ": 6390,
      "æ¤įçī©": 6391,
      "æľīåĪ©äºİ": 6392,
      "éŀĭ": 6393,
      "è¯ķéªĮ": 6394,
      "Se": 6395,
      "Ġfire": 6396,
      "åģ¶": 6397,
      "Ġvo": 6398,
      "åĲ¯åĬ¨": 6399,
      "è²Į": 6400,
      "ĠThus": 6401,
      "æ¿Ģåıĳ": 6402,
      "rc": 6403,
      "With": 6404,
      "Ġbring": 6405,
      "éĿ¢ä¸´": 6406,
      "è·ĥ": 6407,
      "çĮ«": 6408,
      "âĢĲ": 6409,
      "åħ¬ä¼Ĺ": 6410,
      "åĹ": 6411,
      "å·¡": 6412,
      "åħ¶å®ĥ": 6413,
      "å®ı": 6414,
      "code": 6415,
      "ç¦»å¼Ģ": 6416,
      "Ġ(-": 6417,
      "Ġnecessary": 6418,
      "Ġstay": 6419,
      "è¯¸": 6420,
      "Ġinside": 6421,
      "++": 6422,
      "Ġsem": 6423,
      "æıĲéĨĴ": 6424,
      "Ġdistrict": 6425,
      "urch": 6426,
      "Ġinitial": 6427,
      "ä¹ĭå¤ĸ": 6428,
      "Ġelement": 6429,
      "ç¥ŀç»ı": 6430,
      "EM": 6431,
      "ĠDep": 6432,
      "æķ´çĲĨ": 6433,
      "Ġ40": 6434,
      "Ġeduc": 6435,
      "ä¸ŃåŃ¦": 6436,
      "illi": 6437,
      "ades": 6438,
      "å¨±ä¹Ĳ": 6439,
      "æ»´": 6440,
      "Ġload": 6441,
      "Ġsense": 6442,
      "field": 6443,
      "å®¿": 6444,
      "Ġrecent": 6445,
      "Ġwin": 6446,
      "æ¯įäº²": 6447,
      "ĠQu": 6448,
      "çĪ¸çĪ¸": 6449,
      "CL": 6450,
      "å®¶çļĦ": 6451,
      "Ġson": 6452,
      "ä¸įåĨį": 6453,
      "rote": 6454,
      "è§£éĩĬ": 6455,
      "ĠPres": 6456,
      "æ°¸è¿ľ": 6457,
      "eration": 6458,
      "infty": 6459,
      "Ġindust": 6460,
      "ä¸Ńå°ı": 6461,
      "æĹģ": 6462,
      "Ġtemperature": 6463,
      "è´¡çĮ®": 6464,
      "éģŃ": 6465,
      "Ġpie": 6466,
      "èķ": 6467,
      "åı¥è¯Ŀ": 6468,
      "dom": 6469,
      "Ġestim": 6470,
      "ä¼Ĭ": 6471,
      "èº«è¾¹": 6472,
      "Ġfather": 6473,
      "æľŁçļĦ": 6474,
      "å¹³æĹ¶": 6475,
      "UT": 6476,
      "ä¸ĵé¡¹": 6477,
      "åĽ´ç»ķ": 6478,
      "Ġ$$": 6479,
      "Ġdim": 6480,
      "åģļæ³ķ": 6481,
      "è½¬åıĺ": 6482,
      "è¯¦ç»Ĩ": 6483,
      "Ġprint": 6484,
      "])": 6485,
      "æ®ĸ": 6486,
      "çļĦä¸Ģç§į": 6487,
      "çªģçĦ¶": 6488,
      "ä¹īåĬ¡": 6489,
      "size": 6490,
      "æ··åĩĿ": 6491,
      "ä»¿": 6492,
      "çĪ±æĥħ": 6493,
      "Ġespecially": 6494,
      "æľīä¸Ģä¸ª": 6495,
      "ulations": 6496,
      "den": 6497,
      "Ġwait": 6498,
      "box": 6499,
      "At": 6500,
      "inally": 6501,
      "å®ŀåĬĽ": 6502,
      "ä¸Ĭè¿°": 6503,
      "ä¾ĿçĦ¶": 6504,
      "utions": 6505,
      "æĭĶ": 6506,
      "Ġlonger": 6507,
      "çĽ¸åĲĮ": 6508,
      "ä¸ŃåĮ»": 6509,
      "ä¸¤ç§į": 6510,
      "Ġexperiment": 6511,
      "bre": 6512,
      "èİ«": 6513,
      "éĻª": 6514,
      "æ³½": 6515,
      "çļĦåĨħå®¹": 6516,
      "åĲĮæ¯Ķ": 6517,
      "sl": 6518,
      "Ġjo": 6519,
      "è½¦åŀĭ": 6520,
      "400": 6521,
      "å®ļä½į": 6522,
      "å®¾": 6523,
      "Ġimplement": 6524,
      "åĲ«æľī": 6525,
      "Ġaverage": 6526,
      "Ġoutside": 6527,
      "Ġclinical": 6528,
      "OP": 6529,
      "Ġpresence": 6530,
      "çĸ«æĥħ": 6531,
      "ging": 6532,
      "ä¸¹": 6533,
      "ä¸Ĭæ¶¨": 6534,
      "è§Ĵèī²": 6535,
      "æĢª": 6536,
      "å¾Īå¥½": 6537,
      "ĠTHE": 6538,
      "è®©æĪĳä»¬": 6539,
      "icense": 6540,
      "Ġspecies": 6541,
      "ç¯®": 6542,
      "ç§ĳçłĶ": 6543,
      "ĠJan": 6544,
      "Ġpersonal": 6545,
      "ä¸ģ": 6546,
      "ĠÂ±": 6547,
      "ribute": 6548,
      "è¡Ģç®¡": 6549,
      "é¢Ĺ": 6550,
      "æľīæĹ¶": 6551,
      "Ġissues": 6552,
      "Ġevents": 6553,
      "éĶ»çĤ¼": 6554,
      "Ġfeatures": 6555,
      "å¹´çº§": 6556,
      "Ġsimply": 6557,
      "æĮĳæĪĺ": 6558,
      "Ġdetermined": 6559,
      "éªĹ": 6560,
      "Ġbecame": 6561,
      "æĺ¯ä¸į": 6562,
      "Ġcolor": 6563,
      "çŃĭ": 6564,
      "ä½ıæĪ¿": 6565,
      "ÐµÐ": 6566,
      "åĬłä¸Ĭ": 6567,
      "æ··åĩĿåľŁ": 6568,
      "bor": 6569,
      "æĬķèµĦèĢħ": 6570,
      "çŁĽ": 6571,
      "ç²®": 6572,
      "å®¡è®¡": 6573,
      "istics": 6574,
      "åĮĢ": 6575,
      "çľ¼çĿĽ": 6576,
      "å®ħ": 6577,
      "éĩĩè´Ń": 6578,
      "çĨŁæĤī": 6579,
      "æŁĶ": 6580,
      "å·¥ä½ľä¸Ń": 6581,
      "èĤª": 6582,
      "Ġsequence": 6583,
      "äº§åĵģçļĦ": 6584,
      "æ¡Į": 6585,
      "Ġprovides": 6586,
      "çİ»": 6587,
      "Ġwoman": 6588,
      "vious": 6589,
      "åĿĽ": 6590,
      "æµĻ": 6591,
      "èĦĤèĤª": 6592,
      "Ġcapt": 6593,
      "çĽĪ": 6594,
      "åįĬå¹´": 6595,
      "æĻļä¸Ĭ": 6596,
      "Ġ...": 6597,
      "Ġbir": 6598,
      "æĸĩçĮ®": 6599,
      "ogle": 6600,
      "çĪ±çļĦ": 6601,
      "åı¯èĥ½ä¼ļ": 6602,
      "è§ĦåĪĻ": 6603,
      "ç¡®å®ŀ": 6604,
      "çĺ¤": 6605,
      "ĠDef": 6606,
      "\".": 6607,
      "Ġpressure": 6608,
      "Ġdocument": 6609,
      "ç¢İ": 6610,
      "ç§°ä¸º": 6611,
      "Ġstra": 6612,
      "æ¯ıæ¬¡": 6613,
      "Ġbegan": 6614,
      "å¯¿": 6615,
      "ĠBo": 6616,
      "osition": 6617,
      "ç²Ĺ": 6618,
      "æī°": 6619,
      "Ġoutput": 6620,
      "åĦ¿åŃĲ": 6621,
      "Ġmusic": 6622,
      "ç¢³": 6623,
      "Ġwall": 6624,
      "rim": 6625,
      "aves": 6626,
      "åģļåĩº": 6627,
      "ĊĠĠĠĠĠĠĠĠĠĠĠĠĠĠĠĠĠĠĠĠĠĠĠĠĠĠĠĠĠĠĠĠ": 6628,
      "å°Ĭéĩį": 6629,
      "å°ĳå¹´": 6630,
      "Ġ23": 6631,
      "å¸ĤåľºçļĦ": 6632,
      "ĠPa": 6633,
      "Ġeffort": 6634,
      "rav": 6635,
      "æľĢå¥½çļĦ": 6636,
      "å¾ªçİ¯": 6637,
      "Ġstrateg": 6638,
      "ccording": 6639,
      "Ġsample": 6640,
      "Ġ28": 6641,
      "Ġphase": 6642,
      "åº¦çļĦ": 6643,
      "Ġtiss": 6644,
      "æĪ¿å±ĭ": 6645,
      "Ob": 6646,
      "raction": 6647,
      "En": 6648,
      "IP": 6649,
      "Ġmole": 6650,
      "å¥³åĦ¿": 6651,
      "itude": 6652,
      "åĽ¾ä¹¦": 6653,
      "å°ıçļĦ": 6654,
      "æ¦ľ": 6655,
      "çĪ·": 6656,
      "rapy": 6657,
      "ä»įçĦ¶": 6658,
      "mary": 6659,
      "æľ±": 6660,
      "èĢģäºº": 6661,
      "width": 6662,
      "èĶ¬": 6663,
      "Ġcorrel": 6664,
      "RNA": 6665,
      "Ġox": 6666,
      "Ġir": 6667,
      "}$.": 6668,
      "æĿ¥äºĨ": 6669,
      "ä¸»ç®¡": 6670,
      "Ġdiagn": 6671,
      "Ġformer": 6672,
      "Ġcomplete": 6673,
      "æµ®": 6674,
      "ä¸Ĭåįĩ": 6675,
      "èĢģå¹´": 6676,
      "MS": 6677,
      "æī§æ³ķ": 6678,
      "å¹¼åĦ¿åĽŃ": 6679,
      "ENT": 6680,
      "ĠAg": 6681,
      "._": 6682,
      "Ġmedia": 6683,
      "Delta": 6684,
      "Ġfem": 6685,
      "Ġsoon": 6686,
      "Ġsatisf": 6687,
      "\\*": 6688,
      "Ġwrong": 6689,
      "cription": 6690,
      "ronic": 6691,
      "ĠOb": 6692,
      "æĵ¦": 6693,
      "uous": 6694,
      "Ġlanguage": 6695,
      "æĿĥåĪ©": 6696,
      "ä¸»è¦ģæĺ¯": 6697,
      "Ġimpact": 6698,
      "Ġhope": 6699,
      "åĿ¡": 6700,
      "Ġpoly": 6701,
      "clusion": 6702,
      "æ¢¯": 6703,
      "è¿ĳæĹ¥": 6704,
      "æĶ¯æĴĳ": 6705,
      "dered": 6706,
      "Im": 6707,
      "æĪĲçĨŁ": 6708,
      "arily": 6709,
      "Ġslow": 6710,
      "é«ĺèĢĥ": 6711,
      "èĳ£äºĭ": 6712,
      "Ġturned": 6713,
      "Ġeasy": 6714,
      "ado": 6715,
      "çļĦèĥ½åĬĽ": 6716,
      "olic": 6717,
      "æ·±åĪ»": 6718,
      "ä½ĵä¼ļ": 6719,
      "è¿ŀæİ¥": 6720,
      "çŁĽçĽ¾": 6721,
      "ospital": 6722,
      "refore": 6723,
      "å®ļçļĦ": 6724,
      "ä¸Ģèĩ´": 6725,
      "Ġge": 6726,
      "åħ»èĢģ": 6727,
      "ä»ģ": 6728,
      "èĩ³å°ĳ": 6729,
      "Ġforce": 6730,
      "bf": 6731,
      "Ġhor": 6732,
      "Ġcorrect": 6733,
      "ä¸Ģå®¶": 6734,
      "Ġprec": 6735,
      "Ġhands": 6736,
      "å®¡æł¸": 6737,
      "ä»¥ä¸º": 6738,
      "ä¸ªæĢ§": 6739,
      "quad": 6740,
      "Ġdepend": 6741,
      "æĿľ": 6742,
      "ĠCity": 6743,
      "Ġcommunic": 6744,
      "Ġsett": 6745,
      "sim": 6746,
      "airs": 6747,
      "å¹¿ä¸ľ": 6748,
      "ç²ĺ": 6749,
      "\";": 6750,
      "æĺ¯ä¸įæĺ¯": 6751,
      "é«ĺä¸Ń": 6752,
      "\\\\": 6753,
      "fs": 6754,
      "Ġlack": 6755,
      "åľ°çĤ¹": 6756,
      "Ġsurv": 6757,
      "æĻ¶": 6758,
      "èµĸ": 6759,
      "åĺ´": 6760,
      "Ġpolice": 6761,
      "å¥ı": 6762,
      "ĠĠĠĠĠĠĠĠĠĠĠĠĠĠ": 6763,
      "elling": 6764,
      "åĲĦåľ°": 6765,
      "æķĻæİĪ": 6766,
      "Ġplaintiff": 6767,
      "éĥ½èĥ½": 6768,
      "è¿ĺåı¯ä»¥": 6769,
      "çĪ¶äº²": 6770,
      "çļĦæķĻåŃ¦": 6771,
      "æĭĽçĶŁ": 6772,
      "idge": 6773,
      "æĹĭ": 6774,
      "Ġvideo": 6775,
      "UR": 6776,
      "åħ¨ä½ĵ": 6777,
      "state": 6778,
      "é¢ľèī²": 6779,
      "ä»Ķ": 6780,
      "ãĢĭ(": 6781,
      "Pl": 6782,
      "å®Įæķ´": 6783,
      "æĢĿè·¯": 6784,
      "Ġremain": 6785,
      "Ġfelt": 6786,
      "ç»Ŀå¯¹": 6787,
      "By": 6788,
      "that": 6789,
      "ä¿¡çĶ¨": 6790,
      "æ·ĺ": 6791,
      "Ġwindow": 6792,
      "Ġgave": 6793,
      "Ġcopy": 6794,
      "å£°éŁ³": 6795,
      "èĭ¹": 6796,
      "Ġ},": 6797,
      "Ġtrack": 6798,
      "ç»Īäºİ": 6799,
      "Ġfunctions": 6800,
      "Ġles": 6801,
      "Ġwritten": 6802,
      "Ġacid": 6803,
      "åĮ»åŃ¦": 6804,
      "Ġdu": 6805,
      "æº¶": 6806,
      "é¢Ħè®¡": 6807,
      "Ġmi": 6808,
      "Ġcry": 6809,
      "Ġstri": 6810,
      "Ġprinc": 6811,
      "æ¡Īä¾ĭ": 6812,
      "åİ»äºĨ": 6813,
      "OL": 6814,
      "ç±»åŀĭ": 6815,
      "Ġheav": 6816,
      "ĠPe": 6817,
      "å°ĺ": 6818,
      "Ġpresented": 6819,
      "haps": 6820,
      "å¤§ä¼ļ": 6821,
      "^*": 6822,
      "éļĨ": 6823,
      "Ñĭ": 6824,
      "Ġanaly": 6825,
      "Ġap": 6826,
      "èĻİ": 6827,
      "')": 6828,
      "è®ºæĸĩ": 6829,
      "ĠCD": 6830,
      "Ġfollowed": 6831,
      "Ġhyp": 6832,
      "æ¡ĥ": 6833,
      "Ġdate": 6834,
      "Ġstop": 6835,
      "æŀĦå»º": 6836,
      "list": 6837,
      "itation": 6838,
      "çī©çĲĨ": 6839,
      "äººåĬĽ": 6840,
      "Ġmis": 6841,
      "çļĦåīį": 6842,
      "apter": 6843,
      "Ġleave": 6844,
      "Ġderiv": 6845,
      "Ġcoming": 6846,
      "mar": 6847,
      "ä¸ĢæĿ¡": 6848,
      "tered": 6849,
      "Ġquestions": 6850,
      "å®īåħ¨çĶŁäº§": 6851,
      "dev": 6852,
      "Ġlate": 6853,
      "Ġsle": 6854,
      "çļĦä¸į": 6855,
      "Ġchem": 6856,
      "Ġtypes": 6857,
      "ç¡®è®¤": 6858,
      "https": 6859,
      "Ġgenes": 6860,
      "ä¿¡å¿ĥ": 6861,
      "Ġcred": 6862,
      "ĠIm": 6863,
      "actions": 6864,
      "Ġwasn": 6865,
      "åķ¦": 6866,
      "æĺİçĻ½": 6867,
      "Ġten": 6868,
      "èĭ¹æŀľ": 6869,
      "çĶŁéķ¿": 6870,
      "Ġrunning": 6871,
      "å°±åĥı": 6872,
      "Ġphysical": 6873,
      "itary": 6874,
      "icon": 6875,
      "unc": 6876,
      "ributed": 6877,
      "Ġofficial": 6878,
      "Ġmember": 6879,
      "æīįæĺ¯": 6880,
      "tilde": 6881,
      "down": 6882,
      "è®°å¿Ĩ": 6883,
      "Ġpack": 6884,
      "æı´": 6885,
      "è¯ģä¹¦": 6886,
      "Ġago": 6887,
      "Ġrev": 6888,
      "äººå£«": 6889,
      "ba": 6890,
      "Ġsamples": 6891,
      "document": 6892,
      "Ġcreated": 6893,
      "Ġforward": 6894,
      "const": 6895,
      "Ġrights": 6896,
      "Ġeffective": 6897,
      "åī©": 6898,
      "Ġproducts": 6899,
      "ken": 6900,
      "Ġisn": 6901,
      "é¦Ļæ¸¯": 6902,
      "Ġnatural": 6903,
      "lier": 6904,
      "è´«åĽ°": 6905,
      "è¯´çļĦ": 6906,
      "acc": 6907,
      "Ġindex": 6908,
      "å©Ĩ": 6909,
      "Ġhot": 6910,
      "Ġvalid": 6911,
      "Ġbur": 6912,
      "é©±": 6913,
      "char": 6914,
      "èĤ¡ä¸ľ": 6915,
      "æĲŃéħį": 6916,
      "ĠGo": 6917,
      "éĩĳå±ŀ": 6918,
      "point": 6919,
      "rief": 6920,
      "ĠOF": 6921,
      "ĠPer": 6922,
      "ĠAb": 6923,
      "trans": 6924,
      "Ġpolitical": 6925,
      "ç£ģ": 6926,
      "Ġstudents": 6927,
      "Ġincreasing": 6928,
      "Ġdirectly": 6929,
      "ett": 6930,
      "åı¯ä»¥è¯´": 6931,
      "annel": 6932,
      "px": 6933,
      "ä¸°å¯ĮçļĦ": 6934,
      "ĠNe": 6935,
      "ĠPart": 6936,
      "oon": 6937,
      "Ġmemory": 6938,
      "|\\": 6939,
      "çıŃçº§": 6940,
      "åħ³å¿ĥ": 6941,
      "é¡¾å®¢": 6942,
      "æĢ»ä½ĵ": 6943,
      "Get": 6944,
      "ç³»ç»ŁçļĦ": 6945,
      "æĻ®éģį": 6946,
      "lin": 6947,
      "Ġnull": 6948,
      "ĠEd": 6949,
      "ä¿Ħ": 6950,
      "Ġevalu": 6951,
      "2007": 6952,
      "Ġimmedi": 6953,
      "Ġweeks": 6954,
      "ä¸įäºĨ": 6955,
      "ults": 6956,
      "top": 6957,
      "ags": 6958,
      "æ¡Ĩ": 6959,
      "Ġrandom": 6960,
      "era": 6961,
      "Ġscreen": 6962,
      "Ġtried": 6963,
      "Ġinstall": 6964,
      "åĪĨéħį": 6965,
      "]{},": 6966,
      "èı²": 6967,
      "ä¸ĬåįĪ": 6968,
      "ĠWar": 6969,
      "èĭ±åĽ½": 6970,
      "Ġdark": 6971,
      "Ġprimary": 6972,
      "æĭĴ": 6973,
      "è°ĭ": 6974,
      "cell": 6975,
      "ĠBrit": 6976,
      "Ġconsum": 6977,
      "lease": 6978,
      "åĳ¼åĲ¸": 6979,
      "èµļ": 6980,
      "æ®µæĹ¶éĹ´": 6981,
      "Ġproperties": 6982,
      "å¤ªéĺ³": 6983,
      "åľ¨çº¿": 6984,
      "Ġparameters": 6985,
      "umb": 6986,
      "kn": 6987,
      "Ġalleg": 6988,
      "å¤©æ°Ķ": 6989,
      "Ġwrite": 6990,
      "apan": 6991,
      "Ġconstant": 6992,
      "Ġelements": 6993,
      "culate": 6994,
      "]^": 6995,
      "ague": 6996,
      "Ġdeep": 6997,
      "Ġaccom": 6998,
      "Gr": 6999,
      "Not": 7000,
      "è¿ĺä¼ļ": 7001,
      "æ°ĽåĽ´": 7002,
      "Ġmach": 7003,
      "åħģ": 7004,
      "ĠDist": 7005,
      "hood": 7006,
      "Ġcontroll": 7007,
      "Ġknowledge": 7008,
      "Ġprevent": 7009,
      "ç«ĭåį³": 7010,
      "SS": 7011,
      "æµĨ": 7012,
      "ils": 7013,
      "èľľ": 7014,
      "æĮĩæķ°": 7015,
      "Ġlost": 7016,
      "æ¯ıä¸Ģä¸ª": 7017,
      "å¾®åįļ": 7018,
      "Ġwhose": 7019,
      "èĩªè§ī": 7020,
      "Ġsound": 7021,
      "param": 7022,
      "å«Į": 7023,
      "åĲĽ": 7024,
      "Ġanswer": 7025,
      "Ġdetermine": 7026,
      "ishing": 7027,
      "ĠRev": 7028,
      "æĥ³è±¡": 7029,
      "æŁ¥è¯¢": 7030,
      "Ġheard": 7031,
      "ç¬¬åįģ": 7032,
      "å¤ļä¸ª": 7033,
      "Ġcontext": 7034,
      "Ġareas": 7035,
      "å£®": 7036,
      "men": 7037,
      "Ġidentified": 7038,
      "Ġconstit": 7039,
      "Ġgreater": 7040,
      "Ġnews": 7041,
      "%;": 7042,
      "çĸı": 7043,
      "Ġgas": 7044,
      "Ġbuilding": 7045,
      "och": 7046,
      "icles": 7047,
      "å±¥è¡Į": 7048,
      "Ġsort": 7049,
      "è´§å¸ģ": 7050,
      "æ´»åĬ¨çļĦ": 7051,
      "ios": 7052,
      "oe": 7053,
      "ä¹Łå°±": 7054,
      "Ġpolicy": 7055,
      "å½ķåıĸ": 7056,
      "ç¬¬ä¸Ģæ¬¡": 7057,
      "ç»ĦåĲĪ": 7058,
      "clus": 7059,
      "TR": 7060,
      "é¢Ħç®Ĺ": 7061,
      "å¤įä¹ł": 7062,
      "åħ¨å¸Ĥ": 7063,
      "åĪ°çļĦ": 7064,
      "Ġfollows": 7065,
      "è°ĥèĬĤ": 7066,
      "ĠWorld": 7067,
      "olds": 7068,
      "ä½ĵåĪ¶": 7069,
      "è¯»ä¹¦": 7070,
      "å¿į": 7071,
      "è¦ĨçĽĸ": 7072,
      "lementary": 7073,
      "åıĳè¡¨": 7074,
      "la": 7075,
      "æĦıæĢĿ": 7076,
      "Ġbott": 7077,
      "ç§Ĵ": 7078,
      "æŀĦæĪĲ": 7079,
      "æĬĢå·§": 7080,
      "Ñı": 7081,
      "å¿ĥéĩĮ": 7082,
      "Ġselect": 7083,
      "é»Ħéĩĳ": 7084,
      "Îµ": 7085,
      "è¡°": 7086,
      "çļĦæĥħåĨµä¸ĭ": 7087,
      "ĠReg": 7088,
      "çļĦåŃ¦çĶŁ": 7089,
      "äººæķ°": 7090,
      "å°½ç®¡": 7091,
      "å¹¿å·ŀ": 7092,
      "Î½": 7093,
      "å°Ĩä¼ļ": 7094,
      "ager": 7095,
      "Ġwatch": 7096,
      "Ġavoid": 7097,
      "Ġmedical": 7098,
      "Ġinvention": 7099,
      "æ¯ķç«Ł": 7100,
      "ĠComp": 7101,
      ",'": 7102,
      "ï¼ļâĢĿ": 7103,
      "ements": 7104,
      "ymb": 7105,
      "uel": 7106,
      "æ¿ĢåĬ±": 7107,
      "Ġthemselves": 7108,
      "çĤī": 7109,
      "Ġframe": 7110,
      "Ġsoftware": 7111,
      "Ġexcept": 7112,
      "Ġstatus": 7113,
      "Ġconfig": 7114,
      "ä¸ŃèĢĥ": 7115,
      "asons": 7116,
      "ä¸Ĭä¸ĭ": 7117,
      "function": 7118,
      "æ¸ħæ´ģ": 7119,
      "çĴĥ": 7120,
      "æľīçĤ¹": 7121,
      "ĠAf": 7122,
      "æ¾³": 7123,
      "äºĴåĬ¨": 7124,
      "å°ĸ": 7125,
      "æŁľ": 7126,
      "Ġdeveloped": 7127,
      "reng": 7128,
      "ula": 7129,
      "CD": 7130,
      "è¿ĺèĥ½": 7131,
      "They": 7132,
      "iber": 7133,
      "ĠMin": 7134,
      "Ġps": 7135,
      "çĥŃæĥħ": 7136,
      "æĦŁè°¢": 7137,
      "Ġrelease": 7138,
      "fection": 7139,
      "ĠDes": 7140,
      "éĴ»": 7141,
      "è¾ī": 7142,
      "Ġmention": 7143,
      "uary": 7144,
      "å§Ķä¼ļ": 7145,
      "Ġbasis": 7146,
      "Ġlimited": 7147,
      "ography": 7148,
      "Ġbed": 7149,
      "èĿ": 7150,
      "ĠInc": 7151,
      "Ġâ": 7152,
      "æ´Ľ": 7153,
      "Ps": 7154,
      "Ġstyle": 7155,
      "æĤŁ": 7156,
      "Ġapplied": 7157,
      "ä¿¡åı·": 7158,
      "gn": 7159,
      "æĺ¯ä¸ª": 7160,
      "Ġtraining": 7161,
      "æĽ´æĸ°": 7162,
      "ĠRuss": 7163,
      "äººæ°ĳå¸ģ": 7164,
      "ĠSim": 7165,
      "ä¸»æĮģ": 7166,
      "anger": 7167,
      "ica": 7168,
      "oma": 7169,
      "Er": 7170,
      "ĠSouth": 7171,
      "Ġpull": 7172,
      "éĻ¢æł¡": 7173,
      "zz": 7174,
      "ĠII": 7175,
      "ĠEl": 7176,
      "éĤĢ": 7177,
      "è¡¨æ¼Ķ": 7178,
      "Ġround": 7179,
      "çĽ¸åºĶçļĦ": 7180,
      "å¤§åĬĽ": 7181,
      "Ðº": 7182,
      "ä¸įçĶ¨": 7183,
      "Ġful": 7184,
      "Ġalthough": 7185,
      "Ġability": 7186,
      "Ġ26": 7187,
      "isc": 7188,
      "iments": 7189,
      "çĹħäºº": 7190,
      "æĪĲåĪĨ": 7191,
      "å®ĭ": 7192,
      "æ¼Ĥ": 7193,
      "çħ®": 7194,
      "Ġpict": 7195,
      "Ġsecur": 7196,
      "Ġfavor": 7197,
      "ming": 7198,
      "Ġaw": 7199,
      "Ġfast": 7200,
      "ä¹Į": 7201,
      "åħ¶æ¬¡": 7202,
      "ĠSm": 7203,
      "æµģåĬ¨": 7204,
      "ĠIntern": 7205,
      "ĠSch": 7206,
      "vere": 7207,
      "ellow": 7208,
      "Ġnature": 7209,
      "\\])": 7210,
      "åģļçļĦ": 7211,
      "čĊĠĠĠ": 7212,
      "ĠAust": 7213,
      "è¾ĥå¤§": 7214,
      "Ġfight": 7215,
      "Ġhar": 7216,
      "Ġparticularly": 7217,
      "æıĲç¤º": 7218,
      "ä¸¾è¡Į": 7219,
      "rial": 7220,
      "Ġveh": 7221,
      "rupt": 7222,
      "åį±å®³": 7223,
      "Ġmice": 7224,
      "Ġautom": 7225,
      "Ġopportun": 7226,
      "æĪĳæĥ³": 7227,
      "ä»ĸäºº": 7228,
      "å²¸": 7229,
      "include": 7230,
      "åħĥç´ł": 7231,
      "ä¼¼ä¹İ": 7232,
      "æľĢä½İ": 7233,
      "Ġarray": 7234,
      "lish": 7235,
      "Ġplayers": 7236,
      "ĠAug": 7237,
      "Ġpreviously": 7238,
      "Ġdead": 7239,
      "éª¤": 7240,
      "èĴ¸": 7241,
      "pper": 7242,
      "è£ħé¥°": 7243,
      "æķĻèĤ²çļĦ": 7244,
      "ĠSuppose": 7245,
      "pite": 7246,
      "ĠBar": 7247,
      "print": 7248,
      "æľŁå¾ħ": 7249,
      "æ°§åĮĸ": 7250,
      "Ad": 7251,
      "****************": 7252,
      "å¾Īå¤§çļĦ": 7253,
      "ĠNorth": 7254,
      "Ġaud": 7255,
      "Ġreduced": 7256,
      "éĢĥ": 7257,
      "éĩįåºĨ": 7258,
      "Ġwebs": 7259,
      "roph": 7260,
      "æĳ¸": 7261,
      "error": 7262,
      "erson": 7263,
      "æŃ»äº¡": 7264,
      "Ġund": 7265,
      "çĵ¦": 7266,
      "åĲĦçº§": 7267,
      "åĬ²": 7268,
      "ĠTrump": 7269,
      "ham": 7270,
      "script": 7271,
      "åģ¥åħ¨": 7272,
      "Ġreference": 7273,
      "Ġmatch": 7274,
      "ivil": 7275,
      "Ġdraw": 7276,
      "å¸Ĥæ°ĳ": 7277,
      "æĽ´å¥½çļĦ": 7278,
      "åĲįç§°": 7279,
      "Ġcontain": 7280,
      "ĠJust": 7281,
      "Ġbox": 7282,
      "éŃĶ": 7283,
      "Ġrespond": 7284,
      "Ġrepe": 7285,
      "Ġrecomm": 7286,
      "Ġ(\\[": 7287,
      "æµĻæ±Ł": 7288,
      "ç§¯ç´¯": 7289,
      "array": 7290,
      "Ġalone": 7291,
      "ran": 7292,
      "lege": 7293,
      "orks": 7294,
      "æĥľ": 7295,
      "åľ¨æŃ¤": 7296,
      "earch": 7297,
      "}(\\": 7298,
      "åħļå§Ķ": 7299,
      "åĳĪçİ°": 7300,
      "ius": 7301,
      "åĲĮå¿Ĺ": 7302,
      "Ġcompan": 7303,
      "ega": 7304,
      "åħ¬åĳĬ": 7305,
      "ä¸ĵéĹ¨": 7306,
      "è½»æĿ¾": 7307,
      "Ġsal": 7308,
      "éĥ¨ä½į": 7309,
      "å²©": 7310,
      "ç¢°": 7311,
      "max": 7312,
      "èĶ¬èıľ": 7313,
      "Ġanim": 7314,
      "éĵģè·¯": 7315,
      "æĺĮ": 7316,
      "åĿ¦": 7317,
      "oles": 7318,
      "æłĩå¿Ĺ": 7319,
      "otic": 7320,
      "å¤§åŀĭ": 7321,
      "Ġsn": 7322,
      "å®¶éĩĮ": 7323,
      "MA": 7324,
      "ĠSome": 7325,
      "isions": 7326,
      "Ġliving": 7327,
      "Ġnational": 7328,
      "çļĦç®¡çĲĨ": 7329,
      "Ġgrad": 7330,
      "Ġgenerally": 7331,
      "çŃīæĸ¹éĿ¢": 7332,
      "hern": 7333,
      "Ġusually": 7334,
      "Ġdriv": 7335,
      "2006": 7336,
      "De": 7337,
      "ashing": 7338,
      "å¦Ļ": 7339,
      "ĠOur": 7340,
      "Ġ/*": 7341,
      "èŀįåĲĪ": 7342,
      "ĠOct": 7343,
      "Ġincludes": 7344,
      "Ġlos": 7345,
      "å¸ĥå±Ģ": 7346,
      "ĊĠĠĠĠĠĠ": 7347,
      "ĠTherefore": 7348,
      "Ġmap": 7349,
      "å¾Īæľī": 7350,
      "å¿ł": 7351,
      "å¼ķåıĳ": 7352,
      "æĶ¾å¼ĥ": 7353,
      "çİ»çĴĥ": 7354,
      "met": 7355,
      "Ġtheory": 7356,
      "èº«ä¸Ĭ": 7357,
      "gor": 7358,
      "ĠDNA": 7359,
      "aches": 7360,
      "åĪĨæķ°": 7361,
      "æĶ¹è¿Ľ": 7362,
      "è¿ĳå¹´æĿ¥": 7363,
      "joy": 7364,
      "Ġfriends": 7365,
      "åĲ«éĩı": 7366,
      "Ġjudgment": 7367,
      "Ġbehavior": 7368,
      "ĠFurther": 7369,
      "èĲ¥ä¸ļ": 7370,
      "çĭ¬çī¹": 7371,
      "ĠDav": 7372,
      "äº¦": 7373,
      "Ġoffice": 7374,
      "qq": 7375,
      "Ġprep": 7376,
      "å®ŀä¹ł": 7377,
      "å¨ĺ": 7378,
      "Ġpublished": 7379,
      "ä¼Ļä¼´": 7380,
      "Ġbroad": 7381,
      "SD": 7382,
      "Ġ60": 7383,
      "pen": 7384,
      "ĠHere": 7385,
      "å½ĵä¸Ń": 7386,
      "æĮº": 7387,
      "fra": 7388,
      "æĥħåĨµä¸ĭ": 7389,
      "ä¹Łæ²¡æľī": 7390,
      "åĩ¯": 7391,
      "^[@": 7392,
      "Ġspeed": 7393,
      "åĩºåıĳ": 7394,
      "Ġcover": 7395,
      "isms": 7396,
      "ä¸ŃåĽ½çļĦ": 7397,
      "æĺİæĺŁ": 7398,
      "iven": 7399,
      "è¯¾é¢ĺ": 7400,
      "Qu": 7401,
      "osure": 7402,
      "rangle": 7403,
      "Î¼": 7404,
      "Ġnumbers": 7405,
      "å°ıåĮº": 7406,
      "çľĭçĿĢ": 7407,
      "éĥ¨ç½²": 7408,
      "pan": 7409,
      "120": 7410,
      "osph": 7411,
      "igen": 7412,
      "åĶ¯ä¸Ģ": 7413,
      "Ġdirection": 7414,
      "Ġshare": 7415,
      "è´¢äº§": 7416,
      "Ġexpress": 7417,
      "fered": 7418,
      "illing": 7419,
      "æīĢæľīçļĦ": 7420,
      "Ġopin": 7421,
      "ç»ıåħ¸": 7422,
      "Ġren": 7423,
      "æħ¢æħ¢": 7424,
      "bon": 7425,
      "Ġimages": 7426,
      "é¥±": 7427,
      "æŃ£ç¡®çļĦ": 7428,
      "ç§įæ¤į": 7429,
      "pril": 7430,
      "æİ¢ç©¶": 7431,
      "ä¼ĺæĥł": 7432,
      "æ¸Ĺ": 7433,
      "åİŁæĿ¥": 7434,
      "Ġstatement": 7435,
      "é©»": 7436,
      "Ġanyone": 7437,
      "Ġlayer": 7438,
      "å¤Ħç½ļ": 7439,
      "åĩºæĿ¥çļĦ": 7440,
      "éĺ³åħī": 7441,
      "inated": 7442,
      "Ġ!=": 7443,
      "Ġ27": 7444,
      "OD": 7445,
      "Ã£": 7446,
      "å¸¦çĿĢ": 7447,
      "Ġstage": 7448,
      "æĦıåĳ³": 7449,
      "unk": 7450,
      "Ġ;": 7451,
      "æ±ģ": 7452,
      "acement": 7453,
      "é«ĺæķĪ": 7454,
      "åĮħè£ħ": 7455,
      "Ġengine": 7456,
      "Ġcompet": 7457,
      "Ġ?": 7458,
      "è®©ä½ł": 7459,
      "Ġvan": 7460,
      "Ġled": 7461,
      "ĠPresident": 7462,
      "æģ°": 7463,
      "sing": 7464,
      "å¤©çĦ¶": 7465,
      "æ°ĳä¸»": 7466,
      "æ³Į": 7467,
      "åĲ¦åĪĻ": 7468,
      "ĠCounty": 7469,
      "ĠLa": 7470,
      "åĲįçļĦ": 7471,
      "augh": 7472,
      "hest": 7473,
      "æĹ¶åĪ»": 7474,
      "Ġnote": 7475,
      "OC": 7476,
      "çºµ": 7477,
      "å®¤åĨħ": 7478,
      "è¡Ģåİĭ": 7479,
      "è¡¨æĺİ": 7480,
      "æĿ¥åĪ°": 7481,
      "ĠWhile": 7482,
      "å¤ļæ¬¡": 7483,
      "çļĦåŁºç¡Ģä¸Ĭ": 7484,
      "æĹ¶å°ļ": 7485,
      "æ°´æŀľ": 7486,
      "itter": 7487,
      "ĠAmerica": 7488,
      "Ġdro": 7489,
      "ĠMarch": 7490,
      "lation": 7491,
      "å¹´ä»£": 7492,
      "vey": 7493,
      "å¾Īå¥½çļĦ": 7494,
      "Ġclaims": 7495,
      "plate": 7496,
      "çº¤ç»´": 7497,
      "åĩłå¹´": 7498,
      "ouch": 7499,
      "Ġaccur": 7500,
      "æ¼Ķåĳĺ": 7501,
      "äº©": 7502,
      "Ġactive": 7503,
      "æ¢¦æĥ³": 7504,
      "æ´ª": 7505,
      "åħ±äº«": 7506,
      "è¡£æľį": 7507,
      "Ġonline": 7508,
      "Ġindependent": 7509,
      "åĽĬ": 7510,
      "Ġcand": 7511,
      "éĻ¶": 7512,
      "è¿ĩçļĦ": 7513,
      "Ġdifferences": 7514,
      "ç²¾å½©": 7515,
      "Ġvict": 7516,
      "éĢĨ": 7517,
      "è¾£": 7518,
      "ä¹ĭä¸Ń": 7519,
      "åºĶæĢ¥": 7520,
      "æĸĩåŃ¦": 7521,
      "èĩªè¡Į": 7522,
      "æĢ§è´¨": 7523,
      "åĳ¨æľŁ": 7524,
      "ä»£çĲĨ": 7525,
      "Ġprot": 7526,
      "æķ´æĶ¹": 7527,
      "Ġcommand": 7528,
      "åĽĽä¸ª": 7529,
      "çĹħæ¯Ĵ": 7530,
      "æ¯ıä¸Ģ": 7531,
      "aker": 7532,
      "è¶³å¤Ł": 7533,
      "oul": 7534,
      "æĲº": 7535,
      "urg": 7536,
      "ĠSince": 7537,
      "æľīæľº": 7538,
      "Ġtown": 7539,
      "çłĤ": 7540,
      "é£ŁçĶ¨": 7541,
      "Ġpretty": 7542,
      "ĠNow": 7543,
      "åıĳåĬ¨æľº": 7544,
      "æĭĸ": 7545,
      "æĬ¥èĢĥ": 7546,
      "Ed": 7547,
      "attle": 7548,
      "pat": 7549,
      "ental": 7550,
      "Ġpractice": 7551,
      "éĢĶå¾Ħ": 7552,
      "åŁºäºİ": 7553,
      "åħ³éĶ®è¯į": 7554,
      "Ġmessage": 7555,
      "æŃ£æĺ¯": 7556,
      "åľºæīĢ": 7557,
      ")$.": 7558,
      "Ġunit": 7559,
      "ui": 7560,
      "èĲ¥éĢł": 7561,
      "Ġarticle": 7562,
      "($": 7563,
      "è¿Ł": 7564,
      "Value": 7565,
      "å¯»æī¾": 7566,
      "æī¶è´«": 7567,
      ")=": 7568,
      "æľºåĻ¨": 7569,
      "arning": 7570,
      "ä½İäºİ": 7571,
      "ç´§å¼ł": 7572,
      "Ġtakes": 7573,
      "Ġroad": 7574,
      "æĥ³æ³ķ": 7575,
      "å¤ļå¹´": 7576,
      "çļĦè¿ĩç¨ĭä¸Ń": 7577,
      "Ġantib": 7578,
      "å®¡æŁ¥": 7579,
      "æĹ¨": 7580,
      "ĠGl": 7581,
      "Ġbrain": 7582,
      "deed": 7583,
      "æľīå¾Īå¤ļ": 7584,
      "ä¸Ģä½ĵ": 7585,
      "åŃ¦åİĨ": 7586,
      "äººå·¥": 7587,
      "ä¸īæĺ¯": 7588,
      "rite": 7589,
      "Ġbrought": 7590,
      "å¢¨": 7591,
      "å¤º": 7592,
      "Ġperfect": 7593,
      "æľ¬ç§ĳ": 7594,
      "Ġhref": 7595,
      "ille": 7596,
      "å¸¦æĿ¥çļĦ": 7597,
      "anch": 7598,
      "çĺ¦": 7599,
      "æ¶ĪåĮĸ": 7600,
      "éħįå¥Ĺ": 7601,
      "PL": 7602,
      "åĳ¨åĽ´": 7603,
      "å¥³åŃ©": 7604,
      "Ġsqu": 7605,
      "èĳ¡": 7606,
      "Ġimpl": 7607,
      "çĽĳæµĭ": 7608,
      "å§Ĩ": 7609,
      "éķ¿çļĦ": 7610,
      "Ġoffer": 7611,
      "Do": 7612,
      "å¤©çļĦ": 7613,
      "åīª": 7614,
      "ĠHer": 7615,
      "Ġregular": 7616,
      "150": 7617,
      "çĩ¥": 7618,
      "åĩıèĤ¥": 7619,
      "ĠST": 7620,
      "*~": 7621,
      "Ġcorresponding": 7622,
      "Ġsecurity": 7623,
      "è¯¾æĸĩ": 7624,
      "atives": 7625,
      "path": 7626,
      "undred": 7627,
      "fn": 7628,
      "Ġaltern": 7629,
      "è®¾ç«ĭ": 7630,
      "âĢĥ": 7631,
      "zy": 7632,
      "Ġsaying": 7633,
      "ä»¤äºº": 7634,
      "Ġgames": 7635,
      "Ġens": 7636,
      "ç®¡çĲĨçļĦ": 7637,
      "aries": 7638,
      "é¸Ł": 7639,
      "Ġreach": 7640,
      "æĭįæĳĦ": 7641,
      "TH": 7642,
      "ä¸ļç»©": 7643,
      "æµĭéĩı": 7644,
      "Ġappropri": 7645,
      "rench": 7646,
      "One": 7647,
      "åıĺæĪĲ": 7648,
      "åĲĦä½į": 7649,
      "å¹³æĸ¹ç±³": 7650,
      "Ġfeed": 7651,
      "æĺ¾çĿĢ": 7652,
      "Ġband": 7653,
      "åºĶå¯¹": 7654,
      "å¼ºåº¦": 7655,
      "EL": 7656,
      "Ġdynam": 7657,
      "Ã³n": 7658,
      "åľ¨è¿Ļä¸ª": 7659,
      "ĠJune": 7660,
      "Ġprotect": 7661,
      "å²ģçļĦ": 7662,
      "erve": 7663,
      "Ġwriting": 7664,
      "åħįçĸ«": 7665,
      "ĠFirst": 7666,
      "bb": 7667,
      "Ġhon": 7668,
      "èĭ±éĽĦ": 7669,
      "ĠHar": 7670,
      "term": 7671,
      "æĶ¶è´¹": 7672,
      "IF": 7673,
      "ociety": 7674,
      "Ġapproxim": 7675,
      "ä¹¡æĿĳ": 7676,
      "Ġnegative": 7677,
      "Ġpoor": 7678,
      "cast": 7679,
      "åĪĽä½ľ": 7680,
      "Le": 7681,
      "ĠSept": 7682,
      "ĠJapan": 7683,
      "å½¢åĬ¿": 7684,
      "BC": 7685,
      "ç»´ä¿®": 7686,
      "è°ĥçłĶ": 7687,
      "åĢ¡": 7688,
      "Ġpresident": 7689,
      "ĠâĪĴ": 7690,
      "UN": 7691,
      "Ġ2016": 7692,
      "arent": 7693,
      "Ġlarger": 7694,
      "æĤ²": 7695,
      "æıĲä¾ĽäºĨ": 7696,
      "Ġhttp": 7697,
      "Ġfinanc": 7698,
      "ä¸įçŁ¥": 7699,
      "æ±Łèĭı": 7700,
      "Ġord": 7701,
      "Ġetc": 7702,
      "ĠÐ¿": 7703,
      "é½¿": 7704,
      "lo": 7705,
      "äººçī©": 7706,
      "ĠHouse": 7707,
      "åĵŃ": 7708,
      "Ġstreng": 7709,
      "yond": 7710,
      "Ġenh": 7711,
      "ĠChar": 7712,
      "atform": 7713,
      "Ġconstruct": 7714,
      "Ġrot": 7715,
      "æĻĴ": 7716,
      "èĥ½éĩı": 7717,
      "è¾ħå¯¼": 7718,
      "cdot": 7719,
      "Ġ2012": 7720,
      "Ġattention": 7721,
      "åĨĻä½ľ": 7722,
      "uild": 7723,
      "Ġ&&": 7724,
      "Suppose": 7725,
      "ĠArt": 7726,
      "Ġdensity": 7727,
      "Ġcontinue": 7728,
      "Ġball": 7729,
      "Ġmorning": 7730,
      "Ġassert": 7731,
      "å¥Ķ": 7732,
      "pret": 7733,
      "inate": 7734,
      "åĲĲ": 7735,
      "éĥŃ": 7736,
      "çľĭæĿ¥": 7737,
      "supp": 7738,
      "åİŁçĲĨ": 7739,
      "vention": 7740,
      "å®¢è§Ĥ": 7741,
      "Ġ2014": 7742,
      "å¯¹æŃ¤": 7743,
      "Or": 7744,
      "Ġfine": 7745,
      "èĥĸ": 7746,
      "Ïĥ": 7747,
      "è¸ı": 7748,
      "ç¼ĸåĪ¶": 7749,
      "Ġways": 7750,
      "æī¹åĩĨ": 7751,
      "Ġmeasured": 7752,
      "Ġil": 7753,
      "urb": 7754,
      "æ»ĭ": 7755,
      "æĭħå¿ĥ": 7756,
      "Now": 7757,
      "ethyl": 7758,
      "åłĨ": 7759,
      "Oh": 7760,
      "ournal": 7761,
      "åģļäºĨ": 7762,
      "Ġcenter": 7763,
      "Ġdouble": 7764,
      "ãģ®": 7765,
      "rec": 7766,
      "é«ĺçº§": 7767,
      "èī°": 7768,
      "å¸ĪçĶŁ": 7769,
      "ously": 7770,
      "å©´": 7771,
      "èĲĦ": 7772,
      "bi": 7773,
      "from": 7774,
      "Ġgrant": 7775,
      "çļĦè¿ĩç¨ĭ": 7776,
      "eful": 7777,
      "eah": 7778,
      "æ²³åįĹ": 7779,
      "eline": 7780,
      "ayer": 7781,
      "å®ĺæĸ¹": 7782,
      "Ġtele": 7783,
      "gorith": 7784,
      "å§¿": 7785,
      "ç»ĨèĬĤ": 7786,
      "aling": 7787,
      "å¹²åĩĢ": 7788,
      "Ġobtain": 7789,
      "enty": 7790,
      "Ġarr": 7791,
      "æĪĸè®¸": 7792,
      "è¯±": 7793,
      "uge": 7794,
      "è¡Ģæ¶²": 7795,
      "äººåľ¨": 7796,
      "Ġproposed": 7797,
      "èĥĢ": 7798,
      "gy": 7799,
      "èĳ¡èĲĦ": 7800,
      "Ġrelative": 7801,
      "Ġstar": 7802,
      "éĥģ": 7803,
      "Ġstress": 7804,
      "æĻ°": 7805,
      "irect": 7806,
      "Ġhear": 7807,
      "çļĦåħ³ç³»": 7808,
      "GF": 7809,
      "éĻĦè¿ĳ": 7810,
      "æĪĲå°±": 7811,
      "Ġ[*": 7812,
      "lor": 7813,
      "Ġtradition": 7814,
      "Ġtitle": 7815,
      "åħ¬åĽŃ": 7816,
      "ĠId": 7817,
      "Ġserious": 7818,
      "æĪĳå°±": 7819,
      "Ġcam": 7820,
      "ãĢĭãĢĤ": 7821,
      "ä¼ĳæģ¯": 7822,
      "ä¸ĭåİ»": 7823,
      "Ã§": 7824,
      "spec": 7825,
      "æĨ": 7826,
      "Ġrates": 7827,
      "âĨĴ": 7828,
      "ï¼ĮãĢĬ": 7829,
      "Ġ2015": 7830,
      "Ġsituation": 7831,
      "æİĺ": 7832,
      "æĭĮ": 7833,
      "è¿Ľåı£": 7834,
      "åĲĬ": 7835,
      "çĲĨçĶ±": 7836,
      "å¥ī": 7837,
      "Ġacqu": 7838,
      "çĭĤ": 7839,
      "è®¼": 7840,
      "è¾ĸ": 7841,
      "Ġpurpose": 7842,
      "Ġrecently": 7843,
      "èĢĥå¯Ł": 7844,
      "ĠCir": 7845,
      "å¤§å°ı": 7846,
      "çĦĬ": 7847,
      "ä¹Ļæĸ¹": 7848,
      "åŀĤ": 7849,
      "Ġvisit": 7850,
      "ufact": 7851,
      "ç¨į": 7852,
      "æĿŃ": 7853,
      "Ġdevices": 7854,
      "));": 7855,
      "js": 7856,
      "èİ·åıĸ": 7857,
      "çĶŁæ´»çļĦ": 7858,
      "ĠAP": 7859,
      "Ġult": 7860,
      "éĹ¹": 7861,
      "Ġliter": 7862,
      "aign": 7863,
      "èĤ©": 7864,
      "change": 7865,
      "version": 7866,
      "Ġtreated": 7867,
      "ports": 7868,
      "è®°å¾Ĺ": 7869,
      "éļĲæĤ£": 7870,
      "äº§æĿĥ": 7871,
      "}}$": 7872,
      "ĠVal": 7873,
      "æ±Ĺ": 7874,
      "æİ¨åĩº": 7875,
      "Ġhighly": 7876,
      "èĲ¨": 7877,
      "äºı": 7878,
      "itness": 7879,
      "åħ¬åĬ¡": 7880,
      "Ġdistance": 7881,
      "SC": 7882,
      "kg": 7883,
      "æĺ¯å¯¹": 7884,
      "Ġhydro": 7885,
      "Ġclean": 7886,
      "omy": 7887,
      "Ġwrote": 7888,
      "ç©ºè°ĥ": 7889,
      "ĠAlthough": 7890,
      "åľ¨è¿ĻéĩĮ": 7891,
      "Ġpurch": 7892,
      "å½»åºķ": 7893,
      "å®¡æī¹": 7894,
      "çļĦäº§åĵģ": 7895,
      "omen": 7896,
      "Ġfre": 7897,
      "åħģè®¸": 7898,
      "Ġglobal": 7899,
      "ä½ľåĩº": 7900,
      "çķª": 7901,
      "ä¸Ģä»½": 7902,
      "!!": 7903,
      "è¦ģæľī": 7904,
      "çİ°çĬ¶": 7905,
      "ä¸ĭåĪĹ": 7906,
      "æŃ¥éª¤": 7907,
      "Ġ29": 7908,
      "æľĢæĸ°": 7909,
      "length": 7910,
      "Ġallowed": 7911,
      "Ġisol": 7912,
      "Ġrow": 7913,
      "åı¸æ³ķ": 7914,
      "pid": 7915,
      "çĶµåĬĽ": 7916,
      "åĽŀå®¶": 7917,
      "ĠSystem": 7918,
      "iled": 7919,
      "unn": 7920,
      "Ġbeaut": 7921,
      "ç¡ķ": 7922,
      "Ġcapac": 7923,
      "çļĦä¸ľè¥¿": 7924,
      "ç»ĵå©ļ": 7925,
      "æĺ¾å¾Ĺ": 7926,
      "Ġter": 7927,
      "Ġeveryone": 7928,
      "çł´åĿı": 7929,
      "å°Ŀè¯ķ": 7930,
      "Ġrule": 7931,
      "å¾Īå¿«": 7932,
      "Ġ:=": 7933,
      "æĶ¶éĽĨ": 7934,
      "ibrary": 7935,
      "çĤ¸": 7936,
      "ä¸ĵé¢ĺ": 7937,
      "Ġri": 7938,
      "æĸ¤": 7939,
      "è¡Ĺéģĵ": 7940,
      "2005": 7941,
      "è¯īè®¼": 7942,
      "ocks": 7943,
      "çģĮ": 7944,
      "Ġ2013": 7945,
      "ĠSu": 7946,
      "estern": 7947,
      "ico": 7948,
      "band": 7949,
      "å¾ĭå¸Ī": 7950,
      "obile": 7951,
      "Ġsuit": 7952,
      "çļĦè®¾è®¡": 7953,
      "çĲ´": 7954,
      "å¾ĹåĪ°äºĨ": 7955,
      "ĊĠĠĠĠĠĠĠĠĠĠĠĠĠĠĠĠĠĠĠĠĠĠĠ": 7956,
      "å¥¹ä»¬": 7957,
      "çĸ²": 7958,
      "è½¬åĮĸ": 7959,
      "cho": 7960,
      "mega": 7961,
      "Ïģ": 7962,
      "Ġmyself": 7963,
      "åĵªéĩĮ": 7964,
      "Ġintern": 7965,
      "Ġargument": 7966,
      "map": 7967,
      "Ġpen": 7968,
      "åĴĮç¤¾ä¼ļ": 7969,
      "za": 7970,
      "Ġsold": 7971,
      "Äĥ": 7972,
      "èİ±": 7973,
      "æ·±åĮĸ": 7974,
      "çĲĥéĺŁ": 7975,
      "å¥³å£«": 7976,
      "åŃ£åº¦": 7977,
      "åĵģç§į": 7978,
      "ĠSer": 7979,
      "ĠJuly": 7980,
      "çīµ": 7981,
      "é¦Ī": 7982,
      "Ġbirth": 7983,
      "New": 7984,
      "Mod": 7985,
      "è£ħç½®": 7986,
      "çĶµåĬ¨": 7987,
      "èŀº": 7988,
      "è¿Ļå°±æĺ¯": 7989,
      "âĢĿâĢľ": 7990,
      "Cal": 7991,
      "ulate": 7992,
      "reme": 7993,
      "å®ŀåľ¨": 7994,
      "æĦıåĳ³çĿĢ": 7995,
      "è½¬ç§»": 7996,
      "Ġcharge": 7997,
      "Ġprofess": 7998,
      "Ġphen": 7999,
      "æĭ¨": 8000,
      "Ġdesigned": 8001,
      "hors": 8002,
      "å¹»": 8003,
      "æĤ¦": 8004,
      "Ġinform": 8005,
      "çŃ¾è®¢": 8006,
      "Ġmer": 8007,
      "ĠApril": 8008,
      "è¾Ī": 8009,
      "oted": 8010,
      "Ġmag": 8011,
      "å¼¯": 8012,
      "æ²Ī": 8013,
      "Ġsufficient": 8014,
      "Ġproduced": 8015,
      "coming": 8016,
      "Ġbank": 8017,
      "ĠChina": 8018,
      "ĠWest": 8019,
      "Ġuseful": 8020,
      "Ġresid": 8021,
      "Ã¨": 8022,
      "ä»Ļ": 8023,
      "ĠPhys": 8024,
      "å¯¹å¤ĸ": 8025,
      "æĳĩ": 8026,
      "){#": 8027,
      "Ġoil": 8028,
      "Ġheat": 8029,
      "Ġstim": 8030,
      "èĤĮèĤ¤": 8031,
      "Ġfixed": 8032,
      "ervice": 8033,
      "Ġprop": 8034,
      "æ¯ķä¸ļçĶŁ": 8035,
      "æİĴåĲį": 8036,
      "çļĦå®īåħ¨": 8037,
      "inct": 8038,
      "Ġoperation": 8039,
      "Ġ2010": 8040,
      "Ġbal": 8041,
      "ä¸ĭäºĨ": 8042,
      "æĽ¼": 8043,
      "Ġinstance": 8044,
      "acing": 8045,
      "çļĦæķĻèĤ²": 8046,
      "Ġproceed": 8047,
      "Par": 8048,
      "orph": 8049,
      "cember": 8050,
      "çļĦä¼ģä¸ļ": 8051,
      "å¿ħçĦ¶": 8052,
      "CA": 8053,
      "æĿĥçĽĬ": 8054,
      "Ġbackground": 8055,
      "Ġmount": 8056,
      "Ġ2017": 8057,
      "iring": 8058,
      "ä¹Łåľ¨": 8059,
      "Ġleading": 8060,
      "Ġstatic": 8061,
      "ï¼ģï¼ģ": 8062,
      "Ġhundred": 8063,
      "Ġtechnology": 8064,
      "ĠSw": 8065,
      "è¯ĬæĸŃ": 8066,
      "Ġmid": 8067,
      "600": 8068,
      "åİŁæĸĩ": 8069,
      "å¤§ä¼Ĺ": 8070,
      "åĬ¨æĢģ": 8071,
      "æķ´æ²»": 8072,
      "SP": 8073,
      "è¿Ļæ¬¾": 8074,
      "Ġsecret": 8075,
      "æ°ĳèŃ¦": 8076,
      "ĠAugust": 8077,
      "ä¼Ĺå¤ļ": 8078,
      "åı¯è§ģ": 8079,
      "abase": 8080,
      "éĿĴæĺ¥": 8081,
      "åİ¨": 8082,
      "Ġfailed": 8083,
      "Ġfair": 8084,
      "éĹª": 8085,
      "æ£Ģå¯Ł": 8086,
      "ä¹Łèĥ½": 8087,
      "å¤©æ´¥": 8088,
      "çİ©å®¶": 8089,
      "###": 8090,
      "Ġdegree": 8091,
      "å§ľ": 8092,
      "åīįçļĦ": 8093,
      "Ġfrequency": 8094,
      "Ġestablished": 8095,
      "çļĦæķĪæŀľ": 8096,
      "çºªå¾ĭ": 8097,
      "mpt": 8098,
      "\\].": 8099,
      "ä¿Ŀåģ¥": 8100,
      "å¸¸å¸¸": 8101,
      "æĢ§æł¼": 8102,
      "æĮ¡": 8103,
      "Ġsurpr": 8104,
      "å§»": 8105,
      "éĺ²æ²»": 8106,
      "å±ķå¼Ģ": 8107,
      "izes": 8108,
      "ĠJanuary": 8109,
      "å¼Ħ": 8110,
      "æĶ¶èİ·": 8111,
      "Ġarch": 8112,
      "ondon": 8113,
      "Ġcomponents": 8114,
      "èµ·åĪ°": 8115,
      "åĩºçĶŁ": 8116,
      "ä»¥ä¸ĬçļĦ": 8117,
      "ube": 8118,
      "ML": 8119,
      "ĠÑģ": 8120,
      "Ġgives": 8121,
      "å¥½äºĨ": 8122,
      "æĴŀ": 8123,
      "ä¼ļä¸Ĭ": 8124,
      "è¿ĺåľ¨": 8125,
      "Ġenjoy": 8126,
      "efore": 8127,
      "ç²īä¸Ŀ": 8128,
      "åħ¨çľģ": 8129,
      "Text": 8130,
      "Ġparts": 8131,
      "ancy": 8132,
      "çĶŁåŃĺ": 8133,
      "dr": 8134,
      "psi": 8135,
      "ç«¹": 8136,
      "åĽ½å¤ĸ": 8137,
      "aily": 8138,
      "ĠDem": 8139,
      "éªĮæĶ¶": 8140,
      "Ġlegal": 8141,
      "Ġdetails": 8142,
      "ĠGeneral": 8143,
      "æĤ¬": 8144,
      "Ġsubstant": 8145,
      "Ġselected": 8146,
      "çİ°åľ¨çļĦ": 8147,
      "Ġcaused": 8148,
      "ĠOR": 8149,
      "cos": 8150,
      "ership": 8151,
      "Ġratio": 8152,
      "å°±åľ¨": 8153,
      "Ġwonder": 8154,
      "åĳĢ": 8155,
      "äººåĬĽèµĦæºĲ": 8156,
      "non": 8157,
      "lock": 8158,
      "åĪĨå¸ĥ": 8159,
      "Ġscale": 8160,
      "Object": 8161,
      "åĲĪéĢĤ": 8162,
      "Ġidentify": 8163,
      "èį¯åĵģ": 8164,
      "ato": 8165,
      "fort": 8166,
      "Ġclust": 8167,
      "éļľç¢į": 8168,
      "Ġannoun": 8169,
      "Ġcompletely": 8170,
      "Ġearlier": 8171,
      "å°Ĩåľ¨": 8172,
      "Ġgraph": 8173,
      "å®ŀéĻħä¸Ĭ": 8174,
      "Ġworked": 8175,
      "Ã£o": 8176,
      "ä¼ı": 8177,
      "ä¸ĬéĿ¢": 8178,
      "Ġtravel": 8179,
      "Ġusers": 8180,
      "å¤§éĩıçļĦ": 8181,
      "Ġsomet": 8182,
      "æĪĲéĥ½": 8183,
      "entially": 8184,
      "æķĻåŃ¦ä¸Ń": 8185,
      "Ġvoice": 8186,
      "âĹ": 8187,
      "ener": 8188,
      "éĥ½åı¯ä»¥": 8189,
      "Ġdeb": 8190,
      "ä¼¯": 8191,
      "çģµæ´»": 8192,
      "Ġfindings": 8193,
      "Ġeight": 8194,
      "ĠKing": 8195,
      "ç¾İæľ¯": 8196,
      "ä¸ŃéĹ´": 8197,
      "å¥ĸåĬ±": 8198,
      "Ġindividuals": 8199,
      "æĪĳæĺ¯": 8200,
      "åĩºçİ°äºĨ": 8201,
      "æĹ¥èµ·": 8202,
      "ç»´æĮģ": 8203,
      "Ġmanagement": 8204,
      "å¤ļäºĨ": 8205,
      "oring": 8206,
      "æīĭç»Ń": 8207,
      "king": 8208,
      "èĤĥ": 8209,
      "Ġcountries": 8210,
      "}=": 8211,
      "âĺ": 8212,
      "èĬĤèĥ½": 8213,
      "æŃ¤æĹ¶": 8214,
      "å¯¹æ¯Ķ": 8215,
      "åĽĽå·Ŀ": 8216,
      "åŃ¤": 8217,
      "ĠJud": 8218,
      "çĶ³æĬ¥": 8219,
      "ä¸¤äºº": 8220,
      "å¼ºçĥĪ": 8221,
      "Ġdivided": 8222,
      "ä¸ĵä¸ļçļĦ": 8223,
      "ovember": 8224,
      "æĭĵå±ķ": 8225,
      "ÑĮ": 8226,
      "è¾ĥä¸º": 8227,
      ")-": 8228,
      "Yes": 8229,
      "Ġagreement": 8230,
      "Ġproteins": 8231,
      "éĢłåŀĭ": 8232,
      "æĶ¯éĥ¨": 8233,
      "åıĳæĶ¾": 8234,
      "Ġ2011": 8235,
      "èĢĮåľ¨": 8236,
      "éĴĻ": 8237,
      "æ¹ĸåįĹ": 8238,
      "Ġexperien": 8239,
      "èī²å½©": 8240,
      "æĻ¯åĮº": 8241,
      "è¾©": 8242,
      "åĲįåŃĹ": 8243,
      "Ġbuilt": 8244,
      "Ġthreat": 8245,
      "åĩºåİ»": 8246,
      "epsilon": 8247,
      "ees": 8248,
      "éŃħ": 8249,
      "Ð²": 8250,
      "Ġderivative": 8251,
      "Ġarm": 8252,
      "è·¯çº¿": 8253,
      "Ġcentral": 8254,
      "exp": 8255,
      "åħ¬çĽĬ": 8256,
      "åĩºçīĪç¤¾": 8257,
      "ç¾İå®¹": 8258,
      "åĪ©çİĩ": 8259,
      "ÏĢ": 8260,
      "vis": 8261,
      "çĽ¸åħ³çļĦ": 8262,
      "zed": 8263,
      "å¤±è´¥": 8264,
      "åħ¬å¹³": 8265,
      "æĲ¬": 8266,
      "Sc": 8267,
      "çİ°éĩĳ": 8268,
      "ocation": 8269,
      "Ġreading": 8270,
      "ç»©æķĪ": 8271,
      "ĠMon": 8272,
      "äºĮåįģ": 8273,
      "Ġlat": 8274,
      "æ¸¸å®¢": 8275,
      "Ġswe": 8276,
      "Ġfa": 8277,
      "Ġdog": 8278,
      "gu": 8279,
      "Ġlocation": 8280,
      "äºĪä»¥": 8281,
      "rightarrow": 8282,
      "Ġlas": 8283,
      "ida": 8284,
      "ĠĠĠĠĠĠĠĠĠĠĠĠĠĠĠĠĠĠĠĠĠĠĠĠĠĠĠĠĠĠĠĠĠĠĠĠĠĠĠĠĠĠĠĠĠĠĠĠ": 8285,
      "Ġthous": 8286,
      "Ġchoice": 8287,
      "Ġeasily": 8288,
      "Ġhit": 8289,
      "*.": 8290,
      "was": 8291,
      "èģĮèĥ½": 8292,
      "ĠFrom": 8293,
      "ellant": 8294,
      "Gamma": 8295,
      "è¯Ħè®º": 8296,
      "åĽ½æľī": 8297,
      "è§Ħå®ļçļĦ": 8298,
      "known": 8299,
      "Ġdefault": 8300,
      "âĢĶâĢĶâĢĶâĢĶ": 8301,
      "under": 8302,
      "çłĸ": 8303,
      "å½ĵäºĭ": 8304,
      "Ġseemed": 8305,
      "åħ»æĪĲ": 8306,
      "cap": 8307,
      "æµģéĩı": 8308,
      "æ¬§æ´²": 8309,
      "æķĮ": 8310,
      "Ġplant": 8311,
      "å®ł": 8312,
      "çĶ²æĸ¹": 8313,
      "Omega": 8314,
      "ara": 8315,
      "è¡¥è´´": 8316,
      "ĠSeptember": 8317,
      "Ġsaf": 8318,
      "Ġmoved": 8319,
      "Ġprice": 8320,
      "è½¦çļĦ": 8321,
      "Ġinn": 8322,
      "æ³ª": 8323,
      "Ġnovel": 8324,
      "æ¶ĪéĻ¤": 8325,
      "Ġtowards": 8326,
      "Ġcomponent": 8327,
      "Ñĩ": 8328,
      "Ġworth": 8329,
      "Ġneigh": 8330,
      "éĺĶ": 8331,
      "ç¬¬äºĶ": 8332,
      "æĪĳåľ¨": 8333,
      "ĠDistrict": 8334,
      "Ġ\\<": 8335,
      "orem": 8336,
      "ĠMich": 8337,
      "Ġchanged": 8338,
      "åī²": 8339,
      "ç±»ä¼¼": 8340,
      "æŃ¦æ±ī": 8341,
      "110": 8342,
      "åį°è±¡": 8343,
      "æ¸ħæĻ°": 8344,
      "call": 8345,
      "Ġreleased": 8346,
      "çļĦä¸»": 8347,
      "ibly": 8348,
      "Ġboard": 8349,
      "Ġimm": 8350,
      "ç§¦": 8351,
      "ç»ıæµİåıĳå±ķ": 8352,
      "å¤¹": 8353,
      "èĪĴéĢĤ": 8354,
      "Ġaim": 8355,
      "Ġwebsite": 8356,
      "æ¤Ĵ": 8357,
      "athe": 8358,
      "Ġnotice": 8359,
      ")$,": 8360,
      "ĠRed": 8361,
      "æ¯ıä¸ªäºº": 8362,
      "åŁİéķĩ": 8363,
      "è®©åŃ©åŃĲ": 8364,
      "Ġ----------------": 8365,
      "æħİ": 8366,
      "čĊĠ": 8367,
      "èĢĮä¸įæĺ¯": 8368,
      "Ġcircum": 8369,
      "Ġsites": 8370,
      "cil": 8371,
      "BS": 8372,
      "wide": 8373,
      "%.": 8374,
      "iency": 8375,
      "ç¨Ģ": 8376,
      "Ġsche": 8377,
      "Ġ[**": 8378,
      "Ġlooks": 8379,
      "æ·±åº¦": 8380,
      "Ġbeyond": 8381,
      "åĮºåĪ«": 8382,
      "Ġmatrix": 8383,
      "è¾ŀ": 8384,
      "Ġemerg": 8385,
      "Ġrequires": 8386,
      "çī©åĵģ": 8387,
      "ä¿®æĶ¹": 8388,
      "ä½ľæĸĩ": 8389,
      "æ»¤": 8390,
      "Ġones": 8391,
      "Ġcurrently": 8392,
      "æĬ¼": 8393,
      "room": 8394,
      "è®¤åı¯": 8395,
      "Ġcomment": 8396,
      "acher": 8397,
      "åĲĪæ³ķ": 8398,
      "Ġconcept": 8399,
      "ï¼ĮâĢĿ": 8400,
      "ights": 8401,
      "åį±æľº": 8402,
      "Ġphone": 8403,
      "TT": 8404,
      "operator": 8405,
      "å¼Ĥå¸¸": 8406,
      "ka": 8407,
      "åħ±äº§": 8408,
      "ĠFeb": 8409,
      "æĶ¾åħ¥": 8410,
      "éĵľ": 8411,
      "æĪ¿åŃĲ": 8412,
      "ĠĊĠĠĠĠĠĠĠĠĠĠĠĠĠĠĠ": 8413,
      "ocol": 8414,
      "semb": 8415,
      "åıĳè¡Į": 8416,
      "æĺ¯æľī": 8417,
      "Ġtrust": 8418,
      "Ġtim": 8419,
      "è°¨": 8420,
      "oding": 8421,
      "ford": 8422,
      "orage": 8423,
      "éĢ»": 8424,
      "ĠOctober": 8425,
      "Ġfiles": 8426,
      "Ġweb": 8427,
      "rad": 8428,
      "irmed": 8429,
      "ouble": 8430,
      "äººåĳĺçļĦ": 8431,
      "Ġexpressed": 8432,
      "é«ĺçŃī": 8433,
      "EX": 8434,
      "èį¡": 8435,
      "å½¼": 8436,
      "------": 8437,
      "Ġmanufact": 8438,
      "åıįå¤į": 8439,
      "group": 8440,
      "Ġmulti": 8441,
      "Ġimag": 8442,
      "è¯ĳ": 8443,
      "æ£ī": 8444,
      "Des": 8445,
      "Ġprime": 8446,
      "åģ·": 8447,
      "Ġcarry": 8448,
      "pol": 8449,
      "Int": 8450,
      "éĩĩè®¿": 8451,
      "å©ļå§»": 8452,
      "Ġformed": 8453,
      "Ġcool": 8454,
      "Ġnames": 8455,
      "/>": 8456,
      "åŃ¦æľŁ": 8457,
      "df": 8458,
      "Ġconcern": 8459,
      "Ġrecept": 8460,
      "çĽ¸ç»ĵåĲĪ": 8461,
      "ä½ľé£İ": 8462,
      "Ġcomputer": 8463,
      "amm": 8464,
      "éĩĳé¢Ŀ": 8465,
      "Ġculture": 8466,
      "Ġda": 8467,
      "Ġdecided": 8468,
      "è½¬åŀĭ": 8469,
      "éļıåĲİ": 8470,
      "åĬ©äºİ": 8471,
      "èĢģæĿ¿": 8472,
      "elle": 8473,
      "å¸¦åĬ¨": 8474,
      "Ġauthors": 8475,
      "åıĳèĤ²": 8476,
      "æĺ¯æľĢ": 8477,
      "ĠDepartment": 8478,
      "èĩªä¿¡": 8479,
      "Ġwife": 8480,
      "å¾½": 8481,
      "Sec": 8482,
      "åĬŁæķĪ": 8483,
      "é¢ĸ": 8484,
      "Ġbuy": 8485,
      "CE": 8486,
      "Ġexerc": 8487,
      "å¼ķè¿Ľ": 8488,
      "æĿĳæ°ĳ": 8489,
      "å¾Īå®¹æĺĵ": 8490,
      "Ġfailure": 8491,
      "ifically": 8492,
      "åĪĨæ³Į": 8493,
      "è¿Ļä½į": 8494,
      "å°±æľī": 8495,
      "Ġpsych": 8496,
      "002": 8497,
      "å¯¹å¾ħ": 8498,
      "\\'": 8499,
      "Ġequal": 8500,
      "psilon": 8501,
      "ris": 8502,
      "Ġcontains": 8503,
      "å¸¸è§Ħ": 8504,
      "((": 8505,
      "Ġunique": 8506,
      "è£ħå¤ĩ": 8507,
      ":\"": 8508,
      "wards": 8509,
      "Ġremember": 8510,
      "ä½ĵæ£Ģ": 8511,
      "pc": 8512,
      "Ġfederal": 8513,
      "Well": 8514,
      "Ġcontrast": 8515,
      "Ġcompanies": 8516,
      "ÙĦ": 8517,
      "Ġindustry": 8518,
      "ç»ĻæĪĳ": 8519,
      "å®¶äºº": 8520,
      "Ġemb": 8521,
      "odies": 8522,
      "åįĥä¸ĩ": 8523,
      "plit": 8524,
      "Ġqual": 8525,
      "ĠĊĠ": 8526,
      "è¦ģæ³¨æĦı": 8527,
      "æķħéļľ": 8528,
      "void": 8529,
      "Ġroll": 8530,
      "hand": 8531,
      "py": 8532,
      "Ġsong": 8533,
      "ç¾¤ä½ĵ": 8534,
      "å°±ä¸į": 8535,
      "Ġhyper": 8536,
      "å£°æĺİ": 8537,
      "éĶ¦": 8538,
      "æŁ¥çľĭ": 8539,
      "éħ¬": 8540,
      "Ġtissue": 8541,
      "003": 8542,
      "Ġcontaining": 8543,
      "Ġspeak": 8544,
      "After": 8545,
      "çĥĤ": 8546,
      "Ġadvant": 8547,
      "å¾·åĽ½": 8548,
      "æĪĳä»¬åľ¨": 8549,
      "åĩĮ": 8550,
      "mark": 8551,
      "çº¿è·¯": 8552,
      "ĠEnglish": 8553,
      "Ġsmaller": 8554,
      "åįĹäº¬": 8555,
      "Ġplayed": 8556,
      "èµĽåŃ£": 8557,
      "Ġupp": 8558,
      "Ġextra": 8559,
      "aught": 8560,
      "çĽĳæİ§": 8561,
      "public": 8562,
      "Ġallows": 8563,
      "åĩ¤": 8564,
      "æĪĴ": 8565,
      "çĿ¡çľł": 8566,
      "ffer": 8567,
      "urt": 8568,
      "Ġdiscl": 8569,
      "åĲĮæĦı": 8570,
      "Ġhighest": 8571,
      "othes": 8572,
      "iful": 8573,
      "cin": 8574,
      "è¿ĳæľŁ": 8575,
      "vare": 8576,
      "PR": 8577,
      "ä½¿åŃ¦çĶŁ": 8578,
      "ä¸Ģæĸ¹éĿ¢": 8579,
      "çº·çº·": 8580,
      "Ġnumer": 8581,
      "Ġexactly": 8582,
      "åĪĿæŃ¥": 8583,
      "osite": 8584,
      "user": 8585,
      "ä¼ļåľ¨": 8586,
      "File": 8587,
      "ä½©": 8588,
      "Ġlocated": 8589,
      "åĭĴ": 8590,
      "éĤ£æł·": 8591,
      "çıŃä¸»ä»»": 8592,
      "èī¾": 8593,
      "ä¸»å¸Ń": 8594,
      "éģµå®Ī": 8595,
      "overy": 8596,
      "Ġdescript": 8597,
      "Ġslight": 8598,
      "æķĻå¸ĪçļĦ": 8599,
      "æĳĦå½±": 8600,
      "éļıæĹ¶": 8601,
      "older": 8602,
      "Ġcouldn": 8603,
      "æĸľ": 8604,
      "irt": 8605,
      "å¯Ħ": 8606,
      "Ġmur": 8607,
      "æĥĳ": 8608,
      "åį³å°Ĩ": 8609,
      "åı¯éĿł": 8610,
      "æĽ´ä¸º": 8611,
      "çŁ¥åĲį": 8612,
      "quest": 8613,
      "Ġmeaning": 8614,
      "æĭľ": 8615,
      "Ġreasons": 8616,
      "Ġquickly": 8617,
      "ç¼ĵè§£": 8618,
      "Ġelectro": 8619,
      "Ġcook": 8620,
      "ano": 8621,
      "ĠStud": 8622,
      "Ġclearly": 8623,
      "å§Ķæīĺ": 8624,
      "å·¥åķĨ": 8625,
      "åĨłåĨĽ": 8626,
      "èĢĮä¸į": 8627,
      "åĪĨåŃĲ": 8628,
      "Ġfinding": 8629,
      "åĽŀåĪ°": 8630,
      "å¤§å¹ħ": 8631,
      "perty": 8632,
      "Ġoverall": 8633,
      "active": 8634,
      "æĪĳä»¬è¦ģ": 8635,
      "Ġappeal": 8636,
      "ä¸Ģè·¯": 8637,
      "åľ¨ä¸ŃåĽ½": 8638,
      "Ġsupported": 8639,
      "Ġdrive": 8640,
      "Ġplease": 8641,
      "ĠÃ©": 8642,
      "Ġhappened": 8643,
      "argin": 8644,
      "Ġemail": 8645,
      "SA": 8646,
      "éĺ²æİ§": 8647,
      "init": 8648,
      "åŃ¦æľ¯": 8649,
      "overn": 8650,
      "lick": 8651,
      "å¯ĨåĪĩ": 8652,
      "ĠSun": 8653,
      "èµĭ": 8654,
      "ĠDet": 8655,
      "çĵ·": 8656,
      "Ġ31": 8657,
      "uted": 8658,
      "Ġgoes": 8659,
      "ĠÐ²": 8660,
      "ç´¯è®¡": 8661,
      "è¾ĵåħ¥": 8662,
      "Ġappears": 8663,
      "Ġcampaign": 8664,
      "èĢĢ": 8665,
      "å±ħä½ı": 8666,
      "éĶĢéĩı": 8667,
      "Ġnor": 8668,
      "vec": 8669,
      "Ġappropriate": 8670,
      "Ġmode": 8671,
      "section": 8672,
      "ĠRec": 8673,
      "di": 8674,
      "æŁĲäºĽ": 8675,
      "pace": 8676,
      "Ġax": 8677,
      "ç½Ĺæĸ¯": 8678,
      "item": 8679,
      "Ġconnection": 8680,
      "æī¿è¯º": 8681,
      "æ¬£èµı": 8682,
      "Ġremains": 8683,
      "åĴĸ": 8684,
      "è¸ª": 8685,
      "éŁ©åĽ½": 8686,
      "å¼Ģå¿ĥ": 8687,
      "ĠString": 8688,
      "Ġadjust": 8689,
      "^+": 8690,
      "Ġsometimes": 8691,
      "ĠCons": 8692,
      "ç®¡éģĵ": 8693,
      "çĶµæ±ł": 8694,
      "Ġgenerated": 8695,
      "è®²è§£": 8696,
      "Ġstru": 8697,
      "Ġcommit": 8698,
      "link": 8699,
      "Of": 8700,
      "åħĪåĲİ": 8701,
      "ĠDecember": 8702,
      "çº²": 8703,
      "éĿ©åĳ½": 8704,
      "Ġtumor": 8705,
      "ULL": 8706,
      "tee": 8707,
      "Ġcyt": 8708,
      "ĠTrans": 8709,
      "Ġsleep": 8710,
      "Ġgun": 8711,
      "è¯´è¯Ŀ": 8712,
      "Ġcouple": 8713,
      "æĹ¥åŃĲ": 8714,
      "ella": 8715,
      "Ġfeet": 8716,
      "åŀ«": 8717,
      "è®¸åı¯": 8718,
      "é¡¹çĽ®çļĦ": 8719,
      "Ġoption": 8720,
      "å¤§å¤§": 8721,
      "èĲĿ": 8722,
      "æ··åĲĪ": 8723,
      "Ġalgorith": 8724,
      "Ġshowing": 8725,
      "Ġcandid": 8726,
      "æĺ¯çĶ±": 8727,
      "ĠMod": 8728,
      "è´¢å¯Į": 8729,
      "åĪĿä¸Ń": 8730,
      "ĠAfric": 8731,
      "é¢ĦæľŁ": 8732,
      "Ġhab": 8733,
      "Ġactual": 8734,
      "åĬłéĢŁ": 8735,
      "Ġexperiments": 8736,
      "Ġspir": 8737,
      "çļĦåİŁåĪĻ": 8738,
      "================================": 8739,
      "çĻ¾åĪĨ": 8740,
      "å¹¶åľ¨": 8741,
      "æĬĵä½ı": 8742,
      "Ġmedium": 8743,
      "EC": 8744,
      "Ġtransfer": 8745,
      "ç³Ĭ": 8746,
      "èī³": 8747,
      "MP": 8748,
      "Ġarriv": 8749,
      "Ġformation": 8750,
      "ä¹¡éķĩ": 8751,
      "çĥ¤": 8752,
      "enge": 8753,
      "æĬĢæľ¯çļĦ": 8754,
      "åĳ¨è¾¹": 8755,
      "æĻĭ": 8756,
      "Fr": 8757,
      "é¢Ħæµĭ": 8758,
      "çĽĴ": 8759,
      "Ġeffic": 8760,
      "åıĤæķ°": 8761,
      "è°±": 8762,
      "ĠNovember": 8763,
      "åı¯ä»¥åľ¨": 8764,
      "è¿Ļå°±": 8765,
      "........": 8766,
      "stance": 8767,
      "çļĦæĦŁè§ī": 8768,
      "æĪĲäº¤": 8769,
      "èĦ¾": 8770,
      "From": 8771,
      "éªĳ": 8772,
      "æļĳ": 8773,
      "ael": 8774,
      "åı¦ä¸Ģæĸ¹éĿ¢": 8775,
      "åĲ¹": 8776,
      "Ġvolume": 8777,
      "ç®ĢåįķçļĦ": 8778,
      "ĠMor": 8779,
      "aa": 8780,
      "urance": 8781,
      "ä¸Ĭä¸Ģ": 8782,
      "Ġcritical": 8783,
      "encies": 8784,
      "Ġhair": 8785,
      "èµĶåģ¿": 8786,
      "Ġuses": 8787,
      "è®¤çŁ¥": 8788,
      "_.": 8789,
      "æ°ı": 8790,
      "Ġactivities": 8791,
      "Ġconcentr": 8792,
      "Ġrelevant": 8793,
      "éĿ¢åīį": 8794,
      "æıĲåĩºäºĨ": 8795,
      "æ»¨": 8796,
      "Ġstore": 8797,
      "itions": 8798,
      "Ġhospital": 8799,
      "çŃīçº§": 8800,
      "ĠIS": 8801,
      "ä¸īå¹´": 8802,
      "çī©ä¸ļ": 8803,
      "Ġ32": 8804,
      "Ġpopular": 8805,
      "Be": 8806,
      "which": 8807,
      "çļĦæ°´": 8808,
      "iday": 8809,
      "åħħåĪĨåıĳæĮ¥": 8810,
      "rier": 8811,
      "åĨ»": 8812,
      "iers": 8813,
      "Ġwide": 8814,
      "è¾ħåĬ©": 8815,
      "2004": 8816,
      "æİ¢è®¨": 8817,
      "ares": 8818,
      "çĩķ": 8819,
      "ä»¶äºĭ": 8820,
      "Ġclosed": 8821,
      "å¾Ĵ": 8822,
      "å¾Īå°ĳ": 8823,
      "ç©·": 8824,
      "rum": 8825,
      "äººä¸º": 8826,
      "ample": 8827,
      "Ġthinking": 8828,
      "round": 8829,
      "çº¿çļĦ": 8830,
      "base": 8831,
      "äºĭä¸ļåįķä½į": 8832,
      "åįµ": 8833,
      "Def": 8834,
      "åīĳ": 8835,
      "Ġlearning": 8836,
      "dim": 8837,
      "çĸ¼çĹĽ": 8838,
      "å¸Ĥå§Ķ": 8839,
      "Set": 8840,
      "çľŁæŃ£çļĦ": 8841,
      "éĽ¾": 8842,
      "Ġfigure": 8843,
      "æ³µ": 8844,
      "çĽĨ": 8845,
      "ä¿¡æģ¯åĮĸ": 8846,
      "ä¿¡éģĵ": 8847,
      "../../": 8848,
      "Ġsto": 8849,
      "ashington": 8850,
      "çĹĽèĭ¦": 8851,
      "bin": 8852,
      "Ġ/>": 8853,
      "Ġpair": 8854,
      "ruary": 8855,
      "icip": 8856,
      "æĦıå¤ĸ": 8857,
      "anged": 8858,
      "çĲĥåĳĺ": 8859,
      "Ġinterview": 8860,
      "èĩªèº«çļĦ": 8861,
      "orney": 8862,
      "Ġoptions": 8863,
      "Ġparents": 8864,
      "çĨĬ": 8865,
      "è®ºåĿĽ": 8866,
      "asm": 8867,
      "ĠRepublic": 8868,
      "Man": 8869,
      "éĥ½æ²¡æľī": 8870,
      "åŁİåĮº": 8871,
      "\\<": 8872,
      "orge": 8873,
      "Ġimmediately": 8874,
      "Ġtransport": 8875,
      "vision": 8876,
      "éŃĤ": 8877,
      "Ġready": 8878,
      "é¦ĸæ¬¡": 8879,
      "ĠMark": 8880,
      "åıī": 8881,
      "FL": 8882,
      "Ġconcentration": 8883,
      "Ġparties": 8884,
      "æ´»åĬ¨ä¸Ń": 8885,
      "Ġeducation": 8886,
      "åįģäºĮ": 8887,
      "ĠWilli": 8888,
      "èĩ³ä»Ĭ": 8889,
      "Ġunderstanding": 8890,
      "Ġopinion": 8891,
      "iforn": 8892,
      "Ġfear": 8893,
      "}^{\\": 8894,
      "======": 8895,
      "Ġinterpret": 8896,
      "istry": 8897,
      "chi": 8898,
      "Ġfeature": 8899,
      "Ġpor": 8900,
      "board": 8901,
      "çĽ²": 8902,
      "åħ³èĬĤ": 8903,
      "aur": 8904,
      "*-": 8905,
      "Ġgone": 8906,
      "Ġsubsequ": 8907,
      "aby": 8908,
      "bum": 8909,
      "mail": 8910,
      "Ġstrength": 8911,
      "Ġthrow": 8912,
      "å½¢æĢģ": 8913,
      "Ġgreen": 8914,
      "ĠÐ½": 8915,
      "ä¸¢": 8916,
      "ustr": 8917,
      "ä¼ĺåħĪ": 8918,
      "åĵ²": 8919,
      "stances": 8920,
      "static": 8921,
      "çļĦå¤ĸ": 8922,
      "Ġchalleng": 8923,
      "ä¸įä½Ĩ": 8924,
      "Ġ2018": 8925,
      "ĠOf": 8926,
      "Ġrestrict": 8927,
      "åĴĮåĽ½": 8928,
      "æ§½": 8929,
      "Ġ2008": 8930,
      "Ġpassed": 8931,
      "Ġapply": 8932,
      "å»ºæĪĲ": 8933,
      "Ġmit": 8934,
      "fo": 8935,
      "Ġmilitary": 8936,
      "ä½ıå®ħ": 8937,
      "Ġproduce": 8938,
      "Ġvariable": 8939,
      "};": 8940,
      "ç»Ļå¤§å®¶": 8941,
      "Ġsec": 8942,
      "èµ·äºĨ": 8943,
      "ĠSen": 8944,
      "Ġstaff": 8945,
      "Ġconnect": 8946,
      "rick": 8947,
      "Ġdamage": 8948,
      "Ġgoal": 8949,
      "çľŁæĺ¯": 8950,
      "ĠBritish": 8951,
      "Ġreturned": 8952,
      "Ġinteresting": 8953,
      "åıįé¦Ī": 8954,
      "èµł": 8955,
      "ĠÃł": 8956,
      "çļĦæľºä¼ļ": 8957,
      "Ġfinancial": 8958,
      "ç«Ļåľ¨": 8959,
      "cluded": 8960,
      ".$$": 8961,
      "Ġfinally": 8962,
      "Ġparameter": 8963,
      "Ġ__": 8964,
      "ĠSchool": 8965,
      "Ġstation": 8966,
      "éļ¾åº¦": 8967,
      "å¿Į": 8968,
      "åŁİä¹¡": 8969,
      "æıĲäº¤": 8970,
      "Ġfiled": 8971,
      "æ²³åĮĹ": 8972,
      "åı¯èĥ½æĺ¯": 8973,
      "varepsilon": 8974,
      "Ġvs": 8975,
      "alle": 8976,
      "Ġblue": 8977,
      "Ġpul": 8978,
      "Ġresulting": 8979,
      "indows": 8980,
      "lib": 8981,
      "Ġreduce": 8982,
      "force": 8983,
      "ĠLondon": 8984,
      "works": 8985,
      "äº§çĶŁçļĦ": 8986,
      "å¥ĭæĸĹ": 8987,
      "Ġ2009": 8988,
      "æīĢå¾Ĺ": 8989,
      "çĪ½": 8990,
      "Ġfat": 8991,
      "Ġsi": 8992,
      "ä¸Ģè¾¹": 8993,
      "Ġyourself": 8994,
      "Supp": 8995,
      "è¾¨": 8996,
      "opl": 8997,
      "Add": 8998,
      "æĲľç´¢": 8999,
      "æĮĩæĮ¥": 9000,
      "åłµ": 9001,
      "æ£Ĵ": 9002,
      "éĤĢè¯·": 9003,
      "åıĸæ¶Ī": 9004,
      "ä¸Ńæľī": 9005,
      "ĠChe": 9006,
      "Ġreceive": 9007,
      "kay": 9008,
      "varphi": 9009,
      "Ġcosts": 9010,
      "å¤ļåħĥ": 9011,
      "Ġfully": 9012,
      "æįŁå®³": 9013,
      "å¸ħ": 9014,
      "çĤ¹çļĦ": 9015,
      "Ġobvious": 9016,
      "Sim": 9017,
      "ç¬¬ä¸Ģä¸ª": 9018,
      "çľĭèµ·æĿ¥": 9019,
      "Ġnearly": 9020,
      "è¿Ļä¹Łæĺ¯": 9021,
      "é¼ł": 9022,
      "ĠHealth": 9023,
      "çļĦè§Ħå®ļ": 9024,
      "well": 9025,
      "åĲĮä¸Ģ": 9026,
      "Ġprogress": 9027,
      "ä¿¡ä»»": 9028,
      "åŃĲå¥³": 9029,
      "Ġscore": 9030,
      "éĤ»": 9031,
      "Ġnode": 9032,
      "éĹ´çļĦ": 9033,
      "cules": 9034,
      "éĨĩ": 9035,
      "ded": 9036,
      "çī§": 9037,
      "iant": 9038,
      "æĹłè®ºæĺ¯": 9039,
      "ĠTw": 9040,
      "çļĦåŃ©åŃĲ": 9041,
      "èľĤ": 9042,
      ")**": 9043,
      "Ġstated": 9044,
      "Ð´": 9045,
      "msg": 9046,
      "åįľ": 9047,
      "hold": 9048,
      "ĠÎ¼": 9049,
      "Ġmaterials": 9050,
      "Ġplayer": 9051,
      "Ab": 9052,
      "å»ºè®¾çļĦ": 9053,
      "Ġregions": 9054,
      "ĠAccording": 9055,
      "ĠHol": 9056,
      "ä¸ļä¸»": 9057,
      "ä¸²": 9058,
      "TER": 9059,
      "index": 9060,
      "å¹¿åľº": 9061,
      "åıĳçĹħ": 9062,
      "Ġletter": 9063,
      "RI": 9064,
      "operatorname": 9065,
      "Ġconsequ": 9066,
      "iques": 9067,
      "Ġrelig": 9068,
      "éĢļè®¯": 9069,
      "Ġcarried": 9070,
      "è®²è¯Ŀ": 9071,
      "èĤ¡æĿĥ": 9072,
      "Ġtask": 9073,
      "æĺ¯éĿŀå¸¸": 9074,
      "car": 9075,
      "çĹķ": 9076,
      "Ġinfluence": 9077,
      "ĊĠĠĠĠĠĠĠĠĠĠĠĠĠ": 9078,
      "è¦ģç´ł": 9079,
      "rep": 9080,
      "Ġ35": 9081,
      "*]{}": 9082,
      "Ġsetting": 9083,
      "å¨ľ": 9084,
      "Ġinternal": 9085,
      "Ġbrief": 9086,
      "Ġserver": 9087,
      "Ġaspect": 9088,
      "Ġexhib": 9089,
      "ä¸įå¦Ĥ": 9090,
      "Ġindicated": 9091,
      "ĠLicense": 9092,
      "ifornia": 9093,
      "ç¦ģæŃ¢": 9094,
      "åĪļåĪļ": 9095,
      "Ġvirt": 9096,
      "çļĦç¾İ": 9097,
      "OW": 9098,
      "å±ķçİ°": 9099,
      "åİī": 9100,
      "Ġbinding": 9101,
      "Î²": 9102,
      "Ġlives": 9103,
      "Ġyes": 9104,
      "ä»ĬåĲİ": 9105,
      "éķ¿æĹ¶éĹ´": 9106,
      "Ġchance": 9107,
      "Ġthroughout": 9108,
      "asp": 9109,
      "è£¤": 9110,
      "Ġconnected": 9111,
      "å°ºå¯¸": 9112,
      "Ġmiddle": 9113,
      "Ġmess": 9114,
      "atever": 9115,
      "2003": 9116,
      "à¥": 9117,
      "Ġletters": 9118,
      "Ġmedic": 9119,
      "Error": 9120,
      "PP": 9121,
      "å·®è·Ŀ": 9122,
      "èģª": 9123,
      "äººå¤§": 9124,
      "Ġprocesses": 9125,
      "ä¿®å¤į": 9126,
      "Ġmeeting": 9127,
      "Ġcounter": 9128,
      "Ġmal": 9129,
      "åĨħå¿ĥ": 9130,
      "éĥ¨çļĦ": 9131,
      "èĦ±è´«": 9132,
      "çĽ´åĪ°": 9133,
      "åĽ¢ç»ĵ": 9134,
      "è½¬è½½": 9135,
      "Ġproof": 9136,
      "çĻ¾å§ĵ": 9137,
      "åį§": 9138,
      "çº¿ä¸Ĭ": 9139,
      "äººç¾¤": 9140,
      "inger": 9141,
      "ä¸¤å¹´": 9142,
      ")^": 9143,
      "UL": 9144,
      "éĽ¶åĶ®": 9145,
      "^{(": 9146,
      "Ġmovement": 9147,
      "Ġcontinued": 9148,
      "éĵĿ": 9149,
      "åĿĩåĮĢ": 9150,
      "ç»Ļä½ł": 9151,
      "Ġlinks": 9152,
      "Ġreached": 9153,
      "çīĪæĿĥ": 9154,
      "è¿Ī": 9155,
      "æĤ£èĢħçļĦ": 9156,
      "çŁ©": 9157,
      "åĮ¹": 9158,
      "Ġrules": 9159,
      "åĲĮäºĭ": 9160,
      "è®¤å®ļ": 9161,
      "}_{\\": 9162,
      "Time": 9163,
      "Ġextract": 9164,
      "ky": 9165,
      "çļĦè¡Įä¸º": 9166,
      "ĠAustral": 9167,
      "Ġperhaps": 9168,
      "ç§¯æŀģæĢ§": 9169,
      "Ġonto": 9170,
      "ç³ĸå°¿": 9171,
      "çĶ±æŃ¤": 9172,
      "äººæ°ĳæ³ķéĻ¢": 9173,
      "Ġ\"\"": 9174,
      "True": 9175,
      "Ġcit": 9176,
      "Ġreflect": 9177,
      "æ±ĩæĬ¥": 9178,
      "Ġpromot": 9179,
      "æĹ¥åīį": 9180,
      "iling": 9181,
      "Ġplaced": 9182,
      "related": 9183,
      "Ġdemand": 9184,
      "adem": 9185,
      ".\\": 9186,
      "ĠTH": 9187,
      "Ġsolid": 9188,
      "èµ°åĲĳ": 9189,
      "é¢ĺçĽ®": 9190,
      "omas": 9191,
      "Ġmoving": 9192,
      "æĪĸæĺ¯": 9193,
      "èĥ½åĬĽçļĦ": 9194,
      "800": 9195,
      "èĩ³äºİ": 9196,
      "Here": 9197,
      "æ¡Ĥ": 9198,
      "Ġheight": 9199,
      "æĭĽæłĩ": 9200,
      "æĮ¤": 9201,
      "Ġapplications": 9202,
      "Ġ($": 9203,
      "Ġcollect": 9204,
      "ship": 9205,
      "æĹº": 9206,
      "pling": 9207,
      "Ġreaction": 9208,
      "å¸ĥç½®": 9209,
      "æī¿åĮħ": 9210,
      "style": 9211,
      "åĽ½åĬ¡": 9212,
      "Ġabsol": 9213,
      "å®£å¸ĥ": 9214,
      "åĪĻæĺ¯": 9215,
      "Ġvariables": 9216,
      "oses": 9217,
      "Key": 9218,
      "itro": 9219,
      "æī¹è¯Ħ": 9220,
      "Ġskin": 9221,
      "åģľæŃ¢": 9222,
      "Ġrob": 9223,
      "Ġ^": 9224,
      "Ġjury": 9225,
      "Ġbecomes": 9226,
      "Why": 9227,
      "Ġcollection": 9228,
      "stream": 9229,
      "Ġgets": 9230,
      "ä¹Łå¾Ī": 9231,
      "rael": 9232,
      "å¯¹æīĭ": 9233,
      "åľ°çĲĨ": 9234,
      "åľ°çĲĥ": 9235,
      "Ġwidth": 9236,
      "åİ¦": 9237,
      "Ġliqu": 9238,
      "èĮĥåĽ´åĨħ": 9239,
      "Ġmaximum": 9240,
      "ersion": 9241,
      "Ġnamed": 9242,
      "é¦¨": 9243,
      "ĠØ": 9244,
      "Ġplaying": 9245,
      "Ġscient": 9246,
      "çļĦç²¾ç¥ŀ": 9247,
      "å¤ļæł·": 9248,
      "Ġitems": 9249,
      "aste": 9250,
      "åŃ¦åĳĺ": 9251,
      "çĹħæĥħ": 9252,
      "arest": 9253,
      "ç»ĵè®º": 9254,
      "æĹ¥æľŁ": 9255,
      "éĢĤçĶ¨": 9256,
      "ĠSub": 9257,
      "æĬĽ": 9258,
      "ä»·åĢ¼è§Ĥ": 9259,
      "æıŃ": 9260,
      "ĠBro": 9261,
      "Ġorg": 9262,
      "çŃīå¾ħ": 9263,
      "æĭħä»»": 9264,
      "Ġrevealed": 9265,
      "æ¸ħçĲĨ": 9266,
      "pective": 9267,
      "Ġforms": 9268,
      "çļĦçī¹çĤ¹": 9269,
      "DA": 9270,
      "Ġyield": 9271,
      "åįļå£«": 9272,
      "åĳµ": 9273,
      "ĠCong": 9274,
      "Ġvehicle": 9275,
      "ĠHigh": 9276,
      "çļĦåıĺåĮĸ": 9277,
      "Ġseparate": 9278,
      "Ġinjury": 9279,
      "ç»ĻäºĨ": 9280,
      "asis": 9281,
      "å¸¦é¢Ĩ": 9282,
      "asion": 9283,
      "Ġwild": 9284,
      "Ġboy": 9285,
      "Ġbrother": 9286,
      "åĬĽåĴĮ": 9287,
      "Ġ(**": 9288,
      "Ġign": 9289,
      "è¿ĺæ²¡æľī": 9290,
      "æ¬ł": 9291,
      "æīįä¼ļ": 9292,
      "åŃ¦çļĦ": 9293,
      "ä¸įåľ¨": 9294,
      "Ġstarting": 9295,
      "åŁĭ": 9296,
      "åĪł": 9297,
      "æĪªèĩ³": 9298,
      "Ġnoted": 9299,
      "Ġhour": 9300,
      "Ġfix": 9301,
      "æ·Ģ": 9302,
      "atur": 9303,
      "ĠAng": 9304,
      "References": 9305,
      "color": 9306,
      "Ġfit": 9307,
      "Ġdefine": 9308,
      "åĬ£": 9309,
      "Ġgrand": 9310,
      "å·©": 9311,
      "Ġthick": 9312,
      "æľµ": 9313,
      "æĪĲåĬŁçļĦ": 9314,
      "Ġparticipants": 9315,
      "Ġrelatively": 9316,
      "è¯¾åłĤæķĻåŃ¦": 9317,
      "Ġutil": 9318,
      "æııè¿°": 9319,
      "ĠBecause": 9320,
      "Ġkept": 9321,
      "ĠĠĠĠĠĠĠĠĠĠĠĠĠĠĠĠĠĠĠ": 9322,
      "çłĶç©¶çĶŁ": 9323,
      "Ġmodern": 9324,
      "æ·ĭ": 9325,
      "æĽ´å¥½åľ°": 9326,
      "åįģå¹´": 9327,
      "åħ¬åĬ¡åĳĺ": 9328,
      "Ġgiving": 9329,
      "oto": 9330,
      "ady": 9331,
      "atin": 9332,
      "PC": 9333,
      "Ġcircuit": 9334,
      "Ġsun": 9335,
      "å¡«åĨĻ": 9336,
      "ĠInt": 9337,
      "Ġsend": 9338,
      "Ġlinear": 9339,
      "æľºçļĦ": 9340,
      "å®Įç¾İ": 9341,
      "ä¸Ģæł·çļĦ": 9342,
      "æľīæ²¡æľī": 9343,
      "å¿ĥæĥħ": 9344,
      "ĠEven": 9345,
      "éĽķ": 9346,
      "rant": 9347,
      "æŀĿ": 9348,
      "Ġtherapy": 9349,
      "ä¸ĸçķĮä¸Ĭ": 9350,
      "Ġhearing": 9351,
      "éĿ¢åĲĳ": 9352,
      "èĩªæ²»": 9353,
      "ĠPark": 9354,
      "roy": 9355,
      "PA": 9356,
      "æĿ¡ä¾ĭ": 9357,
      "Ġfields": 9358,
      "ĠMus": 9359,
      "æķĪåºĶ": 9360,
      "\\,": 9361,
      "sa": 9362,
      "Ġreports": 9363,
      "å®¶åħ·": 9364,
      "RA": 9365,
      "Ġsteps": 9366,
      "erate": 9367,
      "ĠAND": 9368,
      "Ġtool": 9369,
      "ĠJe": 9370,
      "Ġenter": 9371,
      "Ġdied": 9372,
      "æİ¥è¿ĳ": 9373,
      "xy": 9374,
      "æĺĨ": 9375,
      "åĩºåı°": 9376,
      "berg": 9377,
      "Ġtransform": 9378,
      "åįķåħĥ": 9379,
      "omb": 9380,
      "æľŁéĻĲ": 9381,
      "Ġneut": 9382,
      "ä»Ķç»Ĩ": 9383,
      "mg": 9384,
      "grams": 9385,
      "åıĸå¾ĹäºĨ": 9386,
      "æī®": 9387,
      "Ġtour": 9388,
      "èĢķ": 9389,
      "Me": 9390,
      "Ġmajority": 9391,
      "ä»£è°¢": 9392,
      "Ġpicked": 9393,
      "æĬĵå¥½": 9394,
      "æľįè£ħ": 9395,
      "Ġpow": 9396,
      "éĤ£ç§į": 9397,
      "ä¼łç»ŁçļĦ": 9398,
      "Ġotherwise": 9399,
      "è®¤è¯ģ": 9400,
      "æ³Ħ": 9401,
      "Ġsafe": 9402,
      "Ġregarding": 9403,
      "kt": 9404,
      "['": 9405,
      "Ġstraight": 9406,
      "èĤ¿çĺ¤": 9407,
      "RT": 9408,
      "abs": 9409,
      "Ġinteraction": 9410,
      "amin": 9411,
      "èĪ°": 9412,
      "æ¸ħæ´Ĺ": 9413,
      "NS": 9414,
      "().": 9415,
      "Ġ80": 9416,
      "db": 9417,
      "fil": 9418,
      "åĢºåĬ¡": 9419,
      "Ġinstit": 9420,
      "Ġmanner": 9421,
      "]:": 9422,
      "ç¤¾ä¼ļçļĦ": 9423,
      "åĮħåĲ«": 9424,
      "èµģ": 9425,
      "Ġcontribut": 9426,
      "oat": 9427,
      "èĽĭçĻ½è´¨": 9428,
      "èĬ³": 9429,
      "èµ°è¿Ľ": 9430,
      "grad": 9431,
      "Ð¼": 9432,
      "çĤŃ": 9433,
      "åĽ½åĬ¡éĻ¢": 9434,
      "Ġanimals": 9435,
      "oman": 9436,
      "åŃĺåľ¨çļĦ": 9437,
      ")).": 9438,
      "Ġedge": 9439,
      "langle": 9440,
      "ä¸ĩäºº": 9441,
      "Ġdomain": 9442,
      "æ»ļ": 9443,
      "ä»ħä»ħ": 9444,
      "Ġbasic": 9445,
      "äº¿ç¾İåħĥ": 9446,
      "Ġcolumn": 9447,
      "ç¥¥": 9448,
      "ä¸ĭè·Į": 9449,
      "othe": 9450,
      "çº¢èī²": 9451,
      "ç§Łèµģ": 9452,
      "urity": 9453,
      "çİ°ä»£åĮĸ": 9454,
      "äºĨå¾Īå¤ļ": 9455,
      "æĤ¨çļĦ": 9456,
      "è¿ĻæĹ¶": 9457,
      "å´ĩ": 9458,
      "å¤§åĪ©": 9459,
      "Ġsympt": 9460,
      "oken": 9461,
      "æĽ´æľī": 9462,
      "Ġmort": 9463,
      "ÐµÐ½": 9464,
      "Ġbottom": 9465,
      "icit": 9466,
      "Ġunits": 9467,
      "Ġvot": 9468,
      "åľ°éĿ¢": 9469,
      "ä¸Ģçº¿": 9470,
      "ä¸Ĭè¯¾": 9471,
      "Ġintr": 9472,
      "Ġtalking": 9473,
      "geq": 9474,
      "è¯ļä¿¡": 9475,
      "ooth": 9476,
      "åħĦ": 9477,
      "çĮľ": 9478,
      "iform": 9479,
      "è´Łæĭħ": 9480,
      "æħ°": 9481,
      "agon": 9482,
      "è§Ĩè§ī": 9483,
      "åķĨæłĩ": 9484,
      "æĭĴç»Ŀ": 9485,
      "Ġstuff": 9486,
      "Ġsources": 9487,
      "æĩĤå¾Ĺ": 9488,
      "ocket": 9489,
      "reek": 9490,
      "cles": 9491,
      "iated": 9492,
      "iÃ³n": 9493,
      "Ġexists": 9494,
      "æ¼Ĥäº®": 9495,
      "ĠFebruary": 9496,
      "ç³ĸå°¿çĹħ": 9497,
      "æįĲ": 9498,
      "untu": 9499,
      "éĺ²æĬ¤": 9500,
      "ä¼ļåĳĺ": 9501,
      "å·¨å¤§çļĦ": 9502,
      "çļĦæľįåĬ¡": 9503,
      "Ġwhom": 9504,
      "æĸ°åŀĭ": 9505,
      "é¸£": 9506,
      "}}(": 9507,
      "Ġconvention": 9508,
      "free": 9509,
      "Ġ90": 9510,
      "ĠWashington": 9511,
      "Ġjur": 9512,
      "utive": 9513,
      "Ġvector": 9514,
      "çĽĳçĲĨ": 9515,
      "çĽ´æĴŃ": 9516,
      "Ġhous": 9517,
      "bra": 9518,
      "å·¨å¤§": 9519,
      "âĺħ": 9520,
      "je": 9521,
      "place": 9522,
      "æĪĳè§īå¾Ĺ": 9523,
      "ipp": 9524,
      "Ġzero": 9525,
      "å¥½åĥı": 9526,
      "é«ĺäºİ": 9527,
      "é©¬ä¸Ĭ": 9528,
      "Ġmaybe": 9529,
      "åıįæĢĿ": 9530,
      "Ġcombination": 9531,
      "erved": 9532,
      "å¤ªå¤ļ": 9533,
      "çļĦæĬĢæľ¯": 9534,
      "Ġplaces": 9535,
      "Ġbul": 9536,
      "åįĵ": 9537,
      "åŁ¹èĤ²": 9538,
      "material": 9539,
      "ĠDis": 9540,
      "æĢ¨": 9541,
      "overline": 9542,
      "Comp": 9543,
      "Ġeye": 9544,
      "æ¸¡": 9545,
      "sis": 9546,
      "æ¼Ĩ": 9547,
      "çļĦçĽ®çļĦ": 9548,
      "çĶµåķĨ": 9549,
      "Ġwouldn": 9550,
      "ĠMoreover": 9551,
      "è¯ģæį®": 9552,
      "Ġandroid": 9553,
      "ä¸īè§Ĵ": 9554,
      "Test": 9555,
      "çĲĨè´¢": 9556,
      "ä¿Ħç½Ĺæĸ¯": 9557,
      "ä¸Ĭçº§": 9558,
      "Ġincor": 9559,
      "çº½": 9560,
      "ä¸įå¾Ĺä¸į": 9561,
      "ĠCalifornia": 9562,
      "Ġopportunity": 9563,
      "Ġhistor": 9564,
      "ç¨İåĬ¡": 9565,
      "æµ¸": 9566,
      "Ġeconomic": 9567,
      "iance": 9568,
      "font": 9569,
      "Ġsynthe": 9570,
      "ĠEr": 9571,
      "Class": 9572,
      "æĳĺè¦ģ": 9573,
      "æºª": 9574,
      "cel": 9575,
      "ç¢Ĺ": 9576,
      "çĸĨ": 9577,
      "omic": 9578,
      "æ¯ıæĹ¥": 9579,
      "Ġfunctional": 9580,
      "é¥¼": 9581,
      "é¢ģ": 9582,
      "Ġweak": 9583,
      "ymbol": 9584,
      "Ġestablish": 9585,
      "èĬ¯": 9586,
      "');": 9587,
      "çĮĽ": 9588,
      "Ġbeginning": 9589,
      "ls": 9590,
      "ä¸įæĥ³": 9591,
      "Ġwave": 9592,
      "ç¥Ľ": 9593,
      "ayout": 9594,
      "Ġprocedure": 9595,
      "æ¸©æļĸ": 9596,
      "éĢļä¿¡": 9597,
      "åħ»æ®ĸ": 9598,
      "aly": 9599,
      "Ġ(\\": 9600,
      "Ġcalculated": 9601,
      "åıĳè¾¾": 9602,
      "çĽĹ": 9603,
      "é¸¡èĽĭ": 9604,
      "Ġshot": 9605,
      "æ£®æŀĹ": 9606,
      "å¿ħè¦ģçļĦ": 9607,
      "Ġhappen": 9608,
      "Ġmachine": 9609,
      "è¿Ŀåıį": 9610,
      "ä»ĸåľ¨": 9611,
      "Ġphosph": 9612,
      "åľ°çļĦ": 9613,
      "æľ¬è´¨": 9614,
      "æľīåĵªäºĽ": 9615,
      "è¿Ŀè§Ħ": 9616,
      "åĩłå¤©": 9617,
      "Ġinfection": 9618,
      "Ġpaid": 9619,
      "ais": 9620,
      "Ġcivil": 9621,
      "Ġreduction": 9622,
      "éļ¾çĤ¹": 9623,
      "ĠSan": 9624,
      "Ġprocessing": 9625,
      "Ġtruth": 9626,
      "ÑģÑĤ": 9627,
      "å¤§äºİ": 9628,
      "Ġmale": 9629,
      "cons": 9630,
      "å¯¹çħ§": 9631,
      "ĠUSA": 9632,
      "abled": 9633,
      "itors": 9634,
      "åĮºçļĦ": 9635,
      "èĤĮèĤī": 9636,
      "å¥ĳ": 9637,
      "######": 9638,
      "ä¼łéĢĴ": 9639,
      "ĠData": 9640,
      "enses": 9641,
      "Ġmetal": 9642,
      "Ġportion": 9643,
      "ĠPaul": 9644,
      "çļĦåıĳçĶŁ": 9645,
      "long": 9646,
      "æħ¢æĢ§": 9647,
      "\"},": 9648,
      "äºĭåĬ¡": 9649,
      "Ġhop": 9650,
      "Ġsuggested": 9651,
      "Ġupper": 9652,
      "åĲĪçĲĨçļĦ": 9653,
      "éĩįå¤į": 9654,
      "èĪªç©º": 9655,
      "Ġachieve": 9656,
      "}}_": 9657,
      "00000000": 9658,
      "é»ĳèī²": 9659,
      "Ġresistance": 9660,
      "å¯¹åħ¶": 9661,
      "ä»ĸè¯´": 9662,
      "å¥³çĶŁ": 9663,
      "å¤«å¦»": 9664,
      "Ġemot": 9665,
      "Ġcounsel": 9666,
      "Ġseven": 9667,
      "åĪ°ä½į": 9668,
      "Ġconducted": 9669,
      "Ġlabel": 9670,
      "çº³ç¨İ": 9671,
      "ĠOther": 9672,
      "Ġblog": 9673,
      "éĢ»è¾ĳ": 9674,
      "è¾ĥé«ĺ": 9675,
      "å¾ħéģĩ": 9676,
      "onic": 9677,
      "Ġmechanism": 9678,
      "èĳ±": 9679,
      "Î·": 9680,
      "äºĴçĽ¸": 9681,
      "arter": 9682,
      "åİŁæĸĻ": 9683,
      "åĻ¨çļĦ": 9684,
      "Ġremoved": 9685,
      "æīĵåĩ»": 9686,
      "ç²¾åĩĨ": 9687,
      "ĠAD": 9688,
      "nes": 9689,
      "gar": 9690,
      "Ġà¤": 9691,
      "Ġplatform": 9692,
      "æĺ¯æĪĳ": 9693,
      "Ġhappy": 9694,
      "Ġcore": 9695,
      "åĽ¾ä¹¦é¦Ĩ": 9696,
      "æł¡éķ¿": 9697,
      "ç§©": 9698,
      "Ġmetab": 9699,
      "case": 9700,
      "ATE": 9701,
      "cs": 9702,
      "æĸ°æµª": 9703,
      "ech": 9704,
[...]
