à ¤
à ¦
Ġ à
à ¥
Ġ Ġ
à ®
Ġ d
Ġ à¤
à ²
à °
a n
e n
à ´
e r
Ø §
Ġ t
e s
à ª
à ¨
i n
o n
Ġ a
Ġ c
Ġ p
à §
à ¬
Ġ s
a r
à ¯
Ġ l
Ù Ħ
à¤ ¾
a t
Ġ m
o r
Ġ à¦
Ġ Ø
Ġd e
à µ
a l
ĠĠ ĠĠ
Ġ Ù
á »
r e
i s
i t
à ±
à ³
Ġ n
à¤¾ à¤
a s
Ġ e
à¥ į
à¥į à¤
Ġ b
à¯ į
o s
Ġt h
Ġà ¨
à «
q u
en t
Ù Ĩ
u n
à ©
Ã ©
Ù Ĭ
Ø ±
à¦ ¾
à¥ ĩ
Ø§ ÙĦ
ä ¸
Ġ h
Ġ f
Ġà ª
ï ¼
i c
u r
Ù Ī
Ù ħ
a d
l e
a m
Ġ o
àµ į
á º
à Ń
o m
ã Ģ
Ġà ®
. Ċ
Ġ v
i on
à¤ ¿
Ø§ Ø
à¦¾ à¦
Ġà °
e l
Ġ qu
à§ ĩ
à¯į à®
Ġ Ø§ÙĦ
e m
Ġà ²
r o
u s
Ġ k
à¤ °
i l
ï¼ Į
i d
àµį à´
à¥ Ģ
â Ģ
à§ į
Ġ in
Û Į
u t
e t
à§į à¦
Ġl a
Ã ł
Ġth e
à¦ ¿
à¤¿ à¤
ç ļ
Ġ w
çļ Ħ
Ã ³
Ġ (
e d
a c
Ġà ¬
Ø ª
Ġ g
i m
ä º
n g
à³ į
Ġà ´
in g
i a
es t
Ã ¡
àª ¾
o l
an d
Ġ y
à± į
a k
i r
Ġà¤ ķ
à¥ ĭ
à® ¿
à¤ ¨
à³į à²
à¯ ģ
Ġ S
Ġ 1
Ġ C
Ø ¯
u l
Ġqu e
à¤ ķ
Ġ r
e c
à² ¿
Ġ en
à¦¿ à¦
Ġ 2
ĠĠ Ġ
à±į à°
à®¿ à®
Ġ A
ãĢ Ĥ
Ù ĩ
à¨ ¾
an g
æ ľ
à° ¿
Ġ P
Ġt o
Ġ re
ĠĠĠĠ ĠĠĠĠ
ĠÙ ħ
Ø ©
Ġc on
Ġ Ä
Ú ©
Ġ M
àª¾ àª
à± ģ
à¤ Ĥ
å ħ
u m
Ã Ń
ä »
à§ĩ à¦
Ø ¨
Ġ T
an t
Ġ un
å ı
Ø ¹
à° ¾
à´ ¿
à¤ ¤
ĠÄ ĳ
t r
t a
i v
i g
Ġs e
Ù İ
i k
Ġo f
0 0
Ø ³
à²¿ à²
a b
Ġe l
Ù Ĥ
ĠÙ Ī
à¯ģ à®
à¬ ¾
Ġt r
Ġà¤ ¸
Ġ I
à°¾ à°
a g
àŃ į
à« ĩ
à³ ģ
o t
à¤ ²
å ľ
à¥ ģ
a p
Ġc h
Û ģ
å ¤
à¨¾ à¨
c h
à´¿ à´
Ġ B
Û Ĵ
a y
à² ¾
å ®
Ġc om
à¬ ¿
Ġ Ú©
Ù ģ
Ġ L
àµ ģ
Ġp ar
à¤ ¸
Ġ .
Ġ j
à¬ °
ä ½
Ù ĥ
å Ī
à²¾ à²
a h
ĠØ ¨
i f
Ġ E
t e
Ġà¤ ª
à¤ ®
à°¿ à°
à® ¾
å Ĳ
à¥įà¤ ¯
Ġa l
Æ °
à© Ģ
Ġ D
er s
à¥įà¤ °
à¥ ¤
æ ĸ
at ion
Ġ and
à®¾ à®
o d
æ Ī
ĉ ĉ
à¤ ¹
à¦ °
à´ ¾
Ĥ à°
à« į
à«į àª
Ã £
o c
Ġà¤ ®
æ ĺ
a v
Ġà ¥
Ġp ro
à¨ ¿
Ġà¤ ¹
i Ã³
o u
å ¹
s t
à« Ģ
à³ Ĩ
Ø Ń
Ġ N
c t
à¦ ¨
àµģ à´
r es
t er
en d
Ġ =
à© ĩ
. .
Ġ \"
à¨ °
å °
à´¾ à´
c e
è ¿
i b
Ø§ ÙĨ
Ġ R
à¤¾à¤ °
à±ģ à°
Ġl e
å Ľ
ç Ķ
u d
Ġ ÙĦ
i z
Ġ est
Ã ´
Ã ª
à§ ģ
s e
àŃį à¬
ä ¹
Ã ¨
ĠØ £
ĠÙ ģ
ãĢ ģ
Ġ âĢ
Ġd es
à® °
u p
Ø ¬
- -
a i
Ġ G
Ċ Ċ
Ġp er
à¬¾ à¬
i p
à§ °
à² °
å Ĭ
o ur
àª ¨
å į
Ġf or
Ġ F
à¬¿ à¬
Ġ es
is t
ä¸ Ģ
ĠØ ª
Ġ H
ĠØ ¹
en g
u b
u k
à¯įà® ķ
à² ¦
Ġde l
i o
Ġ J
Ġ ,
Ã£ o
Ġ is
ĠØ§ÙĦ Ø
à¤ ª
Ġ K
o p
¯ à¦
Ġà¦ ķ
à¥ Ī
Ġà¥ ¤
i e
à¯ Ī
Ġp r
æĺ ¯
æ Ĺ
ĠĠĠĠ ĠĠĠ
Ġ -
åľ ¨
Ã §
å Ń
àŃ ĩ
i á»
0 1
Ġn o
at e
or t
à¦ ¤
à¤ µ
à« ĭ
Ġ an
Ġa s
à¦ ķ
àª °
Ġ on
Ã º
à® ¤
n h
Æ° á»
h e
p l
å ¾
u e
ä ¼
Ġe t
Ġl '
Ġà¤ ¨
Ġd i
Ù Ĳ
Ġl es
è ®
ec t
y a
Ġe x
o w
ç »
Ã© s
Ø Į
Ċ ĠĠĠĠĠĠĠĠ
Ù ī
æ Ŀ
à¨¿ à¨
äº º
Ġ Ãł
à¦ ²
Ġà¤ µ
Ġà¦ ¸
à¯įà® ¤
áº ¿
ad a
à¤ ¦
Ġà¤ ħ
r a
an s
Ġ z
d e
æľ ī
Ġ i
er e
à§ ĭ
¯à¦ ¼
Ġà¦ ¬
Ú º
Ø§ Ø±
à¦¾à¦ °
å¹ ´
m ent
à¤° à¥įà¤
Ġ it
Ġn h
Ġà¦ ª
à¤ Ĺ
Ġb e
å Ĵ
t h
à° ¨
âĢ Ļ
Ġd o
è ¡
ĠØ ³
Ø§Ø ª
Ġ {
o b
u g
é Ģ
Ġ 3
è ¯
æ ī
es s
Ġà¤ ¬
Ġd '
à° Ĥà°
Ġà¤ Ĩ
Ġn g
o g
åĴ Į
ä¸ į
Ċ ĠĠĠ
Ù Ĵ
à¤ ¯
àµ Ĩ
à¥ Ĥ
à² µ
áº ¡
à² ¨
ad o
Ġ '
Ġà¤ ľ
ar i
iÃ³ n
Ġ W
à¦ ®
v er
Ã ¢
Ġ U
Ġk h
Ġe m
à¤¾à¤ ¨
å ·
i al
Ġ O
à° °
il l
ä¸ Ń
é ĩ
Ġà¤ ¦
Ã ¬
äº Ĩ
à´ ¤
æ Ń
em b
¨ àµįà´
Ø ´
Ġ V
à² ²
Ġ Ã©
k an
Ġà¤ °
Ø µ
a in
à¦ ¬
Ġ or
à® ©
à® ®
å ¸
Ġn e
ĠÙ Ĭ
à² Ĥ
à¥ĩ à¤
à® ²
à® ķ
Ġà¤ ¤
Ù ı
à® Ł
ĠØ§ÙĦ Ùħ
Ġ Ø§
á» Ļ
å º
Ġd u
al l
a u
ĠÙ Ĩ
à¨ ¤
Ġs u
ãĢĤ Ċ
Ġp l
àª ¤
å Į
er a
Ġa r
à§ Ģ
å Ĩ
è Ģ
as s
à² ¤
Ġà¨ ¦
à© °
Ġp h
Ġà® ª
å ĩ
ÙĬ Ø©
à¯įà® ª
er t
on g
áº £
Ġà¨ ¸
Ø £
Ċ ĠĠĠĠĠĠĠ
å ¼
Ġà¤ Ĺ
Ġ Ûģ
Ġp or
æĪ ĳ
à± ĩ
åĽ ½
à® ³
àª ¿
a is
it h
à§įà¦ °
r i
à¤ £
Ġpar a
à± ĭ
Ġm en
à¤ ļ
Ġa d
on t
Ġà¤ķ à¥ĩ
àŃ ģ
ÙĪ Ø±
Ġth at
æ ķ
Ġà¨ ķ
Ø ·
à« ģ
Ġy ang
à§ĩà¦ °
Ġ Â
Ã ²
ĠÙģ ÙĬ
é ģ
æ Ķ
Ġw h
Ġl os
å ¥
qu e
en s
ar t
Ġa p
à¤¾à¤ ²
å¤ §
àª ®
( )
Ø§ Ùħ
m e
ķ àµįà´
Ø ²
å ¯
ĠÙħ ÙĨ
àª Ĥ
Ġd a
im p
à² Ĺ
o k
ç Ľ
Ġt er
Ġ /
à¨ ¨
á» ĳ
Ċ ĉĉ
á» į
e k
áº ¥
æ ³
el l
à© ĭ
à¨ ¸
Ã´ ng
ä» ¥
Ãª n
å ±
Ġa m
1 9
à© ±
Ġ :
f or
Ġà¤ Ń
àª µ
Ġa t
à° ²
ul t
un d
à¥ĩ à¤Ĥ
é Ļ
un g
å ĳ
Ø ®
Ø °
Ġà¤ ²
àª ķ
Ġ 0
a z
ç ī
Ġ 4
ÛĮ Úº
ĠØ ¬
en c
ent e
Ġ *
ion s
Ġà® ķ
at a
à¦¾à¦ ¨
w a
é ĥ
Ġà¦ Ĩ
à¦ ¸
c l
à¥įà¤ ¤
Ġd an
n e
à¤¿à¤ ķ
à° ķ
ä¼ ļ
è ¦
v e
ar a
Ġ1 9
Ġs er
Ġs t
Ġr es
Ø§Ø ³
à¤ ľ
Ġ2 01
Ġà¦ ®
in t
è ĩ
Ú ¾
à¤ ¬
e b
Ġ x
Ġ $
Ġ 5
u re
Ġ us
à² ķ
à² ³
à§įà¦ ¯
t ic
Ġ um
à¨ ķ
âĢ Ŀ
h t
am e
à¤¾à¤ ¤
Ġà¤¹ à¥Ī
æ ł
Ġf r
in e
ÙĬ ÙĨ
Ġà¦ ı
in d
i an
æ ĭ
à® ¯
æ °
Ġa c
à¤¾à¤ Ĥ
l y
Ġcom p
Ø ¶
Ġw ith
a j
ĠI n
à´ °
Ġd is
Æ ¡
à± Ģ
Ġà¦ ¨
ag e
à¤ķ à¥ĭ
à¯įà® Ł
) ,
Ġà¨ ¹
ç §
à¯ģà® ®
Ġà¦ ¹
ĠØ Ń
à§įà¦ ¤
* *
? Ċ
ĠÙ Ĥ
ä¸ º
l ic
t o
e p
à® µ
à¨ ²
Ù ĳ
em p
Ġàª ķ
à° ®
è §
u c
Ġun a
¨àµįà´ ¨
Ġà® µ
à¤ ¡
à±įà° °
æ Ĭ
ķàµįà´ ķ
Ġ. Ġ.
Ġà¤ª à¥įà¤°
à¨ Ĥ
or d
æ Ģ
e g
i en
i ent
on s
ÙĪ ÙĦ
ĠÄĳ á»
é Ŀ
Ġàª ª
em ent
Ø§Ø ¨
ĠØ ¯
i er
Ġà¨ µ
Ġà¤ ¯
ĠÙ ĥ
Ġà¨ ¨
ĠØ ¥
Ġ ent
Ú ¯
Ġl as
am b
iv e
ä» ĸ
Ġà° ª
i es
h o
Ø§Ø ¦
Ġm e
iá» ĩ
à¦ ¯à¦¼
id ad
è µ
Ġà¤ ī
à¤¿à¤ ¯
Ġà® ®
ä ¾
Ġ }
à© ģ
à¨ ¹
àª¾àª Ĥ
0 2
ä ¿
ÙĪ ÙĨ
p e
æ ²
à¨ ¦
Ġà¦ ¦
á» §
ÙĦ Ùī
ĠØ ±
é Ĺ
i x
Ġb er
àŃĩ à¬
Ġa b
å ½
Ġà¦ ¤
å İ
ar d
Ùĩ Ø§
à´ ¯
à®¿à® ²
Ġn a
Ġà® ¤
Ġ [
è¡ Į
áº Ń
æĹ ¥
a it
à¯ ĩ
Ã© r
à´ Ĥ
Ġth is
Ġl Ãł
à¥ģ à¤
Ø§Ø ¯
Ġv Ãł
ä¸ Ĭ
å Ģ
à®¿à® ¯
os t
i le
è ĥ
Ġn ot
Ø «
Ġv á»
ç İ
à± Ĩ
f f
à¤¿à¤ ¤
à¦ ª
à°¾à° °
ç Ĥ
à® ª
Ġ2 00
àª ²
e x
à¬ ¨
-- --
Ġc l
Ġ +
å ¿
an c
à¤¨ à¥ĩ
Ã§ Ã£o
Ġy ou
un t
u y
àµįà´ ¤
à³ ĩ
ĠÚ© ÛĮ
g r
h a
id e
ĠÙ ¾
am p
Ġ )
Æ°á» Ŀ
Ġp re
ç º
ac t
ç ¬
Ġà² ®
è¦ ģ
an a
n ya
è ģ
Û Ķ
Ã ±
2 00
/ /
à¤ §
à¯ģà®® à¯į
ac iÃ³n
Ġà¨ ª
Ġà² ¸
à¦ ¦
Ġàª ¸
it y
Ġg r
åĪ °
o us
u a
ä½ ł
c on
av e
Ġà® ħ
è¿ Ļ
à¨¾à¨ Ĥ
à¤¾à¤ ®
i áº¿
æ ŀ
o ut
Ġà¦ ħ
Ġ <
ĠÚ© ÛĴ
åĩ º
è ´
ct ion
Ġà® ļ
Ġh a
à© Ī
à¯ģà® ķ
Ġl o
çĶ ¨
à° ¤
à³įà² °
Ġcon s
à¨ ¼
) .
ar g
à¯ Ĩ
ĠÙ ĩ
Ġà° µ
àµ ĭ
ç «
æĸ ¹
ä½ ľ
æ İ
å Ł
ic a
Ġc o
à´ ®
Ġp as
Ġ 6
æľ Ī
à© Ĥ
åľ °
àª¾àª °
à¤ Ł
à§ Ł
Ġà¬ ķ
à³įà² ²
Ġà´ ª
Ġà¤® à¥ĩà¤Ĥ
ab le
ÃŃ a
e z
Ġa v
áº §
à¤² à¥ĩ
u x
å ī
for m
on d
à² ¡
) Ċ
ĠT h
ĠC h
' s
à´ Ł
ar r
àŃ Ł
ĊĠĠĠĠĠĠĠĠ ĠĠĠ
ä¹ ĭ
åı ¯
Ġà² ķ
é Ľ
ÙĬ Ø±
Ġà° ķ
i h
ä¸ ª
çĶ Ł
_ _
ç Ĳ
Ġ imp
i re
Ġt á»
à«įàª ¯
o v
Ġo b
Ġe ta
n d
æ µ
ĠÙĪ Ø§ÙĦ
æĪ Ĳ
æ³ ķ
à¦ Ł
à¥ĭ à¤Ĥ
Ì £
Ġàª ®
å® ¶
æ ¯
à³įà² ¤
Ġd Ã©
à´ µ
p r
à° ¦
ig ht
Ġm eng
p er
Ø ¦
àµ ĩ
Ġà° ¸
Ġà¬ ¸
à® ±
à©± à¨
Ġà¤ ¶
Ġcon t
Ġa re
ur n
am a
p t
as e
ï¼ ī
ï¼ Ī
à¬ ķ
or e
à¨ ®
us t
is s
æ ´
Ġà¬ ª
Ġ if
à¯įà® ±
àŃį à¬°
ç¬ ¬
u al
Ã¡ c
Ġà¤ķ à¤°
à° ¸
åħ ¶
ç ľ
it e
Ġb y
æ Ļ
å ¦
Ġà¦ķ à¦°
æ Ľ
l es
} }
à²¿à² ¦
c om
àµįà´ Ł
l o
é ¢
¨ à¯įà®¤
Ġà® ĩ
à° Ĥ
Ġy a
ad os
in a
äº İ
id o
æ Į
- >
Ġc Ã³
Ġp ers
à¤¾à¤ ¸
ÙĦ ÙĬ
Ġth á»
à¬¾ à¬°
od e
ic h
à§ĩà¦ ¨
ac e
am ent
à¦ ¹
Ġin ter
à² ¯
à¥įà¤¯ à¤¾
å ĵ
.. .
ig n
Ġp res
à° µ
ĠØ ´
à¤ ¶
Ġp our
c r
ĠØ£ ÙĨ
æ ¬
ĠØ§ÙĦØ £
, Ċ
à¯ Ĭ
à® £
Ã¢ n
m a
à² ¸
and o
ĠT he
àª¨ à«ĩ
á»§ a
è Ī
æ ĥ
Ġ 7
ion al
Ġs ur
Ġà¤ķ à¥Ģ
à¤¿à¤ ²
u i
à«įàª °
Ġà° ®
Ġc an
Ġà¤ ļ
ac k
Ġà¨ ®
à±įà° ¯
Ġc á»§a
å §
ç ¾
à²¾à² °
èĥ ½
ç Ń
I n
ä¸ ĭ
Ġp os
åħ ¬
áº¡ i
1 0
= \"
éĥ ¨
as t
p ar
Ġàª ¤
Ġà® ¨
Ġà´ ķ
æ ±
p os
u z
Ġs o
an ce
é ĺ
ar en
à³įà² ¨
Ø º
ant e
àµįà´ °
in s
àª ¸
im e
à¤¨ à¥įà¤
Ġà¤ ı
Ġa g
è ¾
ç ķ
Ġ â
Ġs a
Ġ 8
ĠØ§ÙĦ Øª
à©° à¨
Ã ¹
en er
æ Ħ
ÙĨ Ø§
Ġà¤ķ à¥ĭ
Ġà¦ ľ
k o
å »
à¯ ĭ
à¨¾à¨ °
à¤¾à¤ µ
àµģà´ Ĥ
à´ ¨
p ort
æ ¸
à¦¿à¦ ¤
Æ°á» £
é ¡
Ù ¹
Ø§Ø ¡
ĠÙħ ÛĮÚº
à¤¾à¤ ¹
æ ı
à²² à³įà²²
à³ Ĥ
à¦ Ĺ
Ã¡ n
Ġ Y
à³įà² ¯
f er
Ø§Ø ¹
Ġqu i
à¦ ĩ
Ùħ Ø§
Ġà¤¹ à¥ĭ
re t
l a
Ġfr om
Ġd ans
à¦¾à¦ ²
Ľ i
Ã´ i
à´¤ àµįà´¤
é Ĥ
ul d
Ã¡ s
æĹ ¶
å® ļ
àŃģ à¬
åŃ Ĳ
à¦¿à¦ ķ
Ġm u
Ġàª ľ
Ġà¨ ľ
âĢ ľ
ĠâĢ ľ
Ġà° ¨
Ġà² ª
Ġà¬ ¬
àŃ ĭ
åĪ Ĩ
à¥įà¤ µ
it a
âĢ Į
ac h
ĠĠĠĠĠĠĠĠ ĠĠĠĠĠĠĠĠ
è ¨
s o
æī Ģ
Ġm an
èĢ Į
m o
à§įà¦ ¬
as i
at u
à°¾à° ²
Ġà¨ ħ
à¯ģà® ¤
à¤¿à¤ ¨
à®¿à® ķ
ä¸ »
Ġà §
Ġàª Ľ
at s
ĠØ ®
ï¼ ļ
à²¾à² Ĺ
2 01
Ä ĥ
d u
à®® à¯į
1 1
à®¿à® ©
ation s
Ġh ave
æĸ °
Ã© e
äº ĭ
p res
Ġàª Ĩ
à¦¿à¦ ²
Ġ er
ä¹ Ł
à¦¿à¦ ¨
ç Ļ
âĢ į
é «
à±įà° ¨
à©Ģ à¨
åı ĳ
à¤¾à¤ ¯
åĲ Ī
Ġà² ¨
ĠU n
Ġà² ħ
ÙĦ Ø§
Ġcom o
eng an
Ġàª ħ
áº ¯
Ġp ol
ac iÃ³
å¤ ļ
Ġpar t
æĿ ¥
à¥įà¤ Ł
f r
Ġ 9
á» ĭ
at h
é ¦
àŃ Ģ
à´ ª
Ġ1 0
Ċ ĉ
à¤ Ń
ç ½
j ect
èĩ ª
g et
á»Ļ t
àª ª
à°¿à° Ĥà°
ic e
ç ´
à¯įà®ķ à®³
c o
à¥įà¤ ·
ä» ¬
ur a
Ġà¨ ¤
à³ Ĭ
å° ±
à² ®
à´ ¸
à´ ²
é ļ
ç ¨
àŃįà¬ ¤
à«ģ àªĤ
Ġam b
Ġà´ µ
à¤¾à¤ ļ
b le
Ġ os
er n
à° ª
Ġre t
å¯ ¹
c ia
m in
id a
Ġw as
or s
Ġun e
ak an
à®¿à® °
å¾ Ĺ
v el
æĸ ĩ
çĤ º
Ġ Q
1 2
à¬ ®
é ķ
Ġà¤ª à¤°
ub lic
à²¨ à³įà²¨
à´ £
Ġàª µ
Ġ \\
Ġk e
Ġ ro
Ġà¤¸ à¥ĩ
Ġse g
on a
Ġà² ¹
Ġkh Ã´ng
if ic
åĬ ł
Ġp e
à¬ ¤
j a
à®¤ à¯įà®¤
Ġc r
åĲ İ
Ù ĭ
or a
à´ ³
Â ·
Ø± ÙĬ
or es
è ª
è ½
al am
à¤ ¼
àª¾àª ¨
à° Ł
Ġm as
ĠâĢ Ķ
ur s
Ġ il
áº¥ t
en ce
E l
ç ®
Ġv er
à´¿à´ ²
Ø ¸
it o
Æ°á»Ŀ i
Ġ Ã
à¤® à¤¾
à¯Ī à®¯
Ġre c
Ġh e
Ġd engan
ĠØ¹ ÙĦÙī
Ġà° ħ
à´ ķ
Ġun t
le ment
àª ¯
Ãł y
Â ł
ĠT r
é Ł
i qu
à®¿à®² à¯į
éģ ĵ
u h
Ċ ĠĠĠĠ
i que
Ġw e
åı Ĭ
åľ ĭ
à® Ļ
à¤¨ à¤¾
à° ¯
àª ¹
ĠàªĽ à«ĩ
à¯įà® ļ
àµ ½
om e
ul ar
g e
Ġin i
Ġà´ ¸
z a
ik a
à¤ķ à¤¾
àµ ¼
Ġà¤ ĩ
à²¿à² ¸
à³ Ģ
ĠA l
Ġ |
it u
Ġà¦ ¯
Ġà¤ Ķ
Ġal l
ĠC om
Ġà¤µ à¤¿à¤
åĲ Į
t re
ãĢ ĭ
à®¤ à¯ģ
çĲ Ĩ
ĠØ§ÙĦ Ø¹
ĠÛģ ÛĴ
on e
Ġà´ ħ
Ã© n
ãĢ Ĭ
Ġa u
àµįà´ ¯
er o
à¤¤ à¤¾
: :
Ġ Ø§ÙĨ
Ġ2 02
or k
v ent
á» Ł
ç Ī
à¤¹ à¥ĩ
ç Ł
Ġàª ¹
àª £
ÙĪ Úº
à¬ ¹
tr ing
à²¤ à³įà²¤
à¤ ı
ir a
Ã¬ nh
è ·
à¦ £
Ġà¤¸ à¤Ĥ
Ġc u
à® ļ
Ġa ct
Ġv al
Ġà¦ Ĺ
à¦¾à¦ ķ
qu est
Ø³ Øª
å· ¥
is h
éĿ ¢
å ģ
i as
à° ¡
Ġà¦ ¶
Ċ Ġ
ak o
è® ®
åĳ ĺ
á» ¯
Ġà´ ¨
à© į
ÙĦ Ùħ
at ed
è ¥
iá» ģ
Ġà² ¬
à´¿à´ ¯
ç Ħ
Ġà¤ Ľ
ion es
à¦¾à¦ ®
à±ģà° ²
Ġo ut
Ġin d
Ġf in
á» ©
Ġs h
à®¾à® °
Ġunt uk
Ġc or
Ġa ut
Ġh as
à¤¾à¤ ľ
Ú Ĩ
à¨¿à¨ Ĩ
Ġà¤Ķ à¤°
el a
b er
Ġr Ã©
àµį âĢį
à´ ¨àµįà´¨
Ġm á»Ļt
Ġà® İ
Ġin t
á» ĵ
Ġw a
ç ¤
an y
ĠØ µ
d er
åŃ Ĺ
à²Ĥ à²¦
æĸ ¯
æ° ĳ
àŃį àŃŁ
àµįà´ ª
Ġ Ø§Ø³
Ġm ar
à³ ĭ
Ġs i
y pe
Ġà° ļ
æĶ ¿
k a
g o
à²Ĺ à²³
è¥ ¿
Ġà´ ®
à¨ µ
å Ŀ
æľ ¬
Ġc ol
ad i
à¦ Ĥ
è¡ ¨
Ù ¾
Ġà¨¦ à©ĩ
ĠØ Į
Ġàª ¨
Ġ Ð
à¨ £
on es
à¬° àŃĩ
è ¢
Æ°á»£ c
ĠâĢ ¢
á» ¥
. Ġ
av a
Ġes p
Ġre g
à«ĩ àª
à±įà° ²
ĠÂ «
= =
Ġm od
00 0
à¦ ľ
Ġm emb
Ġh o
Ġ im
Ġà¨ ¬
à®ª à¯įà®ª
al e
Ġo u
Ġd os
Ġà¦ª à§įà¦°
à´ ±
Ġm in
å ĭ
Ã µ
id ent
Ġà¤¸ à¤®
ĠÚ© Ø±
p ro
c ess
Ġch o
e le
à¬ ¬
Ġ Ú¯
à¦¿à¦ ¯à¦¼
ÙĪ Ùħ
tr a
Ġà¦ ļ
s i
à´¾à´ ¯
d o
ĠØ ¢
àµ Ģ
Ġs et
Ġn Ã£o
à±įà° ¤
i el
çī ¹
ar y
ĠL a
Ġà¬ ®
à¦¾à¦ ¤
Ġ1 8
al a
Ġum a
ĠØ¹ ÙĨ
à¤¾à¤ Ĺ
à«ĭ àª
Ġs up
in c
ĠØ§ ÙĪØ±
à¦¾à¦ ĩ
Ġ !
è °
Ġent re
à² ª
i os
v a
æı Ĳ
Æ° Æ¡
à®¾à® ©
ar e
n o
à¨ ª
å° ı
ÙĦ Ùĥ
Ġà² µ
à®° à¯į
á» ±
p h
Ġà¤ķ à¤¾
Ġel s
à¤¿à¤ ¸
å¦ Ĥ
Ļ àµįà´
àµģà´ ¨àµįà´¨
åĲ į
Ľ à§ĩ
åħ ¨
à°¾à° ¨
åī į
Ġg o
Ġs ub
å ł
Ġà¤ ĸ
à¤° à¥Ģ
u er
ä¸ İ
Ð °
æĢ §
àµįà´ ļ
Ġb ut
Ø§Ø Ń
i Ã¨
åĬ ¨
ÙĪ Ø§
ob re
) )
à® ¨à¯įà®¤
àªĤ àª
Ġng Æ°á»Ŀi
à®Ł à¯įà®Ł
Ġm at
é ĸ
Ġd on
à¦¾ à§°
L a
Ãł n
áº ¹
Ø ¥
à®¾à® ķ
é« ĺ
** **
ent s
un c
åĽ ł
Ġd if
er c
Ġà¤¨ à¥ĩ
Ġd ari
ÙĬ Ø¯
åħ ³
åĪ ©
à¥ Į
Ġs ol
Ġs p
è¿ Ľ
ĠÄĳ Æ°á»£c
à¤¹ à¥Ģ
à¬ ¸
Ġà¦ Ń
à²° à³ģ
k u
ut e
Ġ.Ġ. Ġ.Ġ.
E n
Ġà¤ ¥
Ġà¨ ²
Ġc as
åŃ ¦
éĩ Į
r as
it Ã©
ç ©
an ya
à¥ĩà¤ ¶
Ġàª °
ĠA r
s p
Ùĩ Ùħ
æŃ ¤
à´ ķàµįà´ķ
à°¿à° ¨
à¦ ¶
Ġg i
à¥įà¤ ¥
i Ãªn
ay a
Ġre l
è Ĥ
è ©
1 8
ak e
à²¿à² ¯
è¿ ĩ
à°¿à° ķ
Ġ ?
èĢ ħ
à¤¿à¤ ı
åĬ Ľ
æľ Ģ
ĠØ³ ÛĴ
à¤¾à¤ ¦
Ġas s
en a
à± Ĥà°
it ion
v o
x t
à±ģà° ¨
àª® àª¾àªĤ
è ĭ
Ø± ÛĮ
1 5
à¥ģ à¤°
Ġ1 2
Ġàª ¬
Ġà° ¤
ãĢ Į
à² ¬
Ġm ais
Æ°á» Ľ
Ø° Ø§
è¢ «
om b
Ġl âĢĻ
Ġfor m
Ġit u
éĢ ļ
ãĢ į
åĮ Ĺ
Ġtr ans
Ġm em
Ġ .Ċ
at iv
éĥ ½
à¨ ľ
áº ·
s er
æ ¡
Ġne w
f in
çŃ ī
Ġv a
ic o
it z
al i
ä» »
f t
{ {
à¨¾à¨ ²
Ġt a
à¨ Ł
ĠE l
ĠÄĳ Ã£
à¤¾à¤ ķ
ol og
ro l
àŃĭ à¬
Ġà¨ ĩ
Ùİ Ø§
Ġà¦ °
ä¸ ī
Ġà¦¬ à¦¿à¦
à§įà¦ Ł
à² Ł
à¤¤ à¥Ģ
m an
Ġb at
à¤¾à¤ Ī
Ã¨ s
Ļ àŃįà¬
Ġ &
---- ----
Ġs el
à®ķ à¯įà®ķ
éĩ į
à¥¤ Ċ
Ġà¤ı à¤ķ
Ġret urn
Ġà¨ °
å¥ ½
à²¨à³įà²¨ à³ģ
< /
à´¿à´ ķàµįà´ķ
å¤ ©
Ġ ant
Ġwh ich
à³Ĩ à²¯
Ġ1 5
çĶ ±
is a
w e
ĠF r
à²²à³įà²² à²¿
et h
æĪ ĸ
g a
à± Ī
ï¼ Ľ
ai re
à¦¾à¦ ¬
ĠØ§ÙĦ ØŃ
á» ĩ
à®¿à® ±
àª¾àª ®
Ġp o
Ġ/ /
Ġw ill
id ak
ĊĠĠĠĠĠĠĠĠ ĠĠĠĠĠĠĠ
Ġc e
Ãº n
å £
Ġs on
Ġs '
ad e
Ċĉĉ ĉĉ
E R
æ Ł
or m
à¥ ĥ
A R
in h
è ī
v al
à¦ ļ
æ į
Æ°Æ¡ ng
Ġf o
ĠÚ© ÙĪ
T he
à³ģ à²µ
ĠØ§ÙĦ ÙĦ
ç µ
ar ia
Ġà¦ ī
p ut
Ġà¨¹ à©Ī
à²¿à² ķ
o y
å» º
1 6
uk an
ÙĤ Ø¯
àª¨ àª¾
à± Ĭ
.. .Ċ
è £
T h
all y
Ġres p
à¤¨ à¥Ģ
Ø¨ ÙĬ
Ġà® Ĩ
ļ àµįà´ļ
Ġcom m
a us
à¯ģà®ķ à¯įà®ķ
å¤ ĸ
åħ ¥
à¯ Ĥ
er r
åĪ ¶
à²¿à² Ĺ
ĠL e
ik an
åĮ ĸ
Ġse b
Ġg et
Ġc re
ur al
æ ¨
Ġdi re
ã ģ
' t
Ġc Ã¡c
ĠE n
Ġc ap
ĠØ¨ Ø§ÙĦ
à³įà² ¦
Ã³ n
à° Ĺ
å¹ ³
Ð ¾
à¤¿à¤¯ à¤¾
è ¶
Ġ X
à¬¾à¬ ¨
t s
Ùĳ Ùİ
I N
Ġn Ã³
Ġtr ong
Ø§Ø ¬
v en
âĢ Ķ
æľ Ł
à´ Ļàµįà´
Ġà¤ «
à¤¤ à¥įà¤°
Ð µ
ĠA n
Ġà¨ Ĺ
ÙĲ ÙĬ
Ġm es
ÛĮ Ø§
Ġpl us
äº Ľ
ĠÂ ·
æĦ ı
Ġn os
Ġ up
é »
à¤ķ à¥įà¤·
å¼ Ģ
à® ´
É Ļ
Ġs ec
u an
al ah
åį ģ
æŃ £
g an
æľ º
å® ī
Ġp el
æĸ ¼
im ent
Ġs obre
y s
ie w
æ ģ
is e
å ķ
ç» ı
Ġp od
ĠÚ© Ø§
àª¨ à«Ģ
à¦¾à¦ ¯à¦¼
à¤¤ à¥ĩ
à´ ¨àµįà´
ä½ ¿
g un
à¦ Ń
áº£ i
iá»ģ u
àª ľ
it s
ä½ Ĩ
un ction
Ø¨ Ø±
! Ċ
ç ¥
Ġpers on
à®² à¯į
à¤¾à¤ ª
à°Ĥà° ¦
ĊĠĠĠĠĠĠĠĠ ĠĠĠĠĠĠĠĠ
à§įà¦ ·
à¦¿à¦ °
c c
éŁ ³
Ġc ar
Ãµ es
b o
or y
äº Į
Ġm Ã¡s
Ġa f
ä½ į
Ġàªķ àª°
ä» £
åº ¦
Ë Ī
Ã§ a
à« Ĥ
is ta
2 0
ĠØ§ÙĦ Ø³
3 0
Ġar r
am ente
à±įà° Ł
' '
e w
à§į à§°
áº§ n
Ġt emp
ud e
ang an
s et
åİ »
Ġàª ı
C h
à² ¹
Ġà¦ ²
ç ±
å¹ ¶
àµ Ĥ
åį Ĺ
ĠÙħ Ø¹
Ġs em
ul l
à¨¤ à©ĩ
r os
æĺ İ
um ent
à¨ Ĺ
n a
s a
ç ³
à² £
áº¥ y
ç¾ İ
Ġn i
Ġe le
Â »
Ċĉĉ ĉ
em a
it at
ĠØ¨ ÙĨ
Ġà° °
Ġà² ¤
Ġà¨ ī
à¬¿à¬ ¬
àµ »
Ġm a
oc k
Ã¢ y
Ãł nh
Ġà® ī
ic al
çİ °
pl ic
ĠÚ© Ûģ
à©Ĥ à©°
ĠÙĦ ÙĦ
éĤ £
à¦¾à¦ ¦
à¬ ª
é ©
ä½ ĵ
ur r
iz e
a ut
à¦ §
am os
ĊĊ ĠĠĠ
Ġm ed
1 4
ĠâĢ ĵ
æĻ Ĥ
Ġp ass
Ġv o
ÛĮ Ú©
Ú Ī
à¤² à¤¾
Ġm el
f ic
Ġp u
å¿ ĥ
çī ©
à¯ Ģ
Ġà¤Ĩ à¤¹à¥ĩ
Ġà¬ ¨
il le
à¦¨ à§įà¦
ĠØ§ÙĦ ÙĨ
è »
è Ĳ
ÃŃ s
ĠC on
ÙĪ Ø¯
ã Ħ
ĠÄ Ĳ
ad as
é ł
t en
à¦¾à¦ ¸
Ø§ Ùģ
Ð ¸
es e
Ùħ ÙĨ
à¬ £
æ¬ ¡
ib le
Ġb a
i ar
iá»ĩ n
é £
à³įà² Ł
Ġc Ã¡
Ġde m
is tr
Ġà´ ¤
im a
Ġng h
à§ Ī
å ¢
çĽ ¸
y st
ç« ĭ
ä¿ Ŀ
Ġr a
Ġp en
el le
Ùħ Ø±
ĠS t
iv ers
Ã© d
h er
Æ°á»Ŀ ng
Ġt idak
ay s
Ġk u
à§ Ĥ
åĢ ĭ
è Ļ
in i
c ul
åŁ º
Ġs oc
in o
è ³
Ùħ ÙĦ
Ġp ublic
at an
Ġd alam
çĦ ¶
Ġvá» Ľi
Ġ2 0
Ġe z
ĠØ ·
Ġ Z
Ġt amb
ĠØ °
os e
1 3
ant s
ur op
Ŀ i
o a
al es
Ġà¬ ħ
à¤¿ à¤°
Æ°á»Ľ c
åĮ º
ĻàŃįà¬ ķ
iá» ĥ
. Ġ(
Ġm on
in k
à¤² à¥Ģ
ï¼ Ł
à¥įà¤ ®
à¤ķ à¤¾à¤°
s tr
P L
ĠP ar
àª ¦
ÛĮ ÙĨ
ĠP r
å¥ ³
an h
å ĸ
å± ķ
enc ia
à¤¸ à¥ĩ
un e
Ġà¬ķ à¬°
Ġd ia
c re
Ġe g
ic t
Ù Ģ
àµįà´ ±
Ġs us
1 7
éķ ¿
èµ ·
Ġ u
et a
i or
çĽ ®
ĩ à¬
Ø¹ Ø¯
ç ¦
à§ ĥ
éĩ ĳ
Ġh ab
å¸ Ĥ
g u
Ġà¨¦ à©Ģ
Ġc ent
Ġj e
Ġpro p
Ġd it
ik e
ĠA nd
i ro
æķ Ļ
Ġà¬ ¦
èĩ ³
ol l
al s
Ġ #
Ã© t
Ġ iz
i u
d a
à¥įà¤ ¨
à²ķ à³įà²
à©į à¨°
à¤ ĸ
5 0
ª à¯įà®ª
à¯ģà® µ
à´¿ àµ½
ĠÙĨ ÛĴ
èģ Ķ
ĠP ro
Ġ @
à§ĩà¦ ķ
Ñ Ĥ
ĠM ar
Ġ Ã©s
Ġp ada
à¨¿ à©±à¨
Ġt u
åħ ĭ
à¦° à§įà¦
Ġàª ¦
à²¿à² ¤
à¥ ¦
ĠIn d
à´¾à´ £
éĹ ´
Ġpar tic
è Ń
Ġà² Ĩ
à§ģ à¦²
Ġ ;
é ľ
e y
iqu es
z en
Ġcl ass
Ġon e
ç ¶
áº¿ n
åĨ ħ
ap p
éĢ Ļ
Ġin v
P C
Ġres ult
ce pt
Ġb o
Ġd âĢĻ
Ġ1 4
pl ay
th is
æĥ ħ
Ġt Ã´i
s h
č Ċ
æµ ·
Ġa kan
ex t
à¤ «
Ġm o
à²¿à² °
ĠÙ¾ Ø±
à°¿à°Ĥà° ļ
ÙĨ ÙĬ
Ã© m
as a
ter n
at or
à®© à¯į
å§ Ķ
æ ®
à¦¾à¦ ľ
i ed
is i
è¯ ´
y le
Ġy our
th er
Ġf il
A T
Ġ1 6
à¥Ĥ à¤¨
Ġà° Ĺ
Ġà¦ ĵ
Ġt e
Ġcon f
ro w
è Ĭ
Ġnh Æ°
j o
ĠØ§ÙĦ ÙĤ
ä¾ Ĩ
ĠâĢ ĺ
Ġà¬ ¹
å° Ĩ
àª° à«įàª
Ġs tr
Ġj ug
à¬° àŃįà¬
Ø§ Ùĭ
t on
m es
à´Ļàµįà´ Ļ
å¼ ı
Ġv ol
à¥ĭ à¤Ĺ
áº§ u
Ġin form
ĠØ¥ ÙĦÙī
Ġ19 9
Ġb u
d uc
Ġm il
Ġ1 7
Ġm y
à¦ ĸ
- 2
Ġ _
å¾ Į
it ar
Ġpr im
tr ib
Ġà´ İ
à¥ģ à¤¨
à®Ļ à¯įà®ķ
Ġen c
Ã¡ t
Ġà¬ Ĩ
iáº¿ t
ĠA s
æł ¼
à®¿à®© à¯į
ç ģ
æľ ĥ
Ġà¤ ĺ
Ġà² ĩ
O N
à¤ Ī
Ã© c
ĠD e
à¬¿à¬ ²
Ġl l
em os
à¯įà® ³
à¥įà¤ ķ
ad or
ec h
Ġ --
å® ŀ
Ġt ro
Ã© es
à¯įà®ķà®³ à¯į
é ħ
á» ķ
æĭ ī
à²° à³įà²
ow n
ç» Ħ
Ġt en
æ¯ Ķ
à´¿à´ °
à²¿à² Ĥ
ÃŃ n
à±ģà° Ĥà°
b r
Ġà°ª à±įà°°
æŀ ľ
çľ ĭ
à¨ Ī
à«Ģ àª
à´ ¦
Ġà¬ ı
Ġà¦ı à¦ķ
à¥įà¤ ª
Ġc al
res s
Ø§ ÙĤ
à¨ ¬
Ġà¬ °
Ġà¤¹à¥Ī à¤Ĥ
à¤ķ à¥ĩ
Å ©
Ġ1 3
ĠØ§ÙĦ Ø¯
ä¸ ļ
àµģà´ ķ
Ġm ay
ç³ »
à¤° à¥ĩ
Ġest e
ta in
il d
à®£ à¯įà®Ł
idad e
à¦¾à¦ ¹
Ġà¨¨ à©Ĥà©°
à¦¤ à§ĩ
à©ĭ à¨Ĥ
à§ ±
à¥įà¤ ²
á ¹
à¤¿à¤ µ
è· ¯
àµ Ĭ
àµįà´ ²
å½ ĵ
Ġ ÛĶ
ÙĬ ÙĦ
Øª Ø±
b e
Ì ģ
d is
çŁ ¥
à±įà° µ
ä¸ ĸ
à©Ģà¨ Ĩ
Ãł i
Ġo p
A l
à²¿à² ¨
á»¯ ng
Ġin st
ek o
à®© à¯įà®±
c ol
à¨¾à¨ ¨
Ġth ere
Ġqu '
ro up
__ __
19 9
Ġp a
ç ı
gr am
Ú¾ ÛĮ
á»ĳ i
åĲ Ħ
à¯įà® µ
ä¸Ģ ä¸ª
ç Ŀ
æ° ´
ØŃ Ø¯
à¦¿à¦ ¬
à®¾à® Ł
ç ł
à¥įà¤° à¥Ģ
à®¾à® ²
end o
Ġà° ¦
Ġs al
å¾ ·
h i
è¿ ĺ
Ġà¨ Ĩ
r it
Ġàª¤ à«ĩ
t p
Ġà² °
à´¿à´ ļàµįà´ļ
Ġ. ..
or n
ment e
ç¨ ĭ
w o
æĿ ĳ
Ġà² İ
à®¿à® Ł
ĠÙħ Ø§
à°¾à°° à±ģ
b a
Ġ{ \\
ĠQ u
áº¿ t
A N
Ġk m
ur es
å¸ ¸
åº Ķ
Ġg ener
æĪĳ ä»¬
ic k
Ġde p
äº ļ
ik o
ĠØ§ÙĦ ÙĴ
ĠÄĳ Ã³
Ġà° Ĩ
Ø± Ø¨
à¦ ¼
Ø± ÙĪ
r ia
æ ¼
à§ĩà¦ ²
à´¿à´ ¨
te xt
Ãł ng
Ġg iá»
Ùİ ÙĦ
Ġimp ort
æ ¶
Ġn Ãły
Ø¹ ÙĦ
et te
à¤ ¥
Ġàª ²
à§ĩà¦ ¶
åı¯ ä»¥
éĹ ®
Ġd ur
u es
Ġde c
à®¿à® ¤
ç ¼
æ º
ĠØ§ÙĦ Ø¬
àµ ¾
e ar
Ġn '
áºŃ t
ĠÙĦ Ø§
ç® ¡
åı £
Ð ½
Ġb ar
e an
Ġ ir
à¤¾à¤Ĥ à¤ļ
ĠA m
å· ²
Ãº ng
àª ¶
ä¹ Ī
à¤¿à¤ Ĥ
æ ·
Ġàª Ĺ
æķ °
à§ĩà¦ ĩ
at es
an o
a w
åĬ ©
Ġ Ã¡
I D
ut ion
ç§ į
ĠØ º
cr ip
Ġàª ¶
Ġà° ¬
S t
E S
f o
Ġ ut
Ġw ork
Ġre al
Ġà¦¸ à¦®
at al
) .Ċ
Ġan y
le g
Ġà¨ķ à¨°
Ġà¤ķ à¤¾à¤°
2 5
åĬ ¡
Äĥ m
Ġh or
à²¿à²¦ à³įà²¦
d it
ĠØ§ÙĦØ ´
Ġà´ ļ
at ive
æ ĵ
à´¾à´ °
t u
à²¾à² ¨
Ġse u
er v
C on
Ġ á»Ł
- se
åħ ±
iel d
åİ Ł
u en
Ġav ec
ÙĪ ÙĤ
å± ±
å¾ Ī
Ø§Ø ²
ĠÛģ ÙĪ
h ar
Ġw o
à®± à¯įà®±
Ġb l
æ² ¡
§ à§
à±įà° ª
àª ¥
à¤¡ à¤¼
· à¥įà¤Ł
er g
Ġd ir
é¢ ĺ
áºŃ n
at er
Ġàªħ àª¨à«ĩ
á» Ń
le t
ĠJ PL
ĠM PC
ĠE st
re e
ä¿ ¡
at o
à¦ ¥
Ġus e
Ġn um
le ct
p a
Ġno us
Ġcon c
åı °
ang e
á»į n
ç Ĺ
ä» ¶
Ġà¨µ à¨¿à¨
è ĳ
çº ¦
à´¾à´ ¨
ĊĠĠĠĠ Ġ
åŃ ¸
Ġde f
à¦ ·
ĠØ§ÙĦØ ¥
åı Ĺ
ant es
éĿ ŀ
Ñ Ģ
Ġac c
Ġtá» «
Ġv ous
Ġmen j
ç¤ ¾
A :
à¯įà® ²
Ġpro v
åĲ ĳ
à§įà¦ ¯à¦
Ġl oc
id er
áº ½
è ²
Ġser v
u ct
ch e
Ã§ Ãµes
Øª Ùħ
Ġf al
ĠØ ²
an k
è İ
å° Ķ
Ñ ģ
Ø£ ÙĨ
Ġvá» ģ
à° ¶
ap at
Ġ1 1
us tr
åı ª
Ġà¦ ¥
Ùģ ÙĬ
àµģà´ Ł
Ġd ata
² à±ĭ
Ľ à¦¿à¦²
æī ĭ
ad es
ĠÂ »
à¥įà¤ ¹
à§įà¦ ¥
ç§ ĳ
à¨¸ à¨¼
ir st
ĠØ§ÙĦ Ø±
¡ à¦¼
ĠÄĳá» ĥ
en se
Ġto t
Ġb r
á»Ļ i
/ 200
l i
ĠÃ© t
åĨ ³
è į
è§ £
p ert
Ġf unction
åº ľ
Ġdel s
Ġpos s
à³ģ à²¦
2 4
à¤ ģ
Ġto d
æ¡ Ī
à¦ ı
à°¨ à°¿
Ġ= >
Ġnh á»¯ng
Ä ©
àª Ĺ
Ġch á»
åĳ Ĭ
Ã¨ n
à°¨ à±įà°¨
U n
à¤°à¥įà¤ ¨
Ġa Ã±
a f
æĬ ¥
ĠW ik
à¤¸ à¥įà¤¤
Ġà¤¤ à¥įà¤¯
à®¿à®ķ à¯įà®ķ
Ġcon st
Ġà¦ª à¦°
æĮ ģ
è¯ ¥
ot e
Ġa k
Ġ ur
à² ¶
à´ª àµįà´ª
à¨¿à©±à¨ ļ
ir es
áº£ n
ate g
à¬ ¦
Ġr est
Ġt ÃŃ
à© ľ
äº ¤
æĥ ³
an e
Ġ202 1
ĠR e
æĽ ´
æİ ¥
un a
à¬¿à¬ ķ
Ġà° ī
Ġf am
à¤¾à¤ ģ
Ġt ah
à¤¾à¤ £
à°¾à° ¯
Ġà¤ħ à¤¨
u est
Ġb el
v ol
à±ģà° ķ
Ġà¨µ à¨¿à©±à¨ļ
Ġw ere
àª ¡
an i
a Ã§Ã£o
{ \\
id os
il s
à¦Ł à¦¿
ĠØ§ÙĦ Ùģ
à®³ à¯į
Ġin s
ÙĪ Ø¬
Ġre m
à¯ģà® ³
iv o
éĩ ı
Ġa o
ÙĬ Ùħ
à¬¨ àŃįà¬¤
à§ģ à¦°
our ce
Ġà²ª à³įà²°
b l
æĿ ĥ
á»ĳ ng
ent es
Ùĥ ÙĨ
eb ut
Ġs ont
Ø ¤
Ø§Ø µ
àª §
àª¾àª µ
å·¥ ä½ľ
Ġm er
ag es
áº ±
à¤¾à¤° à¥Ģ
Ġest Ã¡
Ġà¤ Ł
o le
ĠI t
ç ¡
ing s
åĽ ŀ
' ]
à¦¨ à§įà¦¤
áº¡ n
Ã³ Ì£
à°¿à° ¤
Ġ3 0
Ġm ore
ĠlÃł m
yst em
Ġv i
Ġà¤ķ à¤¿
at i
Ġin cl
à®¾à® ¤
Ġs in
åħ ĥ
ç ĸ
ant o
Ġne g
ĠÙĪ Ùİ
á» £
r or
T r
Ġa ux
E N
èĪ ĩ
åĪ «
Ġd est
Ø¨ ÙĦ
ik i
Ġh á»į
ÛĮ Ø±
it t
à¤¾à¤¨ à¥ĩ
c es
ient o
crip t
Ġs ho
ac ional
æ´ »
p on
¡ à±ģ
Ġt i
Ġh i
à² ļ
åĽ½ å®¶
Ġà² ¦
Ġà¦ ĩ
§ à¥
åı ¸
Ùĩ Ùı
as h
Ġâ Ī
ak a
at ch
Ġm Ãł
à§įà¦ ®
le d
ĠÄĳ áº¿n
çĤ ¹
el y
è º
à²¾à² ¦
à¥ģ à¤²
á» ı
Ġà¤ħ à¤¸
Ø± Ùģ
æĮ ĩ
à´Ł àµįà´Ł
ĠØ§ÙĦ Ùĥ
ab il
Ġf a
èµ Ħ
Ø± Ø©
our s
å® ĺ
åħ Ī
Ã² n
åĽ Ľ
ĠP h
à¦¾à¦ ª
à©Ģà¨Ĩ à¨Ĥ
Ġmen y
à¥ °
.. ..
à¯Ĩ à®¯
Ġv e
á¹ £
Ġf l
ver n
åı ĸ
ÙĪ Ø¨
ch o
3 2
å½ ¢
E x
Ġwh en
re g
Ġde v
à¥ĩ à¤²
Ã¹ ng
à±įà° ķ
æ² »
Ġl ike
ar an
å Ĥ
it al
un ic
Ġà¨ħ à¨¤à©ĩ
Ġl áº¡i
Ġwo uld
à¬ ³
r en
è® ¾
ac iones
ĠØ§ÙĦÙĦ Ùĩ
æ ¥
and a
Ġà¤Ń à¥Ģ
Ġà¤® à¤¹
á»Ļ ng
à´ Ĺ
Ø¦ ÛĴ
Ġà° ľ
\" >
Ġthe y
ir i
Ġv is
ÙĨ Ø¯
y e
n er
Ġh an
Ġm et
Ġà¨ ļ
ar c
ÛĮ Ûģ
Ġà² Ĺ
Ġà¨¨ à©ĩ
Ġa ta
à³ģ à²¤à³įà²¤
à° ļ
Ġ ÚĨ
Ġàª¹ àª¤
# #
à¤ķ à¥įà¤¤
à¬ ĻàŃįà¬ķ
n ame
à¤¾à¤ ĩ
ÙĪ Ø³
C om
è® ¡
st yle
u el
Ġ2 5
ol d
ĠE s
à¤ ł
g al
Ġf e
Ġt ak
f l
Ġà´ Ĩ
Ġà¦ ĸ
Ġà´ ĩ
Ġpro du
Ġs ome
iÃ¨ re
éĻ ¢
ÙĨ ÛĴ
ar io
Ġjug a
âĢ ĵ
t es
Ġthá» ĥ
Ġa quest
å ¡
å Ħ
åĮ ħ
Ġpres ent
à¤°à¥įà¤ µ
Ġà Ń
- l
à«ĩ àª²
å· ŀ
ĠÄĳá» ĭ
á»© c
Ã¡ ng
: //
á»ĳ c
æ¸ ¯
ul a
çĶ µ
2 2
Ġs c
P ro
g i
Ġb et
à¤¿à¤ ®
çİ ĭ
v ar
l d
j et
àµĩ à´
à¯ģà®¤ à¯įà®¤
Ġj ust
ag a
æ ¢
à°Ĥà° Ĺ
ĠØ¹ ÙĦÙĬ
A r
Ġà¬ª àŃįà¬°
ĠvÃł o
tr es
å£ «
ĠI l
/ 0
el ah
ation al
à¤ķ à¤°
å® ĥ
p o
Ġà¨¦ à¨¾
åĢ ĳ
Ġs ing
Ġo ther
ĠĠĠĠ Ġ
h or
Ġh ar
à¥ĩà¤ ĸ
l er
at ic
8 0
é¡ ¹
e a
Ġinter n
Ġà¤ĩ à¤¸
åģ ļ
Ġsho uld
Ġl ib
Ġ Î
s el
à´¿à´ ķ
Ã ¼
Ġ2 4
Ġà¨¹ à©ĭ
Ġm Ã©s
é© ¬
à§ĩà¦ Ľà§ĩ
à²Ĥ à²¤
ĠÛģ ÛĮÚº
om ent
à¯ģà® ±
àª¾àª ¯
à¦ ĵ
dis play
Ġh av
à¤¾à¤ Ł
Ġne ed
Ġà¤ §
ĠnÃ³ i
Æ¡ n
å¥ ¹
à¥ ī
Ġgr and
Ġp eng
á» ģ
o h
æł ĩ
Ġà¤ ¡
å¸ ĥ
Ġper m
em pl
ec k
á»ĵ i
Ã¢ u
à¤¾à¤ ī
Ġd as
Ãł o
à¥Ģ à¤²
ç ²
Ġz en
Ġs ent
Øª Ùĩ
à°¾à° ®
am i
Ġe qu
äº §
Ġ era
à¥įà¤ §
à¯ģà® Ł
Ġt ers
Ļ à§įà¦
à¤ ħ
ĠÄĳ i
inc ip
u ar
éĻ ħ
à° ¹
Ġpro f
åĨ Ľ
Ġal so
Ġ2 3
Ġàª Ń
Ġs es
b y
Æ° a
Ġk n
à§ ¦
ĠÙĥ Ø§ÙĨ
ĠP er
èº «
æĶ ¹
Ġo ver
en e
à´£ àµįà´Ł
à¬¿à¬ ¤
**** ****
æĿ ¡
à¤¯ à¤¾
Ġc áº£
åł ±
àµĨ à´¯
Ġm ill
end er
w w
à¤ķ à¥Ģ
ä¹ ¦
àª Ł
à© Į
ect ion
é¦ Ļ
à°¨ à±ģ
Ġph áº£i
Ġh um
t i
Ġs ign
ÙĨ ÙĴ
Ġe ff
Ġb isa
à¥įà¤ ¸
Ġ.Ġ.Ġ.Ġ. Ġ.Ġ.Ġ.Ġ.
I I
ah an
Ġt ime
Ġà°µ à°¿à°
æ »
à¤ ĩ
åĵ ģ
g er
à´¾à´£ àµį
an n
Ġàªª à«įàª°
Ġà¦¹ à¦¯à¦¼
Ġad d
Ġen d
O R
is mo
u j
6 0
à¤Ĥ à¤Ĺ
I B
Ġqu al
ÙĤ Ø©
t im
è Ħ
ic i
èĭ ±
à§ĩà¦ ĸ
a o
Ġ= =
É Ķ
Ġs im
¦ à°¿
Ġor gan
å ²
2 3
à±ģà°¨ à±įà°¨
àª ³
Å© ng
ÃŃ tic
ĠØ§ÙĦØ µ
à¦ Ĩ
I t
éĹ® é¢ĺ
à¤¾à¤ ¬
ç ·
à¨¿ à©°à¨
æĶ ¯
y o
Ġan h
çĲ ĥ
à°° à±įà°
à§įà¦ ª
à¥įà¤ ¦
iáº¿ n
à¤¾à¤ ı
å¤ Ħ
und o
à¤¹à¥Ģ à¤Ĥ
I T
Ġ202 0
à©° à¨¦
Ġd oc
å° ĳ
ä¾ Ľ
Ġà¦ «
à¤¹ à¤°
R e
ä» İ
à¤¤ à¥įà¤¯
re d
ap a
è¨ Ģ
ĠS e
ĠA d
4 0
Ġkh i
au x
çķ Į
Ġa qu
Ġ id
à´ ķàµįà´
[ '
Ġpro t
Ġad a
r on
ib il
å§Ķ åĳĺ
Ì Ģ
Ġwh at
Ġpro ble
ot o
å½ ±
àµģà´ ¤
å¤ ª
ab a
Ø¨ Ø¯
or te
è§ Ħ
Ú ĳ
ag o
le h
à®¿à® ´
çĽ ´
ar on
m s
ä½ ķ
æ £
Ġà¬ ľ
Ã© l
æĹ ł
y n
à¨¤ à©Ģ
u le
ir en
p ect
Ãº b
Ġà¬ ¤
å ĥ
S T
ÙĪ Ø¹
ĠØ§ÙĦØ ®
ĠØ£ Ùİ
è ı
æ³ ¨
ap i
å· ´
Ġfin al
ĠàªĨ àªµ
ere ka
Ġ %
vel op
Ġab out
Ġc Ã´ng
Ø§Ø ¶
Ġv ers
emb er
Ġqu y
idad es
Ġà¦Ĩ à¦®
ã Ĥ
ÙĬ Ø§
æį ®
åĩ Ĩ
çĻ ¼
ĠP l
Ġs áº½
ç ĥ
== ==
Ġcon tr
ĠØ «
v ers
c a
Ġà¦ķ à§°
à°¿à° ¯
ĠG r
Ãª u
à¦¾à¦ Ĺ
it er
L e
à²¿à²Ĥ à²¦
èī ²
el s
à²ķà³įà² ķ
Ã² ng
c i
Ġà² ľ
æ ©
A d
æī ĵ
Ġsel f
um b
ap h
Ġà¤° à¤¾à¤ľ
Ø° Ùĩ
ig a
à²Ĥà²¦ à³ģ
Ġn Äĥm
åŁ İ
é Ķ
display style
à¤¾à¤ ¥
Ġtr ab
å ¨
Ġà¤ħ à¤ª
Ġth u
Ġpro gram
N ame
ĠØ§ÙĦØ °
Ùħ Ø¯
ol a
ÙĦ Ø©
Ġà¤² à¤¿à¤ı
à¤Ĥ à¤¦
A s
or ia
Ġb as
ag ai
àª ¬
il i
Ġà¨ Ń
m l
ĊĠĠĠĠĠĠĠĠĠĠĠĠĠĠĠĠ ĠĠĠ
ä» Ģ
à¨° à©Ģ
- s
de x
eth od
Ġcont in
Ġqu an
ĠE urop
Ġpr incip
à«įàª ¤
ç ĩ
ĠÙĩ Ø°Ø§
åĪ Ĺ
Ãª tre
Ġpa ÃŃs
à²¾à² ¡
éľ Ģ
à®¾à®° à¯į
Ġin to
est e
in ta
Ġà´ª àµįà´°
2 7
å Ļ
al d
à¤°à¥įà¤ ®
ad d
à¤Ĥ à¤¤
è Į
aus e
à¦² à§ĩ
æĶ¿ åºľ
Ġ{\\ displaystyle
Ġà¤ħ à¤§
Ġàª ¥
à¤¾à¤² à¥ĩ
äº Ķ
Ġes c
ÙĬ Ø³
re ad
áº± ng
3 5
Ġs om
åı ·
Ġest a
à²Ĥ à²¡
É Ľ
ä¸ ¤
ĊĊ ĠĠĠĠĠĠĠ
A L
àµįà´ ³
- m
Ġs ud
Ġà¦ı à¦¬
åı Ī
ones ia
à¤¾à¤¹ à¥Ģ
Ġà® Ĵ
i j
Ġsoc ial
à¨ Ĩ
ä¸ ľ
à®¿à® µ
' est
Ġad alah
à¦¿ à§Ł
è «
Ġit s
Ġà¥ ¨
aj a
á»Ļ c
æĶ ¾
B B
à¤ ¢
Äĥ ng
Ġbe en
Ġt áº¡i
z i
à¥ĩ à¤°
E s
à±ģà° ¤
è¯ Ń
å ŀ
an j
Ġdire ct
Ø¦ ÛĮ
Ã¢ m
ĠÙħ ØŃ
ç» Ł
å§Ķåĳĺ ä¼ļ
Ġà¬ Ń
åį Ģ
à³ Ī
Ġin g
Ġse k
Ġon ly
p end
æł ·
à¦ķ à§ĩ
Ġthe ir
Ġh er
àª¾àª ¤
à¤ ³
] ]
ç ¸
Ġk ep
Ãºb lic
Ġth en
æĪ ĺ
iss ion
èª ŀ
à´¿à´ Ł
éĺ ¿
Ġd ip
é¦ ĸ
Ġd en
o f
à¨¿à¨ ¸
àª¥ à«Ģ
à¤ Ĩ
Ġl ong
Ùħ Ø©
à«įàª Ł
Ġl á»
æŁ ¥
Ġd er
æ± Ĥ
à®ķ à¯į
Ġata u
ĠØ§ÙĦ Ø¨
ĠØ£ ÙĪ
Ø§Ø ®
ç ĭ
re m
¥ à¬¿à¬²
Ġp em
à©į à¨¹
oc i
l l
à¨ ļ
à°Ĥà° ¤
ut a
D e
à¯įà® ©
Ġpo int
ed ia
à²¿à²Ĺ à³Ĩ
à² ľ
àµģà´ ®
å° ¼
åĨ į
Ġn ec
à¥ĩà¤ Ł
à¤¾à¤ ł
Ġà°ļ à±ĩ
at ure
Ġk wa
Ġh ad
áºŃ p
Ġh is
in es
Ùĥ Ø±
et er
æĬ Ĭ
- 19
å Ķ
è ±
å§ ĭ
ç¤ º
Ã´ n
Ġm Ã¡
Ùİ Ø©
à¦ķ à§įà¦·
iá»ĩ c
a Ã±
Ġval ue
f e
ĠØ§ÙĦØª ÙĬ
k at
2 6
à¬ Ł
Ġà¤¹ à¥Ģ
Ġp at
Ã ī
à±ģà°² à±ģ
ĠÙĨ Ûģ
Ġqu est
Ġh ay
ot h
Ø§Ø ·
Ġb ien
S tring
åı į
_ t
Ġt al
ĠTh is
Ġà¦ı à¦ĩ
4 5
à´¤ àµį
à²¿à²¦ à³Ĩ
iá»ĩ t
Ġf ut
Ð¾ Ð
Ġm end
Ġto ut
à¤¤ à¤¿
Øª ÙĬ
v is
Ġn om
é Ĵ
2 8
à¤¤ à¥įà¤¤
ÃŃ nh
ä¸Ń åĽ½
à¦¿à¦ ¸
à¤¨à¥įà¤ ¦
ec ial
Ġm al
à¤¸ à¥įà¤¥
ĠN o
it as
à¬¾à¬ ĩà¬
áº ©
áº «
ĠØª Ø¹
à¥ĭ à¤ľ
Ġà° ĩ
Ġus ing
Ľ à¬¿
Ġ* /
le x
un ya
iv a
é º
ĠN g
imp ort
Ġh ist
Ã© g
à¤¾à¤ §
à³įà² µ
Ġc i
ub l
à² §
ĠÙĦ Ùħ
æ ¹
ä¼ļ è®®
à²¾à² ²
Ġb á»ĭ
er i
ic s
Ġà¨ķ à©Ģ
3 3
g ap
à®ķ à®°
Ãª m
Ġc Å©ng
Ġà¬ Ĺ
ĊĠĠĠĠĠĠĠĠ ĠĠĠĠĠĠĠĠĠĠĠĠĠĠĠĠ
id as
Ġf irst
ak ar
Ġz iren
à±ģà° Ĺ
Ġs itu
us e
ĠCom m
Ġm ot
Ġb ah
ç ¿
à²¾à² ¯
r y
Ġl og
Ġar t
ig h
- b
à²° à³Ĩ
pres s
Ø¯ ÙĬ
à¨¤ à¨¾
à®² à¯įà®²
à° £
Ġà¦ıà¦¬ à¦Ĥ
2 9
à°¿à° °
Ġà¬ ¯
è® ¤
æĶ ¶
Ġd' un
Ġon t
qu er
éĹ ¨
is te
in al
æµ ģ
I d
à®¾à® ®
Ġf ile
Ġt est
ç» ĵ
à¤¹ à¤¾
åķ Ĩ
ell es
Ġ Ã¬
Ã¡ i
ç Ĭ
ament o
ia k
Ġb ec
in cl
à¬ ²
à° ľ
ĠI s
Ġà¤¨ à¤¹à¥Ģà¤Ĥ
à¦ ģ
Ġf ait
à¥ģ à¤ª
æ Ĵ
Ġw ant
Ġà¦ħ à¦¨
x im
an Ã§
à¨¿à¨ ²
åĽ½ éĻħ
Ġc ette
Ã ½
è½ ¦
àª¿ àªķ
this ->
Ġà¤ Ŀ
os s
áº· c
Ġn ame
k e
Ġin c
S E
Ġact iv
Ġà¤ī à¤ª
Ġà¨ª à©įà¨°
å° į
Ġcon d
a ur
j e
à§ĭ à¦¨
Ġob ject
ĠInd onesia
Ġth em
l and
Æ¡ i
Ã© Ì£
à¦¾ à§Ł
è° ĥ
èģ ¯
' m
Ġà¦ §
w an
h at
et an
et s
j ar
Ġf er
çĿ Ģ
-------- --------
Ġà¤¯ à¤¾
Ãº c
y p
à²¾à²Ĺ à²¿
ĠG o
Ġn on
ï¼ ģ
emb re
Ġd om
Ø ¡
Ä Ĳ
Ġà¨¤ à©ĩ
Ġs ab
Ġà¤µ à¥įà¤¯
Ġt wo
Ġà®ĩ à®°
Ġà¤Ĩ à¤£
Ġchá» ī
æ²¡ æľī
ÙĨ Ø³
ç± ³
aren a
2 1
æľ į
à§ģ à¦¨
ÛĮ Ø³
ir m
Ùħ Ø¹
Ġor ang
ĠE x
op t
id ente
àª¾àª® àª¾àªĤ
Ġcom me
Ġt ype
æľ ª
Ġs á»±
Ġpartic ip
à¥ĩ à¤¤
åıĳ å±ķ
ç© º
v i
es ar
f a
Ø¬ ÙĦ
éģ İ
Ã¨ Ì£
à²¿à² ²
åľ º
Ġters ebut
qu es
Ã¨ re
à¤¾à¤² à¥Ģ
à±įà° ®
ä» Ĭ
Ġh om
Ø§Ø ´
at ing
Ġng Ãły
ĠC ar
ĠÙĪ Øª
; ;
èģĶ åĲĪ
à¤¾à¤ ¡
_ s
à³įà² ®
çľ Ł
Ùģ Ø±
- 1
am es
Q :
im es
Ġh ow
R E
à¥įà¤ ļ
m p
Ø® Ø±
à±į âĢĮ
ĠÃ©t Ã©
èª ª
à§įà¦ §
Ġh el
à² ·
Ø§ Ûģ
ou g
Ġc er
Ġa y
èĢ ģ
ÙĦ Ø§Ùħ
à¥ģ à¤®
ÙĬ Ø¹
çĻ ½
ä»¥ åıĬ
ĠS p
uk o
Ġv iá»ĩc
à§įà¦ ¦
à¤¿à¤ ¶
Ġ2 6
æ¯ ı
æ ħ
åį ³
æĢ »
à¬ §
ĠÙĪ Ø£
à°® à±ģ
à§ĩà¦ ĵ
Ø Ł
ç ħ
ĠdÃ© c
sel f
urr ent
à®µ à®°
Ġ ang
r ic
ret urn
èĳ Ĺ
Ø¯ Ø±
à°¾à°² à±ģ
åĻ ¨
å· ±
ow s
7 0
à¦¬ à§ĩ
à° ¬
F F
00 00
å¼ º
Ġt re
à¨ ĩ
à² Ń
ç ¢
Ġt iáº¿
Ġfor ma
Ġde b
æł ¹
è» į
à¤ ·
for e
ÙĤ ÙĬ
Ġ201 9
m as
Ġà¤¹ à¥ģà¤
à° Ń
5 5
Ġà¤Ń à¤¾à¤°
éĢ ī
ĠÄĳá»ĭ nh
A n
à¬¿à¬ ¨
Ġtah un
å¿ ħ
à´¿à´ ¤
à¤¸ à¥Ģ
Ġcon tra
l ar
um e
n es
c iÃ³n
à®¾à® µ
um p
ect or
à¤ª à¥įà¤°
à®ª à¯į
± àµĨ
ĠÃ ī
à²Ĺ à³Ĩ
Ġ2 1
Ġà² ¶
ug h
à®² à¯Ī
à¤ ĺ
à´¾à´ ¤
à¤ ī
Ġth Ã¬
éĽ Ĩ
åĳ ½
à°ķ à±ģ
ĠØ¨ Ú¾ÛĮ
Ġg u
ess age
ig o
- d
à²¾à² µ
àªµ àª¾
Ġà¤¤ à¥ĭ
æ Ĥ
Ġk at
àª Ń
æĸ ½
Ġpr iv
Ġpu ed
à® ĩ
ĠØª ÙĪ
L E
Ġà¤¨ à¤¿
àµģà´¨àµįà´¨ àµģ
s on
o ir
à¨¾à¨ ¬
è ¼
à¯ĩ à®°
éĸ ĭ
àµģà´ ³
Ġà¨ ĸ
Ãº l
Ġat t
Ġà¤Ĺ à¤°à¥įà¤¨
Ġ Ã´ng
àŃ Ĥ
Ġ2 8
æĦ Ł
I C
à´ ¶
à§Ģ à¦¯à¦¼
Ġp ort
Ļà§įà¦ Ĺ
Ġà° ²
p or
Ġg ia
Ġm ain
Ø§ Ú©
Ġàª ĸ
æ¸ ħ
Ġmenj adi
ad ores
6 4
ĠO r
Ġp ot
æŀ Ĺ
åĽ ¢
Ġn ue
è© ±
é¦Ļ æ¸¯
Ġnh Ãł
Ġg l
Ã¡ ch
) Ġ(
N o
Ø§ Ùĩ
Ġà° Ń
Ùİ ÙĬ
à¦ ¡à¦¼
Ġh and
Ġtr Ãªn
à¬¾à¬ ¹
à´¨àµįà´ ¤
ad er
à®¿à®¤ à¯įà®¤
() )
é ĵ
et ik
h en
Ġm á»
Ġ >
3 9
è¾ ¾
ÙĦ ÛĮ
Ġt em
o unt
à§ģ à¦ķ
r om
àª¨ à«ĭ
Ġ1 00
Ġb iáº¿t
Ùİ Ùħ
Ã¡ p
æĿ ±
- 0
Ġth an
áº¯ t
à¤¾à¤² à¤¾
r al
Ġpr om
Ġm oment
âĢ ¦
v es
ä¸ Ķ
Ä ģ
Ġo leh
A C
z e
os a
à¬¿à¬¬ à¬¾
Ġàª ļ
é ª
iv er
Ġ5 0
à¥ģ à¤¦
i Ã©n
Ġth Ãłnh
ã ĥ
à¨ ĸ
Ġd r
àª ļ
æº Ĳ
Ġd im
ĠL es
åħ¶ ä»ĸ
éĢ ł
ï¼ļ ãĢĮ
Ġm i
ÙĪ ÙĴ
l ah
à±Ĩ à°²
Ġà¤¯ à¤¹
Ġà° ¯
L ist
ĠÄĳ áº§u
c al
e u
ä¹ ī
Ġch Ãºng
Ġel se
å® Į
Ġut il
O M
ÙĪ ÙĬ
ï »
k i
á»ĳ n
Ġà¤¸ à¥įà¤µ
Ġd ro
Ùĩ ÙĲ
à°¾à° ¤
Ġd ist
Øµ ÙĦ
Ġm ereka
à¬ Ĥ
Ġc ode
- t
Ġà´ ī
ak ukan
a il
or g
ro und
Ã¡ r
à¦ Ľ
Ø¨ Ø©
us s
Ġg ar
åį ı
ur o
éķ ·
Ã² Ì£
àª° à«Ģ
Ġà¦¨ à¦¾
amp le
Ġà¦ķà¦° à§ĩ
àª¿ àª¯
à¦¤ à¦¿
Ġà¤ľ à¥ĭ
d iv
ç» ĩ
àª¾àª ²
Ġà¤Ĩà¤£ à¤¿
h an
m on
7 8
à¨¾à¨ ¸
Ġdis c
Ġpar te
Ùİ Ø±
åħ ·
Ġfam il
incl ude
è® °
à°² à±ĭ
b ih
Ġà¦ľ à¦¨
çĹ ħ
\" :
k s
m en
à¦¿à¦ ¶
Ġà¬ ¶
à®® à®¿à®´
u at
V al
ar Ã¡
Ġpro cess
ĠØª Ú¾
Ã ¯
å± Ģ
Ġfo i
ĠP ol
Ġà¤Ń à¤ı
Ġ201 8
Ã³ r
Ġre f
ĠØ§ ÛĮÚ©
Ġc ase
à¤ķ à¥įà¤°
Ġk ata
Ġàªķ à«ĩ
Ġe u
à¬¾à¬ ķ
à¤°à¥įà¤ ·
ĠÄĳá» ĵ
à°¾à° Ĥà°
à¨ §
Ġkn ow
r ight
Ġp op
k in
Ø§Ø¦ ÛĮ
åĭ ķ
Ġà¤² à¤¾à¤Ĺ
à¨ ¡
Ġpol it
à°Ĥà° ²à±ĭ
å° ĩ
è ħ
éĻ ¤
à¤¨ à¤¿
Ð »
Ġpol ÃŃtic
æĬ Ģ
Ġà´ Ĵ
Ġàª ī
à°¿à° ¸
A M
àµģà´Ł àµĨ
Ġcons tr
z o
Ġ Å
ent a
Ġe d
ä»ĸ ä»¬
æĭ ¬
Ġn ÃŃ
ai x
in ya
à¤¨ à¥į
ç» Ļ
é« Ķ
èĩª å·±
àª¾àª ¸
ĠØª ØŃ
ĠÙĪ ÙĤ
Ġà¤ķà¤¾à¤° à¥įà¤¯
à¤ Ľ
Ġ2 2
ic es
è» Ĭ
à´ ¹
Ġs en
Ġnh Ã¢n
Ġ| |
è Ĺ
Ġj our
Ġn Æ°á»Ľc
å¤ «
// //
Ãª s
åŀ ĭ
Ġper o
us h
Ø¥ ÙĨ
cept ion
Ġo per
à¥ĭ à¤²
Ø¹ Ø©
ç¡ ®
à©ģ à¨°
Ã¡ o
à°Ĥà° Ł
à° ·
è¿ Ĳ
ud a
Ġà¦ Ł
ĠÙĤ Ø§ÙĦ
re c
l og
m b
d ata
l os
Ġr ight
æŃ »
è§ ģ
end a
Ø§Ø³ Øª
Ġà¤ª à¤¹
à®¿à® ªà¯įà®ª
Ġs ang
Ġper t
ver t
çĪ ¾
Ġ ik
Ġthe o
Ġ á»į
æ ļ
9 9
æıĲ ä¾Ľ
ud i
ç« Ļ
ä¾ ¿
æķ ¸
Ġ ?Ċ
ĠS o
ener al
à¤Ĥ à¤¤à¥įà¤°
uy á»ĩ
Ġdif fer
ta it
l ine
à§ĩà¦ ¤
Ãª me
é¦ ¬
Ã ¤
àŃįà¬ ¦
çķ ¶
Ġthá» ©
ÙĪ Ø²
à®¾à® ¯
Ġpre c
ç¥ ŀ
Ġà®İ à®©
åĦ ¿
ĠØ° ÙĦÙĥ
Ġà¥ §à¥
Ġar g
á»ģ n
min istr
ar am
ç»Ħ ç»ĩ
à±ģà° µ
à¨¾à¨ ¹
ar s
Ġk ita
Ġpro c
à§įà¦ ļ
Ġv ez
. ,
t tp
àª ĸ
Ùĥ ÙĪÙĨ
ä½¿ çĶ¨
Ġl u
Ùĥ ÙĦ
à¥įà¤ ŀ
3 8
Ġà° İ
Ġsud ah
Ã ĥ
ĠP res
à«įàª µ
Ġwh ere
d es
Ġp et
ar n
çľ ģ
à²¤à³įà²¤ à³ģ
åŁ Ł
Ġà´ °
à¯ģà® ªà¯įà®ª
Ġà¨ķ à¨¿
à¤Ĥ à¤¡
Ù į
A S
Ġt ien
Ġh ac
åį ķ
3 6
æŀ Ħ
Ġdo es
ĠS h
åĮħ æĭ¬
åĪ Ļ
çł Ķ
Ġà¤¸ à¤°
Ø ¢
à¦¾à¦ §
Ġh ere
ag i
Ġk w
Ġ. .
ĠÄĳ á»Ļng
à¨¾à¨ Ī
Ġàªµ àª¿
à´Ļàµįà´Ļ à´³
à¥ģà¤ ĸ
Øª Ø§
æĺ Ł
à±įà° ¸
Ġseb agai
Ġth ese
åħ ī
Ġm ol
à¬ ¼
Ġiz an
à§ĭ à¦Ĺ
åı Ĥ
à¦ «
_ {
áº¯ c
al u
Ġ2 7
à¦¿à¦ ®
T o
is ter
è¿Ľ è¡Į
æŃ ¦
æķ Ī
Ġf ac
Ġw ay
ä¸ ĵ
± c
Ġà¬ ĵ
Ġ ere
Ġe con
à±įà° ļ
Ġd ib
Ë §
Ġd iv
à¦¾à¦ ģ
à¬ ı
ä¸ ¦
Ġd id
à¥įà¤¯ à¤¾à¤¤
Ø± Ø¯
Ġà§ §à§
Ġtod os
Ġà¬¬ à¬¿à¬
4 4
Ġm us
æ® µ
Ġf oll
à¯įà® ®
à´¿à´ ¨àµįà´
é¢ Ĩ
Ġd at
à® ħ
à¥Ģ à¤¨
um a
ĠØ§ÙĦÙħ Øª
ĠØ¨ Ø¹Ø¯
Ġg roup
Ġv an
ÙĬ Ùģ
Ġsu a
Äĥ n
Ġpl ural
è® º
à¯ģà® ¨à¯įà®¤
ä»Ģ ä¹Ī
Ĩ Ĵ
ÙĤ Ø±
ç® Ĺ
Ġc Ã´
å¢ ŀ
à®¾à®² à¯į
Ã¨n cia
Ġinv est
Ġz a
Øª ÛĮ
Ġc amp
à°Ĥà° ¡
ç į
Ġà¤ķ à¤¿à¤¯à¤¾
Ġaf ter
àª¾àª ľ
Ġloc al
ĠØ ¶
è¿ ĳ
S e
Ġl ist
ĠaÃ± os
àµģà´³ àµįà´³
Ġz uen
à²¿à² µ
à¤¾à¤¨ à¥Ģ
à±ģà° °
à©± à¨ķ
Ġl ang
arg a
w á»įn
ĠÙħ Ø³
æ´ ²
Ġf ue
{{ gap
Ã©s ent
à´² àµįà´²
Ġà®ķ à¯Ĭ
u it
à§įà¦ ²
à¨¿à¨ ¹
Ġà®¤ à¯Ĭ
Ġdes de
à¨¦ à¨¾
Ġc es
l ab
ĠB r
ad r
ĠE sp
C l
Ġ æĪĳ
Ġà° ¶
áº£ o
Ġp al
Ġre pres
Ùħ ÛĮ
àŃįà¬ ·
çº §
Ġà¦ ĺ
à°¿à°ķ à°¿
ĠS oc
T ype
à¯ģà®¤ à®²
éĺ Ł
ĠT er
ar k
åĨ µ
ĠØ¥ ÙĨ
v ir
3 7
à°¿à° Ĺ
à¤¾à¤ ·à¥įà¤Ł
ĠÙħ Øª
d ate
Ġp ens
Ġàª® àª¾àª
Ġà¬ ī
Ġr Ã©s
å® ¹
eng th
Ø± Ùĥ
Ġ Ø§Ø¨
æ© Ł
ement s
ai ent
åį ¡
Ġs au
Ġp ou
Ġpro pos
á»¥ c
åĬ ŀ
à¤¾à¤ ĸ
éĽ »
Ġà¨ «
ĠÙĪ Ùĩ
ic os
_ c
à²Ĺà²³ à³ģ
Ġà°¸ à°Ĥà°
ĠA g
Ġà¤¦ à¥ĩ
à¦¾à¦ Ł
Ġa h
à¥Ĥ à¤°
Ġà¤¸ à¥įà¤¥
Ġth áº¿
Ġs á»ĳ
éĢ ²
à¥ģ à¤¸
Ġex pl
ver y
àµįà´ µ
ĠC l
Ġap p
æ± ī
Ġcon n
à²¦ à²²à³įà²²à²¿
ĠØ§ÙĦØ ·
Ġen s
æĸ Ļ
Ġal gun
à¯ģà®³ à¯įà®³
Ġh iá»ĩn
æĬ¥ åĳĬ
à´± àµįà´±
àŃ ±
Ġnh iá»ģu
ç ª
ç± »
Ġà¤ī à¤¨
åı¯ èĥ½
it ies
Ġpre m
Ġg Ã¬
Ġà² ļ
ow er
Ġus ed
4 8
Ġarr ay
åı ĺ
à´ ´
omb re
p ublic
ç¶ ĵ
Ġtr ue
V iew
at if
æľ ¯
Ġà¤¤ à¤°
Ġà¨¸ à©Ģ
ĠO n
à³įà² ª
Ġre fer
Ġà¨¤ à©ĭà¨Ĥ
or r
à°¿à° ª
al an
at z
çı ¾
à¦¿à¦¯à¦¼ à¦¾
uk a
ĠÙĥ ÙĦ
m os
Ġà®ª à¯ĭ
à°² à±ģ
à§° à§ģ
à§Ģ à¦°
Ġà²ħ à²µ
f ect
u is
Ġà¤Ĩ à¤ª
Ġch a
Ġb us
Ġc Ã²n
à©Ģ à¨Ĥ
çļĦ äºº
Ġà®ļ à¯Ĩà®¯
Ġr ap
Ġ2 9
ĠD es
ÙĢ ÙĢ
ac ions
act ion
ĠN am
à²Ĥ à²¬
à¬ Ĺ
à¨¾à¨ µ
it ed
Ø¹ Ùħ
Ġà¦¸ à¦Ĥ
à¥įà¤¯ à¤¾à¤ļ
ar ch
at us
e h
Ġ ]
Ġd ig
Ġse e
é ¾
ak s
2 :
Øª ÛĴ
ç ¯
à°¿à° ²
t y
Ġà² Ń
æŃ ¥
Ġp Ãºblic
· àŃįà¬
åħ¬ åı¸
Ġà¤ľ à¤¾à¤¤
Ġà¦¬ à¦²
çļĦ ä¸Ģ
Ġle bih
Ġcons ider
Ġs ist
Ġà¦ Ľ
at ur
à³į âĢĮ
à®³ à¯įà®³
Ġmu ch
as an
Ġl le
Ġo c
àª¨ à«įàª
ç» Ń
à¤µ à¤¿à¤
Ġh al
b ar
Ġpers ona
ĠÚ©ÛĮ Ø§
Ġf az
Ġde fin
ĠÙĪ Ø³
åħ §
çº ¿
à²Ł à³įà²Ł
ĠÙħ Ø´
àµįà´ ®
à¬¾à¬ ®
Ġà² ī
Ø§Ø «
ne w
Ġt in
ng l
ÙĦ Ùģ
it os
7 5
áº« n
Ġem p
àµ Ī
à¦¾à¦ ¶
àµģà´ µ
6 6
æĸ¹ éĿ¢
É ¾
à´¾à´¯ à´¿
p s
Ġv ir
Ùĭ Ø§
ta g
Ùħ Øª
t ing
Ġpl an
æī į
par am
çµ ±
à± ĥ
Ġco uld
Ġj o
ç» ´
Ġ< /
à° §
å°± æĺ¯
è¯ ·
w ork
Ġd apat
Ċ (
Ġm is
o i
Ø¯ Ø©
æĹ ı
Ġd il
um n
n 't
Ġm ult
çĦ ¡
Ġà¤² à¤Ĺ
Ġm ethod
á» ĥ
Ùģ Ø³
Ġsup er
Ġl ine
ÃŃ as
à¥Ģ à¤ļ
Ġb ack
Ġà¨¸ à¨¿à©°à¨
àŃ ĥ
ç¬¬ ä¸Ģ
Ã ®
st it
Ġa us
we en
3 4
à²¾à² Ĥ
Ġk arena
å¦Ĥ æŀľ
am an
A nd
Ġs ame
Ġà§ °
Ġx u
á»± c
æ¼ Ķ
Ġà´ ¬
Ġ ide
à´¿à´ ª
åŃ ĺ
D ata
Ġàªª àª°
) ĊĠĠĠ
æĺ ĵ
ĠC o
Ãĥ Â
å¤ ±
Ġtot al
[ [
Ġm Ã¬nh
ak u
iz ar
ur u
ĠM in
Ġcont rol
ĠØ£ ÙĬ
ä»£ è¡¨
ĠI m
Ġto do
Ê ģ
æĭ ¼
á» «
ĠØ± Ûģ
à®¾à®© à¯į
àŃį àŃ±
Ġà² Ĵ
Ġà¤Ĺ à¤°à¥ĩ
Ġa ur
æł ¡
Ġo pt
ec e
Ġc all
ari os
Ġsu ch
ac c
Ġex ist
ĠF or
i et
ser v
Øª Ø¨
à´¾à´ ²
Ġà¤ª à¥ģ
åľ Ł
Ġ Ãªtre
à¤¾à¤ ¶
Ġc am
ĠÙĩ Ø°Ùĩ
ut en
èģĶåĲĪ åĽ½
Ġà¨¸ à¨¼
à¤°à¥įà¤ £
à²¦ à³ģ
f ul
/ 201
- p
Ùĥ Ø§ÙĨ
áº¥ p
r ist
å¯ ¼
Ġà¨¨ à¨¾à¨²
áº¡ t
Ġà´İ à´¨àµįà´¨
à²¨ à³ģ
m od
v iew
àª¿ àª¤
Ġsa at
à¤² à¤¾à¤Ī
o is
Ġf em
éľĢ è¦ģ
Ġem pres
il a
p p
áº »
Ġn ull
I P
Ġpor que
Ã³ s
à¥ĩ à¤¸
at ik
end re
éĸ ĵ
à¥įà¤ ¡
8 8
à¯Ĩ à®°
u v
Ġàªª àª£
å¾ Ģ
anc es
à¤¨ à¥įà¤¤
Ġ201 7
Ġr á»ĵi
çĻ ¾
à´ Ń
iv es
å¢ ĥ
Ġre qu
y ing
Ġà¨¸à¨¿à©°à¨ ĺ
ph p
å® ¢
æīĢ æľī
n i
ta ble
à¦ ¯
Øª Øµ
er ia
à±įà° ·
or ld
od y
Ġw ak
an z
àª¾àª ¥
Ġs tring
Ġn orm
èĢ ĥ
Ġde ux
Ġa ku
ĠĠĠĠ ĠĠ
Ø§Ø ©
æ ĩ
áº¥ n
Ġà²® à²¤à³įà²¤à³ģ
ç© ¶
Ġàª «
à¨¦ à©ĩ
ĠN ew
åı ¤
Ġl im
ä¸ĸ çķĮ
ro id
à®¾à® £
Ùĥ Ùħ
_ p
Ġs Ã³
åı ²
/ 2
à¦ Ľà§ĩ
Ġla in
in ter
Ġt ent
èĬ ±
à±Ī à°¨
Ġv ida
Ġà¤¥ à¤¾
Ġz e
ç§ °
Ø§ÙĦ Ùħ
Ġà¬ ²
áº· t
ĠâĪ Ĵ
\" ;
àŃĩà¬ ¬
ic as
æĽ ¾
Ġ á¹£
Ġtr av
O b
é Ń
ĠÙ ¹
ĠW IB
ÙĪ Øª
è® ©
Ġ ÛĮÛģ
Ġs imp
Ġor d
ĠÙĨÛģ ÛĮÚº
ÙĨ Ø©
à§įà¦ ¡
è¿Ļ äºĽ
Ġd ar
à¬ ¶
à¦¨à§įà¦ ¦
çĩ Ł
à¤¾à¤Ĥ à¤¨à¥Ģ
à¦¾à¦ ļ
à¬ Ń
Ġg re
Ġc ada
à§įà¦ ķ
E st
à¤ª à¤¾à¤²
Ġh ai
Æ°á»£ ng
Ġm ake
à®ªà¯įà®ª à®Ł
è ĺ
Ġp es
Ä ĳ
iá»ĥ m
iá»ĩ u
m er
I S
_ id
ÙĨ Øª
à©± à¨²
c ar
Q u
ert o
à¨¾à¨ ĩ
ĠÙĩ ÙĪ
à¦¿à¦ ·
à¤§ à¥įà¤¯
Ġà¨µà¨¿à¨ ļ
Ġ201 5
à¦¾à¦ ĵ
Ġc our
âĢ ĺ
àªĤàª Ĺ
ĠB ar
ÙĤ ÙĦ
Ø³ Ùħ
à¥ĭ à¤ķ
Ġà¤¸ à¤ķ
ÙĬ Øª
Ġk em
ĠG eneral
Ñ ĥ
R es
à§ģ à¦®
ist as
à¦¨ à§ĩ
à´¿à´ µ
Ġle ur
à§ĩà¦ Ľ
any ak
y ;
ÙĪ Ùģ
Ġsp ec
Ġà¤ ł
Ġt an
ĠÄĳ ang
ĠC ol
Ġwh o
à¨¿à¨ ¤
ht tp
à¨ ¥
ä¾ ĭ
et e
it es
à¨¾à¨ ®
Ġof f
is me
èĤ ²
i -
ĠÄĳ Ã¢y
à®ļ à¯įà®ļ
Ġm aj
å¤ į
og r
U R
¡ à¬¼
Ġex t
à°ª à±įà°ª
ing ga
f ile
å¾ ĭ
ÃŃ t
Ġà´ ľ
Ġkat ika
à¦¿à¦¤ à§ĩ
Ġà®İ à®©à¯įà®±
o ta
ĠH e
Ġbet ween
Ġvo id
ĠÄĳ iá»ģu
à´ ¬
Ġà¤¦ à¥ĭ
ç½ ĳ
Ġ4 0
Ġ Ċ
4 9
io us
Ġ Ãºl
ant a
à°Ł à±įà°Ł
Ġa z
à§ĩà¦ķ à§ĩ
Ġhá»į c
åħ Ń
uyá»ĩ n
enc es
à¥Ī à¤Ĥ
Ġà¥ ¥
Ġk el
à¦¿à¦ ľ
Ġs ort
A B
Ġfoll ow
à±Ĥà° °
Ġs atu
ç ĵ
Ġdif er
ativ a
Ġtamb iÃ©n
åĬ Ł
cl ass
ÃŃ l
Ġnum ber
Ã¡ nh
Ġl et
à¤¾à¤² à¤¯
Ãªn cia
ed a
r an
ä¸į æĺ¯
Ġh ttp
Ġch ar
ä» ¤
ĠĠĠĠĠĠĠĠ ĠĠĠ
à´ ŀ
ÙİÙĬ ÙĴ
à¦¸ à§įà¦¥
3 1
Ġl ui
6 5
Ã§ o
ĠØ¬ ÙĪ
ĠØ§ÙĦØ° ÙĬ
éĥ¨ åĪĨ
à¥įà¤ Ľ
Ġun der
è¯ Ŀ
à§ĩà¦ Ł
æģ ¯
ĠW e
çŁ ³
Ġfal se
Ø´ Ø±
Ġà¤ī à¤¸
à¥ ¥
à²¾à² ¸
Ġm ai
Ġc ir
è¯ ģ
Ã¡ m
id es
ab les
Ġin te
Ð ²
è§ Ĩ
à¥Ĥ à¤ª
à¦ Ļà§įà¦Ĺ
à°¾à° Ĺ
æ² ³
Ġà¦ª à§įà§°
Ġlo ok
am u
akar ta
f ig
áº¡ o
Ġde t
ul o
çī ĩ
Ġc ult
à§ĩà¦ ¬
æ ĳ
Ġv ot
Ġn âĢĻ
c tr
ĠM an
à²¦ à³Ĩ
ç¤¾ ä¼ļ
Ġn ou
Ġà¨¹ à¨¨
id th
ä½ ı
Ġà¤¸ à¤¹
Ġmen c
ĠM as
à®¾à® ³
Ġe lement
àµįà´ ŀ
åĪ ĩ
on n
å¼ ķ
Ġg Ã©n
ic ial
S et
Ġà¬ ļ
ç½ Ĺ
Ġe v
op le
ÛĮ Ø¯
Ġà¦ ¡
à¨¿ à¨°
àµĨ à´¨àµįà´¨
Ġg en
à¨¾à¨ ľ
éĢļ è¿ĩ
C ont
iment o
à¤¸ à¤Ĥ
Ð º
Ġs ou
Ġs ystem
ĠØ¨ ÙĲ
à§įà¦ ¨
à¦¿à¦¨ à¦¿
ment s
ip o
ä¿ ®
iá»ģ n
C T
åĳ ¨
' ;
ĠAnd a
Ġa j
Ġb i
Ġr un
à¦¾à¦ķ à§ĩ
ĠØ¹ÙĦÙĬ Ùĩ
Y ou
ĠØ§Ø³ Øª
èĩ ´
Ġà²® à²¾à²¡
Ġla b
Ġà¬¸ à¬®
àª Ĩ
Ġb re
c ent
à®Ļ à¯įà®ķà®³
se g
à¦Ł à¦¾
ç½ ®
Ã³ m
ĠP e
æŃ ¢
à²¾à² ¤
ud o
Ġth áº¥y
à¥ĩà¤ ļ
ill a
à¤¨à¥įà¤ ¹
à´ ·
åĲ Ĺ
å¿ «
æ´ ¾
åĪ Ĵ
Ø³ Ø¨
Ġà´ ¶
Ġal g
Ġqu er
is ation
à°¾à° µ
Ġk al
æľ Ŀ
åĢ Ļ
Ġt ext
Ġàªı àªķ
Ġo l
à ¸
æ¶ Ī
à´¾ àµ»
D E
Ġà¤ª à¥Ĥ
cl ar
' re
Ġà¤ªà¥įà¤° à¤¤
à³ ĥ
èµ °
åħ ©
à§ §à§
à¨¿à¨ ķ
æĬ ¤
Ġà¤¬ à¤¨
ãĢ ĳ
Ùħ Ø§ÙĨ
Ġf unc
ãĢ Ĳ
Ã¬ n
à²¨ à³Ĩ
ob ier
à¤° à¤£
éĩ ĩ
ok o
ĠÄĳá»ĵ ng
ĠÙħ ÙĦ
u ir
u ch
åĥ ı
ÙĬ Ø§Øª
Ġre d
tr os
ĠÙħ Ø±
Ġs aya
Ġdes p
C ol
Ġà² ¯
à´¾à´ µ
Ġgr up
Ġl arg
å ©
ĠØ§ÙĦØ «
éĺ ²
Ġv ar
7 7
Ġb ers
O n
Ġc aus
à¥ģ à¤ķ
Ġc op
Ø³Øª Ø§ÙĨ
w ard
h as
Ġn Ãło
à¯ģà®ķà¯įà®ķ à¯ģ
or ro
Ġs ig
à®ªà¯įà®ª à®Łà¯įà®Ł
Ġe ach
Ġà¦ī à¦ª
à«įàª¯ à«ĭ
á»ĩ nh
Ġmod el
æĥħ åĨµ
Ġth ro
Ġo ur
Ġà¨² à¨Ī
Ġch ÃŃnh
Ł à«ĩ
ell s
ih at
Ġy ear
à¥ĩ à¤ķ
æĻ ®
à¤¿à¤ ª
H e
ĠØ¨ ÙĬÙĨ
h ir
é ¤
ä¼ ł
ĠY ou
Ġh Ãłnh
Ġà¤ķ à¤®
at t
Ġind ic
æ ¾
à§ĥ à¦¤
æ± Ł
æ ¿
à¬¨àŃįà¬¤ à¬¿
à«ĩàª ¶
Ġus er
à°¾à° ķ
ĠØ¨ ÙĦ
co unt
Ùİ Ø¯
à¦¾à¦¦ à§ĩà¦°
æ° Ķ
è Ĵ
Ġà¤ķ à¥įà¤·
plic ation
Ġ ÚĪ
ĠP a
à¤¥ à¤¾
à¦¿à¦ ¦
e ver
åĵ ¡
à©°à¨ ľ
â Ī
8 5
Ġp end
il es
éĹ ľ
çłĶ ç©¶
g b
Ġà° Ĵ
ĠØª Ùħ
ĠÙħ Ø¬
à¬ ¥
àµģà´ £
Ġf aire
Ġm ant
Ġdoc ument
à©±à¨ ĸ
à¤°à¥įà¤ ¦
Ġà¤ķ à¤¾à¤®
à®¤ à¯į
åħ °
Ġst art
åħ³ äºİ
ç ¹
à´° àµįâĢį
9 0
Ġb al
Ġj u
à§ĩà¦ ·
Ġse pert
Ġà§ ¨
Ġdes c
Ġà¤ª à¤¨à¤¿
up er
Ġresp ons
Ġm ag
æķ ´
Ø¹ Ø¶
àŃįà¬ ¥
à¨¾à¨ £
å® ¡
Ġver y
b an
Ġp Ã©
Ġà¦¤ à¦¾à¦°
à¤¾à¤° à¤¾
a an
à°¾à° Ł
à²¾à² ®
m y
æĭ¼ éŁ³
Ġp ess
à¬¾à¬ ¤
Ġà¦¹ à§Ł
æĬ ķ
ÃŃ c
Ã¡ tic
Ġno v
re f
çİ ĩ
è¦ ĭ
æ¬ ¾
àª¾àª £
ĠC atal
Ġs ed
àª¤ àª¾
9 å¹´
Ġel le
ĠS er
Ġ201 4
iz a
Ã »
à²ķà³įà²ķ à³Ĩ
àªµ àª¾àª¨
k ey
Ġt elah
Ġsec ond
Ġà¤ķà¤° à¤¨à¥ĩ
ĠI f
à¤µ à¤¾
1 å¹´
ĠN h
ĠA t
O S
Ø§Ø± ÛĮ
ung an
à¤¨à¥įà¤ ¨
çħ §
U L
Ġk ut
áºŃ y
val ue
Ġt Ã³
Ø± Ø¬
ech n
Ġ ident
ÙĦ Ø¨
E T
Ġsing ular
: 00
Ġs ÃŃ
ä¸ ¾
Ø§Ø± Ø©
1 00
ç®¡ çĲĨ
Ġà®µ à®°
Ġà¨ĩ à¨¸
o ok
à´° àµģ
à¥ ¨
ind a
Ġst ud
á»ĭ ch
ÙĴ Øª
à§ İ
Æ°á» Ł
Ġà¤µà¤¿à¤ ¶
ĠÄĳá» ģ
à¬¾à¬ ¸
à¤¿à¤¯ à¥ĭà¤Ĥ
A t
Ġà¤Ĺ à¤¯à¤¾
à©įà¨¹ à¨¾à¨Ĥ
Ġp ut
ĠC or
Ġà¦¦ à§ģ
à¦¦ à§ĩà¦°
è´ ¨
b u
Ġcom b
8 6
Ġc Æ¡
Ġb ere
äº ¬
uy Ãªn
Ġap pro
é£ Ł
æİ ¨
à¬ ľ
Ġag ain
Ġà¤° à¤¹à¥ĩ
Ġ ig
à¦¾à¦ Ĥ
ur i
á»£ p
Ġnec ess
it le
à¦ķ à¦¾à¦°
Ġj us
ug u
è´ ¹
Ġp age
à¬¾à¬ ¬
it i
ĠE m
Ì ĥ
and e
Ġar tic
ĊĊ ĉĉ
ÙĪ Ø§ÙĦ
Ġp un
æī §
à²¿à²Ĺ à²³
æĸ° åĮĹ
å¤ ´
Ġà²¸ à²Ĥ
Ġtrab aj
4 7
ç ĳ
à® ¨
à¤°à¥įà¤ ¤
Ġà² Ī
Ġcon v
à± Ĥ
d i
- c
Ġl Ãªn
çŁ¥ éģĵ
à²ķà³įà² ·
Ġtr es
ang o
à°¿à° µ
U N
om p
Ġk et
ä¼ Ĭ
Ùİ Ø¹
im o
Ġrepres ent
Ċĉĉĉĉ ĉĉ
Ġqu âĢĻ
à²µ à³ģ
Ġaut or
m u
éħ į
Ġpod er
éł Ń
Ġd ik
à¨ľ à¨¼
æµ İ
à°¾à° ¦
Ġor ig
Ġc a
Ġm ov
Ġà¨ķ à©ĩ
ÙĨ ÛĮ
Ġf ind
à¥Ģ à¤¤
à°ķ à±įà°ķ
æ Ĳ
Ġà¤® à¥ĭ
Ġpr Ã©
ĠÙĪ Ø¬
ot her
Ġb iz
Ù¹ ÛĮ
) ĊĠĠĠĠĠĠĠ
os p
è¶ Ĭ
b ut
ug ar
à¦¨ à¦¾
à¬¾à¬° àŃĩ
ä¸» è¦ģ
IN E
à²¾à²° à³Ĩ
c er
æľ Ľ
it Ã©s
Ñ Į
Ġà° ¹
å ĺ
Ġgener al
è¿Ļ ä¸ª
Ġsepert i
J e
Ġ Ï
Ġan s
à¤¦ à¥Ģ
ĠÙĤ Ø¯
à¤¾à¤° à¥ĩ
al t
r ite
ç¾ ħ
at zen
Ġno w
Ġk au
it or
à®® à¯ģà®¤à®²
ĠR ep
m ed
l s
à°¾à° ¸
D es
Ġin f
Ġà¤¸à¤° à¤ķà¤¾à¤°
à°¤ à±įà°¤
à¤¾à¤¤ à¥įà¤°
Ġex p
Ġ201 6
ess ion
Ġà¤¸ à¤¾à¤¥
Ġm ak
ur an
T ext
à±įà° ¥
à¦¦ à§įà¦§
Ġhar us
à²² à³ģ
Ġà¤Ńà¤¾à¤° à¤¤
ĠL '
Æ°á»Ł ng
Ġun d
Ġp emb
Ġp ost
ĠØ§ Ù¾
E D
w ay
Ġprim er
Ġcor re
iá»ĥ u
å¸ Į
à§ ľ
Ġs Ã£o
à³įà² ¥
Ġs m
Ġpe ut
à¯ģà® °
Ãº t
Ġt im
Ø§Ø¯ Ø©
Ġvi ol
Ã Ģ
àª¾àª Ĺ
or ang
à±ģà°Ĥà° ¡
as k
us er
Ġquest ion
Ġs ay
è® ¸
à®¿à®Ł à¯įà®Ł
à¬ķ àŃģ
obier no
à´¿à´¨àµįà´ ±àµĨ
¥à¬¿à¬² àŃĩ
on om
Ġà®ª à¯Ĭ
Ñ ı
A D
ell a
à²¿à²² à³įà²²
Ġm Ãªme
Ġbec ause
áº¿ u
Ġre ce
ag er
Ġan al
Ġà¤¦ à¥ĩà¤ĸ
Ġpr Ã³
ac ter
{{gap }}
> <
Ġb ase
Ġf act
Ġà¨µ à©Ģ
Ð ¼
à´ķàµįà´ ·
Ġ200 8
ä¸ ĩ
Ġd' a
Ġdon 't
à´¿à´² àµįà´²
an os
Ġà¤ħà¤§ à¤¿à¤ķ
Ġprim era
Ġo cc
Ġà¦ķà¦° à¦¾
Ġnh áº¥t
Ġeg in
à®¾à®Ł à¯įà®Ł
Ġesp ecial
àµįà´ ¥
Ġà¦¦ à§ĩà¦ĸ
ĠcÃ¡ ch
à®ķà®° à®®à¯ģà®¤à®²
à¤¿à¤ Ł
ĠG u
Ø§ÙĨ ÙĬ
op e
w n
à¤¾à¤® à¤¾
Ġà¨® à©ģ
t or
O r
Ċ ĠĠ
p art
ain t
à§ Į
em s
Ġdiffer ent
äºº æ°ĳ
à©Ī à¨Ĥ
ÛĮ Ùħ
Ġl i
ç¬¬ äºĮ
Ġtr a
à«ĭ àªķ
Ġe vent
è£ ħ
ĊĊ ĉ
emp re
Ġb ur
Ãº s
4 6
è¶ ³
à¤¾à¤¨ à¤¾
á» Ľ
à¤¿à¤ ľ
ul i
åħ µ
at en
en as
çĶ ·
n ot
å¸ ¦
Ġà²µ à²¿à²
Øª Ø§Ø¨
á»ĵ ng
t he
àª¾àª ¦
å¤ ĩ
àµ ĥ
P er
Ù Į
oug h
à¦¾à¦¬ à§ĩ
Ġv oc
iÃ¨ me
Ë Ĳ
áº¡ nh
çģ «
åĽ ¾
Ġs ens
Ġh á»£p
Ġal s
Ġse us
____ ____
en ar
à´ ħ
č ĊĠĠĠ
Ġaus si
à¥Ģ à¤µ
i ente
ĠØ¨ Ø±
ed er
im iento
Ġex per
lo ad
Ġ$ this->
à¬¾à¬ ĩ
am iento
áº£ ng
à¨ «
ĠV al
U T
Ġle g
Ġà¦¥ à§ĩà¦ķà§ĩ
## ##
Ø® Øµ
\" \"
Ġ' '
Ġtr as
à¦ ł
al ia
àª ı
å± ħ
äº ŀ
Ġt Ã¬nh
ĠC ent
Ġe urop
Ġprodu ct
á»ķ i
é¢ Ħ
ro p
á»į i
Ġbah wa
ta b
è½ ¬
es a
å®ī åħ¨
ĠUn ivers
à¦¿à¦ Ł
en y
at akan
åĲ §
åĩ »
Ġse va
ĠIn tern
. )
r at
L '
Ġem b
ic iÃ³n
ac he
Ġresp ect
Ġngh Ä©
3 å¹´
à¦ľ à¦¨
à°¿à°Ĥà° ¦à°¿
ç§ ĺ
Ġ201 0
Ġtr ad
åĪ Ŀ
le ar
æĪ °
ord in
av or
ĠØ§ÙĦ ÙĪ
Ġgr an
Ġc os
Ġh Æ¡n
ist o
ap an
Ġn as
Ġc ab
d etik
éĸ Ģ
è§ Ĵ
Ġm ost
à«įàª¯ àª¾
com p
Ġho áº·c
er ic
Ġc ou
à° ³
ç Į
o ve
Ġc in
A ku
à¥įà¤ ¬
ar m
Ġthá» Ŀi
b all
I s
Ġà®µ à®¿à®
à¨¦ à©Ģ
à¤¾à¤ķ à¥ĭ
Ġàª° àª¹
Ø± Ø¶
Ġb ain
Ġb an
] ;
Ġb on
ĠÙģ ÙĲÙĬ
Ġà®µ à¯ĩ
æĿ İ
Ġr en
Ġà´µ à´¿à´
Ġà®¤ à®®à®¿à®´
à¯ģà® ª
Ġclass =\"
à¤¾à¤ł à¥Ģ
æķ ħ
à§ĩà¦ ®
à¨ ı
ĠÙĦ Ùĩ
à§ĭ à¦ķ
ĠA b
ĠcÃ¡ i
E r
ä¸Ģ åĢĭ
Ġan im
Ġ0 ;
Ġs um
æĪ ¿
Ġqu a
ĠS al
Ġà°µ à±įà°¯
Ġ201 3
Ø§Ø °
Ġà¦ª à¦¾à¦°
Ġd iz
à§ĭ à¦®
ol s
k er
Ġm ent
éĻ Ĳ
Ġà¤Ĺ à¤°
æĹ ©
à¤¾à¤Ĥ à¤Ĺ
Ø§Ø¦ ÛĴ
Ġthro ugh
Ċ |
.Ċ Ċ
Ġd Ã¢n
ÛĮ ÙĦ
éĻ Ĩ
Ġj a
fr ac
w are
åĽł ä¸º
Ġà «
à¨¿ à©±
arg et
Ð ´
àªĤ àª¤
s c
Ġà´ħ à´µ
àŃģ à¬°
à®¤à¯įà®¤ à®¿à®²à¯į
I m
å¹ ²
Th is
ç« ł
Â «
Ġà¦Ĩ à¦°
n os
Ġà¤µ à¤°à¥įà¤·
ĠN ov
ativ o
is ion
Ġthá» ±c
l u
ĠC ons
G et
ĠS tring
à¤¿à¤ķ à¤¾
à´ §
8 9
à¤¯ à¥ĭà¤Ĺ
à®® à¯įà®ª
Ġd in
à¨ķ à©ĩ
å¨ ģ
iá»ĥ n
om a
åħ «
č Ċĉ
Ġ ib
à¬ ļ
Ø« Ø±
Ġà´ ¦
à¯Ī à®ķ
Ġpe ople
ç¦ ı
ot s
Ġdis pos
Ùİ Ø¨
Ã©r ie
Ġb áº¡n
ch er
ĠE r
à´¿à´ ¨àµįà´¨
m i
Ġre port
+ +
l oc
Val ue
à´ ¡
og le
Ġe very
am in
Ġà®Ĵ à®°
à¤°à¥įà¤ ¥
id i
ĠP al
Ġfo und
Ġre ad
ob al
å¯ Ĩ
Ġa ff
du ct
Ġc Ã¹ng
b ack
ra f
Ġin cre
å® £
à§ ¨
Ġh on
Ġmu ito
à¤¾à¤·à¥įà¤Ł à¥įà¤°
Ø³ ÙĦ
w h
éĢ Ł
ĠS i
l as
iz ed
ug by
çķ Ļ
àµĨ à´Ł
æ³ ¢
à¦¾à¦¨ à§ĩ
L es
f ace
à´ ļàµįà´ļ
w it
çī Ī
å ³
() .
ĠØ¨ Ùĩ
Ùİ Ùī
æİ Ĵ
7 å¹´
à²µ à²¨à³įà²¨à³ģ
Ġv ari
Ġvá» ¥
æ¯ į
Ġen g
à¦¾à¦ £
Ġqu el
if e
Ġk er
èİ ·
enc y
å¹ ¿
å® ³
Ġk on
Ċĉĉĉĉ ĉ
Ġber b
ÙĤ Ø§ÙĦ
ĠO b
A P
à«įàª¯ à«ģàªĤ
2 å¹´
un tr
Ġer ror
y ar
Ġp ays
Ġm ort
ul es
Ġm or
Ġà²® à³ģ
unic ip
à¨ Ń
Ġv ia
Ġc ur
im in
Ġ Ø§Ø¹
Ġd ira
é£ İ
ide o
ÙĲ ÙĨÙĴ
Ġh Ãłng
ia p
p ond
áº¯ n
ÙĴ Ø±
Ġt ur
ØŃ ÙĬ
à¦¿à¦¯à¦¼ à§ĩ
^ {
Ġà¬ķà¬° à¬¿à¬
ĊĊ Ġ
ĠÙĬ Ø¹
5 6
Ġà®ĩ à®¨à¯įà®¤
com /
à¥Ī à¤¨
æī ¿
ch a
åı ¦
èĮ ĥ
å¸ Ń
Ġre con
_ m
Ġe k
Ġd' une
å¸ Ī
ħ n
is m
ers on
ac a
ÙĬØ± Ø©
à²¾à² ľ
O T
á ĥ
ä» ½
o x
à®± à¯įà®ķ
à«ĩ àª°
áº ³
Ġhas ta
å¾ ŀ
Ġde ter
à®µ à®°à¯į
à©°à¨ Ĺ
est a
Ùİ Ùĳ
Ġà¬¹ àŃĭà¬
à°¿à° ®
aj i
Ã¡r io
7 6
ak i
ag u
àª¾àª ³
à¥ĩà¤ ľ
Ġsimp le
Ġv en
Ġw ell
á»Ń a
Ġ201 2
r ay
Ġp ap
àª Ī
è ¬
ang k
i am
Ġde velop
á»¥ ng
Ġà¬ı à¬¹
Ġcon se
Ġ.Ġ.Ġ.Ġ.Ġ.Ġ.Ġ.Ġ. Ġ.Ġ.Ġ.Ġ.Ġ.Ġ.Ġ.Ġ.
le m
à¬¿ à¬°
Ġh im
r u
ez a
à¤¦ à¥ĩà¤¶
Ã ¶
Ġ3 1
Ġch ang
Ġmem il
Ġà¤ķà¤° à¤£
èĬ Ĥ
Ġà¥¤ Ċ
à² ħ
Ã© p
à±ĩ à°¶
à´ ľ
Ġà¤ľ à¤¨
æłĩ åĩĨ
å¯ Ł
Ġà¤µ à¤¿à¤ķ
Ġg er
àª¾àª° à«ĩ
Ġp ed
ĠS a
iv os
ĠJ e
ĠrÃ© g
il ar
de pend
Ġposs ible
æ¥ Ń
iv en
Ġtemp s
Ġm emp
ĠS el
c iÃ³
> </
Ġd ou
Ġdur ante
Ġkh Ã¡c
v ed
à´¾ àµ¼
Ġm undo
å± ŀ
çī¹ åĪ«
àª¿ àª²
Ġeff ect
Ġ& &
Ġm w
ud en
ĊĠĠĠĠĠĠĠĠĠĠĠĠĠĠĠĠ ĠĠĠĠĠĠĠ
Ġ200 0
Ġà¤¦ à¤¿à¤¨
Ġn ombre
Ġâ ĨĴ
åħ¶ ä¸Ń
Ġh igh
à¦° à¦¾
ĠS ur
Ġ201 1
arc el
àª¤ à«Ģ
P R
Ġth Ã¡ng
y l
j unt
ĠnhÆ° ng
Ġ< <
çĪ ±
ins i
Ġs end
à³įà² ¸
_ d
èģ Į
ĠÃł wá»įn
Ġqu' il
Ġà¦¯ à§ĩ
à¥ĭ à¤°
ÃŃ ch
çĪ ¶
à¨ ī
ĠØ¬ Ùħ
Ġà¤¹ à¤®
Ġ ia
ÙĨ Ú¯
à´¸ àµį
| |
F ile
ec ho
at is
Ġsh ow
à°¾à°¯ à°¿
à¦¸ à§įà¦¤
Ġà¨ī à¨¸
Ġ200 9
ĠB ras
á» Ŀi
E m
é Į
ĠB er
à³Ĭ à²³
Ġn á»¯
æł ¸
à¤Ĺ à¤°
à°Ĥà°Ĺ à°¾
B ut
áº¯ ng
Ġb ert
Ùİ ÙĪÙĴ
à²¿à²° à³ģà²µ
åĽł æŃ¤
ç Ĩ
Ġth ink
ç¨ ±
ek in
à°¾à° ľ
Ġd own
à²¡ à³Ĩ
Ġter j
Ġgo vern
Ġà¤¸ à¥ĭ
5 9
à¥ĩ à¤µ
Â °
Øª ØŃ
7 9
Ġtien e
Ġs l
ĠK h
èĲ ½
à¥ģ à¤¤
Ġà¤¦ à¥ĩà¤¶
ç® Ģ
Ġd ivers
s /
Ġk an
Ġt ant
Ġpl ace
r c
j i
Ġtr Æ°á»Ŀng
ag r
f Ã©r
ain e
åĤ ³
Ø¯ Ø§
ĠU S
à°Ĥà°¦ à°¿
Ġd ago
und a
******** ********
ĠÅ Ħ
à³ģà²¦ à³ģ
à«įàª ·
ÃŃ st
ec ut
Ġà¤ħ à¤µ
ç· ļ
Ġpr ime
Ġtamb Ã©
Ġap ro
àµģà´£ àµįà´Ł
ĠWik ip
àª¤ à«ĩ
8 å¹´
ĠÙĪ ÙĬ
Ġàª®àª¾àª Łà«ĩ
à¥ĩ à¤¤à¥įà¤°
Ġkep ada
à¤¿à¤ ¦
ç»ı æµİ
Ġcomp r
ut o
Ġm ul
áºŃ u
ier on
M od
Ġsa o
ç² ¾
Ġn Ãº
, Ġ
à¤¾à¤ ĵ
if y
å¸ Ŀ
Ġà¤¤ à¤¥à¤¾
s tring
è¨ Ī
Ġàªľ à«ĩ
æĢ Ŀ
ve z
ĠÙĪ Ûģ
ç¦ »
Ġar te
l ig
à´¾à´ ķàµįà´ķ
è´ £
à§ĭ à¦°
å® ¤
à§įà¦¯ à§ĩ
Ġ200 7
à³įà² ķ
ç´ ł
er ial
id en
p x
Ã± o
éĿ Ĵ
ĠP or
Ø± ÙĤ
Ġà¦ľ à¦¾à¦¨
en n
Ġet x
Ġe ven
æ´» åĬ¨
åł ´
Ġ200 6
ur os
à¤¿à¤² à¥ĩ
à° ħ
Ġre p
Ġa gr
Ġm ust
' :
à¥ĭ à¤Ł
art ic
çŃ ĸ
Ġà¤¨ à¤¾à¤¹à¥Ģ
èŃ ¦
åı ĭ
or i
à¥Ĥ à¤²
le ction
àªµ àª¾àª®àª¾àªĤ
Ø° ÙĦÙĥ
æ¸ ¸
àªµ à«Ģ
Ġis so
Ġt able
Ġf ield
ĠàªĨ àªª
Ġbe ing
Ġà®ħ à®¤
à°¨ à±į
Ġinvest ig
ç³» ç»Ł
h ad
ä½Ĩ æĺ¯
Æ° ng
Ġes s
u ally
æľī åħ³
å® Ĺ
Ġap r
I ON
iv al
à¨° à©ĩ
Ġle vel
č Ċĉĉ
é ¥
Ġpre v
è³ ĩ
æľº æŀĦ
åį ĥ
s :
ĠÃºl tim
Ġex ample
àµģà´¤ àµįà´¤
'' '
-2 02
Ġm uy
_ C
ÃŃ an
ar se
Ù¹ Ø±
Ġc urrent
à¬¾à¬ ³
Ġent r
Ġl ÃŃ
Ġit 's
- æĸ°åĮĹ
èģ¯ çĩŁ
ØŃ Ø©
àª «
æ ¦
ÙĤ ÙĪÙĦ
Ġh anya
à³ĩ à²¶
çİ ¯
Ùİ Ø§ÙĦ
Ġtr Æ°á»Ľc
od o
Ġpel o
ĠS an
ww w
ä¸Ń çļĦ
Ġfin anc
à¤ľ à¥įà¤ŀ
æī§ è¡Į
éģ ĭ
Ġad ministr
à´¾à´ Ĥ
Ġpro ject
à´¿à´² àµįâĢį
å¦ ĩ
èµ Ľ
Ġà¨ķ à©ĭ
Ġà¦Ĩ à§°à§ģ
éĩį è¦ģ
l ay
p en
ĠS en
Ø¯ Ùħ
æ¨ ¡
ĠaÃ± o
Øª Ùī
Ġkh o
à¤Ĺ à¤¾
ĠM on
Ġm it
pl y
åį İ
àª¨ à«ģàªĤ
Ġàª¤à«ĩ àª®
Ġinst it
Ġbe g
er inta
f unction
à¤§à¥įà¤¯ à¥ĩ
Ġà¤¹ à¥ĩ
\\ n
m et
Ġ ãĦ
č ĊĠĠĠĠĠĠĠ
Ġ200 5
Ġa ix
à±Ģ à°¸
æĸ¹ æ¡Ī
ra w
Ġgrand e
ort h
Ø§Ø± Øª
è¡Į åĬ¨
==== ====
- M
ian a
ãĢ Ģ
à¬ķ àŃįà¬·
4 å¹´
à¨¿à¨Ĩ à¨Ĥ
à°ļ à±įà°ļ
à®® à¯Ī
ĠÙĦ ÙĪ
Ġj un
ah kan
à´¾à´ ®
è± ¡
á» Ĺ
ar o
ĠC an
Ġà¦¸ à§įà¦¬
æ· ±
ÙĦ Ùĩ
Ġf und
Ġpos it
æīĢ ä»¥
Ob ject
ut es
k t
Ġa ir
ar is
æĽ ¸
Ġm Ã©d
com m
Ġrec ord
è© ²
S S
ä» ·
Ġfollow ing
Ġmill ones
Ġa i
àµģà´ ±
5 1
ĠÙĦ ÛĮ
Ġ ð
Ø¸ Ø±
ĠÙĪ Ùħ
ĠA p
Ġr áº±ng
, ĊĠĠĠ
I l
Ġpro b
Ùİ ÙĤ
az i
. ĠĠ
im b
Ġd ie
u f
y m
ä½ İ
Ġt ing
Ġng o
Ġà¤ħ à¤Ń
ut s
ĠS ec
à©°à¨ľ à¨¾à¨¬
ĠB l
ä¹ Ĳ
Ġà°ª à°¦
ĠAs s
Ġn Ãªn
è¶ ħ
ä¸Ģ äºĽ
ĠI 'm
Ġc á»©
I L
à´¾à´ ¸
Ġc ost
Ġà¤¸ à¤¬
Ġ Ã³
Ġp ubl
ĊĠĠĠĠĠĠĠĠ Ġ
Ġc 'est
à³ĩ à²ķ
Ġà¤¸ à¤¾à¤®
5 3
á»ı i
èį ī
Ġb anyak
Ad d
éĤ Ħ
ect ed
end s
à®Ł à¯Ī
áº¥ u
Ġcom e
ç« ¥
à¦¨ à§ĩà¦°
ĠJ akarta
Ġmá» Ľi
à¦ĸ à¦¨
åĲĪ ä½ľ
Ġtamb Ã©m
à´¿à´Ł àµįà´Ł
á»ĵ n
à±ĩ à°¦
tr ans
Ġperson as
Ġm erc
k en
Ġres ol
a x
Ġàªķàª° à«Ģ
Ġà´ Ń
i at
Ġnh áºŃn
Ġpe u
à¤¾à¤¯ à¤¾
à¤ĩ à¤¸
ÙĪ Ø¶
Ġ áº¥y
à¤¿à¤¯ à¥ĭ
ngl ish
ä¸ ĥ
àŃįà¬° àŃĢ
Ġ6 0
Ġst atic
à¥įà¤¯ à¤¾à¤¸
à°° à±į
ĠÙĪ Ø¨
Ġch e
æĢ İ
Ġà¬¦ àŃĩà¬
æ ½
åĩ ł
Ġcas a
Ġp ela
Ľ à¬¨àŃįà¬¤à¬¿
à°ķ à±įà°·
Ġw eb
ÙĦ Ø§ÙĦ
áº¡ m
Ġv Ã¬
Ġà´ ²
à¦¿ à§°
ç¨ ®
g en
_ S
à´¿à´ª àµįà´ª
Ġà® °
à«ĭ àª²
Ġà¨¸ à¨®
A p
ç´ ¢
Ġv iv
Ġto us
iá»ĩ m
ĠP as
Ġà° Ī
n et
Ġact ual
Ġà¤Ńà¤ı à¤ķà¥ĭ
ä¹ Ŀ
äºº çļĦ
à¬¿à¬ Ĩ
Ġh ari
Ġproble m
à²° à³į
Ú© Ú¾
a ir
ĠL INE
Ġbe fore
à² ĸ
Ġpro d
is er
à¦¿à¦ Ľ
ÙĲ ÙĦ
an ia
Ġl' ex
Ġà¦ķ à§ĭà¦¨
el as
Ġt om
al tres
áº³ ng
ul ation
Ġn am
S o
ian o
ĠSoc orro
éļ ¾
Ex ception
4 3
à¦¤ à§įà¦¤
à¥ «
ĠD ep
op er
å¯ ¦
à¤¿à¤¤ à¥įà¤°
Ġà¦ª à§°
à¥ĥ à¤¤
Ġan n
à¥ Ń
eth ing
àª¾àª ķ
à¤ ·à¥įà¤Ł
ĠT o
Ø´ ÙĨ
æİ §
Ġpartic ular
Ġà¤® à¤¾à¤¨
Ġl Ã½
ĠÄĳ á»ĳi
Ġà¦¬ à§įà¦¯à¦
f il
Ġà¤ķ à¤¹à¤¾
á»ĳ t
åį °
iz ation
Ġl Ã¡
Ġr is
Ġab s
Ùĩ Ø±
Ġth Ã´ng
à¦¿à¦¨ à§įà¦¤
Â §
à²µ à³Ĩ
T Ã´i
Ġmen os
à¤¾à¤µ à¤°
P or
f et
è§ Ĥ
ĠLINE AR
Ã¨ me
Ġà¦¬à¦¿à¦ ¶
Ġà¨ ¡
Ġà¤µ à¤¹
[ 0
ous e
ific ation
à³įà² ļ
Ġg est
ip e
ĠFr anc
åĮ »
ĠØ£ Ùħ
ÃŃ cul
Ġver b
Ġcor res
ist es
ĠØ¨ Ú¾
à§įà¦° à§Ģ
ĠØ£ Ø¨
Ġf avor
çº ³
Ġcu ando
à¤Ĥ à¤§
è¾ ¹
à¦ ħ
Ġch á»©c
Ġpen y
æĮ ī
åĵ ¥
Ġme j
à²¾à² ķ
ik u
ĠÙĪ ÙĦØ§
à¥ĩà¤ £
out h
Ġf ig
Ø§Ùħ ÙĦ
Ġàª §
à¤¾à¤ ³
à´¿à´² àµĨ
5 8
Ġr áº¥t
Ġà°ļà±ĩ à°¸
à¥Ģ à¤°
à§ĩà¦Ľ à§ĩà¦¨
à¤¿à¤ ¹
Ġs ans
à§ģ à¦·
1 ]
Ġdis trib
Ġà¨ ¯
äºº åı£
ot t
ĠâĢ Ŀ
Ġvers ion
ar ang
à¤¾à¤ļ à¥įà¤¯à¤¾
æ¨ Ļ
arcel ona
çı Ń
à¬¾à¬ ª
ire ct
à¨¿à¨¹ à¨¾
ĠÙ¾ ÛĮ
èı ¯
ud ad
ç½ ª
Ġch eck
ĠC O
Ùİ Øª
à¤ļ à¥įà¤¯à¤¾
Ġ q
à´ķàµįà´ķ àµį
à´ ļ
Ø§Ø± ÙĬ
Ġo Ã¹
il an
ĠÃ© tait
5 7
az io
ĠĠĠĠĠĠĠĠĠĠĠĠĠĠĠĠ ĠĠĠĠĠĠĠĠĠĠĠĠĠĠĠĠ
b i
Ġse x
Ġt echn
Ùİ ÙĨ
à°¾à° ·
Ġà¦ľà¦¨ à§įà¦¯
ĠØ§ÙĦÙħ ÙĨ
à¬¾à¬ ľ
èĪ ¬
è¨ Ń
ord er
ä¸į èĥ½
Ġth ose
æī ¾
l ist
at ural
Ġ 01
äº ¦
à¦¿à¦ ļ
Ġl iv
Ġà®ļ à¯Ĩ
ent r
é» ĳ
emb ro
à®¿à®ķ à®³à¯į
ĠV iá»ĩt
oh n
à±Ĩ à°Ĥà°
Ġà¦ªà§įà¦° à¦¤
à¨¨ à©įà¨¹à¨¾à¨Ĥ
ire d
ÙĪ Ø§ÙĨ
à³įà² ³
Ñ ĭ
6 9
áº¡ ng
il o
I M
à¦ ¡
w ord
Ġhel p
Ġt ele
Ġcom un
Ġà¥ §
é¡¹ çĽ®
Ġà¦ ¯à¦
P ron
à®© à¯įà®©
vent ion
Ġcomm un
éĢ Ĥ
ĠØº ÙĬØ±
? ĊĊ
k et
à«ĩàª Ł
i ers
Ú¯ Ø±
ig r
ĠÙĦ ÙĬ
Ġt ake
uh an
æĹ¶ éĹ´
Ġm ade
Ġimp lement
à®Ł à¯ģà®¤à¯įà®¤
0 å¹´
åį Ĭ
Ġà¤¸ à¥ģà¤°
Ġor der
d en
Ġcas o
àµģà´ ª
à¨¤ à¨°
à¬¾à¬ £
à§įà¦ ł
à§įà¦ ľ
P h
Ø· Ø©
à¨¿ à©°à¨¦
à¥ĩà¤ ·
à¤¾à¤Ĥ à¤¨à¤¾
er os
us i
æĶ¯ æĮģ
çİ° åľ¨
Ġk ami
à®¾à® ±
ant z
Ġman y
å¼Ģ å§ĭ
à§ģ à¦¤
Ø« ÙĦ
ap t
ĠØ§ÙĦØ ²
ac es
à¨ķ à¨¾à¨°
à¤Ĥ à¤¬
Ġà°Ĵ à°ķ
- S
Ġl ugar
Ġà° ı
ĠTr ans
Ġin str
ÙĦ ÙĤ
Ġl' h
ĠÄĳ Æ°á»Ŀng
az a
ce p
Ġmel akukan
ath er
ÙĴ ÙĦ
ä¿ Ħ
æł¹ æį®
Ġà®ķ à¯Ĥ
ĠFr ance
ĠÙħ ÙĤ
ĠE t
åĿ ¡
c ont
- h
Ø§ Ùĥ
u ff
à§ĩà¦ Ľà¦¿à¦²
ĠØ¯ ÛĮ
Ġpres idente
Ø± ØŃ
f ield
Ġwh ile
à§ĩà¦ ¸
à¤® à¥ĩà¤Ĥ
Ġs he
Ø® Øª
N U
Ġàª¸ àª®
Ġpart ir
Ġmas ih
Ġwith out
cr ib
Ã© ri
à±įà° ¦
à®Ļ à¯įà®ķà®³à¯į
ĠE nglish
à³Ĭ à²Ĥà²¡
Ġ åľ¨
ä»ĸ çļĦ
/0 9
Ġsup port
F or
àŃįà¬ §
Ġv iew
ĠBras il
à®Ļà¯įà®ķ à®¿à®²
à¦° à§ĩ
ç¾ ¤
g l
åĵ į
F r
ç¸ ½
Ġsu c
Ġà´ļ àµĨà´¯
le te
à¯Īà®¯ à®¿à®²à¯į
Ġt ay
t ype
) ĊĊ
it za
Ġà¤ķ à¥ģà¤
Ġsist ema
om en
Ġà¨Ĩ à¨ª
åī ĩ
} \\
à¦ ī
à¬¾à¬ķ àŃģ
c s
åĢ ¼
oc a
à¥ĭ à¤§
è¾ ĥ
ĠgÃ©n Ã©r
ä¼ ¯
ÙĬ Ø²
Ġtá» ķ
Ġà¤¬ à¤¢
Ġà®® à®±à¯įà®±
ap e
à²Ĺà²³ à²¨à³įà²¨à³ģ
à§įà¦¯ à¦¾à¦¨
à¦¾à¦² à§ĩ
ĠØ§ÙĦØ£ Ùħ
Ġest ar
Ġàª ĺ
æĬĢ æľ¯
ang g
é ²
à§ĭ à§±
Ġgo od
it ats
Ġgiá» Ŀ
Ġest r
ih an
Ġpriv ate
g es
ç¾ ©
Ġà¦ıà¦ķ à¦Łà¦¿
Ġpl ay
Ġph Ã¡t
ch es
Ġà¨ Ł
ĠJ os
à²¨ à³į
ĠØªÚ¾ Ø§
Ġà¨¨ à¨¹
åİ ¿
os o
Ġbe har
Ġs ido
le ft
ĠÙĬ Øª
ec te
un j
à¤² à¥įà¤¯à¤¾
à²µ à²¾à²Ĺ
Ġà®µ à¯Ĩ
c H
ab e
Ġà® ı
è¯ Ħ
à´® àµįà´®
l in
Ġind ustr
Ġtá» ±
Ġt áº¿
Ġt et
Øµ Ø±
ĠÙĪ Ø²
éļ Ľ
Ġà¦ Ľà¦¿à¦²
Ġze uden
Ġs âĢĻ
Ġd á»±
- 3
[ i
Ġà¤ķà¥įà¤· à¥ĩà¤¤à¥įà¤°
us k
Ġd á»¥ng
Ø¹ Øª
E L
er ta
ĠÙħ Ùı
Ġse j
L os
Ġà²¨ à³Ģ
Ġch ild
c le
Ġpar am
æĽ ²
à±ĩ à°ķ
Ġtá» Ľi
ä¸į åĲĮ
ec er
us ia
à¯Ĭ à®²à¯į
Ġper Ã²
à¬¾ àŃŁ
Ġà¨° à¨¹
·àŃįà¬ Ł
é¡ »
ie u
è®¤ ä¸º
Ġor g
à´® à´¾à´¯
Ġà¤¬ à¤¹
Ġen erg
/ s
es p
' ve
Ġes per
ĠØ¹ Ø§Ùħ
Ġl leg
Ġà¦ħ à¦¬
à®¿à® ®
æĪĳ çļĦ
ĠM e
æķĻ èĤ²
8 7
è¦ģ æ±Ĥ
is iÃ³n
ä¸Ń å¿ĥ
Ø¯ ÙĬØ¯
á»© ng
à§ģà¦ķ à§įà¦¤
à¬¾à¬ ²
Ġà¦¤ à¦¿à¦¨à¦¿
æ² Ĵ
à«įàª ²
Å ĭ
r im
l ib
å¡ ŀ
éģĵ ï¼ļãĢĮ
iá»ĩ p
à´¿à´ķàµįà´ķ àµģà´¨àµįà´¨
ĠS ant
à² ĩ
is l
our ces
ĠØ§ÙĦÙħ Ø³
à¥ĩ à¤¦
Ġà¤ª à¤¾à¤°
ç§ »
à¦¾à¦ ¡à¦¼
ä½ł çļĦ
con tr
æ¾ ³
à¦¾à¦ ¥
çĻ »
Ġs inh
Ġ2021 -202
[ ]
m it
à°° à±ģ
Ġv iÃªn
å¼ ł
ient es
N h
Ġmu á»ĳn
Ġex press
Ġà¤® à¤¨
if ied
à¬¾à¬ ¯
è¯ Ĩ
It em
Ġgiá» ¯
à®¿à® ļ
.... ....
Ġà¤ ĵ
à¥ģ à¤µ
Ġes k
y; &
à«įàª ¥
ç» §
è ĸ
o und
à²¾à² £
a wa
M an
C C
Ġper i
ĠC am
Ġtiáº¿ ng
à´Ļàµįà´Ļ àµ¾
Ġà¤ī à¤¦
h ip
Ġb oth
6 7
Ġpr int
Ġter min
ic io
Ġr um
Ġhum an
è¿ °
el um
ĠÙĩ ÙĨØ§
ĠØ§ÙĦÙĴ Ùħ
ĠP ort
à²¿à²¦à³įà²¦ à²¾à²°à³Ĩ
Ġà¤® à¥įà¤¹
à¦¾à¦¨ à§įà¦¤
Ġà¤¹ à¥ģ
àª¾àª° à«Ģ
¯ à§
Ġb ag
àµĭ à´Ł
Ġincl ud
à¤ª à¤°
à¥ §à¥
Ġà¨ķà¨° à¨¨
ons tr
4 2
Ġmemil iki
Ġ ud
à¨² à©ĩ
çļĦ æĺ¯
ä¾ Ŀ
Ġeg it
Ġà² ²
ur as
Ġà¨ī à¨¹
ä» į
Ġàª¤ à«ĭ
åŃ ©
à±įà°² à±ģ
à¬¾à¬ Ĺ
åº Ń
Ġcon trib
åĸ ľ
D S
cl us
ĠÙĬ Ùħ
ÛĮ Øª
à§ĭ à¦²
Ġà¤Ĩ à¤¯
ab or
Ġd ont
ĠB arcelona
ish ed
èĻ ķ
ust om
çª ģ
Ġj Ã¡
Ġmol t
å»º è®®
ĠÃ© l
ÙĬ Ùĩ
ĠÙģ Ø±
Ġc atal
m ar
Ġà¦ħ à¦Ń
ĠA ng
ĠR eg
ÙĬ Ø¨
Ġh u
à°¾à° ¡à±ģ
Ġb ro
ĠJ o
end e
Ġb ay
à¬¾à¬ ĻàŃįà¬ķ
ĠÙĪ Ø¹
ĠI I
ĠComm ission
Ġ ÛĮ
m ath
Ġch ange
å·² ç»ı
çĬ ¯
Ġis s
áº¡ c
ĠØ³ Ø¨
ĠS ep
à¤¾à¤Ĥà¤ļ à¥įà¤¯à¤¾
Ġap a
E M
pr int
el o
: [[
à¦¿à¦ Ĥ
à¦ª à§įà¦°
iv id
à¤¾à¤Ĥ à¤¤
aÃ± a
Ġp ob
Ġv aria
Ġke y
ĠP eng
Ã¡ ri
§ àŃ
à³Ĩ à²²
Ġh Ã¬nh
ÙĦØ§ ÙĤ
åī ¯
Ġt ar
æĹ¥ æľ¬
ic ense
åĿ ĩ
Ġs Ã©
Ġe duc
é Ħ
Ġpro duc
à¤¿à¤ ·
Ġco untr
Ġimport ant
:[[ ]]
èĭ ¥
åį ĩ
olog ia
v ant
Ġinte gr
ve is
ct ions
à¨² à©Ģ
è· Ł
ut an
ra in
Ġ uk
äºº åĳĺ
à´ İ
Ġbe h
à¦ ŀ
oc r
Ġmemb er
éĽ ·
à²° à²¿à²¸
C O
éļ Ĭ
s ://
Ġdon de
àª¿ àªµ
Ġcomp et
àª¾àª Ī
åº ·
Ø±ÙĬ ÙĤ
Ġs aja
- me
er b
ut il
re a
ident al
æ¢ Ŀ
Ġf i
ĠH ow
} {
Ġmay or
Ġà¤Ľ à¤¨à¥į
Ġb ate
u Ã©s
5 å¹´
w s
à²¿à² ®
è¯ ķ
ç¼ ĸ
É ĳ
à¨¾à¨ ¦
Ġà¨ĩ à¨¹
ç¾İ åĽ½
Ġber k
à¬§ àŃįàŃŁ
Ġ Ø§Øª
il y
Ġà´ Ĺ
Ġsa id
ĠS eg
à¨¾à¨ ¤
t ro
Ġg b
Ġtiáº¿ p
åĵ Ī
æľį åĬ¡
t at
de f
Ġt it
() ,
é ¼
E _
ĠØ¹ Ø¨Ø¯
Ġà¤ķ à¥įà¤°
à¯Ī à®ķà¯įà®ķ
H ow
Ø¹ Ø±
à±įà°² à±ĭ
no include
áº§ m
ud io
ĠØ§ÙĦØ¯ ÙĪÙĦ
Ġà´Ĵ à´°àµģ
ul an
Ġm unicip
Ġà¨¨à¨¹ à©Ģà¨Ĥ
ien ce
i um
j er
ĠM al
Ġtrab al
Ġà¦¨ à¦¿à¦°
ir d
æĶ¿ æ²»
Ġk es
Ġà¤ī à¤¤
ĠÂ ¿
B y
Ġav ait
0 ;
ĠEst ados
Ġà°ª à°°
ĠØ¹ÙĨ Ø¯
åĨ³ è®®
Ġàª¹ à«ĭ
ang kan
Ġ Ø§ØŃ
ĠØ Ł
Ġm os
æĭ ¿
Ġà¦¸ à§ģ
b re
à¦¿à§Ł à§ĩ
à¤Ĥ à¤ļ
à¤¿à¤² à¥įà¤²
iz aciÃ³n
à¤¿à¤² à¤¾
à±ģà° ¡à±ģ
Ġà¦® à¦¾à¦¨
tr as
Ġà¤¸ à¤°à¥įà¤µ
Ġqu ando
Ġà¨ª à©°à¨ľà¨¾à¨¬
á» ¹
ht ml
à´¾à´ Ł
à« ĥ
t z
en o
Ġinform ation
ĠØ¨ Ø¯
à¤§ à¤¾à¤¨
b at
ÙĦ ÙĪ
à®¾à®® à¯į
à¯ģà® ²
Ġà¤° à¤¹
Ġf uer
it em
åĲ ī
Ġà®ħ à®°
ĠØ§ÙĦØ º
ob il
åĲ ĥ
ĠØª ÙĨ
Ø¬ Ø±
N ew
Ġtr ava
Ġá¹£ e
àª¾àª ¹
Ġà²¹ à³Ĩ
Ġà¤° à¥Ĥà¤ª
ic iÃ³
á»į ng
åĭ Ĵ
Ġ ul
à¥ §
Ġà°ī à°¨à±įà°¨
ĠØ¬ ÙĨ
ar kan
à¤¸ à¤¾
Ġb em
is es
èĲ ¥
ĠS et
C H
Ġf on
Ġb á»Ļ
Ġz uten
Ġà°¸ à°®
à¥įà¤ Ĺ
erinta h
à¦¤ à¦¾
Ú© ÛĮ
Ġk as
- B
Ġ200 1
Ã³ g
æĭ¼éŁ³ :
âĪ Ĵ
Ùĳ ÙĲ
ä¸Ń åľĭ
à± Į
à¦¨ à¦¿
al th
à±ģà° ¦
àŃįà¬ ļ
åº ı
à°¦ à°¿
ur g
ais on
ens a
Ġper d
I f
ĠØ§ÙĦÙħ Ø¹
Ġà¦ķ à¦¥
à¥ĭ à¤ª
empl ate
à¥ ©
4 1
6 8
çķ ¥
à¨ ħ
ĠØª ÙĤ
Ġy Ãªu
ĠB ut
ĠØ§ÙĦØ ¢
6 å¹´
Ġlá» Ľ
Ġde ix
æıĲ åĩº
ar es
Øª ÙĩØ§
à´¯ àµģà´Ĥ
àŃįà¬ ®
Ġk eb
Ġà®ª à®¯
Ġà¤µà¤¿à¤ ¦
Ġàª Ł
Ġà¤¬ à¤¤
Ùĩ ÙĦ
è¡¨ ç¤º
Ġjour n
Ġf re
Ùħ Ø§Ø±
à¦¿à¦ ª
id -19
Ġv áº«n
è¿Ļ ä¸Ģ
Ġpres s
æ¹ ¾
Ġà¤ķ à¤¿à¤¸
Ġc amb
Ġant es
Ġex plic
à¨² à¨¾
Ġb est
æ² Ļ
Ġf ond
à¤°à¥įà¤ ľ
à®² à¯įà®µ
¥à¬¿à¬² à¬¾
vo ir
çĽ ĳ
à«įàª° à«Ģ
àª£ à«ĩ
ÙĪØ± Ø©
è®¡ åĪĴ
àªĤàª ¦
ç¸ £
Ġsom ething
um ber
Ġt end
çĽ Ł
am o
Ġà²¹ à³Ĭ
æŃ Į
s ub
à³ĩ à²³
Ġà´¸ à´Ĥ
t d
Ġà¨ľ à¨¾à¨Ĥ
Ġ åľĭ
Ġà¦® à¦§
Ġà¦® à§ģ
l ang
Ġà°ļ à±Ĩ
Ġp le
éħ Ĵ
å¦ĩ å¥³
Ġest ab
Ġ0 x
Ġà¦¨ à¦¾à¦®
ol es
Ġs Ã³n
A G
à´Ļàµįà´ ķ
à¬ ¡à¬¼
ĠA c
un ia
ĻàŃįà¬ Ĺ
à°¾à°¨ à°¿à°ķà°¿
ĠÛģ ÛĮ
Ġl at
ens ion
n y
is ha
Ġj ud
Ġà¨ķà©Ģ à¨¤à¨¾
è¡ Ģ
Ġr u
à¯ģà® ©
on i
è¯ ī
à¤¾à¤ī à¤¨
Ġop en
Ġf un
à¨¾à¨ ķ
Ġstr uct
Ġn uest
- èģ¯çĩŁ
ul u
è¥¿ äºļ
w atch
Ġpro y
Ġ! Ċ
à¦¯à¦¼ à¦¾
Ġà¤Ń à¤¨à¥ĩ
ent ro
åħ į
Ġpued e
es se
Ġmes mo
à´¦ àµįà´
h y
Ġà´ ¯
ĠÙħ Ø¯
ç½ ²
n ing
å® Ī
N Ã£o
åº §
åĪ° äºĨ
à¤ Ŀ
à¥ĩà¤ ¡
éĻ Ħ
Ġman era
à¥ ª
Ġa os
re z
à§įà¦ ¸
Ġpr Ã©s
at iu
BB I
ĠSp ace
Ø¨ Ø§Ø¯
- C
åº ķ
à«įàª ®
Ġb ad
Ġà¨Ĺ à¨¿à¨Ĩ
à¤¸ à¤®
Ġà®®à®±à¯įà®± à¯ģà®®à¯į
å¿ µ
á» Ŀ
ĠB e
Ġl an
à²µ à²¾à²Ĺà²¿
à¬® à¬¾à¬¨
Ġcap ac
q l
æĶ »
ain s
Ġbar u
Ġ ä½ł
Ġv ie
Ġprincip al
åħ ħ
à¦¾à¦¤ à§ĩ
à¯įà®ª à¯įà®ª
éģ Ķ
èĻ Ł
Ġà¨ Ĳ
ä»» ä½ķ
à®¿à®± à®¤à¯ģ
Ġman if
Ġmemb uat
Ġb áº£o
Ġs amp
à´¿à´ļàµįà´ļ àµģ
à¬¹ à¬¿à¬
Ġà¬ª à¬°
Ġs ize
è® Ĭ
à¥ģà¤ Ń
åĪ Ľ
Ġà®ī à®³à¯įà®³
ĠØ¨ Ø´
Ø¬ Ùħ
ut ions
åħ ļ
in dex
åħ¬ éĩĮ
ĠØ£ Ùĥ
Ġtr Ã¨s
æĻ ¯
el es
æŀ ģ
uz ten
Ġcontin u
ĠÙĩ ÙĬ
Ġàª® à«ģ
à¬° àŃģ
ĠO s
Ġà¤¤ à¤ķ
Ġà¤² à¥ĩ
ĠØ¬ Ø§ÙĨ
ab u
à°Ł à°¿
ä¿ ĥ
åĪ ¤
Ġà¤ķ à¤¹
gr ama
Ã¬ m
ç§ ¯
Ã³ ng
EN T
å¡ Ķ
à²· à³įà²Ł
is o
åį ļ
ac ion
Ùĩ ÙİØ§
à¯įà®ļ à¯įà®ļ
Ġv áºŃy
åħ ¸
and ing
Ġba ik
Ġàª¸ à«ģ
à±Ĥà° ¡
Ġan ak
Ġs ous
Ë ¨
Ġà®ķ à¯ģà®±
Ġto p
Ġ 00
à¦ķ à¦²
Ġhac er
ĠÃ ģ
and id
or o
Ġp unt
à¦¨à§įà¦ §
æĩ ī
à¦¾à¦ ·
Ġcre ate
Ġaquest a
Ġfaz er
Ġp ode
åľ° åĮº
æĪĳ åĢĳ
ur ut
àª¶ à«ĩ
http ://
5 4
Ùĩ Ø¯
à®³ à¯Ī
Ġà¥ ©
à±ģà° ª
ak at
Ùħ Ø³
å¤§ éĻĨ
Ġd ute
à¤¿à¤Ĥ à¤Ĺ
ĠR es
Ġc ours
in as
à®¿à®© à¯įà®±
Ø¹ Ø¨
Ġh ingga
ĠC al
Ġest ado
Ġcu á»Ļc
åĨ³ å®ļ
ç§ĺ ä¹¦
å½± åĵį
Ġgo ing
F orm
à¦¾à¦ ĸ
ĠÚ©Ø± ÙĨÛĴ
Ġw al
Ġà¤Ĩà¤¹à¥ĩ à¤¤
à¥Ģ à¤¯
Ġà¦¬ à¦¾
M L
/ 10
Ġn ay
Ø§Ø ¤
Ġà¤¹à¥ĭ à¤¤à¤¾
à¦¿à¦¨à§įà¦¤ à§ģ
ĠÚ©Ûģ Ø§
Ġs te
åķ ı
è³ ½
ĠØ§ ÛĮ
itu en
Ġin fl
ĠM ed
ogr aph
as on
ĠG e
èĲ ¬
à´¿à´ ¸
çĵ ¦
P O
ad re
Ġà° ¡
W e
ĠÙĬ Ùı
con om
as se
åı «
Ø³ ÙĨ
Ġ200 4
in ce
Ġal t
à°¾à° ª
ÙĪ Ø§Øª
ib les
, Ġ(
olog y
Ġbe ber
å¹ «
Ġlas t
à®¿à® ª
à®© à¯įà®ª
à® ¸
äº ī
Ġà¤¥ à¥Ģ
à¬¾à¬ĩà¬ ģ
Ùģ Øª
à¯Īà®¯ à¯ģà®®à¯į
Ã¡ l
/ C
Ġv ac
Ġh á»Ļi
Ä ±
à¯įà® £
Ġà®Ĵà®° à¯ģ
áº¯ m
S h
Ġun ivers
' ai
Ġàª ¡
à¤¦ à¤¾
àŃĭà¬ Ĺ
à§ĩà¦ ¯à¦¼
àª¾àª¨ à«Ģ
Ġà¤ Ĳ
ĠØ¨ Ø¹Ø¶
ane iro
ind ow
æ· ·
vir on
ÙĪ Ùī
à¤Ĺ à¥ĩ
Ã© ta
ĠR ugby
fa ult
N g
æĭ ħ
Ġest at
as ed
Ġà¤ľ à¤¿à¤¸
Ġà®ª à¯Ĩ
Ġecon om
à¬¿à¬ ¸
é ½
å» £
é» ŀ
à«ĭàª ¡
Ġperm et
á» ī
æĪ ·
ol o
ĠØ³ ÙĬ
I R
en ye
Â Ń
//// ////
éģ ¸
Ġme u
Ġ Ã¨
le y
n ess
ĠÙĦ ÙĦÙħ
Ġac cess
à¤¿à¤ķ à¥įà¤·
os es
Ġpod r
Ġcont re
Ø³ Ø±
Ġde clar
as es
Æ°á»Ľ ng
Ġ Ø§Ø®
à®© à¯Ī
à°¿à°¸ à±įà°¤
Ġcon j
- 8
Ġc ual
Ġnec es
Ø§Ú© Ø³ØªØ§ÙĨ
å¯ Į
Ġob jet
Ġku wa
äº ²
àŃįà¬ ª
éĢ ģ
Ġk om
ĠUn ited
ĠÄĳ o
ĠØŃ Ø¯
ĠpolÃŃtic a
ÙĴ ÙĨ
à¯įà® ¨à¯įà®¤
è¿ ŀ
Ø Ľ
ta ins
c os
çĽ Ĭ
æĽ °
Ġb Ãł
it ial
àŃįà¬ ¡
Ġe j
Ġà¤Ĩ à¤µ
à¤¿à¤ı à¤ķà¥ĭ
à¨° à¨¾
è§Ħ å®ļ
áº¡ ch
ç´ Ħ
uc iÃ³n
æ³ķ å¾ĭ
Ġs era
Ġ200 2
Ø¬ Ø¨
Ġba o
à¤°à¥įà¤ Ĺ
æĸ° åĬł
æ² ¹
or al
à¤Ĺ à¥Ģ
à§ĩà¦ ¦
Ġn et
um ents
Ġà¬ħ à¬¨
à´ ĩ
Ġà®ª à®¿à®°
àª ·
à¤ķà¥įà¤° à¤®
Ġpro jet
ÙĪ Ø§Ø±
Ø§Ø¦ ÙĦ
Ġà¦¸ à¦°
à®® à®¾à®ķ
éĻ į
Ġà¤ħà¤ª à¤¨à¥ĩ
Ġf is
æĴ Ń
Ġt or
im ana
Ġàª¹àª¤ à«Ģ
_ T
Ġob serv
Ġb á»ĩnh
à§ĭ à§°
åĸ ®
åĲ ¦
ict ion
ĠL os
Ġà¤®à¥įà¤¹ à¤£
ÙĬ Ø«
à¦¬ à¦¾à¦°
Ġà¤ª à¥ģà¤°
à´¤àµįà´¤ à´¿àµ½
à²ļ à³įà²ļ
up akan
Ġmat erial
ĠØ¨ ØŃ
ah a
å¾ ħ
v os
è¿Ļ æł·
àª¾àª ª
G r
ĠØ£ÙĨ Ùĩ
Ġà¨ĩ à©±à¨ķ
à² Ĩ
Ġà¬ ĸ
d ::
Ġresult ados
æĺ ¾
Ġà¤® à¥ĩ
i y
Ġver d
æĸ°åĬł åĿ¡
f s
Ġpess o
Ġc ro
Ġc iv
I V
pr Ã©s
Ã´ m
Ġt anto
Ùİ Ø§ÙĨ
æĸĩ åĮĸ
ient s
ä¸Ģ èĪ¬
un i
è Ľ
à¦° à§įà¦¤
à¤¾à¤ļ à¤¾
Ġà°ħ à°¨
Ġf et
an Ã§a
à¤¾à¤ĵ à¤Ĥ
ul s
ĠF l
un an
b ol
re am
Ġhav er
ir us
ç¶ ²
è´ Ł
Ġ3 5
Ġdeter min
Ġf our
Ġp an
i Ã§Ã£o
ØŃ Øª
Ġ Ã²
à®± à¯įà®ª
on o
Ġkh u
Ġa tr
àµįà´ ¸
Ú© Ø±
Ġà¦Ĩ à¦¸
Ġ áº¹
cript ion
Ġàª ¯
à´¾à´ ±
à¤Ĥà¤¤ à¤°
Ġm '
Ġch á»§
æī ¹
Ġen contr
a ires
àµį âĢĮ
çł ´
= '
o ver
Ġsang at
ĠS ystem
à° ģ
á»Ł i
Ġqu Ã¢n
r il
æī ĺ
àµĩ à´°
à¤¦ à¥įà¤§
à¤¾à¤ļ à¥ĩ
Ġà¤¸ à¥Ģ
ft ware
Ġg e
ĠCatal unya
à®¾à® ļ
Ġf ix
Ġex c
à¬ ĩ
Ġà¤¹à¥ĭ à¤¤à¥ĩ
ĠØ´ ÙĬ
Ġà°ķ à±ĭ
è£ ¡
Ġk o
æİ ª
Ġtr y
à²® à³įà²®
Ùİ ÙĩÙı
Ġmoment o
Ġg uer
Ġb il
è ŀ
em Ã¡s
Ġpol ic
àª¸ à«įàª¤
åİ Ĩ
çĶŁ æ´»
à³įà² Ĺ
äºĨ ä¸Ģ
alam an
Ġà®¤ à®¿à®°
æ´ Ľ
èŃ °
ÙĦ Øª
Ġà¤² à¥ĭà¤Ĺ
ĠK itt
Ġnh au
Ġà¨¹ à©Ģ
àª¾àª ¡
Ġst at
Ġc ant
6 3
ä¸Ĭ çļĦ
Ġse lect
å¿ħ é¡»
Ġla gi
ĠCon se
amp ion
Ġà¨ª à¨°
æĺ¯ ä¸Ģ
è¡ Ĺ
å¥ ĩ
à¤Ĥà¤¤à¥įà¤° à¥Ģ
Ġm áº·t
Ġsec ara
Ġs av
w al
ĠJ ul
Ġà¤° à¥ģà¤ª
U S
ĠÚ¯ ÛĮØ§
Ġind ivid
om et
ĠPe ak
à²² à²¾à²Ĺ
à¤¿à¤ ĸ
Ġph Ã¡p
oc c
æĪĲ ä¸º
Ġà²İ à²Ĥà²¦à³ģ
ĠL em
à²¿à²¸ à²¿à²¦
Ġe do
ĠÙĤ Ø±
Ġch Æ°a
ÙĤ Ø·
ĠC op
à¥ģ à¤ķà¥įà¤¤
Ġn ah
Ġbel um
tic a
Ġc ri
Ġdes en
Ġg an
Ġj ava
åĸ Ħ
Ġbre ak
Ñģ ÑĤ
_ n
Ġà¥¨ à¥¦
ing o
ç¿ »
Ġnorm al
à§ģ à§°
8 4
à¥ ¬
enc ias
Ġà¤¥ à¥ĩ
Ġst ill
S i
à¤¸ à¥įà¤ķ
Ġet c
qu Ã¨
çĬ ¶
Ø§ÙĦ ÙĬ
à¦¾à¦° à¦£
emp le
åŃ £
az o
Ġqu ien
Ġval ues
Ġat as
ç¬¬ ä¸ī
åħĪ çĶŁ
à´¿à´° àµģà´¨àµįà´¨àµģ
L O
Ġph Ã²ng
çļ ®
Ġà¦ķà¦° à§ĩà¦¨
Ġpr Ã©sent
é Ĩ
Ġc áº¥p
Ġf ar
es :
u ah
àµģà´ ķàµįà´ķ
Ġà¤¹ à¥ģà¤¨
ĠØ³ Ø±
à¥Į à¤°
Ġà¦® à¦¹
Ø« ÙĬØ±
Ġc áº§n
ug g
ĠØ¹ ÙħÙĦ
E vent
I G
er d
ĠI N
å± Ĭ
à²µ à²°
Ġn atural
à³įà² §
t an
Ġen f
ĠD r
Ġà¨ķ à©ģ
Ġj ur
Ġle urs
iv ed
à´¤ à´¿à´¨
Ġre le
ä¿¡ æģ¯
Ġà¤²à¤¾à¤Ĺ à¤¿
Ġ8 0
Ġc ao
enc i
æı ´
7 3
Ġj orn
adr id
Ġt yp
Ġw an
èĺ Ń
ĠU N
Ġp ag
ĠÙ¾ Ûģ
ar ri
æŀ ¶
à¬¾à¬ ¦
ch i
èĪ ª
à¥įà¤ ł
à° ĩ
å¿ Ĺ
con st
er ah
ate ix
Ġc el
à²¿à²¤ à³ģ
at ro
ä¸» ä¹ī
Ġst ate
ä½ľ ä¸º
åķ Ĭ
Ø§ÙĦ Ø©
ä¹ ħ
åħ¬ çº¦
Ġb áº±ng
ĠØ« Ùħ
Ùİ Ùĥ
Ġk il
Ġmeng h
P A
Ġbeber apa
ativ es
¥ à¬¿à¬¬à¬¾
6 2
Ġs ector
Ġhttp ://
Ġth Æ°á»Ŀng
àµĨ à´Łàµįà´Ł
æľ ¨
à¯įà® ¯
ou d
Ġfunc ion
åĮº åŁŁ
Cl ass
Ġc arr
om in
Ġun o
Ġsm all
ap s
ĠQu á»ĳc
à¤ ĥ
Ø¸ Ùħ
ÙĲ ÙĩÙĲ
à¬¿à¬ ¶
Ġh id
éļ ı
Ġm and
Ġ ãĢĲ
av en
Ġ Ã¡n
ÚĨ Ú¾
à¤¾à¤ļ à¥Ģ
w er
Ġc y
à¤°à¥įà¤ ¶
æĻ ļ
à¦Ĩ à¦®
Ġ-- -
Ġb es
Ġd á»ĭch
Ġen :
Ġb áº£n
Ġà¬® à¬§àŃįàŃŁ
Ġà®® à¯ĩ
åħ Ĵ
Ã± a
ra it
à²² à³Ĩ
à±įà° ¡
Â ¿
emp o
Ļ à¯įà®ķ
à©Ģà¨ µ
Ġà¤¸à¤® à¤¯
ĠSpace watch
ĠØ³ ÛĮ
Ġà¬¹àŃĭà¬ ĩà¬
çĶ ¢
Ġj am
å° Ħ
Ġà¤ļ à¤¾à¤¹
c u
á»į c
à´£ à´Ĥ
Ø§Øª Ú¾
5 2
ç¥ ¨
bo x
ĠØ£ ØŃ
Ġan other
åģ ľ
ĠÙĥ ÙħØ§
Ġth Æ°Æ¡ng
ĠÙĤ Ø¨ÙĦ
Ġser Ã¡
ĠD ec
æĸ¹ æ³ķ
à¥ ħ
Ġre v
á» ³
Ø§ÙĨ ÛĮ
éĿ ©
ĠC ov
Ġf ins
Er ror
à°¾à° ¡
å¹´ ï¼Ī
æ¯ Ĵ
E C
Ġà¤¦ à¥įà¤µ
à²Ĥ à²Ĺ
åħ± åĴĮ
Ġim age
i us
à§Ģ à¦¤
D is
å¤§ çļĦ
Ġà¦¸ à§ĩà¦ĩ
ob ject
à³ĭ à²Ĺ
Ġà¨Ĩà¨ª à¨£
ĠL icense
Ġcons id
åĩ ı
Ġh art
iz aÃ§Ã£o
à¨µ à©ĩ
à®ķà®°à®®à¯ģà®¤à®² à®¿
à² ¥
åĿ ¦
vo id
um an
à¤¤ à¥ĭ
Ġà¦° à¦¾à¦ľ
ĠR o
at ar
lo at
áº© m
Øµ Ø¯
pl es
Ø³ ÙĬ
Ġtr Ã¬nh
Ġ@ param
Ġà®¨ à®Ł
arg o
à¥ģà¤ Ł
Ġà¤¨à¥ĩ à¤ªà¤¾à¤²
Ġconc ern
è§ ī
Ġs ob
Ġà°¤ à±Ĩà°²
ĠS c
Ġqu ant
ĠS em
å£ °
on se
âĢ ²
Ġà¤Ĩ à¤ľ
æ¨ Ĥ
Ġmeng atakan
Ġà°Ĺ à±įà°°
ĠØ¹ ÙİÙĦ
Ġx e
å¤§ åŃ¦
Ġà°ķ à±Ĭ
å· ¦
çľ ¼
ĠÄĳ Ã¢u
à¯ģà®ķ à®³à¯į
Ġà¨¦ à¨¿à©±
y d
ĠJ an
ĠN acional
ĠÙħØŃ ÙħØ¯
ou vern
Ä «
à¦¸ à¦®
Ġb Ãªn
Ġà¤¦ à¤¿à¤¯à¤¾
p re
Ġth ree
å· ®
èĥ½ åĬĽ
Ġ2021 :
« a
Ġand roid
Ġtre ball
Ġg ot
ur l
ĠØŃ ØªÙī
Î ±
æľī ä¸Ģ
å¼ µ
àª¾àª¨ àª¾
im os
Ġà¦Ĩ à¦Ĺ
à±ģà° Ł
c ies
Ġyear s
à´ŀ àµįà´ŀ
çµ Ħ
in te
ent ial
à¥įà¤°à¥Ģ à¤¯
æµ ĭ
Ġim ag
Ġtod as
æ¬ §
à¤Ĺ à¥įà¤°
ĠØ¥ Ø°Ø§
é¢ Ŀ
à¥ģà¤ ³
Ġà¨¸ à¨ķ
àŃįà¬ ¨
ĠB el
Ġmer upakan
Ġt Ã©
Ġex tr
à¤® à¤¾à¤¨
Ġest Ã¡n
Ġà¦¥ à¦¾à¦ķ
Ġqu Ã¡
P ar
Ġquy á»ģn
.Ċ (
iz o
Ġà¤¸ à¥ģ
aj e
à±ģà°¨ à±ģ
a ult
àŃįà¬ ¬
Ġper form
å½ ķ
à¤ļ à¥įà¤ļ
Ġcomp ar
à³ Į
à¤µ à¤°
Ġl' Ã©
Ġla y
àª¾àª° àª¾
on y
ĠØ§ÙĦØ¹ Ø§Ùħ
ĠP ublic
ĠM art
at re
Ġr ad
Ġch arg
Ġà®ķà¯Ĭ à®£à¯įà®Ł
um lah
Ġcom pl
Ġà²ķ à²¾à²°
æ §
çĶ ³
æ´ ĭ
Ġk ed
Ġk or
àµĤ à´Ł
ØŃØ¯ Ø©
Ġs emb
ä»ĸ åĢĳ
ĠM r
in put
uy á»ģn
Ġb Ã¡o
à«Ģàª ı
çµ Ĳ
is is
à¤¸ à¤°
Ú© Ûģ
$ this->
Ġan os
od es
P r
Ġtah u
Ġsign ific
à¦¾à¦° à¦¾
Ġv os
ul ier
Ġm Ã£
ĠØ¬ Ø³
Ġcas os
uc k
Ġci udad
Ġb ene
åį ł
Ġl alu
enc ial
à¨¿à¨ ¨
Ġun s
à«įàª ¸
Ġseg u
ä¿Ŀ æĬ¤
åľ° æĸ¹
k ar
Ġb arr
ĠØ¨ Ûģ
al se
åĳ ¢
à§įà¦ ŀ
' ll
Ġartic le
Ùİ ÙĨÙĴ
Ġer r
Ġà¨¸ à©ģ
ĠÃ ½
Ġcer tain
É ª
à±ģà° ®
Ġà¦¹ à¦ĩ
Ġin depend
à® Ĩ
àªķ à«įàª·
12 æľĪ
Ãºn cia
Ġà®¤à¯Ĭ à®Ł
Ġenc ore
Ġd'a quest
S p
Ġrap port
ind o
æ¬ ¢
- f
æ³¨ æĦı
V ID
ĠÐ ¿
Ġpos ition
ĠJ ohn
Ġmin ist
ĠØ£ Ø¹
Ø§ Úº
æĹ¥ åł±
à¨ĩ à¨¸
div >
Ë ©
é©¬ æĿ¥
Ġb Ã©
àŃĩà¬ ¶
em ahan
ÙİØ© ÙĲ
ĠA N
Ġ7 0
Ġter c
Ġn acional
Ġp and
Ġur te
Ġmej or
Ġperson ne
à¤Ń à¥Ģ
7 4
ĠL ib
Ġm ass
å¤§ ä¼ļ
Ġà¤ľ à¤¾à¤¨
ç¶ Ń
Ġà¨ ĺ
à³ģà²¤à³įà²¤ à²¦à³Ĩ
àµģà´ °
ab ar
ĠâĢ Ļ
Ã¨ r
[0 ]
er ri
Ġh Ã¡
Ġà¬ı à¬¬
Ġdir ig
Ġmult ip
âĢ İ
à¤¾à¤ «
ÙĪ Øµ
oc o
Ġà° «
à±Ģ :
Ġdu a
T ime
Ġele ctr
å¾ ®
Ùı ÙĩÙı
áº© n
Ġd Ã©s
re l
Ġs an
Ġs áº£n
L o
è ĵ
à¯įà®¤ à¯įà®¤
å¤ Ł
åº Ĺ
if ica
Ġ ub
Ġse pt
à°Ĥà° §
à¨¨ à¨¾
Ġat Ã©
ĠS u
Ġvá» ĭ
Ùģ Ø¹
Ø· Ø±
à¦² à§Ī
Ġre quest
v as
ĠG obierno
à¤¶ à¥Ģ
Ġa ra
Ġ( !
l ing
Ġ Ã§a
ith er
ä» ĭ
éķ ĩ
à³ģ à²°
à¥ ®
uk u
ĠØŃ ÙĤ
ĊĊ ĠĠĠĠĠĠĠĠĠĠĠ
ĠD an
Ġà°® à°°
à§ģ à¦¬
å¸ «
à²¾à² ¹
éº ¼
Ġà¤Ĺà¤°à¥ĩ à¤ķà¥ĭ
iz ado
r un
Ġtr á»Ł
åł Ĥ
à±ĩ à°¸
ist s
D A
åı ³
ĠU r
à«ĭ àª¤
Ġà¦¬ à§įà¦¯
k h
Ø¨ Øª
çĶ ļ
Ġc ele
p i
ib u
Ã³Ì£ n
à¥įà¤¯ à¤¾à¤¨
á»« ng
Ġb esar
Ġp ath
Ġing in
ä¼ ģ
ÙĪ ÙĬØ©
ĠÄĳá» ķ
Ġc andid
àª¤ àª¿
Ġà´ª àµĭ
Ġb áº¯t
Ġfil m
w ays
Ġw orld
çģ £
ĠØ§ÙĦ ÙĬ
Ġb ak
Ø¨ Ø§Ø±
à§ĩà¦ ľ
àªª àª°
ĠP at
å¹« åĬ©
Ġg iven
ĠÙĬ Ø§
er m
çĶ °
à§ĥ à¦·
Ġass oci
çļ ĩ
è¿Ļ ç§į
ĠM ount
à¤ķà¥įà¤· à¤¾
iá» ħn
Ġc áº§u
en i
Ġà¤¨ à¤¾à¤®
Ġà¨¸ à¨°
d b
on av
ÙĦ ÛĴ
ĠC r
x e
Ġk emb
Ġagain st
ĠØª Ø¬
å»º ç«ĭ
ent ion
Ġpre par
à¦ª à¦°
Ġk ar
ĠAl l
ia go
Ġcons um
Ġqu á»ĳc
ĠTh ere
val u
à©Į à¨°
ic ally
Ġsem ua
à´µ àµģà´Ĥ
à¤¹à¤° à¥ģ
ÙĪ Ùİ
à±ĩ à°µ
áº§ y
çĲĨ äºĭ
Ġ200 3
é©¬æĿ¥ è¥¿äºļ
ä¹ ł
arr ay
ÃŃ d
Ġà¦¹ à¦¬à§ĩ
Ġof fic
à¤¦ à¤¾à¤°
Ġhab it
åĪ ¥
6 1
ÙĴ Ùħ
Ġs il
ĠA S
ï» ¿
ĠGo ogle
-> get
ack age
à©° à¨¤
Ġst and
7 2
ç» Ĩ
Ġval or
à¤¿à¤ Ĺ
à¥įà¤° à¥ĭ
èģ ŀ
à¬ĻàŃįà¬ķ àŃģ
---------------- ----------------
àª Ľ
åį «
à¨¾à¨ Ĺ
M en
/2 02
à«ĩàª² àª¾
è¯ į
ĠpaÃŃs es
à¯Ģ à®°
R O
ĠÙĪØ§ÙĦ Ùħ
çĥ Ń
à«įàª ķ
Ġà¤® à¤¾à¤°
ĠP art
Ġlá»Ľ n
A ct
ĠM en
äºº æĿĥ
ä¸ŃåĽ½ å¤§éĻĨ
à¤µ à¤¾à¤¦
mo ve
Ġk áº¿t
èª į
i wa
Ġex pect
Ùģ Ø¶
ri x
Ġà° Ł
ĠK am
ĠÙĪ ÙĦ
à¤¤à¥Ģ à¤¯
æ¹ ĸ
Ġl ink
Ġqu ed
osp ital
Ġdon c
à¨° à¨¸
Ġà´ª à´±
lic k
Ġper n
à¯ģà®³ à¯į
ĠÙħ Ø³Øª
Ġprop ert
Ġà¬¸ à¬¹
Ġcent ral
Ġs it
ä¹Ł æĺ¯
8 1
à¬ ¯
æĿ Ģ
ia ko
Ġàª¨ àª¥à«Ģ
ĠØ§ÙĦ Ùĩ
Ġp ac
Ġà¤°à¤¾à¤ľ à¥įà¤¯
Ġxu áº¥t
Ġpro te
Ġmon de
å ´
Ġo wn
à¥įà¤¨ à¥ĩ
r ir
Ġimport ante
çī Ļ
Ġmanif est
Ġperson al
8 3
qu '
ĠrÃ©s ult
à³įà² ¬
ĠWikip edia
/ **
ĠÙĦ ÙĲ
Ġ3 2
ĠD is
g ent
ĠA pr
_ name
Ø§ÙĨ ÙĬØ©
à²¦ à²°
Ġy o
Ġdem and
Ġh ace
Ġà¤Ĩ à¤°
æĸ¹ å¼ı
ĠA fr
P S
Ġà¦ı à¦°
fr om
m ero
om an
# include
ĠI r
Ġconf ig
pl oy
æ¨ £
åĬ ª
, ĊĠĠĠĠĠĠĠ
Ø§ÙĦ Øª
à¤¿à¤ §
ĠdÃ© velop
à¨ ¶
Ġt Ã¢m
à±įà°¨ à°¿
ĠD on
åĲ ¬
ĠØ§ÙĨ Øª
Ġ Ãºn
ĠÙĦ Ø£ÙĨ
Ġa ction
ĠÙĦ Øª
ĠW h
àµĩà´ ·
ug a
Ġ/ **
- 201
Ġl itt
pon se
Ġà®Ĩ à®Ļà¯įà®ķà®¿à®²
áº£ nh
ter a
à°¾à° §
à®¤à¯įà®¤ à¯Ī
ab ase
ĠR p
ĠØª Ø±
à¤Ł à¥Ģ
ī nh
Ġd ay
åĨ Ļ
Ġl Ã²ng
j ava
é Ĭ
Ġre pr
ä¼ ¼
w eb
it ud
Ġde z
Ġà®ª à®¿à®±
As s
Ġan ys
th ing
Ġt orn
ĠØ§ÙĦÙħ Ø´
ĠØ¯ ÙĪØ±
ais e
Ê ĥ
Ġo tros
Ġná»¯ a
å± ¬
b it
Ġdon n
ĠD E
åģ ¥
. Ġ.
Ġà¤Ĺà¤°à¥įà¤¨ à¥ĩ
Ġproc ed
00 1
Ġs k
aga imana
åĪ ĳ
h ib
Ġg as
Ġà´ª à´°
ri es
Ġa ch
Ġm au
Ġdi jo
åĨ ľ
č Ċĉĉĉ
Ġà¤¬ à¤¾à¤¦
Ġl ig
ä¼ Ĺ
éĢ Ģ
č ĊĠ
Ġcomp let
7 1
àª¾àª¥ à«ĩ
çº ª
erv ice
æŁ Ĳ
Ġs á»Ń
ill er
à§įà¦ Ń
en z
Ġdil akukan
ok a
æĶ¿ çŃĸ
8 2
ub a
à¨¾à¨ ī
Ġà¨¹ à©ģ
ra z
ĠØ¯ Ø±
ay o
à¥ģà¤¦ à¥įà¤§
à³įà² £
à¦¿à¦ ¹
à°¾à° ¬
à«Ģàª ĵ
à®¿à®² à¯įà®²
Ġg ian
ĠÙģ Ùī
Ġb ig
è´ ¢
éª Į
Ë Į
Ġà¤ħ à¤®
çĶ± äºİ
ent z
Ġl á»±c
B l
åĭ Ļ
Ùĥ ÙĬ
Ġch uyá»ĩn
à²ķ à²°
à¤ļ à¥ĩ
ord s
Ġm ateix
Ġv ÃŃ
å¸ ®
Ġà¦Ĩ à¦²
àµįà´± àµįà´±
Ġa insi
à¤°à¥įà¤ ķ
à¤¬ à¤¾à¤Ł
Ġà°ª à±ĭ
Ġb este
Ġpre t
Ġn Ã©
Øº ÙĬØ±
à¤µ à¥Ģ
Ġcon oc
Ġap ar
æĹ¶ åĢĻ
Ġ ä¸Ń
ĠÙģÙĬ Ùĩ
K ey
ï¼Į Ċ
al o
Ġs ta
ļ à°¿
à´¾à´ ª
it ions
Ġto Ãłn
ÙĦØ§ Ùģ
Ġà®İà®©à¯įà®± à¯ģ
Ġbain a
Ġtent ang
Ùĳ Ùı
àµģà´ķ à´³
éĥ½ æĺ¯
in os
Cont rol
Ġch uy
à«ĭàª Ī
Ġcap ital
qu al
à©ĭ à¨ķ
àµĩà´ ¶
à¬ķ àŃįà¬¤
à´¾à´ ķ
Ġà¤ħà¤§ à¥įà¤¯
æĸĩ ä»¶
i endo
Ġ\\ ;
ĠtÃŃ nh
à¬¨ àŃįà¬¦
Ġà¤ķà¤¾à¤° à¤£
åı° æ¹¾
ĠD o
ĠØ§ Ùħ
us an
oc ument
Ð ·
è© ŀ
àŃĩà¬ ¤
t est
Ġà¤® à¤¿à¤²
àª¾àª ĵ
à§ĭ à¦Ł
Ġà¬ ĺ
ĠU T
h os
à¨¨ à©Ģ
ĠT ur
eg o
à¤¾à¤® à¥Ģ
èĩª çĶ±
im u
à´¾ àµ½
à®¿à®° à¯ģà®¨à¯įà®¤
å¹³ æĸ¹
à®¾à®ķ à¯įà®ķ
ĠÄĳ áº¡i
æģ ©
ç»§ ç»Ń
u ela
Ùĥ Øª
5 00
ÙĨ Ùī
Ġdo is
id ed
us o
ĠH Ãł
à²¾à² §
ung kin
ir os
à¤¯ à¥ĩ
Ġà¤¤ à¥ĩ
Ġa inda
Ġf u
Ġà®ķ à¯ĭ
o ff
Ġbu ild
un es
Ġàª¶ àªķ
at ura
Ġà´ķ àµĬ
em ia
à¥ģà¤ ·
Ġas ÃŃ
arr en
åĽ ´
ĠÃ© gal
åı ĥ
Ġas k
Ā Ā
Ġvoc Ãª
Ġim pl
in st
Ġd ÃŃa
Ġse par
Ġs empre
çº ¢
ers t
ĠM y
é ¬
à²¤ à³Ĩ
Ġcon tain
ĠM adrid
æ ¤
à¦® à¦¾à¦¨
à¤¬ à¤°
Ġà²ª à²°
Ġd ic
å ª
ī à¬
à¤¨à¥įà¤ §
à¤ª à¥Ģ
à¤ľ à¤¨
çĿ £
à²¸ à³į
à§° à§ĩ
éĺ ³
ĠLem mon
âĢĻ s
ĠS ch
é İ
ĠPar is
- n
Ġm iss
ĠN ations
Ġcorres pond
Ø§ÙĨ Ûģ
Ġw ater
Ġn d
ĠØ± ÙĪ
Ġgl obal
Â· l
Ġà®ħ à®µ
æķ° æį®
Ġn y
Ġà¤µà¤¿à¤ Ń
æ° ı
à°® à±įà°®
Ġob lig
éĿŀ å¸¸
Ġperi od
Ġf ur
for me
ĠØ¨ Øª
à«ĭàª Ł
Ġ ante
Ġl' A
ĠÙ¾ Ø§Ú©Ø³ØªØ§ÙĨ
erc a
èį ¯
Ġt iá»ģn
à§Ģ à¦¨
Ã¨ g
à¯ģà® ´
Ġcomp os
- v
Ġse Ã±
Ġà¤Ĺ à¥įà¤°
Ġsol o
Ø³ ÛĮ
ĠØ¨ ÛĮ
Ãº p
å®ĺ è©±
F ield
t ings
Å į
Ġcomm and
Ġgar ant
ĠM a
à°Ĺ à°¾
am ar
ai le
æ³¨ éŁ³
à±įà°° à±Ģ
Ã³ a
Ġm ap
ç» Ī
ĠM o
Ġcir c
ĠØ¢ Ù¾
Ã© en
yar akat
æķ ĳ
ill es
quer y
à¦¿à¦ķ à§ĩ
7 æľĪ
ak in
åĲ «
ong o
Ġà¤µà¥įà¤¯ à¤µ
Ġme as
ä¸» å¸Ń
æ» ¡
Ñ ĩ
Ġà¦¸à¦® à§įà¦ª
Ġl Æ°á»£ng
à°Ĥà° ¬
ĠØª Ø´
ĠØ¨ Ùħ
åĴĮ å¹³
S el
Ġpro grama
è ¤
åĲĮ æĹ¶
åĦ¿ ç«¥
Ġ9 0
Ġà¤ķà¥ģà¤ Ľ
ĠÄĳá» Ŀi
AR T
ĠP em
à©Ĥ à¨°
ob a
Ġsu iv
s \"
Ġper quÃ¨
Ġdur ing
Ġb agi
o int
ĠÙĪ ÙĨ
Ġt x
æĬ Ĺ
Ġc ara
Ø§Ø º
g ress
ec n
Ġà¤¹à¥ĭ à¤¤à¥Ģ
Ġil s
Ø® ÙĦ
ĠØ§Ø¨ ÙĨ
ind ows
é Ĳ
s '
Ġcorre ct
Ġk ec
ĠÙħ ÙĲÙĨÙĴ
ĠO l
á»ĥ n
Ġdes ign
çĶ ²
áº£ m
Ġc ell
Ġin put
à¤ľ à¥Ģ
ä» ĺ
Ġserv ice
h am
àŃĭà¬ ²
ĠTr ung
áº£ y
åı Į
Ġfor t
éļ Ĩ
it ude
Ġlá» Ŀi
Ġà¤¹à¥ģà¤ ı
æ° ¸
à²ķ à³įà²¤
æļ ´
Ġrum ah
s ize
Ġv ai
à®¤ à®¿à®°
Ġkemb ali
ar -
à²¦ à³įà²¦
av es
àª ħ
Ġs ama
å° ½
eng o
çĭ ¬
onav irus
Ġab ove
ab an
æĹ ħ
è½ ½
D B
à¤¿à¤ ¬
à¤® à¥Ģ
àŃĩà¬ ²
à°¾à° £
In fo
Ġl áº§n
Ġà¬ı à¬ķ
ĠÄĳ Æ°a
à°² à±įà°²
Ġs ense
à¬¤ à¬¿
à¦ķ à§įà¦¤
Ġn' est
Ã© ment
Ġcal led
Ġaut res
Ġh app
ue go
6 æľĪ
IN G
à±ģà° ļ
Ġs pe
ang a
Ġa plic
à®© à®°à¯į
ä¼ ĺ
ĠUn idos
p age
Ġs á»ĳng
ur ity
ir an
ang er
ĠÙħ Ø·
Ġà®ªà¯Ĭ à®°
Ġle ft
å® Ŀ
ç¼ Ķ
æ£ ®
ç £
ard s
- k
Ġt Ã¡c
č ĊĠĠĠĠĠĠĠĠĠĠĠ
Ġth á»§
Ġd ut
èĭ ı
ç °
æ° £
Ġtrans form
ĠEnglish :
à³įà²¤ à³ģ
à¥į âĢį
Ġcor r
Ġà¤® à¥ģà¤ĸ
Ġg ol
ub e
ĠEst ado
èĪ ¹
9 5
àª® à«ĩ
: ãĦ
é¢ ¨
or re
Ġt Ã¬m
it ive
à°¿à°¨ à°¿
Ġ É
æİ Ī
Ġz it
erc ial
P l
ÑĢ Ð°
ib a
Ú¾ Ø±
à¥ģà¤ Ŀ
ä½ľ çĶ¨
ateg ory
Ġp il
å¾Ĺ åĪ°
à±ģà°Ĥà° ¦à°¿
Ġnue vo
g ar
b les
ĠC ont
à²¾à² Ł
cr it
à¤ļ à¥Ģ
àŃĩà¬ ¨
Ġquy áº¿t
ĠÙĬÙħ ÙĥÙĨ
Ġà¨ §
l ation
è Ĩ
em en
ĠÙĪ ÙħÙĨ
\" ]
Ġd itu
à¦² à¦¾
- 4
Ġm ur
as un
Ġtemp o
å¤ ®
Ġcont ent
if ier
Ġà¦ķà¦¥ à¦¾
Ġn Æ¡i
ud ian
à¤ª à¥Ĥ
Ġs alah
Ġes e
à°Ĥà°¦ à±įà°°
Ġne xt
Ġ4 5
/ 199
us es
Ø¯ Ø¯
Ø§Ø¨ ÙĤ
ÙĤØ¯ Ùħ
ĠĠĠĠĠĠĠĠ ĠĠĠĠĠĠĠ
Ġe uros
_ M
9 æľĪ
Ġà¦Ĺ à§įà¦°
à¤¾à¤¸ à¥įà¤¤
Ġd ern
Ġtro is
e e
Ġà²¸ à²®
åħ »
Ġhav ia
g round
ĠÙĥØ§ÙĨ Øª
Ġà¦Ĩ à¦ª
à®ļ à¯į
à¬¸ àŃįà¬¤
Ġà¬ª à¬¾à¬ĩà¬ģ
ç¾İ åħĥ
Ġar m
Ùģ Ø©
Ġhor as
Ġà®ª à¯ĩà®°
èĢĮ ä¸Ķ
à¨¾à¨° à©Ģ
Ġes col
è¿Ļ æĺ¯
èĤ ¡
Ġto da
Ġsu is
is on
à¥Į à¤Ĥ
à¤¡ à¥Ģ
çĳ ŀ
ind ic
à¤°à¥įà¤ ļ
e o
Ø¹ Ø§
æłĩåĩĨ åŃĹ
el i
2 02
Ġà´¨ à´Ł
à¬°àŃįà¬ ¬
Ġneg ara
Ġti empo
ad ora
ie ux
iáº¿ u
ol der
ĠA f
à²¾à² ª
Ġt urn
Ġb ukan
à´¤àµįà´¤ àµĨ
Ġproy ect
à¤¯ à¥ĭ
Ġo h
Ġresult s
Ġà¤¨à¤¿ à¤°à¥įà¤®
ie ve
æģ Ĳ
èİ· å¾Ĺ
Ġàª¸ àª¾àª¥à«ĩ
g roup
d ic
à²¿à²ķ à³Ĩ
ĠÄĳá» ©
Ġk ont
ĠP en
g n
Ġà¤² à¥ĭà¤ķ
å¼ Ł
i era
ĠÙĪÙĩ ÙĪ
ĠÙĪØ³ ÙĦÙħ
urs os
res ult
Ġ2021-202 2:
Ġn ature
Ġcol or
àª¤ à«ĭ
Ġà¨ķà©Ģ à¨¤à©Ģ
Ġn av
Ġà¦ķà¦° à¦¤à§ĩ
ib o
Ġà¦ķ à§įà¦·
Ġs ac
Ġcr it
Ġal go
ib un
Ġk inh
à¥ĭà¤Ĥ à¤¨à¥ĩ
ĠÄĳ áº¥t
æĢ ģ
å¢ŀ åĬł
r ide
l im
Ġr end
à«įàª ª
å² Ľ
Ġà¤¸ à¥įà¤¤
Ġon de
å° ļ
ä¸ ¥
Ġaqu i
Ġw rit
ie z
å Ĺ
Ġcom unic
ig u
C re
à°¿à°Ĥà° ¦
à´ķ à´°
Ġb it
Ġà§¨ à§¦
à¥ ¯
à¤ľ à¤¾à¤°
Ġfalse ;
¯ àŃįàŃŁ
ut i
Ġwith in
l am
ab el
ag em
Ġn ada
ĠG i
Ġmaj or
ÙĦÙĥ ÙĨ
Ġwak tu
Ð ¹
ĠØ§ÙĦÙħ Ø±
Ġf ic
Ġnh iÃªn
à©± à¨¸
ĠØ ¸
read y
Ġsim ilar
à« Ī
Ġà¤ªà¥įà¤° à¤®
Ê Ĵ
à¦¿à¦ ĵ
Ġà¤° à¤¹à¤¾
Ġesp ec
seg ur
à§ «
E lement
ĠÃ© ta
ĠÙĪ Ùĥ
Ġpr ior
Ġs ource
Ã² a
çĲĨäºĭ ä¼ļ
c an
opt ion
Ġm ight
Ġ `
ter ior
ÙĤ Øª
à¨® à©Ģ
ç Ĵ
Ġdesen vol
Ġt Ãłi
Ġap pe
ĠÙĨ ÙģØ³
Ġà¤µà¤¿à¤¶ à¥įà¤µ
par ent
Ġà¤ªà¥įà¤° à¤¶
é¾ Ļ
éĻ ©
ĠØ± Ø³
à´¿à´ ®
àª° à«ĩ
à¤¾à¤ ·
ç¦ ģ
é¡ ŀ
à¤¨à¥įà¤¦ à¥įà¤°
ä¹ĭ åĲİ
Ġà²¨ à²¿à²°
à¤ı à¤ķà¥ĭ
à¬¿à¬ ®
Ġe fect
ĠØ§ÙĦÙħ ØŃ
te x
ĠN eg
id s
èī ¾
M as
éł ĺ
Ġre ally
Ġdou ble
Ġà¤ī à¤¨à¥įà¤¹
Ġtrans port
Ġsamp ai
åĬ ¿
og raf
ĠA ct
Ġt Ãªn
æĺ ¥
Ġph áº§n
ĠØ£ Ø³
at os
Ġe p
artic le
Ġj an
l ength
ĠI ng
Ġ __
Ġà¦Ĩ à¦Ľà§ĩ
à§Ģ à§°
æĢİ ä¹Ī
Ġso it
Ã± os
B N
Ġgi Ã¡
Ġà¤¬ à¥Ī
ÙĪ Ùĩ
à¤² à¥įà¤²
ant i
ĠL o
ĠØ¹ ÙħØ±
aj o
Ġt ipo
ĠY ork
ĠM od
æĪĲ åĳĺ
ĠR ec
ĠS ub
[i ]
Ġf Ã©
ĠC ast
Í ¡
ĠØª Øª
ient os
à¯ĩ à®ļ
ĠnÃº mero
m at
rol l
à§ ©
j Ãł
Ġ Ø§Ø¯
pos ition
M ap
à¤ľà¥įà¤ŀ à¤¾
à¤¡ à¥ĩ
à¤ļ à¥įà¤Ľ
empl o
Ġig ual
à¯Ĩà®¯ à®°
à®µ à¯ģà®®à¯į
tic e
à²µ à²¾à²¦
10 æľĪ
æĭ ©
if a
à¬ı à¬¹
s ung
u age
Ġt Æ°
Q uer
à°¨ à±ĩ
d '
Ġterj adi
Ġà®µ à®´
Ġsin ce
av ant
æĸ Ń
è¦ ª
Ġset elah
éĢ £
à®µ à¯ģ
Ġb ÃŃ
Ġter k
ĠÄĳ iá»ĥm
Ġà¨µ à¨¾à¨²
æİª æĸ½
Ġà¤¦ à¥Ģ
é ¸
Ġà¤Ĩ à¤«
Ġse h
çİ¯ å¢ĥ
Ġngh iá»ĩp
à¥Ĥ à¤®
åģ ĩ
- P
à¯Ĥ à®²
à®£ à¯įà®£
ĠR ob
éĩĩ åıĸ
ĠD i
æ£ Ģ
Ġà° ²à±ĭ
à¥įà¤ ľ
ĠØŃ Ú©
Ġcol umn
Ġa ument
Ġin dex
Ġs y
à«ģ àª°
Ġmed ia
Ġà¤° à¤¾à¤·à¥įà¤Łà¥įà¤°
à¦¿à¦ Ĺ
pl ace
Ġdef ault
æ¯ Ľ
Ø¦ ÙĬØ³
ĠCh ina
Ġl ors
Ġorgan is
err or
ĠD em
ÙĦ Ø³
åĵ ª
è« ĸ
ar ik
Ġprof ess
um at
Ġà®ħ à®±
ut ako
trib ute
ĠM ay
Ġà¬ıà¬¬ à¬Ĥ
à±įà° §
Ġrel ig
\\ ;
In dex
Ġàª ĵ
en ez
åħ³ ç³»
Ġà¬¸ àŃĩ
Ļàµįà´ Ļ
Ġseb uah
ĠØ§ÙĦØ£ ÙĪÙĦ
à®´ à®ķ
çī Į
à©°à¨ ¡
à¬ ĸ
éŁ ĵ
Ø§ÙĨ Ø§
Ġàªķ àª¾àª°
à´¤àµįà´¤ à´¿à´¨
Ġdest in
Ġngo Ãłi
ie f
Ġph Æ°Æ¡ng
ÙĪ ÛĮ
çĽ® åīį
em ente
å± Ĥ
Ãł m
ĠÃ©gal ement
l ink
et ako
Ġen pres
S ize
Ã¡ g
Ġgrand es
ÙĨ ÙĬØ©
à®¾à®© à¯įà®±
Ġà® Ł
Ġà¤¬ à¤¾à¤¤
Al l
anc ia
à¦¿à¦Ľ à§ģ
Ġf ree
à¤¾à¤ Ń
ĠÙģ Ø¥ÙĨ
à¤¾à¤Ĥà¤ļ à¥Ģ
p ath
ĠÙĪ Ø§ØŃ
à¤® à¤§à¥įà¤¯à¥ĩ
à´¾à´ ³
Ġsol ution
ĠÙĪ ÙģÙĬ
Ġ/ ËĪ
iÃ¨ res
àª£ à«Ģ
Ġà¤¨ à¤¿à¤ķ
in ho
Ġl' imp
h es
Ġnot re
ĠÙĦ Ø¦ÛĴ
ĠÙĬ ÙĨ
Ġà¤¶ à¥įà¤°à¥Ģ
Ġ5 00
å° İ
èµĦ æºĲ
à¬ ł
al de
Ġel la
er ik
ed e
Ġà¦ķ à¦¿
: /
Ġà¦¬à§įà¦¯à¦ ¬
ĠÙĦ Ø£
b on
à´¾à´ ľ
å®Į æĪĲ
: 0
Ø¨ ØŃ
Ġà¨ľ à¨¼
é» Ħ
Ġch á»ĭ
Ġconst it
à¦¿à¦ķ à§įà¦·
à¤¤ à¤°
Ġsec ret
åħ ´
Ġà²¬ à³Ĩ
à±įà° Ĺ
à±Ģ à°°
ap kan
çĶ »
ĠB o
àª¹ à«Ģ
à§įà¦¯ à¦¾à¦²
à°¦ à±įà°¦
Ġà¤ļ à¤²
Ġtá» ¥
ĠE d
at kan
Ġout put
Q ue
Ġb Ã¡
Ġse orang
§ à«
Ġgiá» Ľi
Ġc ert
Ġlarg e
port un
_ f
à±ģà°² à±ĭ
s um
àŃ ¦
i i
Ġim m
Ġit em
ur ation
Ġv ideo
Ġtrav Ã©s
àªķ àª¾àª°
ĠdÃ©velop p
c ode
à´¿à´² àµģà´Ĥ
à¦¾à¦° à¦¤
Ġà°¨ à°¿à°°
Ġà¦¦ à§ĩà¦¶
ä¹ĭ éĹ´
Ġpesso as
Ġthá» ĭ
àª¾àª ĩ
Ġz ituen
à¯Ī à®¤à¯įà®¤
j u
Ġapr Ã¨s
P ath
è¨ ĺ
Ġpr Ã©c
Ġfac il
à¦ ĥ
Ġ{ {
à¥ģà¤³ à¥ĩ
ĠÙĬ ÙĥÙĪÙĨ
T R
Ð ¿
æķ £
Ġch iáº¿n
è¿ ª
Ġà®ķ à®Ł
enc iÃ³n
Ġà¦®à¦§ à§įà¦¯à§ĩ
Ġm obil
à§ģ à¦¦à§įà¦§
à´¿à´ķ à´³
t ar
Ġà¨ľ à©ĭ
ĠG re
eng ah
Ġà¤ħ à¤¸à¥ĩ
Ãª te
à¯ģà®® à¯įà®ª
àµĭ à´Ĺ
ÙĪ Ùĥ
Ġà¨ª à¨¹
m ap
è® ¨
Ĩ Ĳ
, ĊĠĠĠĠĠĠĠĠĠĠĠ
z eko
Ġhe ad
Ġà®ª à®¤
à¬ķ à¬¾à¬°
àª¾àª ĸ
Ġmo ins
Ġgre at
Ġn iv
Ġm b
Ġj aneiro
as o
ĠS ing
Ġv ig
è¡ ¥
F I
St ate
à¤¾à¤¤ à¥Ģà¤²
A c
Ġl' a
og o
Ġ\" S
Ġ199 9
ĠÙħ ÛĮ
Ġse p
à¥ĩà¤ ³
Ġs' ha
x a
Ġmend apat
Ġàª¹àª¤ à«ĭ
à®¾à®Ł à¯ģ
\\ \\
ĠT im
à¦Ĺ à§ģà¦²
ĠØ¥ ÙĦØ§
èģ ²
Ġà²¹ à²¾à²Ĺ
åŁº éĩĳ
Ġme an
unc a
ç« ¯
à¨£ à¨¾
Ġà®ļ à®¾à®©à¯įà®±
Ġd ÃŃas
ĠØ§ÙĦÙħØª ØŃØ¯Ø©
àŃįà¬ Ł
dit ions
ĠØª Ú©
ÙĬÙĨ Ø§
Ġpar l
âĢĶ âĢĶ
th umb
à²¬ à³ĩà²ķ
;; ;;
ç¼Ķ çº¦
è® Ń
Ġto o
à° Ī
Ø§Ø¹ Ø©
Ġm ud
Ġaix Ã²
Ġud al
ĠÙĦÛĮ ÛĴ
ĉĉ ĉĉ
Ġp ower
ä¼ ¤
Ġà¦¬à¦¿à¦ ·
Ġm ic
oc al
Æ° u
ouvern ement
ik asi
å° ģ
Ġà¤ĺ à¤°
à®¿à®¯ à®¿à®²à¯į
ĠC e
à²Ĥà²¤ à³Ĩ
Ġch i
ĠA nh
Ġd' una
ĠT e
Ġà®® à®ķ
æ¼ ¢
Ġx Ã£
è° ¢
è¡Į ä¸º
à°¤ à°¿
Ġg ain
Ġpres ident
ä¸ ¹
à²¤ à²¿
à¤² à¥įà¤¯
Ġs ite
ĠN a
Ġà¦ļ à¦²
est r
è¿ ľ
Ú¯ ÛĮ
amb a
Ġs Ã¡t
id get
In t
Ġgi áº£i
çĸ Ĺ
ĠØ³ Ú©
3 æľĪ
å¥ ¥
ĠÙĪ Ø¥
Ġpr est
m essage
AN T
Ġaut om
Ġgrup o
ÙĪ Ø©
ĠmÃ¡ a
ĠÛģ Ùħ
à²¿à² ¡
à¤¨à¥įà¤ Ľ
de z
Ġc et
Ġpas ado
Ġà¤Ĩ à¤§
ï¼ļ âĢľ
I 'm
UL L
ĠT amb
Ġà¬ıà¬¹ à¬¿
Ġdes ar
Ġà¤ª à¥ĭ
.Ġ Ċ
à¥Ī à¤¸à¥ĩ
à©° à¨®
Ġh ir
Ġseg Ãºn
t ats
n el
Ġ3 6
Ġter rit
ĠC re
åıĳ çĶŁ
Ġav ant
Ġà ³
ĠA h
Ġj ika
à«ĭàª Ĺ
im al
Ġà¤Ĺ à¥ģ
à¤¸ à¥įà¤Ł
ĠN e
è¦ ĸ
iv ate
ĠÙĪ ØŃ
Ùģ ÙĤ
P U
op h
Ã´ t
à¤ķà¤¾à¤° à¥Ģ
à§įà¦¯ à¦¾
ak t
Ġx a
Ġsu ff
åľ ĺ
Ġfo is
å¥½ çļĦ
ÑĤ ÑĮ
te ur
Ãª t
Ġtá» īnh
h ec
} {\\
å¸ ¶
ĠCh ar
Ġmes es
ÛĶ Ċ
å¾Ī å¤ļ
Ġap enas
Ġdesp uÃ©s
Ġs ch
A b
à°¤ à±ĭ
fer ence
èī ¯
Ġn ational
Ġà¦¸ à§įà¦¥
T est
èĹ ı
à° Ĩ
Ġcon vert
à³Ĥ à²°
à²¿à²¸ à³ģà²µ
ĠCov id-19
ĠØ£ Ø¨ÙĬ
å© ļ
Ġh áº¿t
à°¿à° Ł
Ø§ÙĨ ÛĴ
Ġap plication
Ġo k
if t
Ø¹ÙĦ ÙĤ
à¤£ à¥įà¤¡
ĠG l
Ġf all
pe on
Ġter b
os to
Ø±ÙĬ Ø¯
Ġà¤µà¥įà¤¯ à¤ķà¥įà¤¤
ĠÄ ĥ
ĠEsp aÃ±a
æĿĥ åĪ©
Ġor ient
à¨¨ à©ĩ
Ġà¨ª à©ģ
R ec
å¸Į æľĽ
Ġà¬¸ à¬Ĥ
Ġest Ãł
Ġàª¥ àª¯
å¤ ľ
ĠC ap
Ġ Ñģ
Ġà®ħ à®®à¯Ī
ĠM or
I A
äº Ī
Ġà¤Ĺ à¤Ī
æľŁ éĹ´
ä» ħ
à¤¸ à¥įà¤¯
unc i
Ġà¦¸ à¦¹
à¤£ à¥Ģ
/ 11
Ġà¬ «
Ġav oir
æĿ Ĳ
Ġàªµ àª§
Ġà¥ «
ais s
Ġl Ãºc
ĠÙĪØ§ÙĦ Øª
Ġmin ha
ÙĬÙĨ Ø©
Ġo ct
ear ch
Ġg eh
se lect
æ²Ĵ æľī
à²¨ à³Ĩà²¯
à¥ĩà¤¶ à¤¨
i Ã£o
Ã§ os
æĿ ¿
á»į Ìģ
Ġseg undo
in ha
åľ ĸ
Ġà¤µà¤¿à¤ķ à¤¾à¤¸
Ġà®µà®¿à® ³
T T
Ġseb elum
à«įàª¯ àª¾àªĤ
Ġtr ying
Ġt ab
à¥ĩ à¤®
ä½ Ľ
à²² à³į
Ġt Ãł
à´ «
ç¾İ åľĭ
Ġà´ ¹
à¦§ à¦¾à¦¨
Ġà¦¸ à¦¬
à¬ ĻàŃįà¬Ĺ
en ame
Ġà¤ľ à¤¾
à±ĭ à°Ĺ
ĠL at
ĠÙħ Øµ
w idth
Ġt ang
l ess
àŃĢ àŃŁ
èŀ į
ĠØ£ Ø®
ĠN ot
M y
à¤¿à¤ £
ä¹ĭ ä¸Ģ
Ġl iÃªn
Ġd' aut
Ġmas yarakat
u ent
ou p
Ùİ ØŃ
Ã©r ation
à´¨àµįà´ ¦
Ġà¤ħ à¤²
Ġest im
à¨¾à¨ ª
Ġintern acional
Ġcele br
Ġà´ Ī
åį ±
p y
å¹´ ï¼ī
O L
Ġn Äĥng
à¥ĭ à¤¨
ç¥ ĸ
Ġp s
ä¸ ģ
Ġal ong
Ġle ad
à¦¿à¦² à§ĩ
ĠÙĪ Ø±
Ġà¤ı à¤µ
Ġ/ >
K au
Ġdep end
ĠÚ¯ Ø§
à®©à¯įà®± à¯ģ
Ġà¤ħ à¤¬
po int
Ġv ict
à¦ļ à§įà¦
Ġà¬ Ł
s l
à¦¾à¦ Ń
Ġm áº¹
æĢ ¥
ĠÄĥ n
à¬¨ à¬¾
è½ ī
in er
ag n
Ġt el
5 æľĪ
à¯ģà® £
åĳ ¼
Ġd ate
Ġt ip
st art
å» ¶
ĠH o
Ûģ Ø±
àŃįà¬ ²
ĠEurop e
àŃį âĢĮ
à²¤ à³įà²¯
à¯ģà®ķà¯įà®ķ à¯ģà®®à¯į
Ġmu jer
$ $
à´£ àµįà´
Ø¨ Ùĩ
ï¼ į
à¦ ĺ
Ġd unia
Ġ3 9
Ġl ife
Ġm ismo
à¥ĩ à¤¨
Ġs yst
ve y
çİ ©
Ġre un
à¯ģà®ķ à¯į
Ġà¦¹ à¦²
ĠØ³ ÙĨ
Ġh alaman
ÙĪØ± ÛĮ
Ġà® ¯
Ø¦ Ø©
Ġl ot
äº ¡
à°¿à° ¦
Ġàª° àª¾àªľ
à¤Ľ à¤¿
Ġinst al
el se
à§ ª
à²Ĺà²³ à²²à³įà²²à²¿
à¬¿à¬ ª
èĩªå·± çļĦ
ab ly
iv ity
un y
åĲĹ ï¼Ł
ÃŃ r
à¤ļ à¤¾à¤°
peon ato
ing u
à¤¦ à¤¾à¤¨
org /
Ġà®ħ à®µà®°
à§ĩà¦ ¹
Ġho y
Ġà¤ľ à¤¬
uz t
Ġtemp or
à´¤ àµįà´°
åŁ ¹
Ġe ar
Ġlim it
ÃŃ vel
K h
or ge
èĴ Ļ
le c
è® ¢
Ġ3 3
ĠÙĦ ÙĥÙĨ
ĠI II
Ġl ater
à±Ĩ à°¡
ĠS ud
éĵ ģ
å·¥ ç¨ĭ
àµįà´ ķàµįà´ķ
D ate
à²Ĥ à²Ł
ĠF eb
Ġv ent
Ġà¦Ĩà¦® à¦¿
Ar ray
Ãł ria
N A
à¦°à§įà¦ ¥
eg in
Ġà¬ķà¬° à¬¾à¬¯
ul is
Ġlitt le
ĠI S
à¤¿à¤¯ à¥ĩ
Ġa round
Ġci ut
Ġber d
8 æľĪ
Ġth row
Ġàª® àª¹
ĠÄĳá»ĭ a
à®° à®¿
ĠS in
con fig
ĠEurop a
ĠØ§ÙĦÙĤ Ø±
åĬª åĬĽ
Ġcr Ã©
Ġam pl
up a
à§Ĥ à¦ª
pos e
Ø§ÙĦ Ø¨
à¤¿à¤ ļ
çĽ® æłĩ
à¯įà® °
p as
ĠGo vern
Ø¹ ÙĬ
æŃ£ å¼ı
ot el
Ġreg istr
Ġserv ices
Ġà¨ĩ à¨ķ
é£ ŀ
Ġsing le
Ġmeng en
au c
r t
à°ª à±įà°°
L ay
had ap
à¤ª à¥ģà¤°
Ġà¦¸ à¦Ļà§įà¦Ĺ
è£ ģ
à¥ģà¤¸ à¤¾à¤°
Ġà¦ħ à¦§
ä¸Ń æĸĩ
Ġà¤® à¥Īà¤Ĥ
W hat
Ġà¨ķ à¨¿à¨¹à¨¾
r ary
à¥įà¤¯ à¤®
is ema
ĠĠ (
Ġpert ama
ch ar
å· Ŀ
Ġequ ip
à¤ļ à¤¾
ĠS im
à® İ
Ġs Ã¬
m _
Ø¹Ùħ Ø§ÙĦ
11 æľĪ
f ait
ou v
Ġt arget
wit ter
un que
P K
Ġare a
ate ur
å° Ī
Ġ3 00
Ø£ Ø³
T u
ĠG NU
ĠØ³ Ø§ØªÚ¾
1 æľĪ
ä¹ İ
à«ģ àªķ
àª¾àª ¬
U +
à®µ à¯ĩ
à¨ Ŀ
ĠÃ© p
Ġà¦¬à¦¿à¦¶ à§įà¦¬
F A
åŃĺ åľ¨
te ad
Ġà®Ĩ à®ķ
Ġde ta
ant u
Ġ Ø§Ø±
ut h
åĨ ²
Ġà®ª à®Ł
å§ Ĩ
Ġv el
p ost
æ³ °
Ġconf irm
Ġà®ļà¯Ĩà®¯ à¯įà®¤
à§ĩà¦ĵ à¦ģ
Ġv áºŃt
à¨¸à¨¼ à¨¨
4 æľĪ
æĺ¯ åľ¨
à¨Ł à©Ģ
ĠØ§ ÛĮØ³
à¥įà¤Ł à¥Ģ
à²¿à² ³
ĠM ais
j os
ĠØ¨ Úĳ
' d
ar Ãł
Ġthá»© c
åĿ Ĳ
Con text
à¥įà¤° à¤®
En t
é¡ Į
Ġdif fic
ien ne
à®¿à®ķ à®³
ĠrÃ©sult ats
Ġp ad
f i
/ *
eth er
id d
Ġà¤Ĺ à¥ĭ
Ġah ora
Ġto ute
æĿ Ł
éģ ĩ
ĠSt ates
Ġth á»ĳng
Î ¿
çķ «
Ø¶ Ø§
Ġp ul
Ġad v
èĪ ī
et r
Ø§Øµ ÙĦ
à²¤ à³įà²°
pert y
U ser
ĠØ® ÙĦØ§ÙĦ
ure d
Ġg ive
Ġsu as
à¨¿à¨ µ
it an
und ial
ut er
ĠN Ã£o
áº· ng
é» ¨
Ġconstr u
ĠØ§ÙĦØ¹ Ø§ÙĦÙħ
Ġà¤ľà¤¾à¤¤ à¤¾
ĠM ac
ĠK BBI
Ġà¤® à¥ģ
à¬¿à¬ ģ
ĠØµ ÙĦÙī
or ial
Ġc at
à«Ģ àª¨à«ĩ
áº¹ ÌĢ
è¨ ±
è° Ī
if f
( (
ĠÛģÙĪ Ø¦ÛĴ
à®¿à® ¨à¯įà®¤
Ġà¤µ à¥ĩ
ĠØ¨ Ø£ÙĨ
ĠØª Øµ
ĠÄĳ Ã¡nh
âĢĻ est
à°¾à°¨ à±įà°¨à°¿
s es
à°¸ à±įà°¤
ĠÙģÙĬ ÙĩØ§
s u
ä¸į ä¼ļ
à´¨ àµįâĢį
àµ¼ à´¤àµįà´¤
Ġp ur
ele ct
Ġass im
à¯įà®ķ à¯įà®ķ
Ġe dit
Ġà®İà®© à¯įà®ª
Ġcal cul
áº· p
Ġlo ad
d f
Ġtro u
Ġf ont
à¦Ĺ à§įà¦°
cho ol
uk um
Ø§ÙĨ ÙĪÙĨ
Ø¸ Ø§Ùħ
à²ª à³įà²ª
ä¸ ´
Ġcomp on
éĴ ±
è¯ º
Ġtemp at
ĠØªÚ¾ ÛĴ
Ġp ay
Ġn u
Ġà¦ķ à¦®
U E
av am
ĠQ ue
Ġo ld
à¨Ł à¨°
w i
Ġsist em
à³Ĭà²³ à³įà²³
Ġk a
ĠCom iss
à¤¾à¤ ¢
em e
1 \"
Ġà¨¸ à¨¨
Ġà°® à±Ĭ
ÙĪÙĤ Ø¹
Ġv eg
Ġ.Ġ. Ġ.
Ġà°Ĺà±įà°° à°¾à°®
Ġl áºŃp
Ġe cho
ç¼ º
Ġeurop Ã©en
Ġà¥ ª
Ġmen ing
Ġth áºŃt
ĠS te
ÙĪØ§ ÙĬØ©
Ġà¬¬ àŃįàŃŁ
Ë ĭ
L as
Ġà¤¨ à¥įà¤¯
Ġe ither
Ġc anc
Ġg al
ç¬ ĳ
Ġà¤ ĳ
Ġà¤¯ à¤¸
Ġintern ational
à´¾à´ §
Ġà´ ±
Ġà®ĩà®° à¯ģà®¨à¯įà®¤
Ġd' A
un to
im age
ont o
Ġng he
Ùħ Ø§ÙĦ
viron ment
ĠM ic
ĠM ad
Ġcon text
ä¸Ģ èµ·
Ġà¤ķà¥ĭ à¤Ī
qu i
à°¿à° ļ
an as
Ġwork ing
ĠgÃ©nÃ©r al
ist ance
à¦¾à¦ Ľ
Ã¡ri os
Ġpern ah
à°¿à° ²à±ĭ
çĽ¸ åħ³
è¡Į æĶ¿
ur iel
ĠA ustr
ell o
Ġhab ÃŃa
à±ģà° ¡
Ġest Ã£o
Ġpro ces
ient ras
àŃĥ à¬¤
à¤µ à¤¾à¤°
1 ;
9 6
Ġdif fÃ©r
à¬ Ĩ
ĠD el
Ġacc ord
Ø§Ø° Ø§
ĠÄĳ á»Ļ
æ¬ Ĭ
è« ĭ
ec es
Ġre duc
à¤¶ à¥įà¤¯
Q L
Ġà¤Ń à¤¾à¤Ĺ
à§ĩà¦ ª
àªĤàª §
N ot
or en
Ġà¤¨ à¤µ
à±ĩ à°·
Æ°á» Ľi
x y
à§įà¦ £
ar ra
ic ios
Ġad opt
im at
pon ent
9 8
form a
uer do
ä¸į è¦ģ
Ġà¤® à¤¿à¤
ar -se
Mod el
Ġf ace
ä¼ °
) ĊĠĠĠĠĠĠĠĠĠĠĠ
ĠØ§ÙĦÙħ Ø³Øª
Ġint ro
end u
Ġk up
Ġrec ib
à¤¸à¥įà¤¥ à¤¾
Ã» t
à¤¤ à¤¾à¤¤
Ġpart ie
Ġb and
Ġqu Ã©
à¯Ī à®ªà¯į
Ġsuc cess
Ð½ Ð¸
à«ĩ àª¸
çµ ¦
Ġh ome
Ġà®¨ à®¿à®²
Ġide a
2 ]
æ Ĩ
Ġw r
1 /
Ġpu is
Ġsem ana
åī §
à´¾à´ ¦
ien e
ÙĨ ÙĳÙİ
èŃ ¯
Ġd io
Ġper ts
El s
ĠmÃ¡ y
H O
Ġn ord
Ġà¬ §
Ġh ub
O ver
Ġà¦ĺ à¦Ł
pl ac
Ġà®µà¯ĩ à®£à¯įà®Ł
ä¸Ń å¤®
P I
çŃ Ķ
ĠØ¥ ÙĦÙĬ
anc o
Ġj adi
à²ª à³įà²°
Ġà¬¸ àŃĩà¬
#### ####
if s
Ġtr ait
0 x
à®¤ à®®à®¿à®´
Ġsend iri
ĠØ¯ ÙĪ
ØŃØ¯ Ø«
Ø§Ø¯ ÙĬ
åħ¨ çĲĥ
ara an
çŁ Ń
âĢĿ çļĦ
Ġjorn ada
äº Ĵ
ĠP S
Ġpers ones
à´¾à´ Ĺ
t ;
Ġall ow
s ource
çľ ¾
Ġà¬ī à¬ª
à¤¾à¤ª à¥įà¤¤
Ġnh Ã¬n
U p
Ã©t Ã©
Ġpob l
Ġme ans
Ġà¤ķà¥ĩ à¤²à¥ĩ
Ġseg unda
ist an
T _
Ġest as
à§Ģ à¦¬
æĽ ¼
z u
ĠØ¯ ÛĮØ§
Ġel a
Ġà¬® àŃģà¬
Ġm ir
âĢ ¢
/ >
qu ent
åħ±åĴĮ åĽ½
à¯įà® ¨
eb ook
ari as
Ġàª² à«ĭàªķ
ĠP rem
ie k
à¤¾à¤ī à¤ģ
ĠS uper
æİ§ åĪ¶
Ġegit en
à¥ĭ à¤¡
p >
Ã© tait
est er
Ġer re
ĠP ara
Ġal tres
Ġà¤¨ à¤¿à¤¯
Ġth Ã¢n
à§ĩ à§Ł
Ġkh Ã³
ĠCO VID
uz i
itz aciÃ³
ĠW hat
ä»¥ ä¸ĭ
end ed
ÙİÙħ ÙĴ
ak it
à´ª àµįà´°
Ġsub junt
Ġbl ock
Ġe as
ÛĮ Ø§Ø¯
à°¿à°Ĥà°ļ à°¿
Ġch áº³ng
Ġb en
Ġà´ ı
áº¥ m
Ġ3 4
Ġsub st
L og
p ol
Ġg a
ic ional
Ġà¤Ńà¤¾à¤° à¤¤à¥Ģà¤¯
Ġb ud
res ent
éĵ ¶
Ġal ors
æĪĸ èĢħ
ing an
è½ »
ĠÄĳá»ģ u
[ \"
w ah
ĠàŃ §àŃ
à±ģà°Ĥà°¡ à°¿
Ġbet ter
ĊĠĠĠĠĠĠĠĠĠĠĠĠĠĠĠĠĠĠĠĠĠĠĠĠ ĠĠĠ
åİ ĭ
Ġm s
å «
Øµ Ùģ
à°¿à°² à±įà°²
in ess
ĠV er
Ġdis pon
c k
Ġm essage
A nh
Ġes o
Ã¹ n
èĥ Į
ent al
P os
ay e
Ġ[ à¤¸à¤Ĥ
à³Ģ à²¯
ih ak
et ers
åĽ Ń
Ġà¦¤ à¦¾à¦ģ
ĠÄĳá»ķ i
à¤¾à¤¹ à¤¿à¤¤
ĠÙĪ ÙĤØ¯
àª ĩ
Ġspec ific
æĪĲ ç«ĭ
à¬ «
on de
Ġest ud
è Ķ
Ġà¤ªà¥įà¤° à¤¦à¥ĩà¤¶
Ġzit uzten
Ġà¤ª à¥Ģ
ĠprÃ³ xim
Ø¶ Ø¹
or ies
Ġm Ã©
Ġest ava
à´± à´¿à´¯
Ġà¤Ĩ à¤¦
Ġab le
çİ ī
Ã©d ia
ä¸º äºĨ
à³Ĭ à²¡
Ġdisc uss
Ġcom ment
Ġmel hor
ĠS eb
Ġpop ul
éĢī æĭ©
Ġdo it
éģ Ń
Ùĩ ÙħØ§
éĢ ı
se z
Ġb ang
à¤£ à¥ĩ
à¤¿à¤Ĥ à¤¹
Ġà®¨ à¯Ģ
à´¿à´ ±
Ġl áº¥y
ch ez
Ġst d::
ä¸Ģ çĽ´
Î ½
Ġà¤ĩ à¤¨
am en
à¬¾à¬ §
Ġal c
Ġnh á»Ľ
à²¿à² Ł
Ġcor onavirus
Ġest os
ĠM ont
Ġà¤¸ à¤¦
ank s
ĠØ§Ù¾ ÙĨÛĴ
Ä© nh
èĩ º
à¦ Ľà¦¿à¦²
uc iÃ³
ut os
Ġtr ain
Ġpop ular
O f
Ġper man
du ction
Ġter hadap
ĠÄĳ áº¡o
-- -
Ġà®¤à®®à®¿à®´ à¯į
Ġsu re
Ġbers ama
itz en
he ad
ÙĪØ¬ ÙĪØ¯
- 5
à¤¿à¤¤ à¤¾
à©° à¨¨
Ġà¤ķà¤° à¤¤à¥ĩ
Ġtrava il
Ġtr á»ĭ
èİ «
Ġà¨¤ à¨¾à¨Ĥ
Ġà°ª à±Ĩ
åŃ© åŃĲ
Æ°Æ¡ i
Ġà¤ªà¥Ĥ à¤°à¥įà¤µ
åŁ ĥ
9 7
Ġfil es
à¬¾à¬ ı
Ġsitu ation
Ġch u
à²¸ à³įà²¥
c ion
à° İ
emp at
Ġà²¨à³Ģ à²¡
åıĤ ä¸İ
Ġt on
Ġmemb res
Ġà®ĩ à®£
S eg
è¡ £
cre ate
Ġtout es
ch eck
x i
à°¾à° ļ
à°¡ à°Ĥ
à¤ķ à¤¿
åŁº æľ¬
èĦ ĳ
à°¾à° ¶
Ġch iáº¿
Ø§Ø± Ø§Øª
Ļà§įà¦ ķ
à¨¾à¨° à©ĩ
Ġà¤¦à¥įà¤µ à¤¾à¤°à¤¾
à¦¿à¦ ¯
Ġà¤¹ à¤¾
à´ªàµįà´ª àµĨà´Ł
Ġf it
Ġà¤¹à¥ģà¤ Ĩ
e ff
Ġag ar
Ð ±
à¦¥ à¦®
à¨¿à¨ Ł
re u
Ġc ast
Ġreg ard
Ġà² Ł
Ġas pect
Ġà¤¸à¤Ĥ à¤ľà¥įà¤ŀà¤¾
ame work
ole an
Å ĵ
Ġ Ø§Ø¬
æľĢ åĲİ
Ġele ct
d r
Ġà¦ķ à¦¿à¦Ľà§ģ
Ġàª¹àª¤ àª¾
Ġà¤¤ à¥ģà¤®
åºĶ è¯¥
Ġbas ed
et o
ne y
Ġav ail
à§Ĥ à¦²
å¦Ĥ ä½ķ
Ġimp er
Ġà¦¹ à§Ī
D D
Ġà¦ī à¦¦
ä¹ °
Ġqu áº£
in fo
pe z
à§ĭ à¦¹
e -
Ġt ecn
Ġà²® à³Ĥ
ens es
à¦° à¦£
àŃĩà¬ ³
è¾ ĵ
g unt
Ġà®¤à¯Ĭà®Ł à®°
U M
ĠUT F
Ġh agu
Ġl uar
éĤ Ĭ
Ġ ~
Ġg el
Ġà²® à³ĩ
à±ĩ à°°
ç¯ Ģ
Ùİ Ùģ
á ŀ
Ġk ub
Ġco unt
à²¸ à³įà²¤
áº¡ y
Ġfr anÃ§
Ã¡ Ãł
E t
à®£à¯įà®Ł à¯ģ
Ġth ings
Ġà¨ķ à¨¾à¨°
Ġà¦¦ à§įà¦¬
Ġsel ama
C E
Ġcu enta
à¤¹à¤° à¥Ĥ
Ê Į
åĩº çİ°
Ġal ready
àª¦ à«įàª
Ġg á»įi
Ġcan 't
à¤¾à¤° à¥įà¤¥
åıª æĺ¯
ĠK et
ic ia
ur t
Ġcomp lex
id ence
à¦¾à¦¤ à§įà¦°
Ø¶ Ø±
Ġmos tr
Ġqu Ã¨
Ġm ise
à¤² à¤¬
çį ²
Ġses u
à°Ĥà° ª
Ġpoint s
è§ Ģ
Ġn áº¿u
Ġal tern
à®¿à®± à¯įà®ķ
à§ĭ à¦ª
ug ht
ĠÙħ ÙĪ
Ø±ÙĪ Ø¹
uest a
H and
Ġwh y
Ġà¬ķ à¬¾à¬°
ĠØ¨ ÙĩØ§
Ġà¤¸ à¥Ĥ
Ø®Ø± Ùī
Ġhi yo
à®¨à¯įà®¤ à¯ģ
I nd
åľ £
Ø´ Øª
Ġà²ħà²µ à²°
Ġser ta
åħ· æľī
Ġw Ã³Ì£n
à®¤à¯įà®¤ à®¿à®©à¯į
Ġà¤ľ à¥Ģà¤µ
Ġtr ung
Ġà¦¤ à§ĩà¦ĵà¦ģ
Ġex tra
à¥ĥ à¤·
ĠØ¨ ÙĬ
à¬¿à¬ Ľà¬¿
è¿ ½
éĶ Ļ
ĠAm er
ÙĪÙĦ Ø§
Ġb áº¥t
ĠA ir
Ġc lear
e ix
à®Ł à®¿
Ġà®ļ à¯Ĭ
à¦¾à¦° à§ĩ
eg a
/ 12
éĢł æĪĲ
al is
ai an
Ġorig inal
ç´ ļ
Ġm áº¡nh
åıĤ åĬł
Ġcomp te
Ġdep uis
A /
C o
Ġla k
éİ ®
Ġser ver
Ġà¤¨ à¥Ī
Ġà®® à¯ģà®Ł
è¨ Ĭ
à¦¿à¦ ī
emb le
Ġecon Ã³m
1 01
Ġu jar
ob er
åŁİ å¸Ĥ
Ġà¤Ĩ à¤®
Ġl ado
à¤¾à¤¹ à¤°
Ġàªķ àª¹
ur y
éĻ ½
Ġà²µ à³įà²¯
ĠÃī tats
Ġabs ol
åĲ ¸
Ġdoes n't
Ġw ar
à¤¬ à¤Ĥà¤§
am il
Ġdis play
Ġdep ois
Ġà¨ªà©°à¨ľà¨¾à¨¬ à©Ģ
åĬł å¼º
à©ĩ à¨Ĥ
å¤ ı
ech os
ri er
é¾ į
å² ģ
Ġst yle
à¬¿à¬ ľ
ÙĪÙĦ Ø©
Ġsh all
Ùİ Ø°
à®¿à®¯ à®²à¯į
à®¿à®ªà¯įà®ª à¯ģ
Ġcent re
ip p
Ġà®ªà®¯ à®©à¯įà®ª
N ode
m ain
ĠF il
à¬ ŀ
ç§ ģ
Ġmo i
Ùı ÙĦ
àµįà´¯ à´Ĥ
Ġd' in
Ġtrabaj o
Ùģ ÙĦ
av id
à³Ĥ à²ª
åıª æľī
à¥ĩà¤ ¬
Å ¡
Ġz ona
ØŃ Ø±
æ ª
Ġal d
0 5
à² İ
à¯ģà® ļ
Ġdur ant
à² Ī
à® ŀ
Ġr ess
ĠS up
à©Ģ à¨¤
æ¸ ©
Ġà¤® à¤¤
Ġon d
T able
m ad
à¤¾à¤Ĥà¤ļ à¥ĩ
åĮĹ äº¬
à¨¾à¨¸ à¨¼
Ø§Ùģ Ø©
Ġto ts
ĠT H
åĲ Ľ
Ġtr at
ä¿ĥ è¿Ľ
Ġdis s
à°¿à°Ĥà°ļ à°¾à°°à±ģ
Ġmas cul
ĠnghÄ© a
æ·· åĲĪ
åĨ ł
æıĲ äº¤
er ior
ag ue
à¦° à§ĩà¦°
Ġàª® àª³
ap ar
- 200
Ġm arg
à³ĩ à²°
æ± º
Ġà¤ķà¤¿à¤¸ à¥Ģ
M S
æ¿ Ģ
Ġà°ķ à°²
Ġt ert
à¤Ń à¤¾à¤µ
æľī æķĪ
à¯ģà®³à¯įà®³ à®¤à¯ģ
Ġb á»ı
ĠIn ter
Ġà¬° à¬¾à¬ľ
Ùİ Ø¬
à°¿à° ·
Ġs or
Ġdis p
à¤ģ à¤Ĺ
à¤ľ à¥ĩ
àª¤ àª¾àªĤ
n s
à±ģà° ģ
æĪ ı
Ġà²¹ à³ĩà²³
Ġtrue ;
Ġse a
à§ĭ à¦§
Ġm ont
Man ager
Ġal ways
Ġcomp rom
ä½ Ļ
Ġvot re
Ø¬ Ø¯
Ġc ob
ĠØ§ÙĦÙħ Ø¯
all a
em in
Ġempres as
Ġà¤ī à¤¤à¥įà¤¤
àŃģà¬ ²
ĠÙĪÙĤ Øª
Ġà¤µà¤¿à¤ ·
ĠCam peonato
ific ar
Ġà®ª à®²
ĠSep t
j s
Pron Ãºncia
Ġch áº¿t
à¦¾à¦° à§ĩà¦°
Ġà¦¤ à¦¾à¦¹
è§£ åĨ³
ĠN ous
à§ ®
åĳ ³
Ġà¦ķ à¦¾à¦ľ
à²£ à³Ĩ
ÙİØ© Ùı
Ġ202 2:
ĠM us
Ġdevelop ment
qu is
Ķ ng
à©Ģà¨ ħ
à¦¯à¦¼ à§ĩ
å¦ Ī
Ġk ek
Ĺ i
ĠB á»Ļ
à®¤ à®±à¯įà®ķ
M essage
Ġh au
è¿ İ
à±Ĩ à°¸
à³įà² ¡
à±Ģ à°µ
Ø§ÙĦ ÙĬØ©
g s
ĠD a
Ġà¦¬à¦¿à¦ Ń
Ġà®ª à¯Ĩà®°
æĪĲ åĬŁ
ven ir
àµģà´£àµįà´Ł àµį
ï¼ İ
å¾ ģ
ĠØ³ ÙĪ
Ġà¦ķ à§ĩà¦¨
Ġl' es
å¼ ·
æ¶ ī
D ia
ie urs
ä¸¾ è¡Į
Ġ3 7
à¥° ]
Ġc um
ĠH ar
Ġal iment
Ġpl ant
y r
Ø§ ÙĪØ±
ĠÂ ł
æĵ Ĭ
ĠF in
ĠJos Ã©
Ġph á»ĳ
ÃŃ p
ä¼ Ļ
ag ement
ĠØ¨ Ø§Øª
ĠdÃ©velopp ement
Ġaut re
O ut
à¦¤ à§įà¦¯
ĠØ® Ø·
ep at
Ġempres a
äº «
à±Ģ à°ª
Ġhav ing
à°® à±Īà°¨
Ġter r
Ġs ugg
ĠB en
ĠÃł s
åĶ ±
è¡ ĵ
ĠÐ ²
ig en
ĠG er
à¦¿à¦ ĸ
à±ĥ à°¤
Ġd one
à¤® à¥įà¤®
Ġà¤¹ à¤°
à´® àµįà´ª
Ġà²¸ à³ģ
éĸĭ å§ĭ
à¦¨à§įà¦¤ à§įà¦°
Ġs atis
Ã£ y
ĠS ol
Ġà¤ķ à¤²
æĸ° çļĦ
Ġà´ ķàµįà´
P aram
Ġm ang
åıĸ å¾Ĺ
it te
Ġà¨Ĺ à¨Ī
Ġindivid ual
à©Ĥ à¨¨
gun akan
Ġt api
Ġdel a
Ġve h
2 }
v ier
[ 1]
re k
Ġdec is
æį ¢
Ġfr ont
ol Ã³g
Ġpas t
Ã¡ vel
è¿ĺ æĺ¯
ĠØ£Ø¨ ÙĪ
Ġo tro
àŃįà¬° à¬¾
à§° à¦¿
Ġf aut
Ġà¤Ĺ à¤°à¥įà¤¦
Ġreal iz
Ġt áºŃp
Ġac ord
à°² à±į
à¤¦ à¥įà¤°
Ġ$ \\
val id
à²¦ à²¿à²Ĥà²¦
ma il
ĠØ³ Øª
çĽ´ æİ¥
Ġà² ¡
Ġd ue
Ġcáº£ m
Ġk ind
ĸ à±įà°¯
Ġjourn Ã©e
ur uh
åĶ Ĳ
Ġd' ex
Ġw rite
éĥ¨ éĹ¨
col or
v est
at ge
9 4
or gan
ĠK e
x x
Ġà´ «
Ġdro its
à¤ı à¤¸
à²¾à² ³
Ġà®ª à®¾à®°
ard o
an ch
ĠØŃ ÙĬØ«
çļĦ äºĭ
à°¿à°Ĥà° Ĺ
ĠC Ã´ng
ĠÙĪ Ø§ÙĤ
Im age
Ġà¤µà¤¿à¤¦ à¥įà¤¯
æĦ ¿
à«ĭ àª°
è´ ¸
Ġà¤ĺ à¤Ł
Ùı Ùħ
àªľ à«Ģ
à³ĩ à²µ
Ġm á»įi
ut ur
Ġh echo
Ãº a
æĭ ľ
Ġà¤Ĺ à¤ı
ÙĨ Ø¬
Ġt ir
è¯ »
Ġv ost
Ġà¤¥ à¤¿à¤¯à¥ĭ
Ġà¤° à¤¹à¥Ģ
åĶ ®
à¦® à¦¨
Ġà®ī à®°
tr ue
åħ¬çº¦ ãĢĭ
ad ors
ra ft
à°¡ à±ģ
Ġà®ķ à®²à¯įà®µ
Ġà¤ķà¤¾à¤°à¥įà¤¯ à¤ķà¥įà¤°à¤®
ign ed
ÙİÙĪÙĴ ÙĦ
à¯ģà®ķ à®³
é §
n is
Ġterc era
àŃĭ à¬ķ
Ø¬ÙĦ Ø³
ĠÛģ ÙĪÙĨ
Ġd entro
ĠØ§ÙĦ Ø§ÙĨ
à²¿à²¸ à²¿
àµįà´ ķ
Ġgia o
é¡ µ
P ara
Ġto ur
- G
arr y
ĠØ¬ Ø¨
Ġter l
p ri
Ġc ela
R eg
b ody
In ter
ES S
Ġàª¹à«ĭ àª¯
ight s
Ġaut o
em }}
à®¿à® ³
Ġs ession
Ġcop y
Ġs á»Ł
Ġest able
Ġh á»ıi
as te
Ġmod o
Ġg ente
Ġà¨® à©Į
N S
à¦¿à¦ Ń
à¯ģà®ª à¯į
de fin
Ġ ici
Ġyou 're
Ùģ Ø§ÙĤ
Ã¹ a
à¤ Ļ
à¤¨ à¥ĭà¤Ĥ
Ġne ver
à§ ¬
Ġkh Ã¡ch
à¤¡à¤¼ à¤¾
àªĤàª ļ
n at
à®ķ à¯ģà®¤
Ġ+ =
áº± m
èĲ ¨
Ġvir us
j our
> >
åĪ© çĶ¨
ĠCOVID -19
Ġtemp er
ĠØ³ Ùħ
Ġm _
Ġà®ª à¯Ĩà®¯à®°
ÃŃ f
Ġà¤¯ à¥ĭ
Ġ.Ġ.Ġ.Ġ.Ġ.Ġ.Ġ.Ġ.Ġ.Ġ.Ġ.Ġ.Ġ.Ġ.Ġ.Ġ. Ġ.Ġ.Ġ.Ġ.Ġ.Ġ.Ġ.Ġ.Ġ.Ġ.Ġ.Ġ.Ġ.Ġ.Ġ.Ġ.
Ġproble ma
it ate
ĠØ§ÙĦÙħ Ø¤
ur idad
con n
Ġquest ions
Ġr om
Ġfam ÃŃl
Ġà°ªà°¦ à°¾à°²à±ģ
Ġth ing
Ġnh iá»ĩm
k y
ĠØ£ ØŃØ¯
åĪ ļ
åıĹ åĪ°
æĿ ¾
à¦°à§įà¦ £
u ak
tern al
oug ht
ç´ Ģ
ç¨ĭ åºı
Ġà¤ıà¤µ à¤Ĥ
Ùĥ Ø©
Ġà¦¨ à¦¿à¦ľ
éĢĻ åĢĭ
à¥įà¤ £
Ġimp ro
ĠD ia
Ãł s
æĦ Ľ
ĠA z
ĠInd ia
/ 3
Ġà¤¦ à¥Ĥ
Ġinclud ing
Ġco ordin
Ġcon ditions
Ġre comm
à¤Ń à¤¾à¤°
b b
D o
à¤°à¥įà¤ Ł
àª° à«Ĥ
Ġà²° à²¾à²ľ
B ox
Ġb aix
ci ation
D O
cre en
à©°à¨ §
in y
Ġf ab
å³ ¶
w at
èĻ ĳ
à¨ ł
Ġdes prÃ©s
è¤ ĩ
æİ¥ åıĹ
cc iÃ³n
à«įàª¯ àª¾àª°à«ĩ
ĠØ¨ Ø£
Ġà¤ªà¥įà¤° à¤ķà¤¾à¤°
èĩ £
Ġhttp s://
Ġha ur
à¦¤ à¦¾à¦°
à¦¾à¦¨ à§ĩà¦°
ac y
à¨° à©ĭ
ĠU m
Ġà¦Ĩ à¦¹
à§ Ń
ko a
ĠU s
áº¹ Ìģ
Ġh uy
Ġ3 8
Ġmod ern
à®¾à® ´
Ġlain nya
äº ĳ
Ùİ Ø³
Ġp i
æĻ º
qu ence
anj ut
à²¿à² ·
à§įà¦Ł à§įà¦°
Ë ¥
Ġt áº¡o
Ġs yn
è¿Ļ éĩĮ
ç´ ħ
Ġm oy
Ġlu áºŃt
Ġin itial
Ġes a
ÙĬÙĨ ÙĬ
= \\
Ġaf ect
à¤¿à¤¨ à¥ĩ
Ġinst ance
à¤Ĥ à¤ľ
ç¬ ¦
Ġro w
Ġk ali
Ġvaria ble
Ġà¤¶ à¤¿à¤ķà¥įà¤·
à¤¾à¤ł à¤®
S ub
à¯ģà®¤ à®²à¯į
ĠØ¨ Ø§Ø±
- r
ĠL as
c n
Ġ4 8
Ġt udo
å¤Ħ çĲĨ
iz on
W ith
à¦¨ à¦¾à¦°
ĠÙĤØ§ÙĦ :
Ġof icial
Ø®Øª ÙĦÙģ
Ġpem erintah
Tr ans
ub re
Ġk um
èĢ ³
as ional
Ġwork s
åį ´
ĠEurop ean
iz i
ç§ĺä¹¦ éķ¿
e ur
Ġfor ce
Ġt imes
Ġà¨¦ à©Ģà¨Ĩà¨Ĥ
Ġchuy á»ĥn
ĠØ´ Ø®Øµ
Ġout ros
) Ġ
\\ x
ĠP ass
Ġke ep
Ġ[ [
le z
anc a
É ¡
Ø§Ø¦ Ø±
ä¼ģ ä¸ļ
Ġà¤ Ī
à¯ģà®Ł à®©à¯į
á»£ i
Ġdro it
å®ŀ çİ°
à²£ à³įà²£
à³ ¦
Ġà¬¨ à¬¿
à¤¾à¤ķ à¤¾
Ġme et
Ġà´¨ à´¿à´¨àµįà´¨
Ġp unya
à°¾à° Ń
E X
Ġn or
Ġà® ľ
Ġm áº¯t
Ġj ul
à¨¸ à©Ģ
Ġà®¤ à¯Ĩà®°
à´ķ à´³
čĊ čĊ
ĠC ong
itz ar
àª¾àª¨ à«ĩ
éĽ ¢
àŃįà¬ Ń
à´¨ à´Ĥ
è´Ł è´£
ent re
ot al
olog i
Ã¡tic a
ut ed
Ġmw aka
Ġfr ente
ativ as
à´¨àµįà´¤ àµįà´°
Ġs ide
ens i
Ġt ener
Ġto uj
àªķ à«ĭ
Ġàªª àª¡
à° «
Ġcáº£ nh
Ġmat ch
Ġ ill
Ġà¨® à¨¹
Ġà¤ªà¥įà¤° à¤ķ
à« ¦
an an
à¤µà¤¿à¤ §
á»ķ ng
Ġtouj ours
ĠIn stit
ÙĪ ÙĬÙĦ
Ġpor ta
Ġà®ķ à®°
Ġn ation
Ġàªħ àª¨
éĽ Ħ
Ġà¦ķ à¦²
ä¹ĭ åīį
à§ §
Ġtá» Ń
A K
Ã «
à§ĭ à¦ģ
ĠÙĬ ØŃ
à´¤àµįà´¤ à´¿à´¨àµįà´±àµĨ
æŃ¦ åĻ¨
Ġ- >
à«ĩ àªµ
à³ģ à²Ĺ
sp an
Ø§Ø ¸
ä¼ ´
à±ģà° ¸
à°¾à°° à°¿
e qu
Ġ.. .Ċ
ĠÚ© Ø§Ùħ
U s
e vent
æĸĩ åŃĹ
Ġà°ķ à°¾à°°
il t
0 4
Ġl and
ĠAn t
Ġm ad
ĠØ¬ Ø§Øª
ĠØ§ÙĦØ ¶
Ġà¤¤ à¥Ģà¤¨
Ġpolit ique
à¤° à¤¾
Ġtal k
Ùİ Ø§Ø±
uk up
ĠL ond
à°¾à° ³
Ġcour se
in ar
b as
Ġm aka
Ġà°ķ à±Ĥà°¡
Ã³ ria
Ġsab er
ŀ àµįà´ŀ
ĠTer j
Ġmel ihat
à¦¯à¦¼ à¦¾à¦°
th on
ç» Ŀ
ĠÙĦ Ùĥ
Ġà ©
ĠÙĪ ÙĦÙĥÙĨ
Ġx em
O s
Ġtr i
å¤§ åŃ¸
ĠØ§ÙĦ Ùī
Ġr az
è® ĵ
éĤ ¦
Ġnou ve
Ġb ias
ĠàªŃ àª¾àª°
åĬł åħ¥
Ø§Ø¦ Ø¯
Ġdec id
Ġant erior
os ta
ÙĦÙĬ Ùħ
ill o
ÃŃ g
ĠG et
çĸ ĳ
Ġaqu ÃŃ
ĠF ac
âĢ ĭ
Ġel les
èª ¿
op s
lab el
à¨° à¨®
But ton
Ġà®ħà®° à®ļ
à¤¨à¥įà¤¤ à¥įà¤°à¥Ģ
Ùĳ Ø©
æĳ ©
Ġà¤° à¤¾à¤®
à¤ķà¤° à¤£
à§įà¦¯à¦ ®
à´³ àµįà´³
is c
Ġà¦ķ à¦¿à¦¨à§įà¦¤à§ģ
ĠØ£ Øµ
Ġse ver
Ġter ms
å° ¤
ä½ł ä»¬
Ġho áº¡t
ĠPas al
on ia
Ġund erst
Ġmember ikan
Â· lab
Ġj ue
à´¨àµįà´ ±àµĨ
è¿ĺ æľī
ĠL et
Ġà´ ĵ
Ġtr á»įng
æĸ¯ åĿ¦
U P
ir as
åŃĹ :
à±įà°° à°®
Ġ\" s
ma x
Ġàª¨ à«ĩ
Ġà¤° à¤ĸ
Ġxu á»ĳng
Ġestab l
Ġavail able
Ġperm it
à«įàª ļ
àŃįà¬ ¸
Ġà¬Ĩ à¬ĩ
atz eko
ĠB as
Quer y
Ġ Ã¢m
Ġdep art
il ai
Ġalgun s
Ġtien en
Ġà¨¬ à¨£
Ġl Ã¡t
é² ģ
Ġex emple
à¤¾à¤Ĥà¤ļ à¤¾
ĠnÃ³ s
Ġà¤¬ à¥įà¤°
Ġex ig
Ġcons ult
é ¹
and om
al ui
à¦¨à§įà¦ ¨
à±ģà°ķ à±ģ
çī Ľ
Ġchar acter
Ġà¨¦ à©ĭ
Ġin sp
à°Ĥà°¤ à±ĭ
Ð ³
Ġreg ul
æĿ¥ çļĦ
us ing
à°¿à°Ĥà°ļ à°¿à°¨
cent er
Ġà¬ľ à¬£
FF FF
à®® à®¾à®©
âĢ ¿
à°¯ à±įà°¯
ug in
å¼ ¹
ĠJ un
Ġà´ Ł
Ø´ ÙĬ
r Ã¡
à®¤ à¯Ī
Ġà®ļ à®¿à®±
Ġak hir
à±ģà°Ĺ à°¾
Ġinter est
Ġà²Ĵ à²Ĥà²¦à³ģ
ĠCom p
Ġà¦Ń à¦¾à¦°à¦¤
Ġtr á»Ŀi
à¤¾à¤® à¥ģà¤³à¥ĩ
à´ªàµįà´ª àµĨà´Łàµįà´Ł
Ġfal ta
à²¬ à³įà²¬
and ung
Ġadd ress
un s
t ual
Ġà² «
il ity
ĠÙĨ ØŃ
ĠS am
à°¾à° ¹
Ġvá» «a
Ġhor i
ä¸¤ ä¸ª
Ġb ait
æĤ ¨
Ġb ab
Ġk amu
Ġà¤¸ à¥įà¤Ł
åıĳ çİ°
Ġph ot
ç· ¨
à¤¿à¤ ¡
Ġà¤¸à¤Ĥ à¤ĺ
à´Ĥ à´Ĺ
à³įà² ·
ert s
Ġk ÃŃ
ĠW orld
Ġ199 8
à©±à¨ §
çĦ¶ åĲİ
à±ģà°¨à±įà°¨ à°¾à°°à±ģ
åĬ ³
ek a
Ġdis e
Ġth o
æŀ Ĳ
at ua
} ;
w ith
ĠØª Ùģ
Ġà¤µà¤¿à¤ µ
ro t
Ġex act
èĤ ¯
æľ ĭ
Ã§ on
áº¯ p
Ġseg uir
Ġd Ã³
d ay
à¨¨ à¨¾à¨Ĥ
ÃĥÂ ³
Ġà¤® à¥Ģ
ĠM á»¹
Ġà¨ ı
Ġà² ı
Ġqu atre
unc il
Ġà²ķ à³ģ
ort s
Ġàª¹àª¤ à«ģàªĤ
ĠG roup
tre am
wh ere
à¤¡à¤¼ à¥ĩ
Ä ĵ
ĠA ut
ÉĻ n
Ġmul ai
ent uk
P E
a im
à¥ĭà¤ľ à¤¨
Ġdes crib
Ġl' in
Ġfor am
åį ·
à¬¾à¬¹ à¬¿à¬ģ
Ġval id
Ġqu and
Ġne ar
Ġl iter
Ġg áº§n
go ta
Ġ/ *
Ġà°ī à°Ĥà°¦à°¿
Ġk iá»ĥm
ĠÙĪØ§ÙĦ Ø£
0 3
àª§ à«Ģ
ĠÙĦ ÙĨ
Ġà´ħ à´¤
ement ara
àµĨà´¯ àµģà´Ĥ
Ġcon vers
à´¸ àµįà´¥
ĠA C
åĨħ å®¹
ĠØ£Ùĥ Ø«Ø±
av el
Ġf ull
Ġs ai
Ġf Ãºn
ir ma
Ø± Ùħ
Ġw á»įn
Ġàª¸ àª°
éĢ Ĳ
ibun al
Ġmed idas
Ġh á»ĩ
t ed
/202 1
à°¾à°° à°Ĥ
yn am
Ġ 000
arn ing
ĠK om
Ġ ÃŃt
Ð¾Ð ²
Ġà¤® à¤¾à¤¤à¥įà¤°
æ³ķ éĻ¢
Ġà¤® à¥Ī
éļ ¨
à´¾à´ ¹
oment ar
om me
< noinclude
ĠÙħ Ø¤
9 3
Ġs Ã¡ng
ĠWik is
Ġtá»« ng
ang i
è®¸ å¤ļ
à«ĭàª ľ
ok e
Ġthu á»Ļc
Ġtá»¥ c
æľ Ĺ
gun aan
ĠÙĩÙĨØ§ Ùĥ
Ġà´ ŀ
Ġinv ers
ĠA k
Ñ Ī
à¨¾à¨ ħ
ĠØª Ø³
Ġt amp
Ġles s
\\ b
å¯¹ äºİ
Ġtu á»ķi
Ġc it
Ġmar c
åĪ »
- g
àª¿ àª¸
Ġex tre
àµįà´¯ à´®
ig os
Ġà¤ħà¤¨ à¥įà¤¯
Ġciv il
Ġà¨ Ľ
ĠP ed
Ø§Ø¹ Ø¯
Ġà¤¬ à¤¸
Ġpers en
ĠF orm
ĠHow ever
on ciation
Ġans wer
Ġn unca
Ġl' est
Ġap pl
ĠConse il
Ã¡ b
ag ne
)Ċ ĉ
à²ķ à²¾à²°
ĠØŃ Ø§ÙĦ
ar ed
Ġà¦¦ à¦¿à¦¨
Ġbel ow
Î µ
un ter
Ġc áºŃu
r ar
ĠCh rist
à¤¾à¤µ à¤¾
app end
Ġkem udian
Ġt iÃªn
à®¾à®± à¯įà®±
Ġposs ibil
Con fig
à¤¾à¤Ĥ à¤¸
æ¦ Ĥ
Ġmas uk
ateg oria
à²¿à²¤ à³įà²°
Ġpol ice
à«ģ àª²
ä¾ µ
ÙĦÙĬ ÙĦ
Ġform at
à¤¾à¤ī à¤¨à¥ĩ
Ø³ Ø©
à¯ģà®ķ à®¿à®±à®¤à¯ģ
Ġs ix
Ġàª ĩ
Ġin ici
æĪĲ çĤº
à¦ı à¦ĩ
Ġl he
Ġmeng gunakan
Ø§Ø¦ ÙĬ
Ġà¤¬à¤¹ à¥ģà¤¤
à®µ à¯Ī
ä¾ĭ å¦Ĥ
à¤Ł à¤°
Ġstruct ure
ĠØ§ÙĦØ£ Ø³
å¹ ¾
or io
Ġmed io
om as
Ġac uerdo
Ġth Ã´i
Ġv Äĥn
à´° àµĨ
s ;
Âł Âł
Ġp on
Ø§ ÙĬ
Ġb ody
ri ed
ĠPar l
ore a
ÃŃ m
ĠÙĬ ÙĪÙħ
ĠIn i
æŃ£ åľ¨
à« Į
Ġ/ //
Ġà®® à¯ģà®©
ĠØ¹ ÙĦ
all er
ĠB B
Ġlab or
à±Ĩà°Ĥà° ¡à±ģ
Ġcin co
Ġak t
Ġà¦® à¦¨
ĠÙħ Ø«ÙĦ
S ervice
à¤¬ à¥įà¤¦
à¤¢ à¤¼
Ġcl os
èĪ Ī
åº Ħ
200 7
ä½ ³
19 8
Ġcaus a
Ġà¤¯ à¤¾à¤Ĥà¤¨à¥Ģ
åĢ Ĵ
ob ern
Ġdis se
Ġb á»ĳ
Ġ5 5
og n
å®ļ çļĦ
èĤ ī
Ġà¦ª à§Ĥ
en Ã§
à¤¬ à¤¾à¤°
Ġd Ã¹ng
Ø¬ ÙĨØ©
Ġbe z
Ġl ow
act iv
ĠO ri
æĮĩ åĩº
à¨¹ à©ģ
æĵ ļ
Ã¡ u
Ġkas us
è ľ
Ġcou p
ĠÄĳ Æ¡n
- L
à®¿à®²à¯įà®² à¯Ī
el er
Ġà®ķ à®²à¯Ī
ĠP our
Ġ\" \"
ik ir
Ġresp onse
ĠÄĲ á»©c
qu ier
à¤¾à¤° à¤£
9 2
ä¸Ģ æ¬¡
ra el
Ġint ent
åį Ī
Ġh ost
àªĤ àªķ
ĠØ§ÙĦ Ø§Ø³Øª
Ġà¦¯ à¦¾à¦¯à¦¼
Ġà¤µà¤¿à¤ ľ
éĲ µ
Ġf ew
at ors
Ã² m
ĠM et
éĩ İ
à²¿à²Ĺà²³ à³ģ
Ġav ons
ĠquâĢĻ il
Ġà¤¨à¤¿à¤°à¥įà¤® à¤¾à¤£
à¯ĩ à®©à¯į
Ġest o
à¦ķ à¦¾à¦¶
form ation
S c
Ġà¦¸à¦Ļà§įà¦Ĺ à§ĩ
Ġre b
ç¿» èŃ¯
at ures
à³ģ à²ķ
à¬¾à¬° à¬¤
New s
pt y
à¤°à¥įà¤ ¸
à¤ª à¤Ľà¤¿
èģ ½
Ùĥ ÙĪÙħ
_ P
Ġà¤¹à¥ĭ à¤¨à¥ĩ
à¦¾à¦ Ľà§ĩ
æ°ĳ ä¸»
d om
ĠÚ¯ ÛĴ
ĠdâĢĻ un
à¨¾à¨ĩ à¨Ĩ
Ġg obierno
Ġà¤ħà¤§à¥įà¤¯ à¤ķà¥įà¤·
Ġs' est
Ġà¤¯ à¥ĩ
! !
Ã´ le
ĠMin ister
ol ah
Ġbo ok
Ġà¤īà¤¤ à¥įà¤ª
é» ĥ
Ġse arch
Ġk ur
ÙĴ Ø¯
Ġl ight
Ġdo ing
ĠØ¯ ÙĪÙĨ
Ġm ut
c ias
à«ĩàª² à«Ģ
à°¦ à±ģ
ĠF ern
Ġchild ren
Ġfon ction
ĊĠĠĠĠĠĠĠĠ ĠĠĠĠ
Ġà°¨ à±ģà°Ĥà°¡à°¿
èĥ½ å¤Ł
Ġà²¹à²¾à²Ĺ à³Ĥ
Ġmerc ado
II I
Ġà¦¤ à§ĭà¦®
o o
Ġà¤µà¤¿à¤ ļ
Ġph áº¡m
Ġl y
ĠTerj emahan
Ġnue va
à¦¸ à§įà¦ķ
gb Ãł
C ount
èĻ ½
à©Ī à¨ķ
à²¿à² ª
Ġà§ ©
à¤¾à¤łà¤® à¤¾à¤¡
Ġth Ãªm
Ġth i
àŃįà¬ ķ
à´¿à´ķàµįà´ķ àµģà´ķ
Ġà¨Ń à¨¾à¨°
Ġà¨ľ à¨¾à¨£
Ġ ä¸į
Ġgi Ãºp
à¥ĭà¤ľ à¤¨à¤¾
Ġv ert
à¬° à¬¿
Ġperson nes
2 æľĪ
+ 1
à¥ģà¤ §
Ġku f
ĠØ¯ ÙĨ
n ov
_ 1
ĠØ¥ ÙĦ
Ġà®ĩà®¨à¯įà®¤ à®¿à®¯
Ġåľĭ éļĽ
m m
éĶ Ģ
åĽ º
Ã Ł
à¬¸ àŃįà¬¥
ward s
à°Ĥ :
Ġà¤ªà¥įà¤° à¤µ
n al
Ġj ov
Ġpess oa
- lo
ÙĪ Ø§Ùħ
Ġà¦¸ à§ĩ
ĠØ± ÛĮ
t ima
ĠW ill
Ġdem ocr
Ġà¨ķ à¨¿à¨¸
Ġcan not
ug as
ÙĪÙĦ Ùĩ
an nya
å¤§ å®¶
çĸ ¾
r Ã©
à°Ĥà° ļ
Ãºblic a
à¦ķ à§įà¦°
ÙĨÙĬ Ùģ
à²¿à²¤ à³įà²¤à³ģ
Ġdest ac
àŃĭà¬ Ł
à´¾à´¨ àµįâĢį
ĠR ed
Ġinv ol
Ġm ach
Ġsugg est
Ġ isto
Ġà²ľ à²¨
Ġgiá»¯ a
à¦¿à¦ ¡
Ġà¤¨ à¤¿à¤µ
à¬¾à¬° àŃģ
Ġh ard
ØªÙħ Ø§Ø¹
Ġstud y
Ã© o
Ġà´¸ àµįà´µ
P T
éĻ Ī
Ġmed i
Ġà®¨ à®¿à®±
à¥ĩ à¤ķà¥ĭ
à´¦àµįà´ ¦
Ġn ag
ĠÚ© Ø§Ø±
Ġà¤² à¤¾à¤ĸ
Ġà¤ľ à¥Ģ
- de
Ġprem ier
Ġprof es
à°ķ à°°
Re quest
= 0
p ass
à°¤ à±įà°¯
èī º
if i
Ġseg ona
ä¸ª äºº
Ġh em
Ã¨ res
s cript
Ġiss ue
è´ Ń
v ec
F rom
t itle
ĠÄĳ iá»ĩn
à´¯ à´¿àµ½
Ġc ause
à¬ ¡
Ġg row
em u
Ú© ÛĴ
ab at
Ġleg isl
\\n \"
Ġvis it
à®° à¯įà®ķà®³
ÙĪÙħ Øª
ar ekin
Ġel es
Ġà´ ¡
C Ã³
ĠpÃºblic o
Ø¬ ÙĨ
à±Ģ à°¯
à¤¡à¤¼ à¥Ģ
Ġter m
Ġtrabal ho
Ġ é¦Ļæ¸¯
Ġà¦¹ à¦¿à¦¸
Ġnah i
im ents
ÙĦ Ø¹
ç© ¿
à¦ļ à§įà¦ļ
åı· åĨ³è®®
ĠA y
Ġla w
ĠN ULL
éļ ľ
ĠAd d
Ġtype =\"
à®¾à®¤ à®¿
ĠØª Ú¾ÛĮ
z io
Î ²
à¦ŀ à§įà¦ļ
Ġh il
ys is
åĽł çĤº
æŁ ĵ
Ġaf irm
Ġopt ion
C 'est
Ġtet ap
Ġen v
Res ult
àŃĩà¬ ķ
Ġvo ir
àŃģà¬ ®
ĠR am
ate urs
}} }
ĠØ¹ Ùħ
Ø§Ø¨ Ø©
ä¸Ģ æŃ¥
Ġà¤¹ à¤ľà¤¾à¤°
æĵ į
h ub
à¤¸ à¥įà¤µ
Ġm akan
Ġf ot
ĠL u
Ġà´ļàµĨà´¯ àµįà´¯
Ġm áº¥t
Ġqu em
à¦¤ à§ĭ
ĠP ers
Ġph á»§
p ora
ĠWikis ource
Ġà¦¬ à¦¾à¦Ĥ
Ġfuer on
en Ã§a
Ġs ays
à¬¾à¬ ¶
ç¡® ä¿Ŀ
à¤° à¤¾à¤ľ
Ġmes ures
Ġex pos
Ġà¦ķ à§ĭ
à¦¾à¦ ī
ult ura
à©ĭ à¨Ĺ
oc up
Ġm Ãºs
à¤¬ à¥Ģ
p ret
Ġà¤¹à¥ģ à¤¨à¥ĩ
Ġà¤®à¤¿à¤ ³
pr ing
àŃ Į
à¨° à¨¾à¨Ĥ
à©°à¨ ¬
Ġà¬¹ àŃĩà¬¬
åħ± åĲĮ
Ġl uz
à²¦ à²°à³Ĩ
us ion
ä¼ ĳ
ĠÙĦ ÙĬØ³
Ġlib ert
Ġar ch
Ġ4 2
_t ype
und i
ĠÙĪÙİ Ø§ÙĦ
Ġqu art
Ġh iá»ĩu
ff er
b um
Ġant ara
Ġinfl u
Ġv Ã´
æ¢ ħ
am ment
Ġm ac
àµĨà´¨àµįà´¨ àµį
à®ķà¯įà®ķ à®®à¯į
Ġrespons abil
è®¾ è®¡
ĠØ±Ûģ ÛĴ
Ġprec is
wit ch
ĠK ar
Ġcountr y
as ing
Ġo tras
à©±à¨ Ł
àµĥ à´¤
Ġcá»© u
Ġh ak
å¹³æĸ¹ åħ¬éĩĮ
ĠC 'est
Ġnh á»ı
ĠØ§ÙĦØ¹ ÙħÙĦ
x ico
\" S
= 1
à©±à¨ Ĺ
R ep
Ġk ul
Ġesp aÃ±
us a
Ġid =\"
àŃĩà¬ ĩ
Ø§Ø¦ Ùħ
ro u
Ġle hen
Ġà¨² à©ĭà¨ķ
æ¥ ¼
à´° à´Ĥ
Ġà¤¶ à¥įà¤°
Ġh Ã³a
ĠØ¬ Ø¯
à¤¤ à¥įà¤µ
- A
Ġsek itar
Ġà²Ĩ à²Ĺ
éŁ³ æ¨Ļ
Ġà¤ħ à¤°à¥įà¤¥
Ġt á»ĳt
ament al
en h
. .Ċ
Ġmar ch
Ġà®ļà¯Ĩà®¯ à¯įà®¯
Ġà¤µ à¥Ī
Ġf el
ĠØ¨ Ø¹
àª¾àª° à«ĭ
Ġmeng g
éģ ¿
èĽ ĭ
Ġb Ã¬nh
Ġh err
Ġà¤² à¥ĩà¤ĸ
Ġsp Ã©c
Ã ¦
à´² àµįâĢį
on c
ĠØ¬ Ø§Ø¦ÛĴ
Ġbreak ;
ĠÚ© Ú¾
ĠÙģ ÛĮ
åŁº ç¡
à¥ģ à¤Ĺ
éħ ¸
é ³
Ġt ard
Ġà¤° à¤¾à¤¹
ĠÚ©Ø± ØªÛĴ
à±ĩ à°Ĥà°¦à±įà°°
j alan
Ġright s
ĠÚ©ÙĪ Ø¦ÛĮ
c y;&
à°¯ à°¨
Ġà¦Ĩ à¦¦
Ġl'imp er
Ġn Ã¡Ãł
Ø¯ÙĬ Ø«
Ġelement s
Ġà¦¬ à§ĩà¦¶
Ġre la
Ġà®® à®°
Ġg ent
X X
- D
Ġàª¨ àª¿
ĠàªĹ àª¾àª®
ĠÃ Ģ
press ion
ĠD ire
è® ²
à¬¤ à¬¾
èĢĥ èĻĳ
Ġà¤ķà¤° à¤¨à¤¾
åŁºç¡ Ģ
Ġb lo
Ġle gal
Ø´ Ø§Ø±
à¤§à¤¾à¤¨ à¤®
Ġandroid :
« ng
àµ º
ĠåľĭéļĽ éŁ³æ¨Ļ
Ġter d
Ġkw enye
Ġarte an
ĠØ§ÙĦ Ø¨Ø±
ap ter
ÃŃ o
er ja
à° ¥
Ġb id
é ±
in ation
Ġrequ ire
Ġrec ursos
Ġex iste
gr is
out er
Ġà®ĩ à®Ł
Ġquel ques
à´£àµįà´ £
Ġtro p
Ġ\" M
ÙĪØ§ ÙĤ
ĠS Ã£o
å®¶ åºŃ
ĠØ¨Ûģ Øª
abil ity
U r
Ġh ora
à¨ ¯
emb l
éģ Ĭ
t ion
ĠM at
à¤ ŀ
Ġb á»Łi
ĠÙĬ ÙĤ
ĠnÃ© cess
Ġdiz er
ĠE le
çĹ Ľ
Ġpart ido
Ġs Ä©
Ġl Ã¨
æľĭ åıĭ
Ġ ÛĮØ§
ĠTh at
á ¸
act ory
Ġâ ĨĲ
à°¿à°Ĺ à°¾
m iss
æĺ¯ åĲ¦
Ġp ihak
ait u
à³Ĩà²¯ à²²à³įà²²à²¿
ou ble
Ġcomm on
Ñ Ĩ
à¤Ĥ à¤ķ
Ġes cr
Ã °
ä½į äºİ
iz k
Ġins tead
ap o
Ġex erc
In st
ĠÙĦ ÙİØ§
à²µ à²°à³ģ
à©±à¨ ¡
å¼Ģ åıĳ
à¤¾à¤¤ à¤¾
ĠØ§ÙĦØ³ ÙĬ
ĠJan u
Ġw idth
Ð² Ð°
ĠĠĠĠĠĠĠĠ Ġ
ĠØ¬Ùħ ÙĬØ¹
Ġà¤ħà¤ª à¤¨à¥Ģ
_ re
Ġà¤® à¥Į
ĠG ar
Ø£ Ø©
æıĲ é«ĺ
Ġc Ã¢u
æĭ į
Ġà¦Ĩ à¦ĩ
ĠThe y
Ġà°Ĵà°ķ à°Łà°¿
Ġter ror
ä¹ ¡
Ġten ir
à®¾à®£ à¯įà®Ł
Ġâ Ļ
- 12
et ah
Ġel los
ä¹ ĺ
é¼ ĵ
d at
Ġb ras
à®Ļ à¯į
ĠØŃØ¯ Ø«
ĠÛģ ÙĪÚº
Ø§Ø¦ ÙĬØ©
h u
à®¿à®¯ à®¾à®ķ
ĠS aint
à¤Ł à¤¾
Ġc are
iv ing
d ia
- 10
à¥įà¤Ł à¤°
à¬£ àŃįà¬¡
Ġt y
Ġth iáº¿t
Ġname =\"
um i
Ġà°¨ à±ĩ
Ġdi al
Ġpod em
å½¢ å¼ı
ĠF eder
Ġsp ace
àª² à«ĩ
Øµ Ø©
Ġà¬ķà¬° à¬¿
Ġà´ļàµĨà´¯ àµįà´¤
Ġà¤¸ à¥įà¤ª
àŃģà¬ ¤
0 9
Ã ģ
ÙĦ Ûģ
ĠJ uan
à²¤ à²¿à²¯
C R
able d
Ġà¨¦ à©ģ
ak ah
åħ Ħ
ÙĲ Ø¹
Ġc ad
Ġs os
ĠM c
Ã©c n
çļĦ å·¥ä½ľ
Ġver be
Ġact ually
Ġà°ľ à°°
à°® à±Ģ
ik oa
àª¨ àª¾àªĤ
Ġà¬¤ à¬¾à¬ĻàŃįà¬ķ
l en
Ġch á»¯
uk i
ÙĲ Ø¨
à¦Ĥ à¦¶
Ã³r io
Ġc ity
ĠàªĹ àª¯
Ø° ÙĥØ±
èĥ ¡
Ġk ap
æı´ åĬ©
ic on
- il
à±ĭ à°µ
ĠU t
à¥ĩà¤ ¥
L ine
Ġg ouvernement
p g
p ir
Ġs w
Ġrest aur
ÙĪ Ø´
ĠØ§ÙĦ Ø¨ÙĬ
Ġà¨ī à¨¨à©įà¨¹à¨¾à¨Ĥ
Ġà¥ ¬
Ġbain o
iv as
Ġa pl
à¤§ à¥Ģ
ç´ §
à®¤ à®¾à®ķ
est o
Ġtr Æ°á»Łng
_ F
é¦ Ĩ
è¯Ń :
Ġal i
======== ========
vol ution
çĹ ĩ
Ġsub s
Ġv uel
Ġb ot
àª² à«Ģ
Ġgi Ã¡o
ĠC amp
Ø¯ ÛĮ
à®° à¯įà®ķà®³à¯į
à¤¿à¤¨ à¥įà¤¨
àªµ à«ģàªĤ
Î ¹
Ġg uzt
à¦¿à¦¤ à§įà¦°
Ġmen s
Ġà¦ķ à¦¾à¦°
, ĊĠĠĠĠĠĠĠĠĠĠĠĠĠĠĠĠĠĠĠĠĠĠĠĠ
à¤¯ à¤¹
¬ à°Ĥà°§
Ġm ientras
tr y
Ġvá» ±c
enc iÃ³
Ġus o
ic ion
Ġà¦Ń à¦¾à¦²
à¯Ĭ à®´
Ġà¨Ĺ à©ģà¨°
à¤¾à¤·à¥įà¤Ł à¥įà¤°à¥Ģà¤¯
å¥ ĸ
Ġprime ira
Ġ( )
çľĭ åĪ°
æĢ§ çļĦ
Ġk ond
Ġbes o
ĠK ep
à¤Ĥà¤¦ à¥įà¤°
n u
¥ à«Ģ
Ġket ika
0 8
ä½ľ åĩº
Ø¨ ÙĬØ±
Ġmu cho
Ġst atus
ĠSoc ial
Ġdi es
ĠSept ember
Ġà´¸ à´®
Ġà²¹à³Ĩ à²ļà³įà²ļ
- H
ĠpÃºblic a
à°¾à°Ĥà° ¤
à²³ à³ģ
åľĭ å®¶
Ø¬ Ø©
Ã² ria
àµ İ
oc ol
ĠÙĬ Ø¬
çł ģ
à¬ª à¬¿
o od
er al
å»º è®¾
m ission
à¬¾à¬ Ł
æį Ł
Ġpr ac
à¦Ń à¦¾à¦¬à§ĩ
Ġso ftware
à¤¤ à¤¿à¤ķ
ah un
Ġag ora
Ġcons erv
Ġn ome
Ġcon cl
Ġà®ħ à®Ł
æĸ Ĺ
èĺ ĩ
ĠC ari
w ak
Ġbene fic
er ing
àŃģà¬ £
èĩª çĦ¶
Ġg áº·p
å® ĭ
Ø³ ÙĦØ§Ùħ
æİ ¢
åľ Ĵ
ç¾ħ é¦¬
àµįà´° àµĢ
èģ ĸ
k ap
à¯Īà®¯ à¯Ī
ĠØ¹ÙİÙĦ ÙİÙī
åĤ³ çµ±
Ġngh i
Ġà¬° àŃĭ
à©ĭ à¨°
Ġà²ħ à²§
ĠRe al
Pron onciation
àªµàª¾àª¨ à«Ģ
Ġorgan iz
åį »
Ġà®µ à®¿à®ķ
ĠÙĪ Ø£ÙĨ
for d
Col or
ç» ľ
à¦£ à§įà¦¡
Ġcas es
w ar
Ø¨ Ø§ÙĦ
ud es
Ġà¦¸ à¦¾à¦®
à¤µ à¥įà¤¯
Ġà¤µ à¤¿à¤°
Ġdu en
Ġ4 4
Ġà¤¬à¥Ī à¤ł
Ġph ÃŃa
im er
n ow
åĽ °
Ġà¤ķà¥ĩ à¤²à¥Ģ
è´ §
Ġprem iÃ¨re
à´¿à´ Ļàµįà´Ļ
Ġà¤ľ à¤Ĺ
ĠTr ump
Ġà¦Ĩà¦® à¦¾à¦°
A A
eg i
à°Ĥà°¤ à±įà°°
Ã©c ur
å®Į åħ¨
p ha
à© Ľ
Ġà°ħ à°µ
W h
Ġà¤ĸ à¥ĩà¤²
à¤ķ à¥įà¤ķ
Ġà¦¬ à¦Ľ
ĠØ§ÙĦÙĨ Ø§Ø³
Ø§Ùħ Ø¬
Ġsh ort
Ġà¦¤ à¦¾à¦¦à§ĩà¦°
à´µ à´¿à´
Ġ Ã²Ì£
à¬¿ à¬°àŃĩ
à¬¾à¬¨ àŃįà¬¤
ĠÙĪ ÙİÙĦ
c d
aj ar
ĠØŃ Ø³
-l he
Ġ\" m
Ġ ï
Ġk ama
éĽ ħ
Ġàªµ àª°à«įàª
å§ Ĳ
ĠN á»Ļi
Ġth am
Ġhist oria
ĠØ´ Ø±
Ġ éĢļ
ĠB a
id ar
3 00
Ġà®ª à®°
Ġt inh
Ġà¤ľ à¤¾à¤¨à¥ĩ
Ñ ħ
è ¸
àµĭ à´³
à²¿à² ľ
ÉĶ Ìĥ
Ġle ast
Ġà¤¬ à¤¾à¤°
Ġàªª àª¹
Ġàªª à«ĭàª¤
åľ° åįĢ
E z
àª¤ à«įàª¤
ĠtÃŃ t
ri que
Ø±Ùĥ Ø©
ra is
ÙĴ Ø¨
Ġutil is
à¨Ĺ à¨¾
U na
int o
om s
iv ely
Ġth ÃŃch
à¨¿à©°à¨ Ĺ
Ġm ah
ÛĮÚ© ÙĨ
à¯ģà®± à¯Ī
us ah
) (
Ġb ulan
_ st
ĠA ug
Ġcont en
Ġcol l
Ġ çļĦ
Ġàªµ à«įàª¯
Ġ7 5
ä¸Ĭ æµ·
Ġer abil
à¦¤ à§įà¦°
ĠcÃ¡ o
ÙĨ Ùħ
Ġmel alui
ä¼ ¦
é» İ
è°ĥ æŁ¥
à¤ª à¤¾à¤²à¥Ģ
àªµ àª¿
Ġl ic
ess a
j Ãº
ann el
à¥įà¤¯ à¥ĭ
ĠM ag
al ian
å° Ĭ
à§ĭà§± à¦¾
à¤ķà¥įà¤· à¤£
Ġà°ķà±Ĥà°¡ à°¾
à²¿à²¦à³įà²¦ à³ģ
ÙĪ Ûģ
td >
it ation
ĠT es
àª¾àª ¶
m d
æĮģ ç»Ń
à² «
ĠØ§ÙĦÙĴÙħ Ùı
Ġà¤µà¤¿à¤¶ à¥ĩà¤·
çĪ Ĩ
/200 0
Ġs Ã¡ch
ĠS anta
ang ka
f ind
ĠB ol
oc ation
h ab
ĠM ah
åº ĵ
Ġà¤ªà¤° à¤¿à¤µ
Ġes sa
_ B
Ġda erah
ĠM Ã©
ĠL l
ing ton
ĠAr t
Ġro b
Ġtr ang
Ġproyect o
ĠAm eric
ĠàªĹ à«ģ
Ġv it
Ġres id
: 30
åª Ĵ
Ġh ag
in an
éĻ ³
imes :
ãĦ §
æ±ī åŃĹ
Ø§ÙĦ Ùī
Ġarg ument
Ġth Æ¡
Ġb is
Ġr ange
à¤¿à¤² à¥įà¤®
- 6
ØŃ ÙĤ
Ġà®ĩ à®²
Ġà¦Ĩ à¦¨
Ġcontin ue
t ant
è¾ ¦
å®ĥ ä»¬
M A
Ġsatis f
à¨Ĺ à©Ģ
Ġch áº¥t
ul ta
Ġà¤ľ à¤¾à¤ı
Ġn ing
à®¿à®ķ à¯į
Ġbiz tan
j as
Ġà²¸ à³įà²¥
d ated
à¦¿à¦ §
em ukan
Ġàªķ à«ĭ
ain es
àªľ à«ĩ
Ġjan vier
à¥įà¤¯à¤¾à¤ļ à¥ĩ
Ġàªķàª° àªµàª¾àª®àª¾àªĤ
Ġsubjunt iu
à¦¾à¦ ł
ac o
Ġcountr ies
ĠB ah
Ġà¥§à¥ ¯
Ġà®¤ à®²à¯Ī
Ġà¤²à¥ĭà¤Ĺ à¥ĭà¤Ĥ
Ġmengen ai
åİŁ åĽł
àª ĵ
Ġr ac
ĠAr gent
ĠUnivers ity
ĠN om
ir Ã¡
Ġpl ac
amb il
ĠØªØŃ Øª
Ġlo áº¡i
ĠØª ÙĦÙĥ
Ú© Ø§
à´¾à´¯ à´¿à´°àµģà´¨àµįà´¨àµģ
Ġx Ã¡c
çĶ¨ äºİ
tic o
à¤Ł à¤ķ
æ¿ Ł
Ġà²® à³Ĭ
but ton
Ġdo anh
ug e
à¤Ń à¤¾
ĠÙĪØ§ÙĤ Ø¹
ÙĲ Ùħ
åĮĹ æĸ¹
å°ı ç»Ħ
ec a
Ġel l
Lay out
F il
Ġpued en
Ġcl ar
Ġà¦¬ à¦¹
çŃ ¾
D an
Ø¨ Ø¹
Ġàªª à«Ĥ
9 1
res h
A pp
c el
ĠÃł ti
Ġà¤¦ à¤¿à¤²
P ol
Ġappro ach
à®Ł à¯ģ
à²¾à² ·
est re
ĠI a
èģ ·
Ġfut uro
Ġà¦¬ à¦²à§ĩ
us at
à©ģ à¨²
ag s
à²Ĥà²¦ à³įà²°
Ġ@ return
r in
à®ĩ à®¨à¯įà®¤
Ġ--- à®¤à®®à®¿à®´
auc oup
æŃ¤ å¤ĸ
ĠÄĳ Ãªm
Ġng ay
Th ere
ĠTh anh
out e
ed it
A quest
ĠÚ¯ Ø¦ÛĮ
à¦¾à¦¦ à§ĩà¦¶
à¥ĭ à¤·
ĠR imes:
0 6
pt ion
à´¾à´¤ àµįà´°
à¨« à¨¼
Ġà¦ħà¦¨ à§ĩà¦ķ
å®ŀ æĸ½
end ant
ĠNam un
ĠÙĪØ§ÙĦ ÛĴ
ĠØ§ Ùı
é¡ ¾
Ġà°ļà±ĩ à°¯
Ġt áº¥t
à°® à±Ĩ
à¤¿à¤¸ à¥įà¤¤
ros s
Ġt ex
Ġ ^
ĠÄĳ á»Ļi
à¤¨à¥ĩ à¤ķ
à¤ķà¥ĭ à¤Ĥ
- 16
Ġà¤Ń à¤¾à¤·
Ġà°µ à±Ĩ
Ġcont act
åĨ ·
á»Ĺ i
olog ical
äºĭ ä»¶
Ġch ose
çĶŁ äº§
à²¾à²° à²¤
äºĮ åįģ
Ġà¤¦ à¤¿à¤µ
ĠØ¥ Ø°
ĠØ® Ø§ÙĨ
Ġt ell
ÙĪ Ù¹
è¿Ľ åħ¥
ĠØ§ÙĦÙĥ ØªØ§Ø¨
à¤Ĥ à¤ª
Ë§ Ë¥
Ġà¤¸à¥įà¤¥ à¤¾à¤¨
Ġà¬ ¡
ĠÙħ Ø§ÙĦ
á» ·
G roup
çļ Ĩ
detik News
è° ļ
Ġà¤¤à¤° à¤¹
ĠL ist
N E
iz er
Ã¬ ÃŃ
áº¹ n
Ġe gun
Ġiz ango
Ë Ĭ
Ġh izo
à²¡ à³Ĩà²¯
Ġà¦ħà¦¨ à§ģ
à±Ĥà° ª
Ġn ode
Ġh ig
Ġà¤ªà¥ģ à¤Ĥ
à³Ĩ à²Ĺà³Ĩ
éĽ £
è§Ħ èĮĥ
åĪ© äºļ
idd le
t ers
Ġ ãģ
Ġkh ai
ĠDep art
àµģà´¨àµįà´¨ à´¤àµį
Ġdirect or
à«Ģ àª¸
à¤¹ à¤°à¥Ģ
pro t
Ġjam ais
Ġt Ã£o
ĠG al
àµĩà´ ¹
Ġà¤ķ à¤¾à¤¯
ĠR od
Ġab and
h r
ĠàªĨàªµ à«Ģ
Ġac count
Ġverd ade
à¨ĩ à¨Ĩ
à§ģà¦® à¦¿
æ® º
èįī æ¡Ī
Ġà¦Ĺ à§ģ
à¦¾à¦ķ à¦¾
à¤¾à¤ı à¤ķà¥ĭ
Ġse ja
éĿŀ æ´²
é¢Ĩ åŁŁ
ç§ Ģ
ĠÐ ´
ix en
ip s
à°ķ à°¿
Ġr i
à§ĭ à¦·
de v
Ġà¤Ń à¤°
ĠØ§ÙĨ Ûģ
Ġprod uk
Ġà¤ª à¤¦
à¯įà®ļ à®©
Ġad j
Ġnon -
F l
åĲĦ ç§į
Ġà®ĩ à®¯
Ġà°° à°¾à°ľ
à¬ ·àŃįà¬Ł
Ġbat z
Ġà¤ªà¤¹ à¤²à¥ĩ
Ġth ay
à¤¹ à¥ĭ
àªª à«įàª°
Ġr Ã¨g
çµ Ĥ
ç´ į
Ġd ol
Ġs ul
Ġv u
ek t
E sp
en al
Ġà¤¸ à¥ģà¤¨
à¥įà¤¯à¤¾à¤ļ à¥Ģ
Ġpre d
ĠØ´ÙĬ Ø¡
ĠK ab
Ġà¨µ à¨°
Ġt Äĥng
ing k
A ction
ĠP P
æŃ ·
à©Ĥ à¨²
ro g
Ġà¨ªà¨¹ à¨¿à¨²
ĠP ak
ä¸į åı¯
Ã©r ica
ä¸Ģ å®ļ
Ġb om
Ġv áº¥n
E u
et atik
ĠÙĪØ² ÛĮØ±
ak hir
Ġà§§à§ ¯à§
Ġsed ang
Ġà¦ ł
Ø§ ÙĪÙĦ
Ġpass at
Ġc á»ķ
pr ivate
_ b
Ġà¨¹à©ģ à©°à¨¦
Ø§Ø¦ ÙĨ
java :
Ġh ospital
Ġequ ipo
ÙĤÙĬ ÙĤ
S er
ĠP an
Ġ) Ġ)
Ġconc entr
Ġà¥ Ń
Ġàª²à«ĭàªķ à«ĭ
ĠP u
v an
ung a
ain a
Ġconse gu
ÙĨ Ø§Ø¡
à³Ĩ à²°
Ġrepr Ã©sent
Ġthat 's
å¸Ĥ åľº
Ġtr iá»ĥn
ĠH al
Ġà¤ªà¥įà¤° à¤¸
Ġà¦² à¦¾à¦Ĺ
à¥įà¤¯ à¥ĭà¤Ĥ
æľ «
ĠP re
Ġes se
Ġà°° à±Ĩà°Ĥà°¡à±ģ
ĠÄĳ Ã¬nh
ari an
am at
Ġkel uar
Ġf ais
Ġm art
ok en
Ø® Ø¯
Ġpro bl
à«įàª ¨
Ġb Ã¡n
Ø³ Ø§ÙĨ
à°¿à° ¶
à°Ĥà° ķ
Ġà´ªàµįà´° à´¤
_ D
or ed
ĠØ§ÙĦÙħ Ø¬
ÙĪ Ø·
Ġs ant
à®¿à®² à¯ģà®®à¯į
èµĦ æĸĻ
R I
ec ha
à´¾à´ ¨àµįà´
æī ©
à²¿à²ķ à³Ĩà²¯
Ġdesar rol
Ġà²ª à²¦
Ã¡ f
ä¹ ĥ
is as
Ġsoc ied
éĿ ł
Ġà¤¤ à¥Ģ
Ġsur face
Ġch áº¿
Ġc art
Ġph ys
Ø· Ùģ
Ġc á»Ńa
Ġch á»©
ic iones
ĠØ¢ Ø®Ø±
É «
Ġun it
åįı è°ĥ
Ġà¤µà¤¿à¤ §
Ġj Ã©Ì£
- la
ĠØ± Ú©Ú¾
Ġn em
Ġno va
à®² à¯įà®ª
Ġ áº£nh
Ġcond ition
Ã¡ ria
ang -
Ġl' ap
Ġà¬ķà¬° à¬¿à¬¬
Ġll oc
ĠB al
Ùĥ Ùİ
Ġaut hor
Ġà¦¦ à¦²
ĠPres iden
Ġmil it
oto :
à§İ à¦¸
Ġtr ied
çĪ Ń
ac ia
Ø§Ø¹ Øª
Ø¨ Ø§Øª
ĠI d
Ġà°Ń à°¾à°°
Ġdir i
åĪ¶ åº¦
ĠÙĨ ÙĤ
à°ķ à±įà°¤
Ġà°ªà±įà°° à°Ń
Ġl ength
Ġre ason
ĠI D
æĤ £
à¦¿à¦¨ à§įà¦¨
ch ange
el ho
ap or
Ġàª¸ àª¾àª®
r h
Ã¨ te
Ġap oy
Ġcent ro
Ġ( (
Ġcl ub
Ġà¨° à¨¾à¨ľ
Ġti Ãªu
- a
Ġact u
has il
ur b
äºĭ åĬ¡
çļĦ å¤§
Ġ4 7
Ġà²Ĺ à³ģ
Ġcent er
Ġrel ations
èĢ ¶
Ġincl ude
çĦ¶ èĢĮ
Ġb iá»ĩt
à¬¿à¬ ³
Ġà¦ķà§° à¦¿
à°¾à°° à±įà°¥
us ed
à¬Ł àŃįà¬°à¬¾
Ġbiztan le
à³Ģ à²°
n um
ĠÚ© Ùħ
ens o
Ġmas a
Ġs at
Ġper ÃŃ
C ode
Ġs ection
le v
Ġd iá»ħn
ĠIn s
æĪĺ çķ¥
à´¯ àµģà´ŁàµĨ
ä»» åĬ¡
Ã¡ y
à®ļà¯įà®ļ à¯Ĭà®²à¯į
Ġber ada
Ġà¤µ à¤¾à¤²à¥ĩ
ill s
Ġ4 3
Ġem ploy
ãĢĢ ãĢĢ
à¤¾à¤Ĺ à¤°
ĠIng gris
Ġr ien
ç© į
à±ĩ à°Ł
à°¾à°¨ à°¿
Ġan c
à®ªà¯įà®ª à¯ģ
éĤ£ ä¹Ī
à´¨ àµĨ
as ta
Over ride
Ġcomp le
Ġdifer entes
Ġmon th
à¤¨à¥įà¤ ®
ĠÚ¯ ÛĮ
Ï Ħ
Ġt ek
å² ¸
ĠAn ton
ÑĢ Ð¸
M C
itte e
ĠPres idente
ĠEl le
Ġn' a
form at
Ġ ip
éĹ »
å® ľ
ĠdÃ© f
em i
Ġà¦Ĩ à¦¬
éĢĻ äºĽ
ament s
è¡¨ è®°
d own
ak si
Ġent Ã£o
Ġc ustom
Ġà®µà¯Ĩ à®³
im g
à±Ģ à°¨
à±ģà°Ĥà° ¦
Ġpr endre
Ġsek arang
àª¿ àªŁ
ier re
Ġà°īà°¨à±įà°¨ à°¾à°¯à°¿
åŃ¦ æł¡
Ġv ille
è© ¦
à§ģà¦² à¦¿
Ġprov ide
Ġj ou
à´ ¥
ĠàŃ ¨
ĠÃºltim o
Ú¾ Ø§
Ġa unque
åĪĨ æŀĲ
à¤ķ à¤²
Ġà®ķà¯Ĥ à®±
Ġquer y
àµģà´ ¦
ES T
Ã³ c
Ġà²¨ à²¡à³Ĩ
**************** ****************
uy e
æ±īåŃĹ æĪĸ
ampion nat
one y
æ±ī æ··åĲĪ
Ġch eg
à¯Īà®ķ à®³à¯į
è°ļ æ±īæ··åĲĪ
è¡¨è®° :
æ±īåŃĹæĪĸ è°ļæ±īæ··åĲĪ
æ±īåŃĹæĪĸè°ļæ±īæ··åĲĪ è¡¨è®°:
Ġrequ ired
Ġs ost
Ø§Ø± Ø¬
ÙģØ± Ø§Ø¯
ud ar
ĠØª Ø¯
Ġup date
ad io
iku wa
ĠØ±Ø³ ÙĪÙĦ
O h
Ġà²ķ à³Ĩà²²
Ġà²İ à²Ĥà²¬
ĠS ab
ille d
h ent
Ġ4 6
j ecte
à§ģ à¦Ł
åł ¡
å¯ º
ĠIntern ational
Ġprime iro
à¯Ī à®µ
ĠÙħ Ø²
ĠK al
àª¨ à«įàªŁ
à²¿à²ķ à³Ĭà²Ĥà²¡
ber g
S tream
äº§ çĶŁ
àµģà´ķ àµ¾
ĠØ§ ÙĪ
ĠØ§ÙĦ Ø¨ÙĦ
Ġà¦¸à¦® à¦¯à¦¼
éĽ ¨
Ġcr isis
Ġresp ond
Ġà¦¤ à¦¾
à¨¿à©°à¨¦ à¨°
Bl ock
Ġà²¬ à²³
Ù ĵ
à´¸ à´Ĥ
Ġfamil iar
usah aan
ig ue
Ãº de
àŃĩà¬ īà¬
æĽ ¿
R OM
ĠâĢ İ
eng ar
Ð½ Ð°
Ġhe alth
Ø§Øµ Ø©
Ġprogram me
er es
è¿ Ķ
res o
ĠW hen
Ġà¤¬à¤¢ à¤¼
A g
à®ķà®° à®¾à®¤à®¿
Ġà¤¹à¥ģà¤ Ī
Ġàªħ àª®
ĠÃ© conom
Ġse le
Ġkn own
à´® à´¾à´¯à´¿
à¤¾à¤¸ à¤¨
Ġbag ian
à¯ģà®ķ à¯ĭ
Ġà¨µ à©±à¨²
aks ud
u Ã§Ã£o
Ùģ Ø¸
è´ Ŀ
à²ĸ à³įà²¯
Ġ0 9
ĠÐ ¸
loc al
Ġà® ²
ament os
Ġc ells
Ġà¤ ¢
Øº ÙĬ
à²¦ à²²
Ø§Ùħ Ø©
à±ģà°¨à±įà°¨ à°¾
åĺ ī
Ġk i
Ġo tra
èĭ ¦
ĠâĢ ĭ
à´¾à´¤ àµįà´¤
èı ²
è¯ ¢
Ġr at
Ãª ng
Ġsitu aciÃ³n
àª° à«ĭ
è· Ŀ
) ØĮ
is co
Ġest amos
Ġà¤Ń à¤¨à¥įà¤¨
à²¿à²µ à³Ĩ
è¿Ĳ åĬ¨
à¯įà®ļ à®¿
à¤¨à¥įà¤¤ à¥įà¤°
Ï ģ
ĠD ans
è£ ½
æľĢ é«ĺ
Ġj uta
Ġproble mas
Ġp int
Ġ\" C
à©Ī à¨¨
Ġsoc i
à¤¹ à¤¾à¤ģ
Ãł r
Ġà¤¸ à¤¿à¤Ĥà¤¹
Ġintern ation
ĠÙĬ Ø¯
Ġpropert y
Ġfur ther
c iones
ĠÂ ¡
Ø® Ø°
Ġn ama
æĭ Ľ
z ia
Ġt ub
Ġch á»©ng
Ġst op
åĿ Ģ
_ h
Ã©cur itÃ©
á» ħn
id ikan
ac io
à°¿à°¯ à°¾
à§įà¦¯à¦ ķ
Ġj 'ai
à¤¹ à¤¾à¤°
Ġcomm unic
à©ĭ à¨²
m ary
- T
Ġà¤ľ à¤²
à«ĩàª ¡
Ġà¤ħ à¤Ĺ
å± ĭ
à±įà°Ł à±įà°°
éĤ£ äºĽ
- 9
àŃģà¬ ¬
K I
ÑĢ Ðµ
à¨¿à¨ Ĭ
à®© à®¾à®²à¯į
ĠPres ident
d in
à±įà°¸ à±į
Ġà¬ķà¬° à¬¿à¬¬à¬¾
Ġà²¸ à³įà²µ
Ġà¤ļ à¤¾à¤°
à¨¿à¨¸ à¨¼
ser ver
ta ge
àª Ŀ
Ùħ ÙİØ§
200 9å¹´
h ui
ĠA le
Ġà¤µà¤¿à¤ļ à¤¾à¤°
^ 2
Ġt uy
n b
à²¬ à²¹
Ġsent ido
à³įà²° à²®
ĠCl ass
à¯įà®ļà¯įà®ļ à¯Ĭà®²à¯į
Ġà¦ı à¦ĸà¦¨
Ġà¤ĩ à¤¤
par e
Ġsig ui
Ġà¦¹à§Ł à§ĩà¦Ľà§ĩ
à²¿à²Ĥ à²Ĺ
à´¿à´ļàµįà´ļ àµį
R A
up un
ĠdÃ³ lar
f alse
æİ ī
- 01
Ġv oy
ï¼Ł ãĢį
Ġcomp aÃ±
Ġ ________
Ġà²ħ à²¨
à§ ·
ar ÃŃa
ç§ĳ åŃ¦
Ġà¨ľ à¨¿à¨¸
Ġmen er
- N
ros o
à®¿à®¤à¯įà®¤ à¯ģ
ers e
opt ions
Ġ Ø§Ø´
æ¤ į
Ġv ul
å½ĵ æĹ¶
à¤¿à¤¤ à¤¿
à¦ŀ à§įà¦ľ
ÙĦ Ø§Ø«
Ġà¤ħà¤¨ à¥įà¤¤
æ´ Ĺ
Ġalg um
èĪ ŀ
Ġhid up
um en
ĠSec ret
à§Ģ à§Ł
il ay
Éĳ Ìĥ
éĢ² è¡Į
ĠIn t
ÙĬ Ø´
ĠT V
Ġs ino
uk kan
Ġà®ķ à®Łà¯įà®Ł
ç³» åĪĹ
anj ang
ĠÙĨ Ø§Ùħ
à²¿à²¦à³įà²¦ à²°à³ģ
àªķ à«ĩ
Ġseh ingga
Ġll am
Ġà¦¸à¦° à¦ķà¦¾à¦°
Ġsyst Ã¨me
Ġam or
Ã¡ nd
tain ed
Ġfut ure
c op
() Ċ
ĠlÃ¡t i
Ġtin ha
éĩ Ĭ
Ġà¤¤ à¤¯
ĠEn t
ĠApr il
æ°ĳ æĹı
Ġà®ķ à®¾à®²
Ġà¦¨ à¦¾à¦ĩ
Ġand a
Ġho a
uy á»ħn
Ġmul her
or por
Ġrel acion
Ġà¤ħ à¤¹
ä½ľ åĵģ
Ġpand emia
p ace
U t
ĠÙģ Ùİ
Ġrec uper
å¼Ģ å±ķ
Ġon line
Ġà¨Ĩà¨ªà¨£ à©ĩ
Ġy et
B u
à²Ĥ à²§
ĠdÃ© jÃł
ĠÃ© v
c urrent
Ġà² §
Ġ4 9
åī µ
à°µ à°°
à¦¾à¦¥ à§ĩ
ent o
Ġj '
ow i
un ch
ĠL le
Ġterk ait
Ġmai or
à´¤ à´¿
à¤¨à¥įà¤ ¸
t ime
à¤°à¥įà¤ §
æĽ´ å¤ļ
pl it
àµĨ à´Ļàµįà´ķ
à°¬ à°¡
g re
Ġk á»³
on te
Ã¢ ng
à¥ĩ à¤¯
- an
à´¿à´ ŀàµįà´ŀ
ĠV ol
Ø±ÙĬ Ø¨
ale ar
ĠØ° Ø§Øª
e v
Øª Ùĥ
Ġcon hec
ĠÙħÙĦ Ú©
Ġàª¤ àª®
ĠÙĥ ÙĨØª
Ø£ ÙİÙĨ
à¬¾à¬ĩà¬ Ľà¬¿
ĳ ng
Ġob ra
æĹł æ³ķ
áº¹ p
Ġà¤ķ à¥įà¤¯à¤¾
Ġconstr uct
Ġà¬ Ľ
Ġper lu
Ġout ro
åħ ¼
ik at
Ú¾ ÛĴ
Ġpres ente
Ġà¤¥ à¤¿à¤ı
uest o
ĠÙĪ Ø¥ÙĨ
å¯ «
Ġdat abase
- à®ħ
åı¦ å¤ĸ
Ġad emÃ¡s
Ġre pro
åı ¥
à¦¯ à§ĭà¦Ĺ
Ġw omen
éº »
Ġnet work
åĪ º
à®ķà¯įà®ķ à®¿à®¯
é£ Ľ
à§ĩà¦² à¦¾
Ġs rc
Ġà®® à¯Ģ
Ġà®İà®© à¯įà®©
å¼ Ĥ
Ġà®¤ à¯ĩ
Ġf eb
å°¼ äºļ
à²¾à² ¶
Ġà¤ķ à¤¾à¤¹à¥Ģ
éĶ ®
Ġcon duct
s in
an es
Ġpop ulation
Ġà²® à²¾à²¤
Ġinstr ument
Ġà®ªà¯Ĩà®¯à®° à¯įà®ļà¯įà®ļà¯Ĭà®²à¯į
ÛĮØ§ Úº
Ġ23 /09
lay out
arr era
Ġde j
ĠĠĠĠĠĠĠĠ ĠĠ
Ġch á»ĳng
è³ ª
Ġser ve
Ġoc up
ic ient
Ġf os
Ġà¦¹à¦¯à¦¼ à§ĩà¦Ľà§ĩ
å®¡ æŁ¥
19 5
ØªØµ ÙĨÙĬÙģ
Ġchiáº¿ c
Ġthis :
Ġl ik
Ġl ieu
dit ional
Ġpro gress
Ġà°ħ à°§
om es
Ġcre ated
Ġcu atro
Ġà¨¯ à©Ĥà¨¨
AT E
s _
ä¹Ł ä¸į
àµĬ à´£àµįà´Ł
Ġs ana
ĠEs te
ĠÙĬ Ø³Øª
B L
Ġon ce
Ġ ),
ĠÙĦÙĪ Ú¯
è½ ¯
å¾ ©
Ġ åĽ½
Ùı Ø±
th ers
Ġng uyÃªn
à²° à³Ĥ
Ġà²ķ à³Ĭ
ç¼Ķçº¦ åĽ½
à§ģà¦° à§ģ
Ġl Ã³
ĠR om
Ġà¦ı à¦¸
Ġà´µ àµĩ
c at
ĠÙħÙĨ Ùĩ
Ã¨ mes
è£ Ŀ
ä» ģ
Ġl ok
ĠtÃł u
S elect
åĿ ļ
à´ķàµįà´ ¤
è®¨ è®º
åĬŁ èĥ½
E dit
Ġk omentar
à°¾à°² à°¿
à¯Īà®¯ à®ķà¯į
çĥ Ī
Ġà® Ĭ
ass ert
åĤ Ļ
àª°à«įàª µ
ĠØ§Ù¾ ÙĨÛĮ
ĠPort ug
Ġd Ãłi
éĢ Ķ
te ko
à¥ī à¤²
Ġwe ek
Ġt ema
à¨¾à¨ī à¨£
N ow
Ġà¦®à§ģ à¦ĸ
Ġàª¬ àª¨
à®¾à®¯ à¯į
Ġh ope
æĭ Ķ
Ġdiffic ult
Ġà¨ľ à¨¾
æĽ° ï¼ļãĢĮ
Ġc osa
Ġà°¸à°Ĥà° ¬à°Ĥà°§
Ġà¤¬ à¤¦
à©° à¨¸
ç»ĵ æŀľ
Ġcar acter
Ġâ ĺ
olog ie
Ġs á»©c
Ġfamil ia
çļĦ æĹ¶åĢĻ
ĠprÃ³ pr
à¬¨àŃįà¬¤ àŃįà¬°àŃĢ
ur ing
ĠNov ember
Ùİ Ø§Ùħ
Ġcap t
Ġà¤¦ à¥ģ
Ġhas il
à°¤ à°°
Ø¹ ÙĪØ¯
Ġr enc
Ø¨ ÙĤ
Ġsever al
Ġà¤µà¤¿à¤· à¤¯
æĹ ¢
Ġâ ī
Ġan o
Ø§ÙĦ ØŃ
à°¿à° ľ
200 8å¹´
Ġn ames
Ġà¤ª à¤¤à¥įà¤°
æĭ Ł
b or
am s
ĠH er
Ġdat ang
Ġà²ħà²µ à²°à³ģ
Ġà¤¬ à¥Ģ
con text
ÉĻ ËĪ
Ġem an
Ġ ign
à´¨àµįà´ §
ÙģØ¶ ÙĦ
Ġho Ãłn
à¤ļ à¤¨à¤¾
/ L
C M
noinclude >
à¥ĩà¤ Ľ
åı ¬
act ive
Ġà¤¬ à¤²
Ġv iá»ĩn
Ġà° §
Ø±ÛĮ ÙĨ
å¹¶ ä¸Ķ
Ġac cept
ä¹ Į
Ġt iáº¿n
à¨Ĩ à¨Ĥ
ĠC our
à¤¾à¤¨ à¥įà¤¤
i :
ial e
çº Į
àŃįà¬¤ àŃįà¬¤
Ġà®ķà®²à¯įà®µ à®¿à®ķà¯įà®ķ
åħ¨ åĽ½
é± ¼
à´¿à´¤ àµįà´°
Ġà¤¶ à¥ģà¤°
tain er
àª¤ à«įàª°
àµįà´ §
Ã¨ ne
Ġs á»į
,Ċ Ġ
Ġà¤Ĩ à¤²à¥ĩ
ĠÙĨ Ø³
à¦¹ à¦¾à¦°
Ġpap er
Ġaur k
Ġber p
ä½į æĸ¼
à²¦ à²²à³įà²²
à®ŀ à¯įà®ļ
Ġs ini
Ġàª¥ àªĪ
Ġl' aut
Ġag ua
à³ĭ à²¡
Ġm p
Ġsocial es
Ø£ Øª
ä¸Ģ æł·
Ġsal ud
ÙĢÙĢ ÙĢÙĢ
ĠÙĦ Ú¯
à²Ĥà²¤ à²°
à°¿à°¤ à±įà°°
Ġbe aucoup
al y
à¦ª à§ģà¦°
àª¦à«įàª §
æħ ¢
ul os
ĠØ¹ ÙĦÙħ
x ml
ac te
à´ŀ àµįà´ļ
ĠD ata
Ġà¤Ĩ à¤¤
Ġà®ħ à®³
Ġreg ular
àµĢ à´µ
Ġà¨ ¶
l ong
Ġàª¸ à«įàªµ
Ġce ux
E F
à±įà° £
ĠP o
Ġconn ect
Ġk ota
ĠC i
à¯įà®ļà®© à®°à®¿
ag ed
ĠCom itÃ©
_ N
Ġm igr
Ġà´® àµģà´
b in
çļĦ æĥħåĨµ
à«Ģàª §
- 11
Ġ4 1
Ġà µ
art u
Ġprot ection
Ġemb argo
Ġth anh
ÃŃ cia
Ġartic les
Ġle y
Ġa x
Ġorig in
Ġt Ã©cn
àªĤàª ¡
ÙĬ Ø¬
Ġà¦¬à¦¿à¦ ¦
Ġked ua
un k
Ġà¦¸ à¦ķà¦²
Ġf oc
Ġsp ecial
à±ģà°Ĺ à±ģ
à¯Īà®ķ à®³
à³ģ à²¨
er k
Ġtre at
à¤¦ à¥įà¤¯
Ġpass ar
ØªØµÙĨÙĬÙģ :
Ġàªľ à«ĭ
ĠX V
ĠØ£Ùİ ÙĪÙĴ
Ġt Æ°á»£ng
Øµ ÙĪÙĦ
u as
ÙĬØ¯ Ø©
ch ini
de fault
Ġl Ã©g
Ġà¤¹ à¥Ĥ
he ight
Ġkh á»ıi
Ġà¦ķà¦° à¦¾à¦°
ãĦ ¨
/ m
å¹´ çļĦ
Ġgr av
ĠÙģ ÙĤØ§ÙĦ
ĠPa ulo
ç¡® å®ļ
us ta
Ġinst all
èĻ½ çĦ¶
à¥įà¤¯à¤¾à¤¸ à¤¾à¤łà¥Ģ
O C
Ġh old
http s://
Ġdi j
é¤ ¨
ĠÙĦ ÙĩØ§
Ġà®µà®¿à®ķ à¯įà®ļà®©à®°à®¿
Ġpar ent
ĠP el
Ø± Ø§
à´¯ àµįà´ķàµįà´ķ
ĠSem ua
à¥ģà¤ ¶
ĠM el
Ġd áº«n
Ġà¤ª à¥Ī
Ġhe ight
Ġà¨¹ à¨°
à´¤àµįà´¤ àµį
Ġg ut
Ùħ Ùĩ
ĠÙĨ Ùħ
çĽ ĺ
èİ ±
å±Ĭ ä¼ļè®®
N N
Ġudal erri
ĠÙĪ ÙĥØ§ÙĨ
Ġc ul
port s
éĩį æĸ°
usk al
å¸® åĬ©
ĠÚ¯ Ø¦ÛĴ
Ġj alan
Ø² ÙĦ
à¤¤à¥Ģ à¤²
Ø§Ø±ÙĬ Ø®
Ġà®ķà®²à¯įà®µà®¿à®ķà¯įà®ķ à®´à®ķ
Ġmot or
ia h
Ġsa il
Ġd Æ°á»Ľi
Ġs ave
ĠS il
r is
Ġr ais
0 7
Ġm ode
r ap
ĠSur vey
Ø±Ø¨ ÙĬØ©
èı ľ
à¦¨à§įà¦ ®
éĦ ī
Ġconj ug
.Ċ ĠĠĠĠ
Ø§Ø¶ ÙĬ
Ġ< div
à¨¬ à©Ģ
æĮ ĳ
Ġfem in
Øª ÙĦ
ĠC ity
à¬ ī
ro y
çµ± ä¸Ģ
Ġà¤« à¤¿à¤°
er te
Ġup on
Ġde be
Ġb in
S en
Ġun os
r Ã¨s
I F
à¤°à¥įà¤¨ à¥ĩ
à´¨àµįà´¤ àµįà´¯
Ġwh ether
r er
m and
è¦ ı
Ġ[ U+
ÙĬ ÙĤ
Ġà´µ àµĨ
Ġplus ieurs
Ã¡tic o
åį° åº¦
à¬ ħ
à¦¨à§įà¦¤ à§įà¦°à§Ģ
Ġà¤°à¤¹à¥ĩ à¤ķà¥ĭ
Ġà°¸à°Ĥà° ¸
e i
å¥ Ĺ
à¦°à§įà¦ ®
Ġà¦¶ à¦¿à¦ķà§įà¦·
à§įà¦¦ à§įà¦°
le ase
à§ģ à¦¦
ta i
à´ Ĩ
Ùĳ ÙİØ§
Ġà« §à«
Ġ6 5
Ĥ ¬
æĬķ èµĦ
éľ ²
ÙĲ Ø±
ĠI PA
ĠL ong
Ġà®ķà®²à¯Ī à®ļà¯įà®ļà¯Ĭà®²à¯į
Ġter ra
èģ ļ
Ġmain ten
æ¾³ éĹ¨
re ko
à¤¶à¥įà¤¯ à¤ķ
à¬¿à¬ ı
ĠcÃ³ mo
éĴ Ī
ĠD avid
r Ã³
ai led
Ġà¦ªà¦° à¦¿à¦¬
éª ¨
à®¾à®³ à¯į
ĠØ¯ ÙĪÙĦ
vel le
à±ĩà°¦ à±ģ
à¨ķ à¨¾
Ġins ide
Ġmil itar
Ġng Ã´i
Ġn ive
Ġcons ist
Com p
à¦¾à¦¸ à§įà¦¤
à¨¿à¨Ł à©Ģ
ac to
ĠK ota
äº§ åĵģ
/ 4
Ġord en
à¬¾à¬ ļ
à¦°à§įà¦ ķ
Ã©l Ã©
à¤¯ à¤¨
bl ock
im en
Ġpal ing
ĠÐ ½
à¯ģà®ķà¯ĭ à®³à¯į
Ġtr áº£
åĢ Ł
v ing
çĶļ èĩ³
Ġpen j
Ġw ord
àµĭ àµ¾
ing gu
Ġph á»¥
ç¯ ĩ
ĠØŃÚ© ÙĪÙħØª
Ġchang es
Ġà´µ à´°
Ġl Ã£
ĠSt ate
Ġdez embro
ĠÙĪ Ùģ
S tr
Ã¼ r
à¦² à¦¾à¦¦à§ĩà¦¶
Ġfr anc
v ia
ot es
Ġes an
al le
à¤ı à¤®
Ch Ãºng
Ø£ÙİÙĨ ÙĳÙİ
éĻ ¸
Ġ- 1
Ġ\" B
Ġnh áºŃp
åİ ħ
Ø±ÙĬ ÙĤØ©
ĠÙħ Ùħ
æį ķ
/0 3
Ġà¤ªà¤° à¥įà¤¯
ĠMÃ© xico
l '
Ġb anda
Ġà¨® à©Īà¨Ĥ
ĠS tr
Ġcol lect
ott om
-> set
ille t
aur us
ial og
Ġa way
Ġdip ut
im as
çĽ Ľ
Ġetx ek
ibil ity
Ġà¬ķà¬°à¬¿à¬ ¥à¬¿à¬²àŃĩ
Ġt iga
ĠR os
ĠD ar
ie ur
Ġg au
Ġro t
Ġpl a
Ġà´¸ àµįà´¥
à§ĩà¦ ¡
200 0
Ġà®ķ à¯ĩ
à²Ĺ à³įà²Ĺ
Ø¯ Ø§ÙĨ
Ġvá» ĩ
ä¸Ģ ä¸ĭ
Ġà¨¸ à¨Ń
ĠdâĢĻ une
- R
à±ĭ à°¯
Ġent er
Ġd ret
à±ģà°¤ à±įà°µ
ĠØ§ ÙĤ
Ġco isa
Ġp oco
à°¿à° ¦à°¿
y an
Ġà¤Ŀ à¤¾à¤²à¥ĩ
el ar
ĠS outh
com e
Ġcom ercial
ĠIntern et
à§ĩà¦¨ à§įà¦Ł
à¤¿à¤² à¥ĭ
Ġmar k
Ġex pres
à®¤ à®¿
å¥ §
å¦ »
è¿ «
Ġ15 0
ĠN ga
Ġdig ital
Ġg ir
Ġg ame
arg s
Ġd am
à®ķà¯įà®ķ à¯ģ
Ġunt il
. Âł
Ġs Ã©curitÃ©
à°® à±ģà°²
Ġ4 00
ĠØª Ø£
Ġma x
Ġtal de
à§ĩà¦ £
ÃŃn Ãº
Ġhow ever
ĠCar los
à²³ à³Ĩ
Ġà¦¸ à¦¾à¦²à§ĩ
à±ģà°Ĥà° Ł
ç¬¬ åįģ
Ġà¬ªàŃįà¬° à¬¤
å¾ Ĵ
è¼ ĥ
à³Ĭ à²Ĥà²¦
Ġo portun
ĠØ³ Ø§ÙĦ
Ġk áº¿
Ġà®Ĩ à®Ļà¯į
ĠS m
à¤¾à¤ĩ à¤¨
ĠS w
ik ut
ĠW est
Ġgu ard
Cont ent
Ġdire ction
u id
s ide
Å «
Ġinform aciÃ³n
ĠF ound
à¦ı à¦°
ur er
P oint
à§ģà¦² à¦¿à¦¶
Ġkal au
ĠÛģ ÙĪØ§
Ġ ó
Ġm ungkin
Ġk ab
à´¿à´ ·
Ġà®¤ à®©
Ġsub ject
Ġ5 1
Ġà¤¸à¤Ĥ à¤Ĺ
T ML
ĠO ne
éĽ ²
bo ard
ç ŀ
1 æĹ¥
à¤¿à¤¦ à¥įà¤§
Ġc Æ°á»Ŀi
à°¤à±įà°¤ à°¿
U U
ä¸į è¿ĩ
Ġph áº©m
Ġsi empre
à¤¿à¤ Ń
ol ution
Ġem ak
Ġdis tr
Ġ23/09 /2021
ar Ã¡n
l n
ãĢĭ çļĦ
Ġh iá»ĥu
Ġà¨¸ à¨¾à¨¹
Ġr Ãµ
à°® à±ģà°²à±ģ
Ġneg oc
Ġà®ªà¯ĩà®° à®ķà®°à®®à¯ģà®¤à®²à®¿
Ġan unc
Ġà¤¦ à¤°
à®ķà®°à®®à¯ģà®¤à®² à®¿à®ķà®³à¯į
-à®ħ à®ķà®°à®®à¯ģà®¤à®²à®¿à®ķà®³à¯į
Ġà®Ĩà®Ļà¯į -à®ħà®ķà®°à®®à¯ģà®¤à®²à®¿à®ķà®³à¯į
à²³ à³įà²³
Ġsu jet
ĉĉ ĉ
Ġà¨ĸ à©ĩ
Ġch ia
ĠA lex
Ġkho áº£ng
Ġc erca
Ġàª¸ àªĤàª
Ġresult ats
Ġà¤ķ à¥ģà¤°
ĠS y
æĸ¹éĿ¢ çļĦ
éĻ¤ äºĨ
éĴ Ł
2 F
éĺ ¶
Ø¯ Ø§Ø±
à§ĩà¦¬ à§ĩ
itt ed
Ġar i
à¯Ĥ à®°
ÙĪØ± Øª
éĽ Ļ
Ãī s
Ġ' s
Ġfem mes
Ġenc uent
àª¿àª¯ àª¾
ĠØ£ Ø´
àŃįà¬ ¯àŃįàŃŁ
ĠØ¹ Ø¨
ĠM il
à¯ģà®ķ à®¿à®©à¯įà®±
Ġà¤ªà¥įà¤°à¤® à¥ģà¤ĸ
LE CT
Ġà®ļà®¾à®©à¯įà®± à¯ģà®ķà¯ĭà®³à¯į
ĠAl b
à§Ł à¦¾
T amb
Ġal isema
= >
ĠØ¹ÙĨ Ùĩ
Ġde ath
Ġco oper
y thon
iáº¿ m
ãĢ ī
Ġre tr
Ġàª¸ àªĤ
Ġt w
ĠM aria
å¹ ¸
ĠT or
ĠØ£ÙĨ Ø§
Ġev itar
ĠR uss
è´ ¥
Ġà°® à±Ģ
Ġs ais
å¼ Ĺ
Ġnom Ã©s
ÙĨØ³ Ø§ÙĨ
r iz
Ġen vironment
à¦ Ļà§įà¦ķ
id ge
ĠT a
à®ķ à¯ģà®ªà¯įà®ª
Ġex ecut
Ġà¤¸à¤ķ à¤¤à¤¾
Ġà®ī à®Ł
èªį çĤº
w rite
ĠĠĠĠĠĠĠĠ ĠĠĠĠ
æľ ±
à¥įà¤ Ń
ĠÚ©ÛĮ ÙĦ
Ġàªľ à«Ģ
Ġb Ãłn
ĠF ile
h ing
à¦¾à¦² à§ĩà¦°
ç¤¾ åĮº
èĴ Ĥ
ĠÙĨ ÙĪ
H P
Ġàª¬ à«ĩ
Ġsign al
Ġprev ious
fr ont
Ġmem ang
Ġà®ª à®£
à°® à±ģà°¨
à©ľ à©Ģ
à®¾à®µ à®¿à®©à¯į
ĠCh ampionnat
æ¬§ æ´²
Ġà¤¸ à¤¾à¤°
èĥ ŀ
àª¨à«įàª ¡
åĸľ æ¬¢
Ġl iá»ĩu
à¨ķ à©Ģ
Ø§Ø¦ Ø¹
Ġpre fer
Ġter me
Ġequ al
ÙĦØ§ Ùĭ
sh ow
Ġa fin
Ġr adi
vers ion
Ġà¤ Ĭ
Ġac us
t Ã©
Ġprot est
Ġ0 8
ĠØ¨ Ø·
ĠØ§ÙĦÙħ ÙĤ
çģ µ
N G
Ġà®ĩ à®¤
ĠØªÙħ Ø§Ùħ
ĠÚ© Ø³ÛĮ
æŃ ²
AN G
àª ł
IP A:
ig ne
Ġx á»Ń
Ġà¤¨à¥ĩ à¤ªà¤¾à¤²à¥Ģ
Ġà¤ļ à¥Į
à¯Ĭ à®°
ategoria :
Ġà¨® à¨¿à¨²
Ġsh own
Ġà´ªà´± à´ŀàµįà´ŀ
av i
Ġjun to
il der
Ġdá»± ng
C ons
Ġ) Ġ,
à¤« à¤²
ãĢ Ī
0 }
à´¾à´ ¶
ic amente
ĠØª ÙĥÙĪÙĨ
à§ĩà¦ Ĺ
Ġà®ħ à®®
Ġh á»Ļ
à¬ª àŃįà¬°
Ġv ista
Ġrece ived
à¥ĥ à¤¤à¥įà¤¯
Ġalgun os
ĠM es
ĠØ§ÙĦÙĦ Ûģ
ÃŃ fic
st er
Ġopt ions
Ġcon ven
áº« u
enci Ãł
Ùħ ÙĪØ¹
æ¥ µ
Ġà¤¸à¤® à¤¾à¤ľ
ÚĪ ÛĮ
Ġwh ole
à´¨àµįà´¨ àµĨ
Ġà¦¸ à¦¾à¦¥à§ĩ
ç± į
à´¿à´ķàµįà´ķ àµģà´¨àµįà´¨àµģ
äº ¿
å ļ
Ġm ech
Ġb iá»ĥn
ic le
ĠComiss Ã£o
ç¢ ¼
Ġà°ļà±Ĩ à°ªà±įà°ª
Ġguer ra
à¥Ģ à¤Ĥ
Ġter us
Ðµ ÑĤ
Ġà¦ª à¦¦
P re
à¤¯ à¤¾à¤ģ
à®¿à®¯ à¯Ī
Ġàª¸ à«įàª¥
åĲĦ åĽ½
ur so
ĠØ§ÙĦ Ø§Øª
ç» ĥ
è¿ĩ ç¨ĭ
Ġpr is
Ġtr anh
l ate
od os
Ġpr on
Ġà¬ħ à¬§
s os
at ely
Ġos o
Ġà¦ªà§įà¦° à¦¥à¦®
ĠØ§ ï»
éĥ İ
ä¸º âĢľ
Ġà¨¸à¨° à¨ķà¨¾à¨°
le an
Ġà¦¬à¦² à§ĩà¦¨
qu el
à±įà°¯ à°Ĥ
st ant
as c
and er
Ġac ont
à²Ĺ à³įà²°
ĠSe e
åĩº çīĪ
Ġà®µ à®¿à®°
č Ċĉĉĉĉ
Ġà²® à²¹
Ġà°ħ à°Ĥà°¦
ÃŃst ica
il er
à¯ģà®¤ à¯į
Ġd'aut res
Ġb Ã³ng
Ġà¦¬à¦¿à¦ °
æĿ¥ èĩª
à©±à¨ ļ
a a
ĠD PR
in it
Ġenf ants
Ġh ref
äº ®
Ġad apt
à¤¿à¤Ĥ à¤¦
Ù °
à¤¡ à¤¾
ĠdÃ© m
Ġà°¤ à°°
Ġdec ir
à¥Ĥ à¤¤
ĠCo uncil
ĠT Ã´i
ĠÄĳ áº¥y
0000 00
ĠS he
all s
Ø² ÙĬ
ÙĪÙħ Ø§Øª
àªµ à«ĩ
en ch
Ġà´ħ à´¨
a Ã§Ãµes
Ġv end
Ġcl ient
Ġà°¸ à±ģà°¨à±įà°¨à°¾
ec ond
ĠÄĳá» §
ç¬¬ åĽĽ
Ġà°¸ à°°
Ġà¬® à¬¹
Ġy ak
ĠÙħÙĨ ÙĩØ§
Ġn chini
æľī çļĦ
Ġpod emos
Ġ\\ Prononciation
à¦¿à¦ £
à¬¿à¬ ¯
Ġsel uruh
è¯´ æĺİ
Ã©rie ur
ers ion
act ions
à¨¿à¨ ®
A m
ĠH or
Ġà¦ī à¦¤à§įà¦¤
ĠIm ages
à®µ à¯įà®µ
ĠB y
\"> </
ĠT u
áº© u
Ġv ya
ĠØ¬ Ø§
ĠO cc
Ġdu y
E E
Ġm im
æ¸¸ æĪı
ĠÛģÙĪÙĨ ÛĴ
Ġà¤Ł à¥įà¤°
Ġdefin ed
èĮĥ åĽ´
à´¤àµįà´¤ à´¿
Ġà®ªà¯Ĭà®° à¯ģà®³à¯į
200 1å¹´
à¤ªà¥Ĥ à¤°à¥įà¤£
iss ement
W hen
à²Ĥà²¤ à³įà²°
Ġà¤ķà¤° à¤¤à¤¾
Ġquel que
Ġà¦ķ à§įà¦°
t emp
æĿ¡ ä»¶
at uta
Â º
ĠGeneral itat
Ġg az
- 7
Ġl' article
à¤ı à¤ķ
ĠT P
å®¡ è®®
à±Ĥà° ²
Ø±ÙĪ Ùģ
à¬¿à¬ Ł
h id
Ġsej ak
Ġh am
un cia
à¨ķ à¨°
Ġà¨¦à¨¿à©± à¨¤à¨¾
ĠØ£ ÙĪÙĦ
Ġl'imper fet
est ival
à¨¾à¨µ à¨¾à¨Ĥ
ĠlÃŃ der
ÃŃcul o
Ġtar de
ĠÙĦÙĦ Øª
ĠW eb
trans lation
Ġb omb
ĠÙĪÙĤ Ø§ÙĦ
Ġâ ģ
Ġbo ol
Ġà´ķ àµĩ
Ġs am
ok owi
àŃĢ à¬°
à°¯ à°Ĥ
Ã® tre
c ore
........ ........
Ġm ana
as is
ĠEs ta
ek e
å½¢ æĪĲ
Ġà°µ à°ļà±įà°ļ
Ġproces o
à¤£ à¤¾
åģ¥ åº·
P lay
Ġd ays
èµ ŀ
Ġà¤¤à¥įà¤¯ à¤¸
ĠÚĨ Ø§Ûģ
å¿ħ è¦ģ
/ v
æ¡ Ĩ
ĠØ¶ Ø±
à³Ĥ à²¡
Ġpar c
Ġà¬Ń à¬¾à¬°à¬¤
Ġpar e
ç» į
éĺ¿ æĭī
ĠB an
O P
àª¾àª¥ à«Ģ
è´¸ æĺĵ
Ġà´ķ àµĤà´Ł
Ġà¤ļ à¥ģà¤¨
ilay ah
Ë§ Ë§
Ġà¤ªà¥ģà¤Ĥ à¥°
à°¨ à°Ĥ
Ġc ard
Ùĩ ÙĬ
Ġb enar
Ġpar ce
Ø§ØŃ Ø¨
á»į ÌĢ
âĢ¦ âĢ¦
Ġà¦¯à¦ ¦
à¥Ģ à¤ķ
//////// ////////
éĢ ĥ
ĠseÃ± al
ab s
æ§ ĭ
à¦¿à¦· à§įà¦ł
Ġbut ton
ĠWikip Ã©dia
B ar
ç¦ ®
Con n
Ġj ob
Ġ6 4
åŃ¦ çĶŁ
Ġch Ã¢n
Ġà®ĩà®° à¯ģà®ķà¯įà®ķ
Ġs ect
Ġà¨¨ à¨¾
ï¼ī çļĦ
Ġ199 7
æ¯Ķ è¾ĥ
Ã³ t
Ġal m
ĠN ational
Ġtrans fer
Ġmag n
åıĬ åħ¶
ĠO ct
Ġà¤ľà¥Ģà¤µ à¤¨
Ġ1 ;
Ġmultip le
ot i
Ġd Ã¡
ac i
Ġt as
ĠÙĬ Ø³
ĠT om
R C
ang le
à´¤ à´¿à´°
Ġâ ĸ
à¥įà¤ŀ à¤¾à¤¨
à´¨àµįà´ ±
n am
ĠP T
o e
å¦Ĥ æŃ¤
Ġsen y
Ġà®ħà®¤ à®¿à®ķ
uc ional
Ġl ines
à¤¾à¤ķ à¤°
ĠNg uyá»ħn
Ġl it
Ġtet api
à©°à¨¤ à¨°à©Ģ
Ġb ast
Ġw arga
à§ĩ à§±
ĠØ§ Ûģ
Ġà¤¦ à¥ģà¤
àª¿ àª®
Ġdeta ils
f n
ne a
à¤¾à¤ Ŀ
Ġth ird
à¥įà¤° à¥ĩà¤¸
Ġà¤ªà¥įà¤° à¤¾à¤ªà¥įà¤¤
Ġconst itu
åı¦ ä¸Ģ
ĠÙģ ÙĤØ·
Ġv ui
Ġf ri
ĠPh il
Ġy ake
ĠFeb ru
à¤°à¥įà¤ Ń
å¹´ ä»£
Ġà¤Ĩà¤§ à¤¾à¤°
Ġà¤īà¤¤à¥įà¤¤ à¤°
ç° ¡
æģĲ æĢ
à¥ĥ à¤·à¥įà¤Ł
v u
æĦı è§ģ
Ġà¦¸ à¦¦
Ġem erg
ĠPro v
Ġre cl
éĨ «
op en
Ġindepend ent
è° ģ
Ġt '
Ã© tr
Ġf ou
EN D
ĠsÃ³ lo
ĠH u
Ġop in
Ġass um
èµ· æĿ¥
ad an
à²°à³įà² ķ
à¤¨à¥įà¤¦ à¤¾
à¤¿à¤²à¥įà¤² à¥Ģ
enez uela
Ġà¨¸ à¨¹
ide z
Ġqual quer
d ir
Control ler
en is
à´¿à´² àµĩ
Ġhab er
å· ¨
Ġà¦ĩ à¦ī
Ġtr ÃŃ
Ġch am
V oir
à°¾à° ł
çı¾ åľ¨
O A
ec ute
Ġà¦ª à§ģà¦°
Ġà° Ĳ
Ġà¤¯ à¥ĭà¤Ĺ
Ġà¦ķà§ĭà¦¨ à§ĭ
å¼ ±
Ġh y
Ø¯ ÙĪ
Ġà®ļ à®®
s ite
Ġà¬¸ àŃįà¬¥
Ġg Ã¢y
Ġà¬ħ à¬Ń
/ 1
Ġse en
Ġkh ÃŃ
Ġà¤īà¤¨ à¤ķà¥ĩ
ç¹ ģ
Ġhttp:// www
Ġà¤¬ à¥ĭ
Ùİ Øµ
r Ãł
åĨ °
ĠØ§ÙĦÙħ Øµ
el f
èŃ ·
Ġa segur
Ġc atch
à³Ģ à²µ
Ġneed s
à¤® à¤¾à¤°
à´¾à´ ·
Ġnot e
â Ķ
à©ľ à©įà¨¹
Ġemp le
Ġcome Ã§
Ùİ Ø§Ø¡
à°Ĥà° ľ
Ġrec ent
ä¸į å¾Ĺ
up aten
ÙĪÙĨ ÙĬ
éĥ ¡
Ġcel ui
Ġlib re
è® Ģ
çĬ¯ ç½ª
or de
Ġl' al
cont ent
U I
à±ĭ à°ľ
Ã¨n cies
yn c
h \"
Ġà²¹ à²²
åĬŀ æ³ķ
ä¸ ½
Ġà¤ªà¤¾à¤° à¥įà¤Łà¥Ģ
Kh Ã´ng
Ġph Ã¢n
é¡ ¿
Ġà´µ àµįà´¯
åħ¨ éĥ¨
çĴ °
o z
h ora
Ä į
Ġang gota
ĠPr Ã©sent
ĠArgent ina
à§įà¦¬ à¦°
ĠC ette
ĠA pp
200 7å¹´
5 %
Ġqu áº£n
à§ĩà¦Ľà¦¿à¦² à§ĩà¦¨
æľī äºº
Ġà¦ªà§įà¦° à¦§à¦¾à¦¨
Ġà¬° à¬¹à¬¿à¬
Ġà¦ķà§° à¦¾
Th at
à¤£ à¤¾à¤°
ë Ĺ
S ing
ĠÄĳ Ãºng
à±Ģ à°²
t n
du ce
arr ia
Ġin j
Ġw ana
ç§ ĭ
à´¨àµįà´¨ àµģ
source >
D i
ĠB ing
er an
* /
int z
qu oi
as ter
à¦¦ à¦¿à¦¨
ĠàªŃ àª¾àªĹ
ĠF ig
D N
V ous
à§¦ à§¦
ĊĠĠĠĠĠĠĠĠ ĠĠĠĠĠ
Ġà¦ľ à¦¾à¦¤
ert os
à´® à´¾à´£àµį
à¤¦ à¤°à¥įà¤¶
Ġp ula
ind i
à¦¿à¦² à¦¾
ab al
Ġà°µ à±Ī
à¤¿à¤¤ à¥įà¤¤
c ons
ĠØ§ÙĦ ÙĪÙĤ
Ġcon to
æĭ ¥
ä¹ĭ å¾Į
à³Ĩà²¯ à²¨à³įà²¨à³ģ
Ġà®ī à®¯
ĠCon stit
ĊĠĠĠĠ ĠĠ
Ġpre vent
à±Ĩ à°Ł
Ġà°¤ à°®
Ġlang sung
Ġng u
Ġà¬Ĩ à¬¸
Ġàªķ à«ĭàªĪ
à²° à²¡
Ø§Ø¯ Ø±
Ġh ukum
as il
et y
Ġma xim
r Ã©s
ĠI 've
éŁ »
à®² à®ķ
fo is
Ġcon form
Ġprodu ction
Ġà¨® à¨¨
à´¿à´° àµģà´¨àµįà´¨
éĥ¨ éĺŁ
ĠPa ul
ind ing
àªľ àª°
àª°à«įàª ®
Ġto get
Ġfis cal
ĠØª Ùı
ç®Ģ åĮĸ
Ġass ist
ĠÚĨ Ú¾
ä¸ľ è¥¿
à¤¶ à¤¾
à¤µ à¥ĩ
Ġb iáº¿n
ç¤ ¼
io a
Ġà¬¬ àŃĭà¬²
fe ito
Ġcult ure
àª¨à«įàª ¦
Ġà´¤ àµģà´Ł
Ġà¦¹ à¦ļà§įà¦
Ġhist or
çĶŁ çī©
à¤¿à¤¨ à¥įà¤¦
Ġc ukup
Ġe fic
Ġus u
Ġtoget her
200 6å¹´
ÙİØ§ÙĦ Ùİ
ĠÃºltim os
Ġhel d
an el
éł ħ
Ø² Ùħ
[ $
à«įàª¯ à«ģ
ĠJ ean
Ġà¤ħà¤¨ à¥ģà¤¸à¤¾à¤°
Ġbeg in
ĠrÃ© c
à¤¦ à¥Ī
ä»Ĭ å¤©
Î ¼
ĠØ³ ÙĦ
un akan
Ġv iáº¿t
Ġt itle
ĠØ£ Ø¯
å®£ å¸ĥ
In i
ĠF C
Ġarr ib
message >
Ġhapp en
Ġmendapat kan
ab o
{\\ frac
- in
â Ļ
ia is
Ġmit j
Ġàª Ī
Ġmin im
à§Ģà¦¯à¦¼ à¦¾
Ġe valu
Ġà¦Ĩ à¦ľ
ĠÙģ Ø£
ÙĪ Ø£
æĬ µ
y Ãłn
Øº Ø±
àª¹à«Ģ àªĤ
Ġtyp es
amp a
and i
Ġà¨ ¥
Ġph á»¥c
yp es
I O
e j
àŃįà¬ ľ
gr aph
d el
ĠØ¢ Ø¨Ø§Ø¯
à²Ĥ à²ª
Ġà² ĸ
éģ ł
Ġà¨ħ à¨§
å±ŀ äºİ
Ġ\" \"\"
à°¾à°¨ à±ģ
Ġg ens
ĠØ¨ ÙħØ§
Ġenpres ak
Ġà¤¸à¤® à¥įà¤®
roso ft
ar em
Ġcha que
à²°à³ģ à²µ
http:// www
ĠØ§ Ùĵ
à®¿à® £
Ġvez es
Ġc á»ĳ
Ã¢n cia
olog ÃŃa
t uk
Ġh áº¡n
Ġàª° à«Ģ
Ġà¦ī à¦ł
è¡ Ľ
e lement
Ġnov embre
Ġ5 2
å° ¾
é«ĺ åº¦
à¯įà® ¸
æ¥ ļ
Ġv Ã©r
à´¯ à´Ĥ
Ã³ i
Ġfor e
ĠF re
Ġreg ion
ĠS ek
Ġj unt
Ġàªī àªª
Ġcult ural
ÃŃ amos
Ġà¤ª à¤¾à¤¸
åİĨ åı²
Ġa uc
Ġà¦ª à¦¡à¦¼
Ġint ens
éĽ ĸ
Ġà¨² à©Ī
istr ib
åį Ķ
Ġdat os
æľº ä¼ļ
æŃ£ é«Ķ
à©±à¨ ľ
I K
Ġà¤® à¤Ĥà¤¤à¥įà¤°
ĠT ahun
ĠÃºl tima
à°¤ à±įà°°
Ġåľĭ èªŀ
ah am
h ost
éĽ ª
à¤°à¥įà¤ ¡
à®¿à®¯ à®¿à®©à¯į
Ġà¤¸à¤¬ à¥Ī
à¤ľ à¤°
Ã¡ ct
à°¨à±įà°¨ à°¾à°°à±ģ
Ûģ ÙĪØ±
çļĦ ãĢĬ
ĠR io
à¨¾à¨ľ à¨¼
Ø° ÙĬ
à®¾à®° à¯įà®ķà®³à¯į
Ġmo ve
Ðº Ð°
se e
çļĦ éĹ®é¢ĺ
au h
Ġset iap
é¢Ħ ç®Ĺ
ĠØ§ÙĦÙĬ ÙĪÙħ
æļ Ĺ
ĠOb ject
Ġàª®à«ģ àªĸ
ĠD Ã©
Ġtak en
us us
Ġpar ece
ĠÙĨ Ø¸Ø±
ç² ī
ro c
ĠB BB
Ġl uego
ĠÙħ Ø®ØªÙĦÙģ
ĠG en
eng e
æ²» çĸĹ
E nd
Ġse ems
à«Ģ àª¨àª¾
Ġdep an
ĠâĪ Ī
Ġ ist
Ġd avant
Ġà°¬ à±įà°°
à´µ àµ¼
ob ile
Ġtr uyá»ģn
Ġexper iment
çŃ ĳ
H ere
P M
ĠÐ º
Ġà¤Ĩà¤« à¥įà¤¨
ad ro
im s
Ġy e
èĥ ľ
èµ Ķ
></ noinclude>
Ġpeu vent
Ġal de
Ġà¤ªà¥įà¤° à¤¯
à¨¦ à¨°
à¨¿à¨Ĩ à¨°
arr ik
Ġà°® à°¾à°°
æ¶ ²
Ġunderst and
Ġpou voir
b ers
ĠàªĨàªµ à«ĩ
Ġk l
Ġà¤ķà¤°à¤£ à¥įà¤¯à¤¾à¤¤
er as
ag ing
å§ ĵ
à´¦àµįà´ §
à®¿à®¯ à¯ģà®®à¯į
\\ right
ç¨ İ
Ġà¦¬ à§ģ
æ² ĥ
ov a
ä¸ĵ å®¶
à¨¿à¨ ĸ
Ø§Ø¦ ÛĮÚº
ä¸¥ éĩį
Ġth ought
Ġh it
- te
ĠT est
200 5å¹´
è¿ĩ åİ»
à¤°à¥įà¤ Ľ
Ġde ve
Ġter ce
à¤® à¤¨
à¨¤ à¨¾à¨Ĥ
ier ra
Ġch ung
ille urs
à¬ŀ àŃįà¬ļ
k m
) ãĢĤ
Ùģ Ø¹ÙĦ
Ġà¤¶ à¤¹à¤°
Ġà¨® à©°à¨¤à¨°à©Ģ
Ġt emplate
èį ·
Ġà¤¶ à¤ķ
W S
ÙĬ Ùĥ
Ġc elle
Ġà°® à°¹
Ġfamil y
Ġf ire
à´± àµĨ
Ġt ua
Ġà¤¬ à¤°
ÙĳÙİ Ø©
ĠØ¹ Ø¯Ø¯
U G
Ġà¤¸ à¤¾à¤Ĥà¤Ĺ
åĪ ĺ
Õ ¡
à¥Ĥ à¤ķ
Ġx Ã¢y
in u
Ġl ama
ĠK ateg
get _
Ġs cript
à¤¾à¤¤ à¥įà¤®
è° ·
ĠR et
à¤¾à¤Ĥ à¤ķ
Ġm Ã³n
æĹ Ĺ
è¾ ĸ
ĠC u
or ig
ÃŃc io
Ġtr áº»
à§ĭ à¦¬
Ġà¤® à¥ģà¤²
æ¨ ĵ
emb ros
ĠIs rael
Ġ\" A
çį ¨
Ġc av
à¤® à¥įà¤¬
Ġw Ãł
Ã©r ito
Ġde dic
ec ciÃ³n
Ġil i
ĠÐ ¾
Ġb ik
à©ĩ à¨¸à¨¼
Ġà¦ħ à¦¸
ÙĪ Ø§Ø¬
Ġta x
Ġm k
à¤ĸ à¥įà¤¯à¤¾
/200 1
Nh Æ°ng
à¦· à§įà¦Ł
àª¾àª ·
Ġà¨¦ à¨°
St art
ie ved
æŀ ª
px ;
Ġà¤ª à¤ķà¥įà¤·
Ġ_ {
Es te
ĠØ£Ùİ ÙĨÙĳÙİ
on ne
Ġà¤Ĩà¤µ à¤¶à¥įà¤¯à¤ķ
Ġà¤® à¤¾à¤®
ese h
Ġcum pl
ç ĺ
Ġqu' elle
Ġà®İ à®´
Ġà²Ĩ à²°
es c
Ġle v
ĠU ne
Ġwr ong
Ġà²° à³Ĥà²ª
i Ã§Ãµes
Ġex pert
Ġenerg y
Ãª tes
ĠÙĥ ØªØ§Ø¨
g ed
åį ĸ
at as
æľī äºĽ
om m
Ġmethod s
ĠPeng gunaan
å½ ¹
ĠCon vention
Es ta
à¦¾à¦¨ à¦¿
ion ar
Ġco v
é¢ ĳ
Ġch Æ¡i
Ġseg uridad
Ġcomp lement
à¤Ĩ à¤Ī
Ġà¤¸à¤¦ à¤¸à¥įà¤¯
Ġ\" T
ial s
æĮ ¥
201 0å¹´
Ġngh á»ĭ
w in
Ġà¤¶ à¤¬à¥įà¤¦
ĠH ol
Ġà¤¸à¤Ĥ à¤¬à¤Ĥà¤§
åĭ ¤
à§ ¯
ach ed
åħ¨ éĿ¢
åĩı å°ĳ
åĬ ĩ
ess es
Ġexpress ion
g os
Ġa ug
ir s
ĠÙħ Ø§Ø±
ÙĬÙħ Ø©
Ġprob ably
Ġpr os
ĠØ± Ø¨
Ġob ten
Ġà¨Ĺ à¨ı
/ 01
l Ã©
ar row
ĠFac ebook
Ġà¤¨ à¤Ĺà¤°
Ġ ÃŃ
Ġà¤Ĺà¤°à¥ĩ à¤ķà¤¾
éĵ¶ è¡Į
ĠR el
ĠT witter
à®¾à® Ļà¯įà®ķ
Ġà´ķ àµĭ
B A
Ġà®µ à®¨à¯įà®¤
à©ľ à©ĩ
Ġk ok
ant as
æ¬ ²
Ġà¦¯ à¦¾
Ġà¦² à§ĭà¦ķ
è³ĩ è¨Ĭ
Ø§Ø¨ Ø§Øª
x ic
ĠÙĦ Ø¯
an qu
S eb
à¤¾à¤£ à¥Ģ
Ġà®µà¯ĩà®£à¯įà®Ł à¯ģà®®à¯į
es h
Ġdu es
éĺ »
åıĺ åĮĸ
éĽ» åŃĲ
à²¿à²¦ à²°à³ģ
Ġam ount
ock et
Ġmemb ers
à¤¤ à¥įà¤¨
3 ]
ĠN E
àŃ Ī
ĠF ree
Ġw on
ĠP ero
ÙĦÙĬ Ø³
Ġf ine
çĶµ å½±
Ø¥ ÙĲ
Ġget ting
Ø§Ø± Ûģ
Ġcap it
Ġconf lic
Ġprov ided
éģ į
à°¿à° ³
Ġniv el
ch en
Ġà§ ª
Ġad m
ĠéĢļ çĶ¨
åħ· ä½ĵ
ĠAr ab
re as
Ġà²µ à²°à³įà²
Ġà¤ªà¥įà¤° à¤¤à¥įà¤¯
Ġàª¦ à«ĩàª¶
ÙĴ Ø¹
Ġp ent
Ġà®® à®©
è² »
äºĨ è§£
Ġà¤ķà¥ĩ à¤²à¤¾
Ġsignific ant
cr imin
Ġà´ħ à´Ł
à³ĭ à²Ł
à²¾à²° à²¿
ĠØ§ÙĦ Ø§ÙĤ
Ġà¦ªà¦¾à¦° à§ĩ
à§ĥà¦· à§įà¦Ł
Ġdif ÃŃc
Ġgr ad
Hand ler
Ġdom in
u wa
à¤ª à¤Ł
Ġar ab
Ġcomp art
{{ rh
à¤¾à¤ Ĭ
Ġà²ķ à³Ĩ
Ġr ug
ĠÙĦÙĦ Ø£
à«ĩ àªķ
H ER
Ġpro per
å³ °
à§įà¦¯ à§ĩà¦°
et es
Ø· Ø§ÙĨ
ĠÙħØ¬ ÙħÙĪØ¹
ĀĀ ĀĀ
- Un
à¤ª à¤¾
Ġuntuk :
ĠL uc
, ĊĠĠĠĠĠĠĠĠĠĠĠĠĠĠĠ
Ġ æ³¨éŁ³
à¤µ à¤¾à¤¨
Ġg Ã¡i
è¡¨ æĦı
Ġh ain
u ction
Ġstr ong
ĠfamÃŃl ia
ĠN av
- 18
ha el
ĠCol omb
D ec
ĠdÃ³lar es
Ġà¦¬à¦¿à¦ ľ
ĠCop a
Ġà¤ľ à¤°
å» ·
å®ŀ éĻħ
aw at
Ġ ä¿Ħ
Ġgroup e
Ġmin h
ik it
Ġp oc
ĠS AB
á»ĵ m
ĠJ es
ĠÄĳ áº·t
Ø® Ø·
Ġà¤² à¥ĩà¤ķ
Ġre com
åĿ ı
ĠU E
æĮī çħ§
à§° à¦¾
à´¨àµįà´¨ àµį
å¯¼ èĩ´
æĵ Ķ
à«Ģ àªķ
ĠG od
ØªÙħ Ø¹
Ġth ough
Ġret ir
à¬¤ àŃįà¬¤
Ġaix ÃŃ
ä»¥ ä¸Ĭ
Ġver bo
Ġà¨¹à©ĭ à¨°
S ON
Ø§Ø³ ÙĬØ©
iv ent
à²¾à²° à³ģ
à©Ģà¨ ľ
ĠàŃ §
ĠØ¨ Ø³
à¤¿à¤ķ à¥ĭ
Ġam ong
Ġà®ĩ à®²à¯įà®²
M ais
ap on
od ing
Ġv amos
Ġà¤¸ à¤¾à¤²
Ġh ip
Ġ5 4
or ar
à¦Ĺ à¦¤
el ako
ĠE ng
à¦¾à¦¨ à¦¾
Ġse is
Ġ[ ]
à²¿à²¯ à²²à³įà²²à²¿
~ ~
æ´ ¥
å¥ ī
j pg
ĠT ak
Ġrun ning
Ġ ibil
éĢļ å¸¸
p ara
Ġl' en
Ġà¬¸ àŃįàŃ±
E urop
ue k
è¿Ľ ä¸ĢæŃ¥
Ġde cl
Ġv Ã¹ng
ç½ĳ ç»ľ
Ġth áº§n
ç¬¬ äºĶ
à¦¿à¦ķ à¦¾
Ch eck
Ġch ez
ag ian
Ġà¤¦ à¤²
any e
Ø§ÙĦ Ø§Øª
Ġconto h
à¤¾à¤¯ à¤ķ
Ġà¬¹àŃĭà¬ ĩ
iz ados
Ġx in
Ø§Ø³ Ø©
Ġminist ro
Ġcu á»ĳi
åĳĬ è¯ī
Ġb ol
Î »
Ġm ix
Ġà¦® à¦¨à§ĩ
Ä© a
Ġact ive
V ER
Ġpend ant
emb ly
c ase
å° º
à¦ķ à¦¿à¦¨à§įà¦¤à§ģ
à³ģà²µ à³ģà²¦
Ġen fer
ĠØ· Ø±ØŃ
ĠÚ© ÚĨÚ¾
Ġà¬Ń à¬¾à¬¬
Ġj elas
t ml
è² ł
_ 2
iz ada
Ġz uz
Ġek onom
ang ed
æĹ¥ éŁĵ
åĬ ī
Ġy aitu
ell er
à¦° à§įà¦¬
eseh atan
àŃįà¬° à¬®
Ġag osto
: \"
Ġpre ocup
ĠØ£ Ø®Ø±Ùī
Ġfe el
mod el
ĠComm ittee
Ġà¤ħ à¤¨à¥ĩà¤ķ
è ķ
§ à³
éĩĳ èŀį
ĠH a
ÛĮ Ø²
Ð» Ð¸
\" />
àµģà´® àµįà´ª
Ġrefer ence
ĠÄĳá»© ng
Ġuse ful
àª¾àªµ à«Ģ
è¯ ¾
Ġc Ã¢y
Ø¢ ÙĨ
Ġde ber
Ã Ķng
ĠÙĦ ØŃ
éĿ¢ ç§¯
Ġc asi
éĮ Ħ
Ġf lex
ĠM erc
S ystem
à¦¾à¦ «
Ġper c
Ġa me
Ġà¤ªà¥įà¤° à¤§à¤¾à¤¨à¤®
Ġag re
Ġk us
ĠE u
à«ĩàª ĸ
ĠàªŃàª¾àª° àª¤
C L
Ġà¦Ĩà¦® à¦¾à¦¦à§ĩà¦°
Ġà¤¨à¥įà¤¯ à¤¾à¤¯
Ġkh oa
Ġdu as
Ġà¤« à¤¿à¤²à¥įà¤®
iÃªn cia
à¬°àŃįà¬ ®
å® «
y ch
Ġfun ctions
Ġà®µ à®¾à®´
Ġtempor ada
Ġment ion
Ġà´ī à´ª
ic ar
Ġv ill
à©Ģà¨µ à¨°à¨¸
Ġpou co
Ã¡ri as
us u
Ġ ì
t t
ĠÃ© qu
çĪ ¸
à±Ĩ à°ķ
Ġk uh
3 cH
Ġà¤Ĩ à¤Ī
P age
k ing
Ġl emb
Ġlo i
uz te
åħ¬ åħ±
à¤µà¤¾à¤¦ à¥Ģ
i ot
ĠØ¨ Ø¥
as tr
Ġmuch os
B S
Ġà²ķà²¾à²° à³įà²¯
y right
Ê Ķ
Ġele cc
Ġàªī àªªàª°
Ġqu' on
æİ Į
ativ os
ĠØ§ÙĦØª Ø¹
Ġà´ķ à´´
à²¿à²¸ à³ģà²¤à³įà²¤
ario us
à¤¸ à¤ģà¤Ĺ
/ d
in en
à®¿à®° à¯ģà®ķà¯įà®ķ
Ġà¦¦à§ģ à¦ĩ
ĠtÃŃ ch
åŁ¹ è®Ń
à°¤ à°¿à°°
è¡¨æĦı æĸĩåŃĹ
à§ĭ à¦¦
Ġà¦ķà¦° à§įà¦®
Ġa le
Ġw at
ai o
List ener
ĠFound ation
æķ ¦
Ã£ i
b Ã©
çļĦ æĬ¥åĳĬ
å¹ ķ
Ġh iv
Ġåľĭèªŀ ç¾ħé¦¬
Ġcl ose
à´ ĺ
Ġof ten
Ġà¤ī à¤ł
à°· à±įà°Ł
Ġà¤® à¤¾
Ġenc ara
ÙİÙĬÙĴ ÙĨ
l an
Ø§Ø® ÙĦ
ĠE g
à¯Ī à®ķà¯į
Ġä¸Ń æĹ¥éŁĵ
Ġd uten
ĠJ awa
éģ Ĺ
Ġann Ã©es
Ġcon clus
æķ ¢
Ø§Ø¤ ÙĨ
ĠØ¹ ÙĦØ§ÙĤ
Ġà¤¬ à¥ĭà¤²
ĠØ§ÙĦØ£Ùħ Ùħ
kan a
G o
Ġà¤ļ à¤¿à¤¤à¥įà¤°
Ġà¤ĺ à¥ĩà¤¤
à²ķ à³Ĩ
Ġou v
à°¿à°¯ à±ģ
Ġ5 3
200 9
Ġc âĢĻest
end ele
àª¾àª Ł
ĠO kt
Ġcomp any
Ġsoc iet
ĠIt 's
Ġà¤Ĺ à¤°à¥Ģ
Ġk uk
æĢ ª
å¨ ĺ
Ġlang uage
çµ±ä¸Ģ è¡¨æĦıæĸĩåŃĹ
Ġpar agr
19 6
Ġker ja
Ġä¸ŃæĹ¥éŁĵ çµ±ä¸Ģè¡¨æĦıæĸĩåŃĹ
C ar
l ast
mb ol
Ġà¬ª à¬°àŃĩ
è¦ º
Ġà¤ķ à¥Ī
Ġp id
Ġà¤¤ à¤¹
/ j
æ³ Ľ
à¨§ à¨¾à¨¨
m ark
åĶ ¯
Ġmemp er
qual ity
éŃ ¯
Col umn
Ġ uh
ĠÙĤ ÙĪÙħ
Ġà¬¸ à¬°
Ġn uc
it ect
çļĦ ä¸Ģä¸ª
up date
u arga
Ġemak ume
à¤µ à¤¨
Ġw ake
à´¿à´ķ àµ¾
Ġch er
ÙĬÙĦ Ø©
Ġà¦¥ à¦¾à¦ķà§ĩ
æ± ½
Ġautor idades
ĠeuropÃ©en ne
vis ion
Ġk im
Ġpet it
ĠMin ist
çĤ ¸
Ġà¤ª à¤¾à¤¹
Ġà°ķ à±ĩà°Ĥà°¦à±įà°°
-v ous
èģĶ çĽŁ
à°°à±įà° ¶
am eric
an za
Ġk Ã½
Ùģ Ø§Ø¹
Ġh uyá»ĩn
mas uk
Ġph Ã©p
ĠØ§ÙĦØ£ ÙħØ±
Ġà¤®à¥ģà¤ĸ à¥įà¤¯
Ġà¤² à¤ķà¥įà¤·
Ġsex ual
èµ «
åĲ ¯
åĴ ¨
à´¿à´¯ àµģà´ŁàµĨ
Ġadd ed
ib er
à¤¾à¤¸ à¥įà¤¥
Ġa ud
ĠOr gan
Ġà²µà²¿à² ¶
te urs
Ġà¤® à¥Ĥà¤²
Ġ æĭ¼éŁ³:
Ġh áº¯n
ĠÃ© d
Ġpl uriel
æģ ¢
ĠéĢļçĶ¨ æĭ¼éŁ³:
Ġper fect
ĠØ· ÙĪØ±
Ġà¥ ®
ĠPr Ã©s
Ġæ³¨éŁ³ :ãĦ
Ġåľĭèªŀç¾ħé¦¬ åŃĹ:
à¤µ à¤²
ĠØ§ÙĦØ¢ ÙĨ
à¥įà¤¯à¤¾à¤¤ à¥Ģà¤²
Ġnouve au
Ġà¦ħà¦¬ à¦¸à§įà¦¥
Ø· ÙĦ
Ġà´° à´¾à´ľ
Ï ĥ
àªĽ à«Ģ
at tr
Ġg izon
ari es
era Ã§Ã£o
ĠvÃł ng
ä¸ĵ ä¸ļ
Ġnord -
Ġpas ar
ĠØªØ¹ Ø§ÙĦÙī
Ġà´µ àµĢ
ĠprÃ³xim o
Ġà®ªà®¯à®©à¯įà®ª à®¾à®Łà¯ģ
Ġab ril
Ġlo op
com pl
Ġcamb io
Ġà¨® à©ĩ
Ġà¬ª àŃĤ
Ġv ou
C an
ĠÙĪØ§ØŃ Ø¯
T ER
Ġm ond
ĠK im
à²¨à³įà²¨ à³Ĥ
çĽ® çļĦ
ver no
à¤Ĥ à¤Ł
Ġu ang
à¬°àŃįà¬ ·
D el
à´¸ àµįà´¤
Ġà¬ķà¬¾à¬° àŃįà¬¯àŃįàŃŁ
Ġt iáº¿t
uk e
å¯ ¶
æ² ¿
E O
Ġlu Ã´n
à²¬à³ĩà²ķ à³ģ
å¥³ æĢ§
à¥ģà¤Ŀ à¥ĩ
Ġmas alah
Ġrest r
r ig
çĶ¨ çļĦ
ĠL uis
or age
àª¿ àª¨
Ġà¦¸ à¦¾à¦§
Ch ar
ĠB rit
Ġà´ī à´£àµįà´Ł
åĮĹæĸ¹ è©±
and s
à¤ī à¤¨à¥įà¤¹
Ġc ub
ĠØ£ Ø±
x ima
t zen
à©Ī à¨¸
Ġà¨¯à©Ĥà¨¨ à©Ģà¨µà¨°à¨¸
àª ĺ
Ġ åĤ³çµ±
Ġà¤ħà¤® à¥ĩà¤°
ĠS ÃŃl
Ġàªı àª®
Tr ong
Ġj ard
Ġber l
Ġà¦ı à¦²
à¥ģà¤® à¤¾à¤°
à¤¶ à¥įà¤ļ
ĠSAB DA
V Ãł
ĠØ¯ ÛĮÚ©
à¯ĭ à®¤à¯ģ
å® ģ
à±Ĩ à°¨
frac {
ĠTes aurus
à®¾à®° à®£
Ġtr ata
/ sh
à©Ģà¨ Ł
èŃ¦ å¯Ł
ĠKateg lo
ap it
ç« ¹
O ff
Ġmic ro
ĠJ a
è® ¿
Ġm ua
or ta
Ġs out
à¤¾à¤² à¤¾à¤Ī
od i
æŃ Ĳ
Ġap resent
à¥ĭ à¤¹
Ġde leg
Ġbate an
ĠU nd
4 00
ä¹Ł æľī
ĠS ar
Ġro ot
Ġà¦ªà¦° à¦¿à¦ļ
Ġh áº¡
Ø§Ø¨ ÙĦ
àª¾àª¨ à«ĭ
ÙĪ ØŃ
Ġfor a
end ing
Ġim ages
ĠP od
èĮ ¶
Ġà°ķ à°¿
Ġ\" b
Ġac ab
Ġà°µ à±ĩ
Ê Ĭ
s s
Ġ åĮĹæĸ¹è©±
Ùĩ ÙĪ
éŃ Ķ
æ¯ ķ
è´£ ä»»
Ġbeg itu
åįĹ éĥ¨
Ġà¤¨à¥ĩ à¤¤
iment os
·àŃįà¬ ł
àµģà´ ¨
á» ħ
æĸ ·
Pro perty
à´¸ àµįà´±àµįà´±
Ġ0 7
Ġl á»ĩ
ĠØ§ÙĦØŃ ÙĬ
Ġstand ard
Ġobjet ivo
Ġdir en
æĭħ ä»»
et t
Ġà°ªà±įà°°à°Ń à±ģà°¤à±įà°µ
àµįà´ ¨
Ø² Ø©
ish i
Ġà¦ı à¦Łà¦¾
Ġà§ «
ĠØ¢ Ø¦ÛĮ
Ġà¤ľ à¥Īà¤¸à¥ĩ
à§Ģ à¦ķ
àŃįà¬ £
è² ¬
å°¤ åħ¶
ic an
Ġà¤ħ à¤°
Ġà¤¸à¤Ĥ à¤¸
ĠØ¹ÙĦÙĬ ÙĩØ§
Ġà¦¬ à§°
Ġ ä»ĸ
à²Ĥ à²Ń
åı¸ æ³ķ
D I
Ġà¤¨à¤¿ à¤°à¥įà¤£
ĠØ§ÙĦØ° ÙĬÙĨ
Ġb ir
à®¾à® ª
à«ĩàª ľ
_ data
Ø¨ ÛĮ
f Ãł
ĠV Äĥn
Ġex cept
Ġatt ack
èŃ ī
Ġà²¤ à²¿à²³
à²²à²¾à²Ĺ à²¿à²¦à³Ĩ
å§Ķ åĵ¡
à¥ģà¤² à¤¿à¤¸
Ġdev ice
ĠmÃºs ica
àŃĩà¬ ¸
Ġbo und
çľŁ çļĦ
Ġciut at
ĠV enezuela
à¯ĭ à®¤
Ġd ict
tab il
In put
az ar
Ġen qu
æģĲæĢ ĸ
i encia
on as
ed es
Ġro le
à°¾à°· à±įà°Łà±įà°°
fil ter
à°¿à°Ĥà° ª
Ġ á»©ng
ĠÙĪÙĩ ÙĬ
N I
ä»į çĦ¶
f u
Ġàª¬ à«Ģ
àŃ §àŃ
æ¯ «
leg al
t op
ĠL eg
à²ķ à³ģ
Ġà°®à±Ĭ à°¦
ç®ĢåĮĸ åŃĹ
æľī éĻĲ
Ġà¤¹à¥ĭ à¤¤
Ġl á»į
ĠØ§ÙĦÙĴ Ø£
col es
Ġr ate
Ġà°¦ à±Ĥà°°
à§ĭ à¦¸
Ġà¨ķà©ĭ à¨Ī
etah ui
à§ĭ à¦ļ
ic ode
ÙĪØ± Ù¹
Ġen fr
ĠCent re
Ø¯ Øª
Ġà²¸ à²¹
æłĩåĩĨåŃĹ ä½ĵ
Ġà°¤ à°¨
Ġt ind
àªµ à«ĭ
ĠØ§Ø³ Ùħ
è§ĦèĮĥ åŃĹ
Ġt Ã¡
Ġs Ã©rie
ut up
Ġmar ket
à²°à³įà² ¥
æķħ äºĭ
D C
åŃĹ æłĩåĩĨåŃĹä½ĵ
ĠØ¹ ÙİÙĨÙĴ
æłĩåĩĨåŃĹ å½¢
Ġé¦Ļæ¸¯ æłĩåĩĨåŃĹå½¢
ĠåĽ½ åŃĹæłĩåĩĨåŃĹä½ĵ
ĠØ±Ûģ Ø§
Ġgovern ment
à¥įà¤¯à¤¾à¤ļ à¤¾
Ġà¦° à¦¾à¦ĸ
éłŃ æ¢Ŀ
Ġà¤²à¥ĩà¤ķ à¤¿à¤¨
Ġt ens
Ġk iáº¿n
æĶ¹ éĿ©
Ġreg ional
à¦¿à¦ķ à¦¾à¦°
ĠvÃŃ ct
j ud
Ġrecon oc
Ø° Ø±
à´ķ à´¾à´°
éŁ ¿
Ġs is
Ġà¤¸ à¤Ńà¥Ģ
Ġvir tual
Ġà¤® à¤¾à¤Ĺ
Ġà¬² àŃĭà¬ķ
Ġv ier
Ġt Æ°Æ¡ng
amb o
Ġjus qu'
Ġpat ients
Ġb Æ°á»Ľc
à°¾à°¤ à±įà°°
_ r
Ġg ra
ĠdÃ© p
à®¸ à¯į
æĻĤ åł±
à¦° à¦¿
à¥ĩà¤Ĥ à¤Ĺà¥ĩ
à¤¾à¤¸ à¥Ģ
à¤¾à¤¯ à¤¤
Ġa w
- w
à¤¨ à¥įà¤¯
Ġd ice
Ġ5 6
æĺ ł
ne x
åı ¶
Ġ} ;
Ġur l
qu elle
Ġart igo
Ġà¦¦ à§ĩà¦ĵ
ĠO ff
ist ic
ĠfranÃ§ ais
è¤ĩ æķ¸
R L
à¥ĭ à¤¡à¤¼
Ġà¤Ł à¥Ģ
ĠMar ch
med i
Ġatt ention
Ġà¤¨à¤¿ à¤°à¥įà¤µ
an is
p ><
Ġkh iáº¿n
ag ar
Ġà¦® à¦¾à¦°
àŃĩ à¬°
Ġper usahaan
T S
ä»£è¡¨ åĽ¢
ĠB ur
ĠAm b
à¨ Ĳ
Ġà°ľ à°¨
er ve
à´¿à´ ¶
è´ «
Ġha ut
Ġse ves
Ġà¤®à¤¹ à¤¾à¤°
Ġà¤¸à¤Ĥ à¤¸à¥įà¤¥
Ġà¨µà©±à¨² à©ĭà¨Ĥ
ons ieur
Ġà¦ªà¦° à§įà¦¯
Ġberb agai
Ġt á»ĳi
Ġnull ;
il ah
m á»į
ĠØ¨Ø§ÙĦ Ùħ
Ġhom em
Ġest aba
à¤¾à¤ľ à¥Ģ
ĊĊ Ċ
ue z
à¤ķ à¥įà¤¸
Ġmed ida
æĪĳ ä¸į
Ġsing ulier
ĠS ul
Ġch iá»ģu
Ø¶ ÙĬ
àª¡ à«Ģ
æĿ¡ çº¦
Ġc idade
áºŃ m
err y
Ġl áº¯m
æ¸ ¡
Ġm Ã©t
ce ed
ĠÄĳ Ã´ng
aj ak
ung i
Ġper gi
Ġre des
th ough
Ġap art
it ivo
æĿ ľ
Ġg obern
Ġg or
ent eri
Ġvaria bles
Ø§ Ù¾
Ġre move
Ġinter pret
Ġc ient
ig er
it able
à±įà° ¬
å¿ ł
Ġà¤ľà¤¾à¤¨ à¤ķà¤¾à¤°à¥Ģ
ĠB ro
Ġ199 0
c Ã³
Â·lab es:
Ã§ as
ĠSÃŃl Â·labes:
à³įà²Ł à³įà²°
/201 7
Ġnue vos
am m
Ġx Æ°a
ar ing
Ġex amin
Ġvol unt
à¤¸à¥įà¤¤ à¥ĭ
Ġ å®ĺè©±
Ì ¯
Ġà¨µ à©ĩ
è· ĳ
ãģ Ħ
ĠÄĳ áº·c
un as
à®ĩ à®¤
æ¢ ģ
èĢħ çļĦ
ve u
çĭ¬ ç«ĭ
à¬®à¬¾à¬¨ àŃĩ
z ea
Ġser ies
Ġà²¸ à²°
ĠNew s
à¦¹ à¦£
àµ¼ à´ķàµįà´ķ
ĠÙħ ÙĦÙĬ
à´¦àµįà´¦ àµĩà´¹
S ource
Ġdeb ate
ç¹ ¼
Ġà®ķ à®£
Ġà§¨à§¦ à§§à§
Ġà¦® à¦¾à¦§
Ġw atu
Ġr aison
iv amente
Ġting gi
ĠÎ ±
i Ãªu
ir ik
Ġmem ory
ĠK PK
Ú© ÙĦ
ĠI V
ĠPro gram
Ġfut ur
Ġá»į l
ad amente
om o
Ġesp any
ĠÙħ Ø«
ĠTh ese
Ġkut oka
uff er
à¤¾à¤ª à¤¨
Ġkec il
Ġbe ker
æ» ĭ
Ġv ic
Ġà°ª à°¾à°°
à©±à¨ ¥
é¡ º
à°¦ à±ĩà°¶
Ġpo is
o id
ob j
à¨¸ à¨¤
å½ Ĵ
à´¿à´ Ĥ
ÙĪØ± ÙĬ
Ġbl og
eng a
Ġà¦¹à¦ļà§įà¦ Ľà§ĩ
ĠÛģÙĪ Ú¯
Ã©r io
à±ģà°ķ à±Ĭ
Ġà¦®à¦¾à¦¨ à§ģà¦·
Ġmak es
à¥įà¤µ à¤°
ÛĮ ÙĪÚº
C u
B I
Ġd ugu
Ġnot hing
Ġany thing
\\; }
Ġà¦¬à¦¾à¦Ĥ à¦²à¦¾à¦¦à§ĩà¦¶
à¥Īà¤Ĥ à¤ķ
Ġà¤Ń à¥Ĥà¤®
à¬ıà¬¹ à¬¿
Ġà¨¯à©Ĥà¨¨à©Ģà¨µà¨°à¨¸ à¨¿à¨Łà©Ģ
ç²¾ ç¥ŀ
se arch
onn ement
Ġd raw
ĠdÃ© fin
iÃ¨ n
str act
end ar
- 15
Ġ\" P
Ġk á»ĥ
qu Ã©
Ġà¦ķà¦° à§ĩà¦Ľà§ĩ
ĠÙģ ÙĦ
Ġgi áº£
Ġà¦¶ à§ģà¦°à§ģ
Ġà²®à³Ĥ à²²
Ġ á»
Â ¡
Ġà´¤ à´¿à´°
ec u
Ġp ak
Ġv ue
Ġcont ro
Ġco ver
Ġà¤ı à¤®
Ġ æĪĳä»¬
ä¸ĭ çļĦ
Ġfor ces
Ġho je
Ġà¤¸à¤® à¥įà¤ª
à¦¬ à¦¿
Ġà¤¨ à¤¿à¤°
Ġàª¦ à«įàªµ
à¦ķ à§ĩà¦°
ĠØ² ÛĮØ§Ø¯
Ġf irm
f ix
Ġdan h
alam i
av as
ĠH ist
ĠE U
os i
ãĢį çļĦ
à²Ł à³į
à¤¾à¤ļ à¤¾à¤°
Ġ2020 :
å½ ©
Ġk áº»
Ġr app
Ġtr á»£
Ġà¤ī à¤¸à¥ĩ
à¤¾à¤§ à¤¿à¤ķ
ĠL og
Ġà°Ń à°¾à°·
,Ċ ĉ
Ġà¬¬à¬¿à¬ ¶
Ġsol ic
Ġà°® à°¨
Ġà¨°à¨¹ à©ĩ
Ġpodr ÃŃa
ĠEl s
Ġà¬¯ àŃĩ
Ġàª Ŀ
Ġpart s
Ġà¨ķ à¨®
Com o
åĭ Ŀ
w anda
Ġsol d
Ġà¤¬ à¥Ģà¤ļ
ĠÙħ ÙĪØ¬ÙĪØ¯
Ġà¦ķ à¦¾à¦°à¦£
Ġmak ing
Ġj ours
çĽ ĸ
Ġout ras
à²¿à²¯ à²¨à³įà²¨à³ģ
Ġpod en
Ġ á
à©ĭ à¨Ł
Ġbo olean
z y
Ġà²Ń à²¾à²°à²¤
le a
Ġres earch
ĠN or
Ġmo is
Ġà°µ à°¾à°°
Ġpolit ik
à® ī
I X
Ø§ÙĨÛģ ÙĪÚº
Ġsuper ior
åıĳ è¨Ģ
ol i
F in
àŃĩà¬³ àŃĩ
il ing
à²¿à² ¶
ĠØ§ÙĦÙģ Ø±
Ġcomb in
arr ak
Ġfig ure
/200 2
Ġ) .
Ì ī
à¦°à§įà¦ ¶
Ġso al
Ġà¤¹à¥ĭ à¤Ĺà¤¾
A f
æ¡ ¥
ĠOri ental
ul er
Ġn ÃŃnÃº
à¤ľ à¤¼
à¬¬ à¬°
\" K
é© »
Ġàª² àª¾àªĹ
Ġg ene
Ġperts ona
ÃĥÂ³ n
u in
Ġrad io
D ep
Ġà®ī à®£
àŃģà¬ ¦
g em
Ġà¤ķ à¤ª
à²°à³įà² µ
Ġà¤Ń à¤¾à¤µ
r up
à¤ŀ à¥įà¤ļ
Ġb Ãłi
T A
Ġàª¦ àª¿àªµ
Ġter p
ÙĲ ÙĨ
Ø§Ø¹ Ø¯Ø©
çķ¶ æĻĤ
à¨ī à¨¨à©įà¨¹à¨¾à¨Ĥ
à®¾à®¤ à¯ģ
Ġpel os
Ġs chool
Ġà¤¸à¥įà¤¤ à¥įà¤°à¥Ģ
ĠC rist
à¦¿à¦· à§įà¦Ł
Ġdist ance
æĺ¾ ç¤º
æĢ ķ
Ġà°¸ à±įà°µ
à¤°à¥įà¤ «
ç¨ ³
è§ī å¾Ĺ
ĠÙĬ Ø´
Q U
à³ĭ à²°
Ġsh ows
um er
Ġd iá»ĩn
Ġä¿Ħ è¯Ń:
Ġtr iá»ĩu
ĠÙĨ ÛĮ
Ġh Æ°á»Ľng
ï¼ī æĺ¯
ĠTh en
id ata
ĠÙ¹ ÛĮ
R ow
Ġm á»¥c
à¦¸ à¦²
çļĦ è¯Ŀ
Ġsu ite
à´¦ àµįà´¯
id or
Ġà´ķ à´¾à´°
ĠP et
Ġre vel
åįķ ä½į
Ġm á»Ł
à¤¾à¤² à¤¨
b en
Ġm alam
à¦¿à¦ Ľà¦¿à¦²
Ġrem ov
C OM
æ» ¿
ÙĪ ÙģÙĬ
Ġpou v
Ġà¤¹à¥ģ à¤¨à¥įà¤Ľ
o ot
N umber
W idth
j ak
Inst ance
à³įà²¸ à³į
Ġob t
Ð¾Ð »
Ġen ough
Ġass ert
åİŁ åĪĻ
å¤§ éĩı
Form at
æĿ Ĥ
Ġint Ã©
ĠØ¨Ø§ÙĦ Øª
Ġgroup s
Cre ate
ĠPed ro
Ġà¦ª à§ģà¦²à¦¿à¦¶
Ġm Ãª
à¤¬ à¥įà¤°
Ġser ia
à¦¾à§° à§ĩ
Ġnive au
à®± à¯ģ
< div
Ġbu á»ĵn
B e
Ġpl at
ung g
à¦¾ à§±
ian ce
ĠÙ¾ Úĳ
ne xt
Ġf ÃŃs
Ġw ilayah
à³ģà²µ à³ģà²¦à³ģ
Ġà¤µà¤¿à¤Ń à¤¾à¤Ĺ
Ġc ort
à¦Ĩ à¦°
åİ Ĥ
Ġà¤¸ à¤¾à¤§
Ġbec ome
om ar
Ġà¥§ à¥¦
ĠÚ©ÛĮÙĦ Ø¦ÛĴ
ĠÃ©ta ient
à§įà¦ Ľ
Ġbo x
à¨¾à¨ «
æŃ ¸
Ġfil ter
Ã® t
Ġà¤īà¤ª à¤²à¤¬
Ġmed ic
.ĠĠ .ĠĠ
æ³ķ åĽ½
Ġà¤Ľ à¥Īà¤¨
M in
ç¢ º
d ocument
ĠÃ© c
ed or
Ġà²ķ à²¾à²²
arc a
Øº Ùħ
ĠÄĲ iá»ģu
Ġro ad
à¯ģà®µ à®°
Ġà¬ ¥
ĠH arry
Ġà´¨ àµĢ
à©Ģà¨ ª
Ø¯ÙĬØ¯ Ø©
ĠUn ion
æį Ĳ
b egin
ÙĤÙĬ ÙĤØ©
Ġk Ã²
que le
ç¡ ¬
ific aciÃ³
Ġà¤® à¤°
æľº åĪ¶
Ġhref =\"
Ġbeso in
Ġout ra
ĠFr anÃ§a
ĠØ¨Ø´ ÙĥÙĦ
éĬ Ģ
Ġs ust
Ġà¦¬ à§Ī
à²°à³įà² ®
ot ion
à¥ĩ à¤²à¤¾
Ġqu' ils
ä»Ģ éº¼
on al
à¤¾à¤¡ à¤¼
Ġà²ħ à²Ń
åįı è®®
Ø¹ ÙħÙĦ
Ġnot amment
ĠØ§ÙĦØ£ Ø®
at ique
Ġà¤Ŀ à¤¾à¤²
Ø¬ Ø²
à§ģ à¦ª
à¤¾à¤¸ à¤¾à¤łà¥Ģ
Ġsel on
ĠO pen
Ġà®µ à®¿à®Ł
ĠÙħØ³ ÙĦÙħ
ibil idad
åīį å¾Ģ
à¤¸ à¤¾à¤¯
Ġà¤īà¤¸ à¤ķà¥ĩ
åĮĹ éĥ¨
Ġbras ile
Ġt Æ°á»Ľng
s im
ç³ ĸ
Ġconst ant
Ġd' ac
Ġà¤¸à¤® à¥įà¤¬
è½ ®
åĨ² çªģ
M ethod
ĠØ¨ Ùĥ
Ġà¦ħà¦Ń à¦¿à¦¯
ï º
à°³ à±įà°²
ĠMe i
- o
Ùİ Ø§Ø¯
Ġrel ated
® à¬¾à¬¨
Ġanal ysis
Ġà¦¶ à§ĩà¦·
Ġt ol
ur ar
ac le
àµ Ĺ
åĽ½ åĨħ
ÙĲ Ø¯
Ġc lick
à°°à±įà° ®
ib r
Ġ199 6
Ġback ground
à¬£ à¬¾
é¤ ĺ
Ġatr av
à©įà¨° à©Ģ
Ġà® ĵ
oc t
Ġp Ã¡g
Ġchá»ĭ u
un o
B ase
F actory
Ġà¤ľ à¥įà¤¯
ç¬ Ķ
Ġr ugby
Ġà¤¸ à¥įà¤ķ
Ġel imin
Ġest udi
à¦Ĩà¦® à¦¿
ĠA cc
ĠØª Ø·
Øº Ø©
Ġà®µ à¯Ģ
å¦ ¹
Ġà°Ĺ à±ģà°°
Ġt Ãº
Ãł l
Ġà¬Ĩ à¬®
Ġà¤ķ à¤°à¥įà¤®
Ġme io
àª¿ àªĤàªĹ
åĴĮ åħ¶ä»ĸ
Ġàªµ àª¾àª¤
ĠJ ika
à¨¾à¨ ¡
Ġdi as
Ġlook ing
àŃĩà¬ Ł
Ġr ather
Ġfo od
à´¨àµįà´ ®
Ġm ÃŃn
Ġà¬¨ à¬¾à¬¹à¬¿à¬ģ
Ġext ends
éĺ ´
Ġà°ļà±ĩ à°¶
n t
ÛĮ Ø§Øª
Ġin a
oc ar
ØŃ Ø§Ø¯
Ġà¤¸à¤® à¤Ŀ
è¾ ĳ
åģ ı
ĠI P
Ġcir cul
ab ak
ĠB ay
à¤Ł à¤¨
Ġb iá»ĥu
Ġ å¤§
åįģ äºĮ
Ġiss ues
Ġbah asa
Ġàª®à«ģàªĸ à«įàª¯
Ġcr ÃŃtic
ub ah
çĸ «
Ġà¤Ĺ à¤¾à¤Ĥ
ØŃ Ø¨
es o
d os
Ġ5 7
à²° à²¿à²Ĥà²¦
ĠCent ral
Ġ ×
à¨µ à©Ģ
çĶµ è§Ĩ
Ġx áº£y
Ġà¤¨à¤¿à¤°à¥įà¤£ à¤¯
à¨¬ à©°à¨§
ĠØ§ÙĦÙĪ Ø·
à¤¿à¤¯ à¤¨
à´µ à´°
Ġ5 9
äº¤ éĢļ
Ġproble ms
ĠØª Ø³Øª
19 7
Ġà²¬ à²Ĥà²¦
à´¿à´¨ àµĨ
Ġz u
Ġt emos
à¤¹ à¤®
v in
à¤¯ à¥Ģ
ä»ĸ åľ¨
Ġsus p
orm al
Ġa wal
un ta
à´¿ àµ¼
åĩº çļĦ
L L
Ġà¤° à¤¾à¤ĸ
Ø§ ÙĬØ©
ine ws
æº ĸ
eng g
à¦¾à¦® à§Ģ
Ġhac ia
Ġà®µ à®³
à¤¾à¤łà¤®à¤¾à¤¡ à¥Įà¤Ĥ
ĠàŃ ©
Ġà¦¨ à¦¿à¦¯à¦¼à§ĩ
Ġvo ul
Ġoh un
Ġt Æ°á»Łng
h al
ĠB at
Ġà¤µ à¥ĥ
Ġexpect ed
Ġà¨¸ à©°à¨
ä¿Ŀ æĮģ
Ġà¦ªà§° à¦¾
Ġà¤ķà¤¾à¤°à¥įà¤¯ à¤¾à¤²à¤¯
Ġqu ar
çĤ İ
Ġthere fore
loc ation
Ġimp act
ĠÙĪ ÙħØ§
à¤¾à¤¦ à¥Ģ
Ġrem ain
åľ° ä½į
ond a
V a
b ÃŃ
Ġs n
Ġw indow
Ġmin utes
Ġcre c
Ġà¦Ĩà¦® à¦°à¦¾
2 ;
Ġph ÃŃ
Ã² g
p ed
s q
Ġf im
cl ick
Ġinc orpor
àª¾àª£ à«Ģ
à«ĩ àª®
() ĊĠĠĠ
Ġà¤ķ à¤Ī
ĠØ¬Ø§ÙĨ Ø¨
Ġl ut
k us
ĠÙĤ ÙİÙĪÙĴÙĦ
Ġâĺ ı
k al
he iro
Ġman e
H el
ĠØ£Ùİ ÙĬ
ĠØ° ÙĥØ±
é¢Ĩ å¯¼
àª° àª£
Ġ</ div>
_ ex
Ġh itz
log o
Ġsera it
Ġhu o
ub ern
Ã© ro
pr im
co ver
ĠV ir
ak ing
ĠÄĳ áº§y
ØªØ± Ø©
æŃ §
con f
l om
to ut
re quest
Ġo t
/200 5
Ġx Ã©t
Ġà¦¸ à¦¾à¦¹
Ġmar s
sp ;
Ġà¤īà¤ªà¤²à¤¬ à¥įà¤§
Ġf an
Ø§ÙĨ Øª
T E
ĠPr on
à¬¿à¬ ¦
Ġp ek
Ġth read
Ġch áº¡y
ia ya
Ġex clus
n ull
Ġo pos
à®¿à®© à¯įà®©
åŃ¦ ä¹ł
AN D
S P
Ġt á»Ļi
çı ł
Ġcontr act
Ã©r ic
_ L
Ġm áº¥y
ĠM er
Ġpe qu
ä¾ §
Ġf ul
ob o
Ġd oll
éĽĨ åĽ¢
Ġà´ª àµĬ
Ġmant en
S cript
ĠØ® ÙĦØ§Ùģ
à´¾à´¨ à´Ĥ
Ġdem ande
Ġmen or
Ġà¤ķ à¥ĥà¤·
à°Ł à±įà°²à±ģ
ent ar
Ġnuest ro
? ?
ic ol
à¤Ĩ à¤°
ĠCan ada
Ġà¨° à¨¿à¨¹à¨¾
à´¨àµįà´¦ àµįà´°
It 's
ari at
ide a
Ùĩ Ø©
à¯Ī à®ªà¯įà®ª
gr ad
á» ¡
à§° à¦¤
Ø§Ø³ ÙĬ
unt za
ÃĥÂ Ń
Ġà¬¬àŃĭà¬² à¬¿
Ġà¤¦ à¥Įà¤°
Ø§Øª Ø¨
ĠJ adi
as ion
Ġbiz i
Ġmunicip al
Ġà®ħ à®¨à¯įà®¤
Ùħ ÙĬ
Ġgr aph
ĠØ§ÙĦØ¹Ø§Ùħ Ø©
ĠN orth
ov o
ĠØ§ÙĦØ¹ ÙĦÙħ
Ġz erb
à¦¾à¦° à§įà¦¥
G e
Ġà¤¤ à¤ª
æĻĤ éĸĵ
è§£ æĶ¾
d em
Re ad
àŃĩà¬¨ àŃįà¬¦
Ġ' à¨¤à©ĩ
am is
à°¿à°¨ à°¿à°®
Ġà¦¨ à§ĩà¦ĩ
)Ċ Ġ
Ġtr Ã¡ch
æ³ ī
çĿ ¡
ĠI g
Ġà¦ķà§° à¦¿à¦¬
é² ľ
éº ¦
å® ®
at ory
Ø®Ø± Ø¬
Ġà¨ª à¨Ł
W eb
ĠÙħØ· Ø§Ø¨ÙĤ
ord re
Ġà²Ĺ à³įà²°
Ġpos ible
Ġnos sa
Ġcomp ort
y at
qu ir
, Ċĉĉ
ĠF und
iáº¿ ng
Ġà¤ļ à¤¾à¤²
Ġn á»Ļi
- K
Ġthu áºŃt
a ff
Ġàª¥ àª¾àª¯
Ġf ill
Ġàª¨ àª¹
vers e
Ġà¦Ĩ à¦¶
Ġgeh iago
č ĊĠĠĠĠĠĠĠĠĠĠĠĠĠĠĠ
Ï Ĥ
Ġg h
ĠT R
åľ į
ĠJ er
à¯ģà®Ł à¯Īà®¯
ĠJ ust
Ġtan pa
åŃ Ķ
Ø· ÙĬØ¹
/ or
Ġnos altres
ap er
àŃĭ à¬°
Ùĩ Ø°Ø§
æĺ Į
Ġàªĸ à«ĩ
S C
Ðµ Ð½
ç´ °
Ġmet tre
Ġmeny ebut
ÙĪØ± ÙĬØ©
,Ċ ĠĠĠĠĠ
à¨Ĺ à©ĩ
Ġm uda
à¨£ à©Ģ
ert as
Ġmujer es
Ġà¬ħ à¬¬
200 0å¹´
à©± à¨¤
Ġà¦¶ à§ģà¦¨
Ġin fo
f irst
Ġà¦¹à¦¯à¦¼ à§ĩ
å¼ķ èµ·
Ġg iÃ³
à¯ģà®ķ à®¿à®±
plic ations
à§ģ à¦¹
res c
à±įà°ª à°¤à±įà°¤à°¿
à§ģ à¦ĩ
iá» ħ
ĠÙĦ Ø¯ÙĬ
Ġit self
ĠSo ftware
à§įà¦ŀ à¦¾à¦¨
ĠJ us
ĠØµ Ø§ØŃØ¨
à®µà®° à¯įà®ķà®³
ĠØ¨ÙĲ Ø§ÙĦ
ĠØ§ÙĦØ± ÙĪØ§ÙĬØ©
Ġbez ala
åĬ ĥ
ĠprÃ©s ident
Ġà²®à³ĩ à²²à³Ĩ
à°¸ à±įà°¸
ĠØµ Ùģ
ĠØ· Ø±Ùģ
/200 6
ĠdifÃŃc il
ĠS l
ÃĢ Ã
Ġà¦¦à§ĩà¦ĸ à¦¾
Ġde g
Ġsec urity
ç»ĵ æŀĦ
æļ´ åĬĽ
s k
Ã© qu
od a
/ 02
h ol
Ġpe que
Ġà¤Ĺà¤° à¤¿à¤ıà¤ķà¥ĭ
à²® à³ģ
ap ai
éļ Ķ
åŃ¦ éĻ¢
Ë ĩ
Ġà¨ħ à¨¨
Ġpou vez
Ġco isas
Ġ æĺ¯
ĠFranc isco
ĠØ§ÙĦ Ø§Ø³
Ġà¤® à¤¦
ãĦ§ ãĦ
Ġr Ã¨Ì£
à¨¿à©°à¨ ¡
) Ġ.
Ġà¤ļ à¥ģ
ÙİÙĬÙĴ ÙĩÙĲ
te ger
çĶ± æĸ¼
Ġà¦ķà¦° à§ĩà¦Ľà§ĩà¦¨
ä¸» ä»»
Ġconsid Ã©r
é¤ Ĳ
Ġà°® à±Ĥà°
å·¥ åħ·
Ġà°ļà±ĩà°¸ à±įà°¤
åĩĨ å¤ĩ
åķı é¡Į
Ġd' h
Ġv est
à«ĩ àª¨
occ idental
Ġcorr up
ĠAmer ika
Ġde al
Ġ ĊĊ
Ġpl ata
E le
éĩĩ çĶ¨
č ĊĠĠĠĠĠ
tr act
à²¦ à³ĩ
row s
à§ĩà¦² à§ĩ
à¬Ĺ àŃįà¬°
Ġà®ªà¯Ĩ à®±à¯įà®±
Ġh ot
ĠH en
ĠPro t
éľ ĩ
à¬¿à¬ Ĥ
å¸ ķ
ĠL iga
éĮ ¢
c m
g g
Ġcomp ut
à³įà² ŀ
de b
èĭ± åĽ½
Ġto uch
Ġaqu ell
E +
Ġincre ment
Ġmod ule
æ® ¿
Ġmá» Ĺi
æĶ¯ åĬ©
is ata
ĠØ§ÙĦÙħ ÙĪ
Ġintern et
Ġv arious
Ġp ant
ĠO h
- y
Ġà¦ ¢
Ġclass es
åŃĹ :[[]]
ĠKet ua
ĠåĤ³çµ± åŃĹ:[[]]
ĠåĽ½åŃĹæłĩåĩĨåŃĹä½ĵ :[[]]
æĥ ł
åľ° çļĦ
à®¤à¯įà®¤ à¯ģ
Ġé¦Ļæ¸¯æłĩåĩĨåŃĹå½¢ :[[]]
à¯ģà® Ļà¯įà®ķ
à®¿à®¯ à®°
Ġn á»ķi
ĠØ£ Ùģ
r ai
Ġk ons
Ú© Ø§Ø±
Ġsav oir
ik ali
Ġà¦¯ à§ĩà¦¨
Ġl á»£i
Ġà¦¨ à¦¿à§Łà§ĩ
ĠØ²ÛĮØ§Ø¯ Ûģ
Ġpr oses
à¨¾à¨ ı
Ġstr ateg
Ġà²ĩ à²²à³įà²²
Ġbud get
Ġdid n't
Ġpres id
à¦¾à¦ ¯
à¦¾à¦ĩ à¦²
çĨ Ł
æĪĳ æĥ³
à´¿à´¯ à´¿àµ½
Ġlle v
à¦¾à¦· à§įà¦Łà§įà¦°
on ce
De fault
à¦¾à¦¨ à§ĭ
ĠÙģÙĬ ÙħØ§
Ġpubl ished
Ġà¦Ľà¦¿à¦² à§ĩà¦¨
à¦¨à§įà¦ ¯à¦
Ġà¦¯ à§ĭà¦Ĺ
Ġseu lement
anz ania
à¨¬ à¨°
Ġb ib
ĠÙĥ ÙĬÙģ
èŃ ĺ
Ġà¤ħà¤§à¤¿à¤ķ à¤¾à¤°
Ġre cher
O ne
Ġimplement ation
iction ary
ĠD 2
ed i
à§ĭ à¦ľ
à¦¨à§įà¦ ¡
à²¿à²¨ à³įà²¨
å»º çŃĳ
Ġmening gal
ĠS E
ĠL an
Ġget s
àµĭ à´Łàµįà´Ł
Ġeurop e
æı ı
ĠP ut
Ġtr Ãªs
n ode
Ġc ot
à¦¬ à¦¾
Ġau jour
ĠL âĢĻ
ad ar
Ġà¦ķà§° à§ĩ
Ġà¤¬ à¤¾à¤°à¥ĩ
2 }}
f loat
ia pa
Ġà®ī à®±
Ġl' ob
å¼º è°ĥ
Ġcharg e
àŃĩà¬ ĸ
wo od
Ġà¤¦ à¤¿à¤ı
Ø¹ ÙĬØ¯
é¬ ¼
Ġfem me
Ġà¬ĺ à¬Ł
à°Ł à±įà°²
à²¾à²¨ à³ģ
Ġà¤ªà¥įà¤° à¤¸à¥įà¤¤
á»¯ u
à¬¾à¬¤ àŃįà¬°
ic ara
Ġdivers os
ÙİØ± Ùİ
Ġh á»ĵ
à¦¸ à§įà¦¯
à¤¸à¥įà¤¥ à¤¿à¤¤
ç¶ĵ æ¿Ł
ĠÄĳ áº¹p
è® ¯
æº ª
Ġà¤ªà¥įà¤° à¤Ńà¤¾à¤µ
Ġà®ħ à®µà®°à¯į
çĨ ±
ic ions
à©± à¨¤à¨°
à¤¾à¤¦ à¤¨
å®¹ æĺĵ
à¤ ĵ
Ġw ords
/0 8
Ġà¤¨ à¤¸
ä¸Ģ åĪĩ
à°¿à° ¡
Ġàª°à«Ģ àª¤à«ĩ
ĠJ une
à¦¿à¦¨ à§įà¦¦
ui Ã§Ã£o
ig e
Ø³Ø¨ Ø¨
Ġdet ect
Ġtr ib
æĪ ´
è¾ Ľ
Ġmoy en
uyá»ĩ t
_ G
àŃĢ :
Tr ue
çĮ ®
ĠrÃ©g ion
art s
tic al
ĠÙĪØ§ÙĦ Ø¯
Ġper k
à§ģ à¦ĸ
Ø±ÙĬ Ùĥ
ç³» çµ±
on na
ch ild
Ġcos as
æĴ ¤
à¤Ĥ à¤Ń
çĭ Ģ
Ġa de
Ġnum bers
à¨¾à¨µ à©ĩ
à¬¥ à¬¾
Ġste p
Ø² ÙĬØ²
ÙħØ± Ûģ
ÚĨ ÛĮ
à°¦ à±įà°¯
à¤Ĥ à¤¸
Ġf oto
200 4å¹´
åı° çģ£
ĠPar k
Ø®Ø¯ Ø§Ùħ
Ġbeker ja
ĠB Ã¬nh
ĠM use
àµģà´ª àµįà´ª
O K
Ġba ada
ĠN one
Ġkh áº©u
ØŃ Ø³
Ġn este
Ġcon cept
cul o
ĠP ada
Ġj ar
Ġl ower
ĠE dit
Ġà¤¬ à¤¾à¤²
Ġ\" c
Ð½ Ñĭ
tic ia
Ġtod ay
Ã¨ m
te an
æĿĲ æĸĻ
æ® ĸ
b il
Ġb rit
- re
Ġbat en
ÙİØª ÙĴ
à¦¤ à§ģà¦¨
Ġfab ric
is ed
àµĤ à´Łàµįà´Ł
ä¸º ä»Ģä¹Ī
Ġà´ķ àµģà´±
P our
Ġv ais
Ġà¦¤ à§ģà¦®à¦¿
Ġà¤² à¤¿à¤ĸ
Ġà²¯ à²¾à²µ
Ġf lo
à²² à³įà²ª
à³ĥ à²¤
à° ±
Ġob ser
Ġand /or
Ġesp era
as arkan
ĠØ¨ ÙĤ
ĠÙħ Ùģ
Ġob j
nb sp;
é ŀ
Ġhig her
Ġre view
Ġà®ħ à®²à¯įà®²
Ġà®İ à®¤à®¿à®°
ĠAN D
p orte
Ġo thers
Ġ\" H
Ġindustr ial
iqu ement
çī¹åĪ« æĺ¯
Ġà°ĩ à°¤à°°
Ġm áº¡ng
à¦ķ à¦¾à¦²
ĠFr ank
ĠWill iam
Ġm ess
N a
C A
é«ĺ çº§
å¹³ çŃī
Ġgiá» į
ĠÙĬ ÙĤÙĪÙĦ
ĠGr an
Ġob st
é¡ ¯
à²¿à² ¹
ern ame
1 -
è³ĩ æĸĻ
Ġf loat
____ __
ash ington
as una
àŃ ¨
à²¦ à³įà²¯
r s
Ġà¤īà¤¨à¥įà¤¹ à¥ĩà¤Ĥ
å® ª
M e
Ġb ajo
è´ µ
Ġà°¨ à±Ģ
Ġà¤® à¤¾à¤²
Ġà¤µà¤¿à¤ ¸
à°¾à°Ĺ à°Ĥ
Ġre ct
Øµ ØŃ
ur ch
Ġà¤² à¤¿à¤¯à¤¾
) ĊĊĠĠĠ
Ġconn ection
ĠÙĦÙĲ Ø£ÙİÙĨÙĳÙİ
b lo
z h
ç»ĵ æĿŁ
app ing
/ 5
Ġb alear
æ³¨æĦı åĪ°
Ġll ib
Ġdifer ents
o tros
ĠW indows
ĠD alam
Ġà¤ªà¥įà¤° à¤¯à¥ĭà¤Ĺ
ubl ik
ĠJul y
è¿Ļ ä¹Ī
ĊĊĉĉ ĉ
ĠOcc idental
Ġ0 5
-p erson
Ġdis par
ĠØŃ ÙĪÙĦ
ĠC Ã¡c
ĠÙĪ ÙĦÙħ
ĠE duc
åĲĮ å¹´
Ġt engah
æĪ ²
à¯Ĩ à®Ł
æ¸ ¬
ĠN et
eg as
à´¿ àµ»
æŃ£é«Ķ :
ĠØ¢ Ø±
Ġsan it
Ġs endo
ĠC ampion
st ate
ĠØ¯ Ûģ
ĠJ ava
à®² à¯ģà®®à¯į
ĠÄĳ áº¥u
æł ĳ
Ġl' int
àµĢ à´°
r d
Ġsim ples
à²·à³įà²Ł à³ģ
ĠAfr ika
\\ left
Ġl' any
b ur
es is
ĠÙģ ÙĤØ¯
Ġarg ent
ĠN ow
ĠàªĨàªµ à«ĩàª²àª¾
à¥įà¤ «
_ E
T H
Ġ= ==
à¨¸ à¨°
Ġn it
Ġà®ı à®±à¯įà®ª
è¡ ¡
Ġpap el
ult ure
ĠÃ¡ rea
Ġrel ativ
à¨¾à¨² à©Ģ
Ä ķ
Ġt ag
à¯ģà® ¨
à®µ à®¿à®²à¯įà®²à¯Ī
Ġb anc
IP A
201 1å¹´
Ġman iÃ¨re
à¦¸ à¦Ĥ
uy áº¿t
à°¤à°¿à°° à±ĩà°ķ
Ġh at
Ġla o
Ġà¤īà¤¨ à¤²à¥ĩ
f it
Ġà¦¤à¦¾à¦° à¦¾
ĠC iv
à¥ĩ à¤¹
åĸ Ŀ
à¬¿à¬¨ àŃįà¬¦
bo ok
Ġd ynam
pro duct
ograf ia
Ġbel ieve
Ġmodel o
Ġà°¸ à±įà°¥
Ġàª° à«Ĥ
1 \\
Ġrest e
Ġà¨¸ à¨¥
ĠO ut
Ġà¦ħ à¦Ĥà¦¶
à«Ģ àª°
ik el
Ġter masuk
à¦°à§įà¦ ľ
Ġpem ain
is Ã©
Ġdig unakan
åĿ Ĺ
à¤°à¥įà¤¥ à¤¿à¤ķ
Ġp ack
à±ģà° ľ
è¶ £
Ġposit ive
é» ĺ
Ġà®ķ à¯ģà®Ł
à¤¾à¤ļ à¤¨
Ġe f
ĠJ okowi
Ġchá» Ĺ
Ġch ÃŃ
Ġnos so
IT Y
à´¾à´± àµįà´±
à§Ģ à¦¦à§ĩà¦°
ĠÙģ Ø¹
à²Ĥ à²ļ
Ùĥ ØªØ¨
Ġà¤¦ à¤¿à¤²à¥įà¤²à¥Ģ
ĠÄĳ Ã´i
Ċĉĉĉĉĉĉ ĉ
ĠUn ies
Ġà¨¸ à©ĭ
Ġà¨¬ à¨¹à©ģ
åħħ åĪĨ
Ġs Æ°
Ġa Ãºn
Ã©ta ire
è¿ ·
ĠC as
Ø® Ø¯Ùħ
Ġà¦¹ à¦ĵ
àµģà´Ł àµįà´Ł
Ġà´ªàµįà´° à´µ
Ġ199 5
å¥ ı
D F
Ġà¨ķ à¨¹
- le
à²¤ à²¨
Ø¨ÙĦ Øº
or ith
è¿ Ŀ
p et
ed _
ĠØ³ ÙĨØ©
Ġl' ad
å¥¹ çļĦ
ag on
Ġà®® à®¿à®ķ
é ī
s w
Ø§Ø Ł
b our
åĮ» éĻ¢
k n
l at
Ġd ot
à®¾à® ªà¯įà®ª
Ġà°µà±įà°¯ à°¤à°¿à°°à±ĩà°ķ
Ġà¨ħ à¨°
Ġcr oss
\\ in
à§įà¦¬ à¦¾à¦ļ
Ø§ØŃ Ø©
ĠÙ¾ÛĮ Ø´
åĬ ±
Ġà¤¦ à¥ĩà¤£
Ġst ation
Ġà¤¸à¥ĩ à¤µà¤¾
l or
Ġh Ã´m
à¤¿à¤ «
Ġà¬¬à¬¿à¬ ľ
åĬŀ åħ¬
ĠIs lam
ÃĥÂ ¡
Ã¨r ent
uh i
cc iÃ³
ĠØ¬ Ø±
1 :
/ h
Ġkal imat
æ¨¡ å¼ı
v ille
Ġà¦ħ à¦°à§įà¦¥
anÃ§ as
- ce
Ġba wah
Ġsej umlah
Ġk ol
Ġbus iness
à¤īà¤¨à¥įà¤¹ à¥ĭà¤Ĥà¤¨à¥ĩ
à®¾à® ¨
ĠC H
Ġpart ies
The o
ĠÙĥ Ø«ÙĬØ±
ak h
à¤¶ à¥įà¤°
fr ica
- ci
ç» ¼
Ġserv i
ĠØ¹ÙĨØ¯ ÙħØ§
à¤¾à¤¤ à¥ĩ
Ġpens ar
Ġdif f
Ġsab e
amp u
à²° à²²à³įà²²à²¿
æĺŁ æľŁ
éŁ ©
St atus
ĠÙĬ Ø¬Ø¨
L abel
Ġtr Ã¡i
ĠD irect
æī¾ åĪ°
Ġdesenvol v
Ġà¤ķ à¥įà¤¯à¥ĭà¤Ĥ
era z
Ġprofess ional
åĴ¨ è¯¢
Ðµ Ñģ
ĠCom o
at r
Ġà¨ļ à©ģ
V er
ĠÄĳo Ãłn
ĠØ£ÙĬ Ø¶Ø§
Ġà®ª à®¾à®¤
ĠØ§ Ùģ
àµĤ à´ª
åľ¨ è¿Ļ
Ġperform ance
ĠÙĪ ÛĮ
Ġsail kat
- Ãªtre
ĠJ our
Ġà®Ĩ à®¤
y es
Ç İ
â ĨĴ
àªľàª° àª¾àª¤
Ġmen u
à«ĩàª ł
à¥ģà¤ ¢
à¦ķ à¦¾
Ġem pty
à²µ à³ĩ
p ackage
Ġ5 8
p _
à²² à²¿
ÙĨ Ø§ÙħØ¬
Ġk ia
à¬¿à¬ ¹
g t;
Ġimp os
Ġpers pect
æ±ī è¯Ń
å®ī æİĴ
Ì °
çĽ¸ ä¿¡
Ġà¤ªà¥įà¤°à¤ķ à¤¾à¤¶
ç§ĳ æĬĢ
Ġpal av
v ious
Ġpas se
à§ĩà¦· à§įà¦Ł
Ġopt im
Ġparam eter
Ġseg ons
Ġd' ap
ĠWik idata
à¦¿à¦¸ à§įà¦¤
ĠP op
ĠT ro
ä»¥ ä¾¿
Ġdev ant
Ġmin utos
ĠnÃ³i :
ä½į ç½®
ert i
Ġal ta
Ġk ant
Ġà¤§ à¤°à¥įà¤®
omb res
ĠÙħ Ø®
èĹ Ŀ
Ġà°¤ à±Ĭ
Ġvalue =\"
Ġm undial
Ġà°Ĩ à°°
Ġ Ã¨Ì£
è³ ĵ
Ġà¦² à¦ķà§įà¦·
çī¹ æ´¾
Ġsebelum nya
Ġve ure
er ian
Ġà¤Ĩà¤° à¥ĭà¤ª
Ġ[à¤¸à¤Ĥ à¥°]
ĠAmeric an
Ġàª® àª¾àªĤ
0; 0;
ĠÄĳ au
ĠdÃ©c imo
im ientos
æį ·
Ġà°¨ à°¾à°¨
} $
ig ation
ĠB i
Ġnou velle
Ġmat ter
ĠRep Ãºblica
à³ ķ
Ġà¤¸ à¤ļ
à®® à¯įà®®
ç¿ Ĵ
Ġà¬¦àŃĩà¬ ĸ
Ġin m
ĠØ§ÙĦØŃ ÙĥÙĪÙħ
At tribute
Ġcon ta
Ġà¤¶ à¤¿à¤µ
Ġà¤Ĩ à¤ı
Ġnecess ary
ä» Ļ
Ġg á»ĵm
à«ĩàª ĵ
Ġàª¬ àª¹
Ø§Ø¬ ØªÙħØ§Ø¹
Ġkor ban
Ġc ung
ĠÙħ Ø¨
Ġb aj
ip t
ua Ã§Ã£o
ĠParl amento
Ġal ter
Ùı ÙĪÙĨ
ĠCampion at
Ġà¦ªà§įà¦° à¦¶
ä¸ĸ çºª
èĻ İ
Ġincl u
en ya
Ġo m
Ġà¤ªà¥įà¤° à¤¹à¤°à¥Ģ
Ø§Ùħ Ø§Øª
Ġà¨¹à©ĭ à¨ı
ri an
Ġten en
Ġm ong
Ġth Æ°
Ġf ol
Ġpol isi
Ġà°µ à°°
L et
Ġin fin
à¤¾à¤¤ à¥Ģ
Un ion
è¬ Ŀ
Ġà¤ī à¤¨à¥Ģ
à¦ı à¦ķ
Ġng á»ĵi
/0 4
Ġà¤ľà¤¾à¤¤ à¥ĩ
Cl ient
Ġp enc
éĹ®é¢ĺ çļĦ
ent iel
ĠC el
ag ment
ĠBar at
Ġt ort
Ġà§ į
à¤¾à¤µ à¥ĩ
el ig
ĠØ§ ÙģØ±Ø§Ø¯
åĪ¶ å®ļ
on z
ong an
/ g
à²Ĩ à²¦à²°à³Ĩ
uk ul
/ 19
Ġit ems
ab r
à´¿à´¯ àµģà´Ĥ
åĨį æ¬¡
àµĭ à´ķ
ĠAm Ã©rica
Ġdial og
Ġconstr uc
ĠM aj
Ġd' en
d' hui
Ġà¤® à¥ĥà¤¤à¥įà¤¯
àª¤ à«įàª¯
Ġà¨¹à©ĭ à¨ĩà¨Ĩ
Ġprofes ional
Ãł ct
Ġse em
Ġobject s
P P
à¤ª à¤£
àµĭ à´²
Ġum um
Ġ12 0
ĠDe us
Ġt Ãªm
Ġà´¨ àµĩ
Ġco op
æ® ĭ
Ġpel s
Ġà¤¹ à¤¾à¤²
Å Ĥ
Ġw Ã¡
à¬¾à¬° àŃĢ
Ġdo k
il u
ĠX X
v ista
èĸ ©
f re
Ġsek ali
in et
ĠG ir
ĠE N
ĠØ§ÙĦØ¥ ÙĨØ³Ø§ÙĨ
Ġs qu
Ġà®¤ à®°
à¨ķ à¨¤
Ġtak es
ĠÙĩ ÙĦ
àŃĩà¬ £
av er
Ġdis ebut
àŃĩà¬ ¹
è®¤ è¯Ĩ
Ġcl im
Ġadd ition
uk ung
A pa
Ġà¦¤ à¦¥
Ġz ero
å¿ Ļ
W indow
k r
Ġl áº½
à¨ľ à©ĩ
era it
à¬¾à¬° à¬¾
m ore
àª¾àª ļ
it if
à¤µ à¤¾à¤²
Ġdire c
à°¿à°Ĥà°Ĺ à±į
e f
Ġcour t
Ø±Ø¨ Ø¹
Ġno vo
ĠTr ibunal
ØªØ± Ùĥ
ĠÚĪ ÛĮ
Ġà®® à¯Ĥ
ĠP ress
Ġàª¸à«ģ àª§à«Ģ
Ġà¦® à§ĥà¦¤
Ġre form
Ġm m
çŃ ¹
Men u
trib utes
Ġm ec
ĠØ£ ÙĤ
B C
Ġro ute
à´¿à´± àµįà´±
à´¸ àµįà´¸
col a
ter min
æĢ Ģ
Ð½ Ð¾
ic ht
ĠD ur
à¦¬ à¦¾à¦¦
ir im
ib at
ĠK ing
ica Ã§Ã£o
è®¾ ç«ĭ
Ġpor te
ÙĦ ÙĤØ¯
Ġtá» ĭ
M á»Ļt
Ġsel alu
Ġà¬¦ àŃģà¬
Ġcon tains
Ġel lo
æĭī åħĭ
à¤¿à¤¸à¥įà¤¤ à¤¾à¤¨
Ø§ ÙĪ
Ġneed ed
à©ģà¨° à©Ĥ
UR L
Ø¨ ÙĨ
à²¾à²¯ à²¿à²¤à³ģ
à¨ª à¨°
ĠÙĦ ÛĮÚ©ÙĨ
ĠÙĤ Ø·
l ines
à´¾à´° àµįâĢį
Ġk iá»ĩn
id ing
ĠÛģ Ø±
ä»ĭ ç»į
ĠdÃ© clar
Ġs ong
ĠÙĪ Ø·
á»Ń i
g ing
Ġd Ã¹
Ġj umlah
ĠØ§ÙĦØ± Ø¦ÙĬØ³
b ase
es i
à¬¸ à¬¿
Ġincre ase
é ¨
Ġà®ļ à¯ĩà®°
Ġz ego
Ġdesarrol lo
à«ĩàª ¦
àµĢ à´ķà´°
è© ©
Ġg ab
Ġ0 2
à¦² à§įà¦²
æģ ¶
Ġvol ta
à§Ł à¦¾à¦°
Ġà¨¸ à¨¾à¨²
à¥Ĥ à¤Ł
è¯Ħ ä¼°
Ġt um
Ġfield s
ĠJos ep
à²¬à²¹ à³ģà²¦à³ģ
ba ik
Ġr Ã¡p
è´¹ çĶ¨
Ġà´ķ à´¾à´£
li >
AM E
çį İ
Ġd' al
Ġs' han
èĦ ±
e au
ta x
à¦ Ŀ
à§ĩà¦Ľ à¦¿
ĠØ§ÙĦÙħ Ùı
Ġcom enz
ØªØµ Ø§Ø¯
ĠJ u
à¤Ń à¤¾à¤Ĺ
àª¨à«įàª ¸
Ġal gu
Ġprot ected
n ent
Ø±ÛĮ Ùģ
ĠÙģ Ø¶
ix er
à§ģà¦· à§įà¦ł
Ġr ender
à®Ļà¯įà®ķà®³ à®¿à®²à¯į
O pt
Ø· ÙĤØ©
éĻĲ åĪ¶
C al
äºº çī©
T O
Ùİ Ø£
à®¤à¯įà®¤ à®¿à®±à¯įà®ķ
tag on
æ¡Ĩ æŀ¶
z ig
a ud
ol id
Ġà°Ĺà±įà°°à°¾à°® à°Ĥ
ĠAug ust
Fil ter
ĠÙħ Ø¶
åĪ Ģ
Ġà¤ľ à¤¿à¤¨
ĠAustr alia
Ã¡n dez
à¬¾à¬ĩ à¬¬
c ed
æĿ ¯
æĶ¶ åħ¥
ĠK em
éĺ¿æĭī ä¼¯
ç½Ĺ æĸ¯
res a
Ġà®Ĩà®Ļà¯įà®ķà®¿à®² à®®à¯į
à±ģà°¨ à°¿
å¢ ¨
à±įà° ³
Ġm ata
ĠM i
AR R
à°¾à°Ĥà° Ĺ
Ġà®ķ à¯ģà®´
Ġjourn al
ç§ ¦
Ġgiá» ĳng
ç¤¾ æľĥ
Ġi ++
ĠĠĠĠĠĠĠĠ ĠĠĠĠĠĠ
à¤¾à¤Ĥ à¤¡
ific aciÃ³n
à²¿à²ķ à³Ĭà²³à³įà²³
Ġcon ce
Ġà®µà®¿à®³ à®ķà¯įà®ķà®®à¯į
Ġse i
à¦¿à¦ ı
ĠmÃł u
Ġm ug
Ġà¤®à¥ĭ à¤¦à¥Ģ
ĠKam us
Ġà´ĩ à´¨àµįà´¤àµįà´¯
d d
Ġà¤¤à¥įà¤¯ à¤¾à¤Ĥà¤¨à¥Ģ
æĪĳ æĺ¯
åĢ «
ĠNeg ara
Ġà¤Ĺà¤°à¥įà¤¦ à¥Ī
ÙĴ Ùģ
à²¤ à²°
Ġmem inta
å· ¡
Ġàª° àª¾àªĸ
Ġselect ed
ĠÚ©Ø± ÙĨØ§
àª®àª¾àªĤ àª¥à«Ģ
Ġà²İ à²²à³įà²²
à®¾à® ľ
Ġtá» ©
Ġrel at
ĠM os
ĠB u
ap un
àµģà´ ·
201 2å¹´
row n
éĿ© åĳ½
ĠP os
àŃģ à¬¨
Ġl iqu
) Ċĉĉ
Ġàª Ĭ
Ġw ait
Ġa ver
à¥ĩà¤Ĥ à¤¦à¥įà¤°
à¨¾à¨ħ à¨¦
ĠW ar
Ġà°ħ à°¨à°¿
à¬° à¬£
Ġdit uzte
å®īåħ¨ çĲĨäºĭä¼ļ
Ġà¨ ĵ
Ġà¤Ńà¤¨à¥įà¤¨ à¥ĩ
à±ģà°² à°ķà±ģ
201 3å¹´
éĤ£ ä¸ª
Ġ ug
éł Ī
Ġc ame
á»± a
Ġst ore
ä¼Ļ ä¼´
Ġpot ential
Ġcual quier
l ight
us kan
ĠW ak
t xt
Ġform ation
Ġà¤® à¤ľ
à§ģ à¦£
å¤§ åĪ©
Ã ĵ
Ø£ ÙĨØ§
àªķ à«įàª¤
Ġp eg
à¤¬ à¤¹
èĪ į
Ġà®¨ à®¾à®Ł
à©°à¨¦ à¨°
unt u
ĠrÃ© al
y er
à²µ à²¾
2007 an
éĿĴ å¹´
ĠR ich
Ġstud ents
Ġas es
Ġresult ado
Ġeff orts
à¤µ à¤³
Ġcent r
æ± Ĺ
Ġà®µ à®¿à®©
200 3å¹´
éŁ³ ä¹Ĳ
à¤¿à¤· à¥įà¤ł
ĠC Ã³
ÙĨ Ø¹
Ã² r
Ġsi Ã¨
F ig
à¤® à¤¤
à¯ĭ à®°
C Ã¡c
ĠV ous
ĠD ip
è© ķ
Ġele v
Ġà¦¬à¦¿à¦Ń à¦¿à¦¨à§įà¦¨
at uko
à¬® à¬¨àŃįà¬¤àŃįà¬°àŃĢ
à¤¨à¥įà¤ Ł
à³Ģ à²¨
Ġsystem s
Ġ ä¸Ģ
Ġà¤® à¤Ĥà¤¤à¥įà¤°à¥Ģ
ĠÃ¬ w
.Ċ ĠĠĠ
à«ĭàª ¦
ĠPro f
Ġ0 6
à´ķàµįà´ °
å·¦ åı³
à¤¾à¤ Ļ
200 2å¹´
Ġs witch
à¤² à¤Ĥ
Ġrap id
ĠT em
Ġhart u
Ġcar act
Ġh ouse
pr ise
à²Ĺà²³ à²¿à²Ĺà³Ĩ
Ġz er
D L
c io
Ġes qu
/ S
Ġtek n
éł Ĩ
Ġserv icios
ĠPl ural
Ġc adre
Ġpropert ies
ig ger
Ġfo ot
ul ai
Ġà¤¬à¤¤ à¤¾à¤ı
Ġl á»ĭch
Ġin fr
un de
n as
éģ Ĥ
é½ Ĭ
à´¾à´Ł àµįà´Ł
Ġà¤¯ à¥ĩà¤¥
Ġà¦¤ à¦¿à¦¨
uh kan
Ġder iv
æĿ °
Ġà¦¤ à§ģà¦²
Ġà¨¹à©ĭ à¨Ī
D r
çĻ¼ å±ķ
/ 7
ac ias
Ġvá» £
ĠF OR
M P
à®Ł à¯įà®ļ
Ġà¦¹à¦¿à¦¸ à§ĩà¦¬à§ĩ
Ġin forme
ĠØ« ÙĦØ§Ø«
Ġd ici
ĠA u
Se e
ĠPrÃ©s ident
A V
å°ı æĹ¶
Ġà²¸ à²¾à²§
led ge
Ġik us
à³ģà²¦ à³įà²§
- F
A Y
à±ģà°Ĥà° ļà°¿
Ġagr ic
Ġv ector
Ġsesu ai
j á»į
Ø¨ Ø§Ø¨
Ġay at
b al
Ġv arios
Ø¨ ÙĬØ©
Ġà¦ħ à¦ª
æĪĺ äºī
Ġh otel
ĠÙĪØ§ÙĦ Ø¹
Ø³ Ù¹
est ra
ä» Ķ
ĠÙħ ÙİØ§
ç© Ĩ
Ġà¤ħ à¤¤
atur ik
Ġcult ura
Ġd' ab
ert es
Å Ł
ĠL ou
Ġl'h omme
Ġw in
eb ab
Ġcompon ent
Ġà¨ľ à¨¨
Ġa st
à²¦ à³ĩà²¶
ĠÚ©Ø± ÛĮÚº
Ġp ont
ĠØ£ÙĨ Øª
Ġ Ã¢
Ġh ombre
Ġcons c
èµĦ éĩĳ
à¯ĩ à®¯
æ¬¢ è¿İ
Ġpl ante
Ġpat tern
M B
Ġres erv
Ġà°¸ à°¿à°¨à°¿à°®
Ġpolic y
d oc
åįģ åĪĨ
Ġà¤ķ à¤¾à¤¨
ĊĊ ĠĠĠĠĠĠĠĠĠĠĠĠĠĠĠ
ĠS T
åĩ ¡
å¯ §
à´¤ àµģ
emp ty
Ġàªķ àª¾àª®
èĭ± åľĭ
åıĳå±ķ ä¸Ń
à§° à¦£
Ġcl aro
à¤ĩ à¤¨
era is
ÙĤØ± ÙĬØ±
Ġsol id
ĠØ¹ Ø¯
àª¿ àªĤ
éģ µ
Ġto wn
Ġapro v
ä¸Ńæĸĩ ç¶²
z as
ĠĠĠĠĠĠĠĠĠĠĠĠĠĠĠĠ ĠĠĠ
Ø¹Ø¯ Ø§Ø¯
d y
j son
Ġd' acc
ĠØ§ÙĦØ¹ Ø±
ar ro
Ġmeas ure
Ġàªķàª° à«ĩ
Ġl Ã¢u
Ġposs ui
Ġàª¹ à«ģàªĤ
Ġdefin it
ÙİØ§ÙĨ Ùİ
à¬°àŃįà¬ £
Ġà¤īà¤¨à¥įà¤¹ à¥ĭà¤Ĥà¤¨à¥ĩ
ĠØ§ÙĦÙĦ Ø¬ÙĨØ©
U m
å¾ Ĳ
æĵ ´
åħ ģ
I ST
Ġà¬ķà¬° àŃģà¬
ĠØ§ÙĦØ´ ÙĬ
æĸ¯ çī¹
çķ °
Ġà°¶ à±įà°°à±Ģ
à¨¾à¨£ à©Ģ
ÙĨ Ùģ
Ġappro pri
Ġà®Ĩà®ķ à®¿à®¯
à¦¤ à¦¿à¦ķ
ĠØ± ÙĤ
math bb
å® ¾
Ġfa Ã§on
and roid
àŃĩà¬ ª
Ġchá» Ŀ
Ø§Øª Ùĩ
ph one
Ġà¥ ¯
à¤¾à¤Ĥà¤Ĺ à¥įà¤°à¥ĩà¤¸
Ġà¤ķ à¤¸
Ġà²ķ à²°
ens ions
Ø¯ Ûģ
11 11
Ġex port
à²¿à² ¬
Ġtr ip
Ġpen se
Ġeff et
h Ä©a
Ġf en
Ġin fer
Ġ... Ġ...
ĠpolÃŃtic as
ãĢ ķ
ĠPortug al
Ġà¬ ĩ
ĠS om
Ùİ Ø§Ø¨
Ġd ud
åĩº çĶŁ
è ¹
Ġàª¦à«įàªµ àª¾àª°àª¾
à§ĩà¦¤ à§ĩ
p m
Ġ ãĢĬ
à«Ģ àª¨
Ġf ase
å·² ç¶ĵ
Ġgrup os
translation >
K BBI
Ġà¨« à¨¼
à¨µ à¨¾
Ġre vol
R em
un uh
Ġà¤¸à¤ķ à¤¤à¥ĩ
ÙĤØ¯ Ø±
æ© ĭ
ur ik
à´¤àµįà´¤ à´¿à´¯
ĠØª Ø¨
ç©º éĹ´
¢ à¦¼
Ġv as
Ġpent ing
ez i
à®Łà¯įà®Ł à¯ģ
Ġv áºŃn
Ġà²ļ à²¿à²¤à³įà²°
ic y
à¤¾à¤¦ à¤¾
ä¸ °
Ùħ ÙĴ
Ġ199 4
ãĢ Ķ
Ġfor me
Ø¥ Ø°Ø§
is ions
Ùħ ÛĮØ±
Ġà¦¹ à¦¾à¦¸
Ġà¤ļà¤¾à¤¹ à¤¿à¤ı
Ġà´Ĵ à´°
Ġde u
Ġ@ Override
éģ £
re at
à¥ģ à¤£
ag en
à¥Ī à¤°
à°µ à°¿
Ġpl ane
ë ĭ
è¿Ľ ç¨ĭ
à¨¿à¨ £
Ġngh iá»ĩm
Ġare as
] [
Ġà¤¶ à¤¾à¤®
æ´ ŀ
çĤ ®
æĬ ĺ
Ġàª® àª¾àª°
ÙİØ° ÙİØ§
Ġp ic
ĠM undial
ĠØ§ÙĦÙĪÙĤ Øª
B r
à¯įà®¨à¯įà®¤ à¯ģ
çļĦ âĢľ
à¦¦ à§ĩà¦¶
ĠD u
àª¾àª ı
ĠD '
¿ ½
à¦¬ à¦°
Ġà¬ħà¬§ à¬¿à¬ķ
à²Ĺ à³ģ
à§įà¦¯à¦¾à¦¨ à§įà¦¡
ak er
Ġel ls
à§ģ à§±
à²¸ à³įà²¯
ÛĮÙĨ ÛĮ
ĠØ¨Ø´ Ø£ÙĨ
è®¡ ç®Ĺ
ĠM enteri
te in
àŃĩà¬ ·
à¨¿à¨Ĩ à¨²à¨¾
Ġ Ì
ĠÙĨ Ø´
å± ¤
å¥ ¶
eng k
à©°à¨ ļ
Ġà°Ńà°¾à°° à°¤
l /
ĠLe ague
Ġhom mes
T e
Ġconjug aison
atur an
ĠØ£ Ø¬ÙĦ
Ġà¦¬ à§ĥ
Ġinter ior
Ã£ os
Ġà¦° à¦¯à¦¼
Æ°á» ¡
Ġ2021-202 2
Ġe ver
ĠØ£ ÙħØ±
f ort
ĠØ¨ Ø¬
Ġej emplo
ĠO R
çŁ¥ è¯Ĩ
Ġà¨¦ à©±à¨¸
à¤¡ à¥Ĥà¤¨
Ġke j
u anya
Ùİ ÙĪ
åĲĮ æĻĤ
Ġâ Ķ
Ġex ception
Ġa vez
à±Ĭ à°ķà±įà°ķ
or me
eb er
Ġinter es
à§įà¦® à§įà¦®
à¤¯ à¥ģà¤ķà¥įà¤¤
Ġho áº¡ch
c ions
ĠØ± Ø¬
à´¯ à´¾à´£àµį
èĪª ç©º
Ġguer re
ress ion
ĠWik inews
w ise
à´Ļàµįà´Ļà´³ àµįâĢį
ĠrÃ© pond
Ġà¤¦à¥ĩ à¤µ
ä¼ļ åĳĺ
Ġà¦ļ à¦¾à¦²
Ġnuest ra
st atic
Ġhal f
il ia
á»§ y
à¦¬ à§įà¦¯
Ġlig ne
Ġr ÃŃ
Ġnam un
ur en
æŃ£ å¸¸
Ġà¤®à¥įà¤¹à¤£ à¥Ĥà¤¨
Ġà²¤ à²¨à³įà²¨
ot or
Ġr ies
àª¸ à«įàª¥
Ġlo ve
Ġarr est
Ġt emb
Ġà¤¤ à¥įà¤¯à¤¾
à¤¿à¤¤ à¥Ģ
lab or
à¤¦ à¥ĩà¤ĸ
if er
Ġm ind
à²¾à² ĸ
àµĢ à´¸àµį
V is
æŃ» äº¡
Ġaband on
ĠIntern acional
à´¿à´ķàµįà´ķ àµģà´Ĥ
åľŁ åľ°
Ġc err
Ġà¦¬ à¦¨à§įà¦§
le ctr
Ġve ux
Ġde cre
Ġà¨Ńà¨¾à¨° à¨¤
is tra
Ġj âĢĻ
Ġoct ubre
Ġqu ay
æķ Ĺ
Ġà°ªà±įà°° à°ķ
Ġh yd
à´¤àµįà´¤ à´¿à´²
çĤº ãĢĮ
ØŃ Ùĥ
Ġà¦ª à¦¾à¦²
Ġdiffer ence
ĠÙģ Ø¹ÙĦ
Ġm Ã¹a
æ± ł
ĠS um
à©ĭ à©ľ
ç»Ħ æĪĲ
Ġà°¤ à±Ģà°¸
r ÃŃa
à°² à°¯
ê Ĩ
ãĢĭ ï¼Ī
M on
m ine
Ġbl ack
Ġà°µà°¿à° ·
ĠD om
ĠAr ray
Ã¨ le
Ġà¤µà¤¿à¤Ń à¤¿à¤¨à¥įà¤¨
ĠÙħ ÙĪÙĤØ¹
Ãªn cias
j an
emp uan
ĠÐ ±
Ġlook s
x o
à¦¨ à§°
Re f
æ® Ĭ
Ġconv oc
ĠOct ober
çī¹æ´¾ åĽ¢
ul as
r m
ĠM u
ier o
ãģ Ĩ
im m
à¬¿à¬² àŃįà¬²
Ġà°µà°¿à° ¡
à®ªà¯įà®ªà®Ł à¯ģà®®à¯į
Ġà¨° à©ģ
Ġà¦§ à¦°
Ġà´ķ à´£àµįà´Ł
Ġà°µà°¿à° ¦
Ø¯ Ø§Ø±Ø©
C e
Ġqu ite
ĠØ± Ø¦ÙĬØ³
h on
ç«ĭ æ³ķ
Ġ0 4
à±ĭ à°¦
ĠW ith
àª¾àª¤ à«įàª°
Ġà¦¯à¦¦ à¦¿
ue ix
Ġal to
Ġdef ine
à²Ĥ à²ķ
Ġegit eko
Ġ ÑĤ
é© Ĺ
Ġdonn Ã©es
ÃŃ veis
åº Ĭ
- J
are a
Ġá»į má»į
T P
ĠD KI
à¤¿à¤¶ à¤¤
\": \"
à²¿à²¨ à²²à³įà²²à²¿
Ġa er
ang kat
oc rat
Ġà¤µà¥įà¤¯ à¤¾à¤ª
Ð ¶
Ġlab el
il is
ĠÄĲ áº¡i
à§įà¦¦ à§ĩà¦¶
Ġmeng andung
à²Ĥ à²ľ
åľĭ éļĽ
ÙİÙĦ ÙĲ
Ġpunt os
y pt
ĠJ ack
à²¿à²Ł à³įà²Ł
15 0
ĠØ± ØŃ
æ¡ ĳ
Ġc ut
à®µà®° à¯įà®ķà®³à¯į
Ġm ys
-> Get
à¤ Ĭ
Ġà¬ķ à¬¹à¬¿à¬
åĭ ¢
è· ³
Ġà¨² à¨¿à¨Ĩ
à¤¿à¤ķ à¥Ģ
Ġest re
ad em
ing :
à©Ģà¨ ¬
Ġà¦Ń à§Ĥ
à¥ģà¤ ģ
Ġnh anh
à°¾à°² à°¨à±ģ
Ġàªķàª° àªµàª¾
Ġpar ec
à«įàª ¹
Ġà¤ľ à¤¿à¤²à¥įà¤²
Ġla iss
ig ua
à¥Ĥ à¤¹
Ġreturn s
Ġà®ķ à®²
à¦¸ à§ĩ
à±įà°µ à°°
Øª Ø¹
Ġs Ã´ng
à² ĺ
èº« ä»½
col umn
Ġsos ial
ĠSel atan
Ġà°Ĩ à°¯à°¨
ä¹ ±
æ± ĩ
Ġactiv ity
$ s
à§įà¦° à¦®
Ġhom me
Ġvel oc
æĭ¥ æľī
out put
à¤¸à¥įà¤ķ à¤¾à¤°
Ã¡n chez
Ġà²İ à²Ĥà²¦
æĸ° éĹ»
Ġàª® à«ĭàªŁ
à°°à±įà° ¥
Ġà¬ķ à¬²
à¨ķ à¨¾à¨Ĥ
Ø§Ø¹ Ø§Øª
st atus
ĠvÃł i
Ġpass Ã©
unt ime
æ´ ª
Ġà¨¬ à¨¾à¨ħà¨¦
Ø² ÙħØ±Ûģ
aw asan
à¤¿à¤¨ à¤¾
é ĭ
Ġm ere
Ġde ad
à¤¿à¤ Ļ
ç»´ æĮģ
ont ent
à´¿à´Ł àµĨ
à¦¨ à§Ģ
Ġsc ient
c ast
Ġà¦ľ à§Ģà¦¬
Ġà´ªàµĭ à´²
à¤¤ à¥įà¤¯à¤¾
à´±àµįà´± àµį
ro ot
à®¿à®°à¯ģà®¨à¯įà®¤ à¯ģ
à°¾à°² à±ĭ
Ġà¦¤à¦¾à¦ģ à¦°
à²¿à² §
à¬³ à¬°àŃĩ
æ³ ģ
Ġserv ir
ĠS on
Ġcol on
ĠÙĪ Ø´
ç« Ł
à¬°àŃįà¬ ¯àŃįàŃŁ
uz a
Ġer am
åĥ ¹
à¤¾à¤¡ à¥Ģ
ä¸ Ŀ
Ġà¤ľ à¤¨à¥įà¤®
à®Ł à®¿à®¯
Ġcon g
Ġpr ue
à¯Īà®¯ à®¾à®ķ
ema il
Ø²ÙħØ±Ûģ :
à´ ĸ
æ½ ®
AT ION
ä¸ļ åĬ¡
Ġl ort
ĠÙħ Ûģ
ç§ĺä¹¦ å¤Ħ
h Ã³
à¦¾à¦ľ à¦¾à¦°
Ġer ag
àµĤ àµ¼
up le
ĠmÃ£ i
Ġà®¤ à¯ĭ
) ãĢģ
Ġà¤¸à¤¹ à¤¯à¥ĭà¤Ĺ
Ùħ Ûģ
ĠG uer
à±ĩ à°¯
à²¿à²¦ à³įà²¯
ĠMinister io
Ġà¨¤ à¨°
d io
ĠT al
cl ient
Ġà¬ħà¬¨ àŃģà¬
is se
ĠW al
ĠKab upaten
à§ĩà¦¤ à§įà¦°
Ġcom ent
ä¸įåĲĮ çļĦ
à¦² à§įà¦ª
Ġà¤¬ à¥Īà¤Ĥà¤ķ
Ġte u
ĠB ank
åĩº äºĨ
Ġag e
àµĨà´¨àµįà´¨ àµģà´Ĥ
N e
åĲ ³
j en
à® ľ
_ to
Ġprogram mes
Ġman usia
Ø±Ùģ Ø©
Ø§Ø¡ Ø©
Ġimport antes
Ġaz al
iqu er
ĠØª Ø®
à¬¾à¬ ī
ä¾ ¯
ç¨ĭ åº¦
Ġs orte
à´° à´£
ĠA ku
Ġsu fic
Ġà°ª à±Ĭ
Ġus ers
Ġevery thing
Ġloc ation
Ġà¤ķ à¤Ĥà¤ª
ĠB ang
ĠØ¨ ÙĨØ§
Ġà¦ķ à¦¾à¦Ľà§ĩ
ap he
Ġparam eters
Ġpun to
Ġre vis
Ġcontin uar
Ġprocess o
ĠJ uli
Ġtot es
Ġà¤Ŀ à¤¾à¤²à¥Ģ
SE LECT
áº µ
Ġà¤ķ à¤¿à¤Ĥ
S im
at Ã©g
Ø§ÙĨ Ø§Øª
à±įà°² à±Ģ
ÙĪ Ø§Ø¨
Ġà´ªà´± à´¯
r ero
ķàµįà´ ·
Ġà¨ľà¨¾à¨Ĥ à¨¦à¨¾
ĠLond on
å® ĩ
Ġdest a
Com mand
us se
ĠØ§ÙĦØ¥ Ø³ÙĦØ§Ùħ
D P
à³ĩ à²·
Ġez ag
à¬ ¢
ul g
Ġf ive
à³ĭ à²¦
à´¿à´ķàµįà´ķ àµį
ĠØ¨ ÚĨ
æĹ ¨
Ġà¨ħ à¨¸
å¿ ĺ
Ùĥ ÙĲ
à¬¿ àŃŁ
Ġà´° à´£àµįà´Ł
Ġà¨¦à¨¿à©± à¨¤à©Ģ
Ġaccord ing
à¤¦ à¤°
istr y
ĠÙĪ Øµ
ĠV I
Ġres ist
æĪĳä»¬ çļĦ
Ġac ross
)) )
Ġv s
è« ¾
äºº ä»¬
Ġà¦¬ à§įà¦°
ç§ Ł
æµ ª
ĠUn a
Ġconj unto
Ġb akar
à±ĩ à°®
Ġá»įl Ã³Ì£
Ġà¤ĵ à¤°
ÃŃ da
à²¿à²¸à²¿à²¦ à²°à³ģ
Ġà¤Ĩ à¤°à¥įà¤¥à¤¿à¤ķ
à¬°àŃįà¬£ àŃįà¬£
Ġà¤ľ à¤¿à¤²
Ġg ives
i Ã©
à§įà§° à§Ģ
1 }
à¤¿à¤® à¤¾
Ġpro tagon
à¨ª à©įà¨°
åĤ ·
Ġà¤² à¤¿à¤¯à¥ĩ
ç¿ °
Ġatt emp
ar ako
ĠØ§ÙĦ ÙĦÙĬ
è« ¸
æħ ĭ
ĠD iv
à®¤à¯įà®¤ à®¿à®¯
Ġ' à¨ļ
Ġg ero
ÙĳÙİ ÙĦ
Ġr am
ĠrÃ© un
Ġpolit iques
em o
Ġ1 000
Ġex emplo
Ġof fer
N áº¿u
çĹħ æ¯Ĵ
àªĤàª¤ à«ģ
åº Ĩ
à¤µà¤¿à¤ ¦
G B
è¨Ī ç®Ĺ
ĠP ert
à®ķ à®®à¯į
ĠIt alia
à¨ĩ à¨¹
A I
Ġc ateg
Ġà®¤à¯Ĩà®° à®¿à®µ
ur kan
if orm
ĠØ§ÙĦØ´ Ø±
Õ¡ Õ
Ġp ai
ĠØŃØ¯Ø« ÙĨØ§
ĠS erv
ç¹ Ķ
Ġber hasil
ĠÚ© ÙħÛĮ
Ġà¨ĸ à¨¼
ÙģÙĬ Ø°
al ar
Ġgest ion
Ġkel uarga
Ġà®ĩ à®¤à¯ģ
à¤ Ķ
ĠCh ile
Ġà²¬ à³ĩ
th at
Ġj og
à¦¬ à§ĩà¦¨
ë §
æĹ §
Ġh á»ĵi
à¦¿à¦ Ľà§ĩ
Ġprop or
è®¾ ç½®
ish wa
an im
Ġs ir
Ġwak ati
ay er
ÙĪØ§ÙĤ Ø¹
Ġjud icial
ĠÄĳ Ãłn
ä¿ Ĥ
Ġà¤® à¤¾à¤§
A ut
T C
à²¿à² £
Ġ éĢĻ
è² ¢
Ġlle var
Ġde ver
Ġiz ate
ĠM ereka
à¦¬ à¦¿à¦¦
Ġthu á»ĳc
åŃ «
S ep
ĠprÃ³pr io
ĠI ngl
Ġà¦¤ à¦¾à§°
Ġà®ļ à®Ļà¯įà®ķ
Ġàª¯ à«ģ
à¥ĭ à¤¬
å¸ ģ
çį² å¾Ĺ
Ġà°¸à°Ĥà°¬à°Ĥà°§ à°¿à°¤
ĠM ath
à°¿à° §
ĠD ie
ĠØ¬ Ø²
ĠG ab
Ġte ach
ä¸Ń åįİ
Ġs Ã¡b
Ġà¦ıà¦ķ à¦Łà¦¾
Ġà°µà°¿à° µ
æĪ ¶
Ġdis put
ä¿ Ĺ
b urg
Ġà®® à¯Ĥà®²
à¤²à¥ĩ à¤²à¥įà¤¯à¤¾
Ġmill ion
à¯ģà® ¯
ora Ã§Ã£o
ĠpolÃŃtic o
h and
up port
Ø¯ Ùĩ
ĠØ£ÙİÙĬ ÙĴ
ing a
à¤ª à¤¤à¤¿
Ġ) Ċ
Ġkom un
Ġà¤ı à¤¸
ic he
æĹ¶ æľŁ
âĢ §
Ġà¤¯ à¥ĭà¤ľà¤¨à¤¾
Ġà¤®à¥ĭ à¤ł
ĠÙ¾Ûģ ÙĦÛĴ
ĠM ir
ful ly
Ch ild
Ġd' Ã©
Ġencontr ar
ĠR a
à§ĩà¦ ļ
ib e
à§ģ à¦Ĺ
Ø±ÛĮ Ø¨
ÙĨ ÙĬÙĨ
à¦¬ à¦¿à¦·
re qu
è¯ ¯
ne z
Ġà´® à´¨
Ġres pe
Ġà¬® à¬¿à¬³
Ġà¬¦ àŃĩà¬¬
æĢ» ç»Ł
ÙĪØ¶ ÙĪØ¹
Ġn áº±m
Ġà´ľ à´¨
he ader
Ġent ire
ĠS aya
æīį èĥ½
egi atan
ÃŃ eu
iz es
Ġr as
çļĦ æľĢ
ans i
ä»¥ èī²
Ø¯ Ø§Ø¯
åĲİ æĿ¥
end {
à¦ª à§įà¦¤
à´ķ àµ¾
à¨µ à¨¾à¨Ī
ĠGr up
ĠT ext
Ġh arga
ial es
à²° à²£
Ġàªª àªĽà«Ģ
Ġà°ľ à°¿à°²à±įà°²
Ġhum anos
Ġs Æ¡
å¹³ åĿĩ
Ġliv re
Ġb ai
- 20
à°° à°£
å®Ĺ æķĻ
Ġtit re
Ġà¤ĩà¤¸ à¤ķà¥ĩ
ĠdÃ©c embre
à§° à§įà¦¬
Ġn orte
Ġ2 50
Ġà¤° à¥ĭà¤ľ
ĠH err
C all
Ġent ri
àµĭ à´¦
åŁ ·
pos ta
pro cess
Ġob ras
ĠK on
Ġà¨°à¨¹ à©Ģ
à°ķ à±ĭ
g ia
Ġpropos ta
Ġstat ement
Ø² ÙĬØ¯
Ġp ue
re an
Ġcamp o
Ġà¬¸à¬° à¬ķà¬¾à¬°
Ġà®® à¯ģà®¤à®²
Ø§Ø¦ Ø¨
Ġà¨ªà¨Ł à¨¿à¨Ĩà¨²à¨¾
os tr
ä¿ ±
ĠÂ °
ĠD er
ĠE E
Ġb uk
Ġex am
Ġtr ai
sq rt
ad ie
N ous
åģ ¿
ĠAnton io
å¤§ å¤ļ
à³ĭ à²ª
à¤Ĥà¤¬ à¤Ī
ĠColomb ia
ÙĬ Ø§Ùħ
Ø§ÙĦ Ùĥ
à±Ĩà°¸ à±į
Ġà¦¤ à¦¾à¦ĩ
r ich
Ġfact or
Ġl' acc
Ġc urs
à°¨à±įà°¨ à°¿
F P
Ġr andom
Ġlib rary
Ġà¤¦à¤¿à¤µ à¤¸
ĠOriental :
end as
à§ĭ à¦ľà¦¨
Ġà¨ľ à©ĩ
Ġg ert
ĠT ele
n Ã©
Ġza idi
k w
Ġà¤ľà¤¾à¤¤ à¥Ģ
Ġda it
ĠU p
Ġv on
à¦¾à¦ Ļà§įà¦Ĺ
mod ule
/ lib
Ġkh usus
à®® à¯ģà®®à¯į
à©ĭ à¨ľ
ĠØ¯ Ø¹
ä»¥èī² åĪĹ
) ĊĠĠĠĠĠĠĠĠĠĠĠĠĠĠĠ
Ġà®ħ à®£
Ġer ak
Ġmis ma
N am
Ġam en
Ġhor ret
à¤¾à¤¨à¥Ģ à¤¯
Ġ1 :
à«Ĥ àª°
Ġn ight
å¯ »
ĠOccidental :
i ens
Ġl um
Ġla p
Ġreal izar
te a
Ġnom in
æķ ¬
ĠØŃ ÙĬÙĨ
ĠÃ¡ o
Ġà¤ªà¥įà¤°à¤¤ à¤¿à¤¶à¤¤
ĠI st
Ġalgun a
Ġ0 3
ari um
Ġà¬¯ àŃĭà¬Ĺ
æī¹ åĩĨ
æ¶ī åıĬ
Ġterj emahan
ĠâĢ ŀ
à¤µ à¤£
Ùģ ÛĮ
ĠN ord
à¨¦ à¨¾à¨°
Æ°á»£ t
à«ĩàª ¥à«Ģ
çµ ķ
Ġà®Ĩ à®£à¯įà®Ł
Ġà¦¬à¦¿à¦¶ à§ĩà¦·
ĠJo an
ĠFl or
O D
Ġà¤ľ à¤®
Ġfu era
č ĊĠĠĠĠ
it ory
ON E
Ġà¤ľ à¤¾à¤°à¥Ģ
è§Ħ åĪĴ
Ġrug bi
Ġsu atu
Ġun ique
Ġd á»ĭ
Ġà²ªà³įà²° à²¤
ĠNg Æ°á»Ŀi
Ġàªļ àª¾àª²
Ġst ream
è¡Į çļĦ
åºĶ å½ĵ
å®ĥ çļĦ
angk ap
Ġà¤ķ à¤¾à¤²
Ġà¤ļ à¤°à¥įà¤ļ
Ġà¤¤ à¤°à¥Ģ
ç« ŀ
à«įàªŁ à«įàª°
à±ĩ à°²
F irst
Ġf eder
/ 8
àŃĭà¬ ľ
Ġl unes
åıª è¦ģ
à²Ĺà³įà²Ĺ à³Ĩ
Ġ uc
à°Ĥà°Ł à±ĩ
ĠDe fin
or ra
åĲį åŃĹ
Ġ æ±īè¯Ń
Ġà¦¬à¦¿à¦ ª
Ġtr ack
ÙİØ§ Ùģ
Ġà´® àµĤ
Ġappe ar
Ġn chi
à«ĭàª §
à°¿à°¤ à±ĩ
Ġcer tains
ä¹ĭéĹ´ çļĦ
bo ol
gun a
ĠâĢ ķ
à®¿à®Ł à®®à¯į
ĠÄĳÃ³ ng
Ġassoci ated
à®ª à¯Ĩ
Ġm ieux
Ġh ilo
s ch
à°ª à±Ī
à¦¯à¦¼ à§ĩà¦°
Com ponent
iz itza
Ġreal mente
åĨħ çļĦ
åį ¢
ĠF oto:
) ï¼Į
_ w
à¥įà¤¹ à¥Ģ
Ġph Ã¡
Ġà¤ħ à¤Ĥà¤¤
æĭ Ĵ
Ê Ĥ
is p
É ¨
Ġar qu
k ah
çĽ £
sum mary
Ø§ÙĦ Ø«
Ġ6 00
à¤¿à¤¨ à¥Ģ
it ch
Ġw aj
Ġs creen
Ġv ec
à«ģ àª®
ĠØ¬ ÙħØ¹
param s
Ġrespect o
Ġà¨µà¨¿à¨ ¸
D on
à¤ķ à¤®
å½ ¼
ĠS tre
à³ĩ à²Ĥà²¦à³įà²°
Ġmat iÃ¨re
åĨĽ äºĭ
Ġqu Ãª
Ġest an
Ġ7 2
à¥¦ à¥¦
Ġcons ole
il os
-l os
C D
Ġà¦Ń à¦¾à¦·
Ġaquest s
éĩįè¦ģ çļĦ
éł Ĳ
Ġà°ī à°Ĥà°¡
çĶµ è¯Ŀ
Ġ9 9
ĠC he
em as
ĠÙ¾ Ú¾Ø±
Ġdi am
ÛĮÙĨ ÛĴ
åħ© åĢĭ
Ġapp el
Ġord in
C Ã´
Ġas al
Ġ: =
Ø² Ø§Ø±
Ġcl aim
Ġn Ã©g
Ġdistrib ution
Øª Ø¬
éĿ Ļ
à¤Ń à¤°
çĶµ åŃĲ
Ġtr áºŃn
enc er
Ġàªµàª°à«įàª ·
à¬ ĺ
q Ã¼
el d
àŃĩà¬¨àŃįà¬¦ àŃįà¬°
Ø¹ Ø§Ùħ
Ġà¦¤ à§ĭ
int as
Ġà¦¨ à¦¤à§ģà¦¨
Ġne ur
ida e
Ġcom enÃ§
åıĳå±ķä¸Ń åĽ½å®¶
ĠJanu ary
ĠÛģÙĪ Ø¦ÛĮ
Ġnov embro
Ġà¨¸ à¨¿à©±à¨
Ġanim al
Ġd ado
Ġ\" p
m t
M ode
Ġex cl
s v
à´¾à´ ´
Ġamb ient
Ġtom ar
à°ķà±įà°ķ à°¡
àª¾àª ī
Ġjus tice
Ġinter ess
ĠCom un
à¬§ à¬¾à¬¨
T V
_ IN
Ġbah kan
Ã³ p
Ġinter v
à²¾à² ļ
201 6å¹´
éĢī ä¸¾
åįı åĬ©
et i
åĩº æĿ¥
à¦¾ à§ľ
à±ģà° £
erik sa
Ġà´¨ à´¿à´°
àŃĢ à¬¨
Ġà²¬ à²¹
ĠIl s
row ser
Ġder echos
Ġà®¨ à¯Ĥà®²
Th read
ĠW ashington
ÙİØ± ÙĴ
Ġà¤¸à¤¬ à¤¸à¥ĩ
ĠE z
ĠØµ ØŃ
ĠT anzania
åĬŀ äºĭ
Ġsrc =\"
Ġà¦¹ à¦¤à§ĩ
ist ro
Ġà¨ķ à©°à¨®
Ġdim aksud
ist ics
Ġspe ed
j at
ial de
on ces
Ġà®Ĩ à®°
èį £
S ab
Ġpro jecte
ĠCl ub
Ġvo it
Ġà¤®à¤¹ à¤¿à¤²à¤¾
Ġh asi
ol is
Ġà®ļ à®¿à®²
à°¾à°°à±įà°¥ à°¾à°²à±ģ
ir it
ograph ie
Ġd ens
à¤¾à¤µ à¥Ģ
Ġmod els
Ġcommun aut
à´¡ àµį
Ġab ord
à¬ĻàŃįà¬ķ à¬°
à¦¸à§įà¦¥ à¦¾
Ġd up
emp or
Ġàª¦ àª°
ĠR em
éĥ½ æľī
uc iones
éĽ ¶
ĠâĢ ¦
çĻ¼ çı¾
C lick
ĠH oa
ĠÙĬ Ø±
ä¸Ń åħ±
åİ» äºĨ
ĠÃ Ĺ
Ġg iáº¿t
åĢ º
Ġmin or
ĠC a
ĠD DS
Ð» Ð°
Ġw ww
Ġà®µ à®Ł
Ġsed ikit
Ġà®® à¯Ĭà®´
S a
Ġv eces
wh ich
I Z
Ġb ank
enc ies
Ġmar zo
ÙĬ ÙĪ
ĠØ· Ø±ÙĬÙĤ
y cl
Ġfund amental
- to
ec ause
Ġà¤Ŀ à¤¾à¤²à¤¾
Ġla quelle
Ġne ut
Ġà¤ķà¤° à¥Ĥà¤¨
à²¨ à³ĩ
Ġsesu atu
Ġà¤ª à¥ģà¤¨
ĠK o
3 ;
à¤¸à¤® à¥įà¤®
á» Ľi
à³įà²° à³Ģ
à§ģ à¦§
åľ¨ 19
/200 8
à±ģà°¤ à±ĭ
Ġà¨µà¨¾à¨² à©ĩ
est ar
Ġà® Ĳ
Ġà°ħ à°Ń
Ġf arm
defin ed
à±ģà°² à°¨à±ģ
à¨® à¨¾à¨¨
å¾ ¡
Ġy âĢĻ
ĠØ§ÙĦÙĨ Ø¨ÙĬ
ĠØ§ÙĦØ« Ø§ÙĨÙĬ
ios o
Ġtele vis
Ġà° ĵ
èĪ Ĭ
re move
ÙĬ ÙĬÙĨ
åľ Ī
Ġâ Ĥ¬
Ġe in
ĠdÃ© l
Ġmod ify
c _
Ġrel ative
Ùĥ Ø³
àª¿ àª°
à°° à°¿
ung e
ĠØ¯ ÙĪØ³
äº¤ æĺĵ
v re
Ġl ect
Ġdistrib uted
Ġv ing
Ġocc up
éĿ¢ çļĦ
Ġ æľ¬
è¶Ĭ åįĹ
Ġc m
Ġm ÃŃ
å¨ ľ
Ġemp at
ĠS P
ä»¥ åīį
à¥ĩà¤ Ĭ
ØŃÙĬ ØŃ
ÙĦ Ø§Øª
àµģà´ ²
ĠJ ames
Ġdip er
ir se
ond o
Ġà¤¹à¥ģà¤ ģ
Ġl ive
Ġk iáº¿m
Ġà²ī à²ª
ÙĪÙĤ Ùģ
Ġà¨µ à¨§
Ġà¨¹à©ĭ à¨£
Ġbak arrik
ens ive
Ġele g
Ġp au
6 00
Ġngh á»ĩ
ÙİØ© Ùİ
Ġt ask
æĸĩ ç«ł
or p
Ġ6 2
M r
Ġt un
æĹ ĭ
</ div>
id ores
ĠØ± Ø£
à±ģà°¤ à±įà°ªà°¤à±įà°¤à°¿
à®Ļà¯įà®ķà®³ à¯Ī
çĥ ı
èĩº çģ£
Ġdom ain
à«ĭàª² à«Ģàª¸
à®ķ à¯Ī
ert ura
Up date
Ġintern al
à¤¿à¤ķ à¥ĩà¤Ł
Ġju in
Ġà°ªà±ĭ à°²
P ada
u ve
ep endant
ĠÄĳ Ã¡ng
Ġap pr
à¨¾à¨ Ł
ĠCh ÃŃnh
Ġdes apar
à¦Ľ à§ĩà¦¨
Ġà¬¦àŃĩà¬ ĩà¬
Ġde man
ĠÙĨ Ø¬
àªµàª¾àª¨ à«ĭ
Ġtá»ĭ ch
Ġfa il
Ġà¤ªà¥Ĥ à¤°à¥įà¤£
ĠC ON
Ġch á»ĵng
Ġà¦ħ à¦¨à§įà¦¤
à¥Ģà¤ļ à¥ĩ
Ġà¤¨ à¤°
Ë¨ Ë©
à¤¤ à¤¾à¤²
Ġl en
ĠÃºn ica
à¨µ à¨¾à¨°
ĊĠĠĠĠĠĠĠĠĠĠĠĠĠĠĠĠĠĠĠĠĠĠĠĠ ĠĠĠĠĠĠĠ
Ġm á»©c
ĠA v
à«ĭàª ĩ
çĶŁ åĳ½
à§ĩà¦ ī
ĠØŃ Ø±
ĠUn iÃ£o
Ġprob able
Ġh áº¡i
à´¾à´¤ àµĨ
E Y
Ġb ou
Ġà¬¬à¬¿à¬ Ń
Ġe uro
Ġà¦¤ à§Ī
åĨ Į
Ġd' av
Ġà¤ªà¤° à¥Ģ
Ġhe ures
àŃģà¬ ¹
Ġcar re
PO ST
ĠÃ© ch
Ġà¦ı à¦®à¦¨
vir onnement
ri el
à¬¿à¬¨ àŃįà¬¤
Ġthere 's
Ð¾ ÑĢ
cl ose
Ġch Ã¡u
Ġyak ni
ĠS r
ĠIn c
Ġà¬ķ àŃįà¬·
up dated
ind re
Ġà®ĩà®£ à¯Īà®¯à®ķà¯į
àªĹ àª°
à¤¹à¥ĩ à¤ķà¥ĭ
Ġà¤ķ à¤µ
ĠPl an
Ġear ly
Ġwe 're
Ġb ord
Ġkho áº£n
Ġfor Ã§a
Ġà®ħà®± à®¿à®µ
h ow
ĠM ig
201 4å¹´
Ġte am
ĠpÃ© ri
à¦¾à¦² à§Ģ
à¤ī à¤¨
ul kan
åħ³ æ³¨
y ah
ĠM A
ult ural
Ø§Ø¦ Ø´
Ġàªı àªŁ
ĠT Ã¢y
ĠDec ember
av ia
s as
æĪĳ è¦ģ
/200 3
à¬ ·
ir ia
i w
Ø§Ø¨ Ø¹
ish ing
Ġl' on
Ġà¦ı à¦Łà¦¿
estr uct
Ġt angan
Ġà¤® à¥ģà¤¦
åģļ æ³ķ
à ¹
Ġ Ø§Ø¶
Ġle arn
à®¾à® ¨à¯įà®¤
ĠØ§ÙĦØ± ØŃ
e urs
Ġb az
åľ¨ æŃ¤
fr ame
fÃ©r ence
ure au
ro v
á»§ ng
Ø±ÛĮ Ú©
Ġà°µà±įà°¯ à±ģà°¤à±įà°ªà°¤à±įà°¤à°¿
ft ar
æĲ Ń
iz ing
à¯Ĥ à®°à¯į
ĠÃºn ico
Ġà®ļ à®°
-m Ãªme
à®¿à®³ à¯įà®³
Ġp aix
Ġe go
Ġtang gal
à¤¿ à¥°
N ote
Ù¾ ÛĮ
à®¨à¯įà®¤ à®¿à®°
ĠP ap
ĠÄĲ Ã´ng
Ú© Øª
à®® à¯ĩ
Ġà¦ªà§įà¦° à¦ķà¦¾à¦¶
àª² àª¾
Act ivity
Ġbatz uk
Ġvier nes
is ing
Ġcom plic
ĠØ§ÙĦÙĴ Ø¹
] :
Ġà¨ľ à¨¦
æ² ī
æº «
Ġà¦¨ à¦¿à¦¯à¦¼
Ġe vol
ku u
Ġserv icio
ĠMan uel
Ġ---à®¤à®®à®¿à®´ à¯į
il h
ĠØ¬ Ø¯Ø§
Ġà®ķà®²à¯įà®µà®¿à®ķà¯įà®ķà®´à®ķ à®ķà¯į
is os
Ġà²¹à³Ĭ à²Ĥà²¦
P ot
un id
à¦¿à¦¤ à§įà¦¤
áº¡ p
å¾· åĽ½
ĠB or
Ġà¨® à©Ī
Ùİ Ø®
Ġten ho
par fait
itz at
.Ċ ĠĠĠĠĠĠĠ
Ġb io
Ġvol ume
L S
ĠSen hor
Ġàª¦àª¿àªµ àª¸
Ġà° ·
Ġg ara
çļĦ åĽ½å®¶
atz ea
Ġb order
éĤ Ģ
qu et
ĠD B
Ġem pr
Ġmeng alami
æĸ¯ Â·
Ġà¤¦à¥ĭ à¤¨à¥ĭà¤Ĥ
Ø§Ø³ Ùħ
Ġà¤ĺ à¥ĭà¤·
Ġà¦ıà¦ķ à¦ľà¦¨
ĠK r
èĳ £
ĠB ern
.Ċ ĉ
Ġqu anto
Ġvis ual
Ġmening kat
Ġmenc apai
Ġtr á»±c
à©ģ à¨¸
à±ģà°¤ à±ģà°¨à±įà°¨
Ġn áº¡n
æĦı æĢĿ
Ġ1 01
ĠU +
Ġfut bol
AB LE
àµģà´ ¸
ĠRod r
éĻĦ è¿ĳ
Ġang l
å½ Ī
Ġà®ĩ à®±
Ø¶ Ø§Ø¡
uj u
Ġà¦®à¦¾à¦§ à§įà¦¯à¦®
ab i
à¤¾à¤¸ à¥Ĥà¤¨
æĿ¥ è¯´
çŁ £
- 17
è Ŀ
Ġ ira
à¤¾à¤¸à¥įà¤¥ à¥įà¤¯
æĪ ª
è¶ħ è¿ĩ
Ġsim pl
n av
à³Ĭ à²Ĥà²¦à³ģ
à¤¿à¤¯ à¤¾à¤Ĥ
Ġà²ħ à²¨à³ģ
Ġcr iter
Ġple ase
Ġconc ret
Ġarab era
ç»¼ åĲĪ
Ġkw amba
Ent ity
ç¦ģ æŃ¢
à±Ĥà° ¨
à®² à®¾à®®à¯į
à¤ķà¥įà¤¤ à¤¿
Ġbus ca
ĠÉ ĸ
Ġà¨ľ à©Ģ
Ġfe u
Ġl Æ°u
ĠlÃ£ nh
à©ľ à¨¾
Ġsim ply
æģ¢ å¤į
ang es
Î º
ĠS á»ĳ
à¨® à¨¾à¨Ĥ
Ġur ban
ĠCiv il
Ġà¤®à¤¹ à¤¤à¥įà¤µ
æ£Ģ æŁ¥
N et
Ġso und
uk t
Ġà°° à°¾à°·à±įà°Łà±įà°°
ĠØ§Ø³ ÙĦØ§Ùħ
ä¸į åĪ°
ĠR en
éĥ¨ éķ¿
à°¾à°Ń à°¾à°Ĺà°Ĥ
Ġà°¨à°¾à°¨ à°¾à°°à±įà°¥à°¾à°²à±ģ
Ġà¦ķ à¦¾à§°
m ana
Ġà®ª à¯ģà®¤
Ġab ans
ËĪ ÊĮ
ĠÙĦ Ø¥
Ġà¤¬à¤¦ à¤²
Y a
ĠW ork
Ġequ ival
g as
Ġs ym
Ġse ek
Ġ< =
ĠÄĳ áº£m
è®¾ æĸ½
Ñ İ
l ad
æķĪ æŀľ
Ġtá»ķ ng
Ġàª® à«Ĥ
è· ¨
æīĭ æľº
Ġsign ifica
y g
Ø§Ø¬ Ø©
à²° à²¿
fl ow
0 \"
Ġcon du
ĠCor ona
è¾ ²
è¨± å¤ļ
Ġth us
à±Ģ à°¤
çĭ Ĺ
çĵ ľ
Ġà¬ıà¬¹ à¬¾
Ġyo ung
Ġtreat ment
Ġà²ķ à³Ī
Ġà°¦à±Ĥà°° à°Ĥà°²à±ĭ
Ġàª¸àª® àª¯
à®¤ à®µ
ec ta
st ream
Ġà¤µ à¤°
M ar
ĠI b
ĠH el
éħį è»Ĭ
er ne
ĠÃ© n
Ġdoc uments
Ġà¤Ĩ à¤Ĺ
àŃ ©
Ø¨ ÙĪ
Ġins ert
à¤µ à¤¾à¤Ī
ĠØ±Ûģ ÛĮ
par se
à´¦ àµĩà´¶
Ġquien es
Ġtrans par
201 5å¹´
T api
å·¥ä½ľ ç»Ħ
Ġaff ect
Ġmainten ant
Ġk amp
Ġcu est
Ġà´ħ à´¦àµįà´¦àµĩà´¹
- V
Ø§Ø¦ ÙĤ
_ list
Ġter akhir
à¬¨ àŃįà¬§
ĠØ´ Ûģ
n ÃŃ
àª¾àª §
y ak
Ġs áº¯c
Ġà¤Ĺ à¥ģà¤°
Ġá»įlÃ³Ì£ run
ç§¯ æŀģ
_ set
à¦¸ à§įà¦¬
à¯įà®ķà®³ à¯Ī
Ø±Ø¯ ÙĪ
:: get
Ġàªª à«ģ
à¤ľ à¤¾
à¤ķà¥įà¤· à¤¿à¤£
Ġà®ª à¯ĩ
aria k
al ign
l ock
å¹ ¼
ä¸Ģ ç§į
as al
à¬°àŃįà¬ ¥
Ġà²®à³ģ à²Ĥà²¦
Ã¡f ico
éĩ ĭ
éĹľ æĸ¼
B aca
iÃ¨re ment
à¤¾à¤§ à¥įà¤¯
HER E
Ġà²ħ à²¥
ĠFr om
S QL
is asi
Ùİ Ùĩ
æķ ı
ident s
Ġsom mes
8 %
à±ģà° ·
Ġl' un
à¦ķ à§°
à¦ª à§Ĥ
itz eko
ĠKh Ã´ng
à°¿à°¨ à±įà°¨
Ġ\" d
ĠØŃ Ø§ØµÙĦ
ĠØ§Ùħ Ø±ÛĮ
Ġni Ã±os
Ġn Ãłng
embl Ã©e
Ġres ources
ĠP M
æ° §
Ġh Ã£y
ĠØ¯ ÛĴ
Ġaument o
Ġ ä½Ĩ
ĠÙĦ ÙĲÙĦ
Ġp ages
ĠNom or
à°¤ à±įà°¸
à®¿à®ķà¯įà®ķ à®ªà¯įà®ªà®Łà¯įà®Ł
Ġdern ier
i embre
à¬³ à¬¿
Ġà¤¨à¤¿ à¤°à¥įà¤¦
æĸ¹ åĲĳ
ÙĤØ¯ ÙĬÙħ
àŃŁ à¬°àŃĩ
å±ħ æ°ĳ
Ġpl anta
ä½ľ çĤº
Ġà®µà®´ à®Ļà¯įà®ķ
Ġimp uls
åĳ Ī
Ġ* *
Ġkil omet
M a
Ù ¡
Ġ6 3
ik ian
ĊĊ ĠĠĠĠĠ
ÃŃcul a
ĠCop yright
àªķ à«Ģ
åĭ ĩ
Ġà¦ĸ à§ĩà¦²
201 3
é¡ ¶
à²¾à²¤ à³įà²°
Ãł ries
Ġdem onstr
è³ĩè¨Ĭ è¡¨
Ġà¦¬à¦¿à¦ ¬
Ġparl ament
à©ĩ à¨°
Ø± ÛĴ
Ġch oses
ĠØ§ÙĦØ ¸
à®¾à®² à¯ģà®®à¯į
Ġmill ions
åĲĮ æĦı
éħįè»Ĭ è³ĩè¨Ĭè¡¨
Ġin nov
ÙĪ Úĳ
Ġà¤µ à¤¾à¤¢
Ġà¤¬à¥Īà¤ł à¤ķ
Ġph ase
éĿ¢ ç©į
ri os
Ġ& #
Fr ame
à®© à¯įà®®
àŃģ à¬ķàŃįà¬¤
Ġàª® à«ĩàª
âĶ Ģ
Ġus ar
ĠÙħÙĨ Ø°
Ġtro uv
Ġà¤¦à¥ģà¤ Ī
Ġentr ar
Ġg arr
ĠØ§ÙĦØ³ ÙĦØ§Ùħ
ĠDe f
Ġtr ac
Ġà¤ķ à¥ģà¤¨
åį« çĶŁ
st d::
Ġpr Ã¨s
èĪ °
ĠJ ord
ĠÙĤ Ø¯Ø±
am atan
Ã± ana
ĠRob ert
éĢĤ å½ĵ
Ġd ific
Ġseb agaimana
Ġb agaimana
eb izitza
é ĨĴ
à¦¨ à§įà¦¯
Ġàª¤à«ĩ àª¨à«ĩ
Ġd'aquest a
à¥įà¤¯à¤¾à¤ļ à¥įà¤¯à¤¾
àªµ àª¾àª°
Ġà²ª à³ģ
è§Ħ åĪĻ
ung k
Ġà¦¬à§įà¦¯à¦ ķ
iáº¿ p
T ag
ĠAs ia
et ic
è®¾ å¤ĩ
ement erian
Ġà°¨ à±ģà°Ĥà°ļà°¿
Ġpre gunt
æĸ¹ è¨Ģ
ĠFranc Ãªs
Ġc argo
à¤¿à¤¹ à¤¾à¤¸
à¤¾à¤Ĺà¤° à¤¿à¤ķ
ĠO k
Ġà®¨ à¯ĩà®°
Ġà²¸ à²¾à²®
Ġà¨ªà©įà¨° à¨§à¨¾à¨¨
all es
àŃĢ à¬¤
z es
Ġà²® à²¾à²°
Ġà¨ª à©Ī
'] ;
Ġà¬ķà¬°à¬¿à¬ Ľà¬¨àŃįà¬¤à¬¿
Ġconcern ant
at iques
çĶ ĺ
è½ Ħ
- nos
Ġinvestig aciÃ³n
à¤¾à¤ª à¤°
ĠÙĨ Ø¸Ø§Ùħ
Ġ> =
Ġcomb at
ian za
ia Ã§Ã£o
[ 2]
Ġto ta
à°¾à°² à°¨à°¿
èĦ ļ
çļĦ å°ı
æµ· æĭĶ
àªĤàª¤ à«įàª°
à¨ķ à¨²
Ġde lete
Ø´ Ùģ
Ġà¦® à§Ĥà¦²
Ġà¤Ĩà¤«à¥įà¤¨ à¥ĭ
Ġaug ment
Ġh ours
ĠD ig
Ġà¦¬à§įà¦¯à¦ķ à§įà¦¤
St yle
er ce
ÙĤ Ø¨ÙĦ
Ġà°µà°¿à° ¶
Ġdis crimin
Ġà¦¬à¦¿à¦ ļ
Ã¡ veis
æĳ Ħ
Ġà¤¦ à¤¿à¤¸
Ú© ÙĨ
Ġel abor
Ø± Ûģ
gu es
è¨Ń è¨Ī
Ġà¤ī à¤ļà¥įà¤ļ
è¼ ķ
ol ak
ĠK at
s m
ang gap
ÙĪØ³ Ø·
ĠØ£ØŃ ÙħØ¯
Ġh Ã²a
ĠF ROM
Ġà¤Ĩà¤¦ à¤¿
ëĹ Ħ
à°¾à°° à°¾
li ament
ĠGe orge
Ġngu á»ĵn
à¥įà¤¯ à¥Ĥ
å¤ĸ äº¤
Ġà®®à¯ģà®© à¯įà®©
ĠÙĪÙĩ Ø°Ø§
Ġfl ow
ĠØ· ÙĦØ¨
ĠØ¬ ÛĮ
Ġrespons able
äºº ç±»
Ġà¦§ à§°
uv re
d ern
J 'ai
ĠC SS
Ġjo in
éł ĵ
à®¿à®ļ à¯įà®ļ
à®¿à®ª à¯į
ç»ı å¸¸
Ġe ux
Ã¨ hÃ³
ĠM ain
Ġp ener
Ġdescrib ed
à°¸ à±įà°Ł
Ġcon ver
Ġmayor ÃŃa
à±ĭ à°¡
Ġà¤ħà¤¸ à¥Ĥà¤¨
Ġng Æ°Æ¡i
Ġà¨ħ à¨®
in j
ĠÄĳá» £
ĠA P
al pha
m atch
Ġent end
ĠT O
arg e
ĠÙ¾ Ø§Ø±
à°¾à°Ł à±ģ
àª¾àª¨ à«ģàªĤ
à¨ľ à©Ģà¨¤
Ġjus te
èģ¯ åĲĪ
ĠØ§ ÛĴ
Ġin iti
ĠÙĦ ÙħØ§
à²¿à²Ĥ à²¤
Ġproc Ã©d
Ġanal y
ot an
à¬Ł à¬¿
em an
ĠØ§ÙĦ Ø§ØŃ
ĠB áº¯c
Ġà¤µ à¤¾à¤°
Ġà¦¨ à§ĩà¦¤
à´¯ àµĨ
ç® ±
è®® ç¨ĭ
unj ukkan
b es
à¬¿à¬² àŃĩ
Ã¹ i
ĠMar c
Ġas ist
æľĢ ç»Ī
T idak
E qu
Ġpart y
aya an
Ġbur uz
æĹ ģ
ue va
Ġsen hor
à´ Ĵ
ĠÙħ ÙħØ§
à¦ª à¦¾à¦¤
Ġsoci Ã©tÃ©
ĠÄĳ Ã¡
iz ont
ĠAd ministr
n ers
à²¦ à²¨à³įà²¨à³ģ
Ġakhir nya
ar in
Ġà¤ª à¥ģà¤²à¤¿à¤¸
àµ½ à´ķ
Ġà¤¸à¤®à¥įà¤¬ à¤¨à¥įà¤§
Ġà¤¬ à¤ľ
Ġà²¬ à²Ĺà³įà²Ĺà³Ĩ
Ġà²İ à²°à²¡
ĠR E
p ush
ĠU l
Ġmeng aku
Ġqu eda
ir am
201 7å¹´
Ġsou vent
Ġh á»¯u
Ã¨hÃ³ fÃł
à¥Į à¤ģ
Ġà¬¨ àŃĩà¬ĩ
W idget
ĠÙģ ÙĦÙħ
Â· lic
Ġdirect ory
Ġà¤ľ à¤¾à¤¯
ç´ ¯
Ġsome one
ç¬¬ä¸Ģ æ¬¡
Ġpag ar
Ġm oney
à±Ĩ à°°
ER R
à¤¤à¥įà¤¤ à¤¾
Ġt ree
Ġin tr
Ġapoy o
b ro
æ³ķ ãĢĭ
Ġc erc
àµģà´¨àµįà´¨ à´¤
àª°à«įàª £
Ġdesc ob
v rier
à°Ĥà°¦ à±ģà°ķà±ģ
Ġ199 3
Ġb ih
Ġser veis
)Ċ ĠĠĠĠĠ
å°± ä¼ļ
Ġber g
Ġàª¸ àª¹
Ġant ic
Ġà¤µà¤¿à¤ ®
æĻ® éĢļ
à°ª à±ģ
Ġpolit ical
\\ \"
ĠV iew
Ġdom ingo
éŃ ļ
Ġc Ãłng
Ġing ur
Ġrel aciÃ³n
à¬¾à¬¹ à¬¾
à¥ĭ à¤¤
ang un
çľĭ çľĭ
Ġdon ar
æŃ§ è§Ĩ
Ġnh Ã³m
Ġàª°àª¾àªľ à«įàª¯
ĠàªĹà«ģ àªľàª°àª¾àª¤
Ø§ÙĨ Ø³
Ġà¬² à¬¾à¬Ĺ
Ġconsider ed
ĠV ill
Ġà¬Ĺ àŃįà¬°
ÙĦ ÙĬØ©
à¤¿à¤¶ à¥įà¤ļ
ĠY a
à¨¿à¨ ī
Ġout side
àª§ àª¾àª¨
ä½ ©
à¤® à¤§
Ġà°ħ à°¤
ĠF e
Ġpas o
ĠT able
Ġch Ãºt
å¥½ äºĨ
######## ########
Ġà¤® à¤§à¥įà¤¯
ĠÎ ¼
Ġà¦¸ à¦Ń
Ġà´¤ àµĨ
Ġtak ing
Ġfam ille
à´ķàµįà´ķ àµģà´Ĥ
Ġb ul
av ier
ĠN i
Ġdi x
Ġà¬¹ àŃĩà¬²
p ia
201 4
d an
ĠS Ã¡nchez
ĠØ³ Ø§Ùħ
Ġdesenvol up
Ġs ala
à§įà¦° à§ĩà¦£
åħ¬ æ°ĳ
æľĢ è¿ĳ
Ġ\" D
kan i
å®¢ éģĭ
Ø§Ø¨ Øª
Ġcommunic ation
Ġdit uzten
æĺ¯ ä¸Ģä¸ª
Ġminist re
ios a
Ġneg oci
Ġde put
Ġah al
Ġà´µ à´¿à´µ
ÙĦÙħ Ø©
g ak
olog ies
ĠØ§ÙĦÙĴ ØŃ
å·¥ä½ľ äººåĳĺ
Ġ199 2
Ġop pos
ä¼ł ç»Ł
Ġmach ine
ĠÙĤ Ø§ÙĨÙĪÙĨ
ĠØ¨ Øº
Ġà¤° à¥ĭ
Ġà¤ħ à¤ļà¥įà¤Ľ
Ø¦ Ø±
Ġà¨° à©±à¨ĸ
Ġnue vas
Ġà¤¸à¥įà¤µ à¤¤
Ġas ko
Ġen ero
à¤¿à¤¯ à¤®
Ġ6 6
éĽ» å½±
Ġs á»£
Ġdirect ly
Ġà¨ķà¨¿à¨¸ à©ĩ
- ch
ÙĴØ± ÙĲ
our se
ĠD ate
à´· àµįà´Ł
ĠÏ Ģ
Ġà¤Ńà¤ı à¤ķà¤¾
ĠM ich
ĠÙĪ Ø¯
Ġagr ad
Ġngo áº¡i
ou re
aj es
Ã¡ st
ĠÙĤ ÙĪÙĦÙĩ
à¯ģà®¤à¯įà®¤ à¯ģà®µ
u ite
Ġ1 02
/ 6
art o
ĠÙĤ Øµ
P o
à³ģ à²¤
æİ ¡
Ġr ural
Ġjur ÃŃd
Ġconsid era
Ġ+ +
ÙĤ ÛĮ
Ġdo ivent
ne o
ĠPass Ã©
ĠK á»³
Ġor ain
è¥¿ çıŃ
ÙĪØ¬ Ø¯
Ġpek erja
Ġlevel =\"
Ġph ong
ĠN OT
Ġtr act
Ġhand le
w en
ĠL ocal
ÙħØ§ Ùĭ
Ġà²µ à²¿à²°
re ta
omp ok
pl ural
Ġà®¨ à¯ĭ
_ R
u vo
El le
Ġà¤¡ à¥ī
åĳ¢ ï¼Ł
Ġse ul
IB OA
Ġcomp re
à¦¿à¦Ł à¦¿
Ġass ign
å½± éŁ¿
ms g
Ġà¤¶à¥ģà¤° à¥Ĥ
Ġm und
Ġà¨ľ à¨¾à¨µà©ĩ
à³ĭ à²ľ
éľĢ æ±Ĥ
Ġà¤ħà¤§à¤¿à¤ķ à¤¾à¤°à¥Ģ
Ġad ditional
def ine
at abase
ou -se
ĠÙĤ Ø¨
æĬ ±
Ġplay er
Ġà¦ Ĳ
Ġg abe
Ùħ ÛĮÚº
Ġch áº¯c
ãĤ ĵ
àµģà´® à´¾à´¯à´¿
ubl ique
um u
Ġjun io
à¬¿à¬ Ĺ
O E
ĠÙĪ Ø®
ç¦» å¼Ģ
Ġà®ªà®¿à®° à®¤
ĠdÃ© but
ĠÛģÙĪ ØªØ§
åİ ļ
åĪĨ éĴŁ
àŃįàŃŁ à¬¾
à¬¦ àŃįà¬§
ĠBl ack
Ġà¨® à¨¾à¨°
Ġà¤¸à¥įà¤¥ à¤¾à¤ª
os os
Ġser ie
Ġgi áº£m
à²¿à²¯ à²¾à²Ĺ
c all
Ġy Ã¬ÃŃ
æĵį ä½ľ
çģ Ń
ĠP artic
Ġaf irma
itt ing
ad ian
åľ Ĩ
Ġcon tex
Ġà¦¶ à¦¤
Ġà²¤ à²®à³įà²®
Ġnum a
Ãī tat
Ġuser =\"
ç¯ ī
<noinclude ><
_ RE
à¤ļ à¤¨
ĠPal omar
ĠØŃ ÙħÙĦ
Ġvol t
è¥¿çıŃ çīĻ
ĠT ime
Ø¸ ÙħØ©
Ø¨ Ø§ÙĨ
Ġber ri
åŃ ķ
éŃ ı
- 13
ĠÙĪ Ø°ÙĦÙĥ
Ġà¦ħ à¦¤
Ġacord o
ĠB us
ĠØ¥ÙĦÙĬ Ùĩ
Ġk Ã³
Ġz in
Ġà¤ķ à¤¿à¤¨
éĻ ·
Ġku j
Ġten emos
à³Ĭ à²²
Ġcol Â·
çĽ´ åĪ°
Ġà®ħ à®´
Ġà¤īà¤¦ à¥įà¤¯
ĠØ£ÙĨ ÙĩØ§
page quality
Ġpobl aciÃ³n
à¥¤ Ġ
ãĦ¨ ãĦ
ĠH y
ual mente
åŃĲ çļĦ
<noinclude>< pagequality
Ø§Ø¯ ÛĮ
ĠØ§ ÛĮÙĨ
àª¿ àª¶
èı Į
ĠF irst
imp in
åĬŀäºĭ å¤Ħ
à¦¦ à¦¾à¦¨
Ġà®ħ à®©
Ġà¤¸à¤Ĥ à¤ª
É¾ i
Ġm áº«u
Ġpl ans
Ġà§ ¬
Ð¾Ð ´
O pen
ï» »
Ġà¤®à¤Ĥà¤¤à¥įà¤° à¤¾à¤²à¤¯
() ĊĠĠĠĠĠĠĠ
Ġm Æ¡
à¯Īà®¯ à®¾à®©
Ġdib er
Ġing res
iÃ¨n cia
8 00
ĠØ§ÙĦØ¬ Ø²
T er
Ġcomp lete
Ġtá»© c
Ġvost Ã¨
Ġà¤ľ à¤¾à¤£
Ġcommun ity
Ġth Ã©
ÙĩØ§ ÙĬØ©
Ġju illet
Ġg hi
Ġch uyÃªn
Ġà¨Ĺ à©ģ
æ¯ ģ
à¤¾à¤¹à¤¿à¤¤ à¥įà¤¯
à¨¿à¨ ľ
Ġlak ukan
Ġfl u
Ġà®ªà®¤ à®¿à®ªà¯įà®ªà¯ģ
Ġ è¿Ļ
à´¸ àµįà´ķ
Ġwrit ten
à¤¸ à¤Ńà¤¾
à§ĩà¦ĸ à¦¾à¦¨à§ĩ
ĠK or
Ġ8 5
à§¨ à§¦
è¯ Ĺ
Ġseb esar
Ġad ult
ĠRep ublic
s en
Ġest ou
Ø¬ Ùĩ
Ġno ite
ĠØ¯ÙĨ ÛĮØ§
ell ing
ent u
ĠcÃ¡ nh
à¤¿à¤¨ à¥įà¤Ľ
Ġà¤¯à¤¹ à¤¾à¤ģ
à¯ģà®µ à®©
à¤¾à¤ĩ à¤²
èĲ Ĭ
Ġà¤īà¤¨ à¤ķà¥Ģ
ad y
Ù¹ Ú¾
à´¿à´Ļàµįà´Ļ à´³
Ġb entuk
ĠperÃŃ odo
Ġ\" t
à¤Ńà¤¾à¤° à¤¤
åĲį çļĦ
à¥Ģà¤ļ à¥įà¤¯à¤¾
æĿ ¨
Ġà¦¬ à¦¾à¦¸
à²¿à²ķ à²¾à²°
Ġreport ed
Ġm Æ°a
ny ata
Ġà²ĩ à²¦à³ģ
2 \"
ĠgÃ©nÃ©r ale
Ġà¤¬ à¤¾à¤ľ
Ġdon ner
à°¶ à°¾à°²
Ġent ry
F C
Ġqu als
åĪ Ĭ
Ġc af
ĠDe velop
Ġto ok
à´£ à´®
oci ation
æŁĲ äºĽ
Ø· Ø§Ø±
201 8å¹´
ĠS oci
à³Ģ à²¸
Ġp p
ĠM ap
è¯ ¦
à¯ģà®ķ à®³à¯Ī
ĠU RL
2 50
à¥įà¤¹ à¤¾
Res ponse
ĠÃ Ĥ
åĽł ç´ł
Ġb ila
Ġk eter
ung gu
Ġimp oss
h Ãµes
Ġà®ķ à®¾à®£
ĠØ¯ ÙĦ
ĠØ¬Ø§Øª Ø§
g ua
ĠÃ© tr
à²°à³įà² ¶
ĠN S
j on
Ġà°ķ à±įà°°
à°¿à°ķ à°¾à°°
W indows
in ct
if orn
Ġbuild ing
Ġà¦® à§ĭà§°
Ã©r er
Ġbar ang
å¿ ½
à¬® àŃįà¬Ń
ĠØ£Ùİ ÙĨÙĴ
ĠE nd
åĪĨ åĪ«
Ġtechn iques
Ġàª°àª¹ à«Ģ
res ponse
Ġà´ĩ à´µ
àŃ «
ĠH igh
Ġà¦¹ à¦¾à¦¤
àª£ àª¾
ĠPa ÃŃs
Ġl ista
Ġà¦°à¦¯à¦¼ à§ĩà¦Ľà§ĩ
Ġus es
à´¿à´ķàµįà´ķàµģà´¨àµįà´¨ à´¤àµį
K ita
Ġà¦¨à¦¿à¦° à§įà¦¬à¦¾à¦ļ
Ġzego en
it ik
Ġh aya
Ġmod al
ä¸ª æľĪ
è ļ
ah nya
ÙĪØ¬ Ùĩ
ÙĪØ¨ Ø©
Ġc ic
Ø¸ Ø©
Ġmor al
à¤¿à¤ ·à¥įà¤Ł
Ġà´ §
Ġem ail
Ã©r ia
ç» ¿
ak nya
Ġ' <
Ġsek olah
èī¾ æ»ĭ
Ġaz ken
àŃĩà¬¬ àŃĩ
Ġà¨Ĺ à©±à¨²
Ġp ied
ass a
àŃĤ à¬ª
éľ į
- à¦¬
Ġk g
ad ilan
Ġà¦¸à§įà¦¥ à¦¾à¦¨
ĠÙĬ ØªÙħ
à¤¾à¤ ±
ĠT á»ķng
Ġper f
Ġsu fr
à®¿à®ķà¯įà®ķ à¯ģà®®à¯į
Ġn orth
Ġmeny atakan
Ġmen urut
Ġà¨¬à¨¹à©ģ à¨¤
ra iment
Ġà¦¬ à¦¾à¦¹
g nos
à±ĩ à°¨
Ġà´¤ à´¨àµįà´¨àµĨ
Ġà¨¦ à©Įà¨°
ä»¥ æĿ¥
/ 9
Ġà¤¤ à¥įà¤°
Ġà¤ķà¥ĩ à¤¨à¥įà¤¦à¥įà¤°
Ġà®¤à¯Ĭ à®ķà¯ģà®ªà¯įà®ª
ĠMic hael
Ġb oy
er ako
ĠØª Ùĥ
ense ign
Ġà¤°à¤¾à¤ľ à¤¨à¥Ģ
Ġ________ ______
à«ĭ àª¨
Ġpour rait
à¥ĩà¤° à¥Ī
Ġà´İà´¨àµįà´¨ à´¿à´µ
Ġdef ens
Ġinclud ed
Ġà¦¦ à¦¿à¦²
ĠæĪĳ åĢĳ
Ġsup ort
ĠTr ong
Ġà¦ķ à¦¾à¦®
æĶ¹ åĸĦ
Ġp ia
Ġà¨¦ à¨¿à¨¨
à²¿à²¸ à²²à³ģ
D '
Ġà¤¤ à¤¬
av o
und le
Ġn il
Ġlak ini
ĠV o
Ġà¦® à¦¤
ç¤¾ åįĢ
Ġà¤ķà¥ĭ à¤£
Ġen se
4 ;
h ait
Ø°Ùĩ Ø¨
Ġviol ence
Ùĥ Ø±Ø©
Ġà¤ª à¥ĥ
ub li
Ġhist ory
àµĩ à´£àµįà´Ł
Ġinform aciÃ³
Ġg round
à¨° à¨¨
Ġfal ar
Ġà¨ĩ à¨²
ç¬¬ 1
èģĶ ç³»
Ġà¤ķ à¤¾à¤Ĥà¤Ĺà¥įà¤°à¥ĩà¤¸
à®¾à®® à®²à¯į
U nd
an che
Ġcl asse
à¤¦ à¥įà¤¦
ĠV Ãł
Ġà°ķ à°¾à°²
ĠÙĪØ§ÙĦ Ø¥
Ġbro ught
Ġinter face
Ġà°¦ à±ĩà°¶
èİ ī
åĲ ¾
Ã¨ yÃłn
åĢ į
Ġmay o
Ġj ok
Ġalg uma
àª¨à«įàª¦ à«įàª°
-Un is
S he
re al
tr >
Ġà®¤ à¯ĩà®°
Ġchu áº©n
Ġà¦¸ à§įà¦Ł
à¤¾à¤ı à¤Ĥ
Play er
ĠA da
à®¾à®£ à®¿
Ġform al
Ġm Ã´i
Ġà¤¸à¤¾à¤° à¥įà¤µ
Ġk ini
ĠØµ Ø¯Ø±
ĠDDS A
Ġà¬¨ à¬¿à¬ľ
Ġà¤ªà¤¹ à¥ģ
Ġà¤ĸ à¤¿à¤²
à¤¦ à¤¿
oss os
, Ċĉĉĉ
ĠH ere
Ùı ÙĩÙİØ§
ĠØ¯ Ø§Ø±
ĠØ§ÙĦØŃ Ø¯ÙĬØ«
Ø¨ Ø·
ĠU k
ĠPr im
- orang
Ġs outh
Ġà®ļà¯Ĭ à®²à¯įà®²
à¯ĭ à®®à¯į
Ġactiv itÃ©s
am as
Ġà²¨à²¡à³Ĩ à²¸
Ġnord- occidental
à¦¤ à¦¿à¦¨à¦¿
aut hor
Ġa ustr
od er
Ġac om
à¤¾à¤¨ à¥įà¤¯
Ġàª¸ à«Į
à¥ĭ à¤¸
Ġà²ī à²¤à³įà²¤
Ġà¨¸ à©Ĥ
çļĦ ä¸»
Ġx anh
_ in
Ġtrav ers
ĠØ¹ Ø¯Ùħ
Ġà²ħà²¥ à²µà²¾
Ġl anz
Ãłn cia
Ġmiss ing
/199 9
Ġf ez
Ġà¦¬ à¦¾à¦°
ĠØ§ ÛĮÙħ
Ġma Ã±ana
ĠÅ ĵ
è¬ Ĥ
}} }}
æĸ° èģŀ
Ġting gal
am end
è¾¾ åĪ°
çĻ¼ çĶŁ
ĠC S
Ġch á»įn
Ġcol lection
æĵĶ ä»»
12 0
Ġà¦¸à¦® à§Ł
\"> <
Ġv ote
ubern ur
ĠÄĳ áº£o
éĻ µ
çĶ¨ æĪ·
ÙĬ Ø§Ø¯Ø©
Ġ} }
ĠØ§ÙĦØŃ ÙĤ
cal de
Ġtá» ·
ÙĲ Ùĳ
ĠspÃ©c ial
æ¢ ¦
isto ire
Ġ{ }
ĠØ§ÙĦØ£ ÙĨ
å² ©
à°ķ à°Ĥ
us ter
Ġà¤¦ à¤¿à¤ĸ
ĠÛģ ÙĨØ¯
áº· n
æĹ ¦
à¬¾à¬° à¬£
à°Ń à°¾à°·
Qu Ã©
æ¼ «
ĠÙĪ ØºÙĬØ±
Ġà¤° à¤¾à¤·à¥įà¤Łà¥įà¤°à¥Ģà¤¯
ä»¥ åĲİ
Ġpu iss
æķ´ ä¸ª
Ġà¤Ń à¤¾à¤ľ
Ġa it
ik nya
à¦¿à¦¤ à¦¾
men u
ĠA ff
Ġà¤® à¥ģà¤Ŀà¥ĩ
fr amework
bu ild
Ġ æľī
ĠD Æ°Æ¡ng
à¤ľà¤¨ à¤¿à¤ķ
Ġà¨° à©Ĥ
Ġà¦ªà¦°à§įà¦¯ à¦¨à§įà¦¤
Ġà¬¸ àŃģà¬
æķ Į
Ġent onces
à¦£ à§ĩ
àµĢ à´¯
ĠO F
Ġcab e
bre ak
Ġsom et
Ġr asa
w ang
in ux
Ġmes ma
ÙĦ Ø§ØŃ
ĠU ser
Ġmuch as
à¯įà®µ à¯ĩ
Ã¨ ve
ug i
à±įà°ķ à±ĥà°¤
à±Ĩà°² à±įà°²
Ġw ent
ĠGovern ment
/ c
ut u
Ġcor ona
ĠÙħ ÙĪØ³
Ġas sez
æĮĩ å¯¼
Ġap par
Ġpu es
Ġ9 5
ç»ı éªĮ
ĠB ud
ĠL eb
ĠØ¨ Ø®
cl es
Ġcom es
Ã ĩ
summary >
æħ ¶
ĠÙħ ÛĮØ±
à¯ģà®ļ à¯į
è² ´
- th
à¦¾à¦ ¡
Ġà¤¦à¥ĭ à¤¨
ĠâĢ ²
Ġà°ī à°Ĥà°Ł
ĠJ ac
201 5
ak yat
ĠØ§ÙĦØª ÙĨ
Ġwrit ing
à´§ à´¾à´¨
Ġsig ue
Ġest rat
Ġà¦¦ à¦¿à¦¯à¦¼à§ĩ
ÙĪ Ø«
Ġr ule
à¥ģ à¤¹
ĠP ost
à°¾à° Ĥ
in z
Ġp onto
Ġit er
à¨¿ à©±à¨²
Ġà¬Ĩ à¬°
Ġà¤¬ à¤ļà¥įà¤ļ
man n
Ġse in
à¤® à¤¹
ĠK orea
Ġdeix ar
ess o
à¨Ĺ à¨°
à¤¡ à¤ķ
ĠPem erintah
å°½ ç®¡
åĩ Ģ
ãĥ ¼
Ġf ra
ab et
Øµ ÙĪØµ
Ġà¤° à¥ĩà¤²
à§Ģ à¦ķà§įà¦·
Ġd ins
anc ed
ãģ Ĺ
ĠC D
Pro v
àªµàª¾àª¨ à«ģàªĤ
in n
avas cript
Ġv á»įng
F O
Ġk esehatan
entz at
Ġv isto
Ġ/ ÉĻ
Ġchang ed
Out put
ĠS Æ¡n
çĶ³ è¯·
Ġass ess
Ġ+ 1
Ġsup pl
Ġdici embre
D ans
Ã ¸
ĠH ab
Ġà´ļ àµĨ
Ġetx ebizitza
ĠTim ur
ĠB ig
d ouble
Ġà²¦ à²¿à²¨
Ġà¦ª à¦¾à¦ĵ
Ġtemper ature
Ġval enciÃł
Ġà¤ķà¥ĩ à¤¹à¥Ģ
Ġ Æ¡i
éĢļ éģİ
Ġà°ķà°¾à°° à±įà°¯
à´ ĥ
Ùħ Ø§Ùħ
prot ected
ĠØ§ÙĦØª ØŃ
à¤ĩà¤¸ à¤ķà¥ĩ
dern iÃ¨re
à® ·
Ġà¤® à¥ĩà¤°
æ¶Ī éĻ¤
Ġàªµàª§ à«ģ
æĪ Ī
Ġmer asa
Ø¹ Ø§Ø¯Ø©
Ġà§ §
ĠAg ust
Ġqu oi
à²Ĺ à³Ĭà²Ĥà²¡
p ng
àµģà´¦ àµįà´§
S ch
à¦¾à¦° à§Ģ
Ġprincip ales
ere z
à¤¾à¤ķ à¥įà¤·
Ġma upun
Ġkal ian
Ġinici ativa
à²¡ à²¿
En try
Ġt áº¥n
à³Ĥ à²°à³ģ
L A
ĠÐ ·
à§ģà¦¦à§įà¦§ à§ĩ
Ġà®ª à®ķà¯ģà®¤
Ġdef ensa
Ġà´¨ à´¿à´²
Ġorient al
' Ã©tait
r ome
ĠK ong
ĠØ± ÙĪØ§
Ġ19 80
p u
Ġay er
.Ġ( (
ĠNh Ãł
Ġent ren
à¦¿à¦¤ à§įà¦¬
ĠSal v
äºº åľ¨
Ġrest o
è§Ĵ èī²
as p
Ġw or
Ġro und
åĬĽ éĩı
Ġf at
Ġresol ution
up si
Ġsant Ã©
à¤¾à¤¤à¥įà¤® à¤ķ
ta h
le o
Ġmes ure
èĹ į
à¥ĩà¤² à¥įà¤¯à¤¾
Ã¨ o
àªļ à«įàªļ
àª¾àª¡ à«Ģ
ĠÃ¡ p
Ġten ÃŃa
å¹ ħ
D alam
Ċ .
àŃ §
à§ĩ à§°
ĠC ond
Ġnh áº¥n
og en
è Ł
ĠH ong
é ĳ
av ior
Ġà®¤ à®¿à®Łà¯įà®Ł
ĠL ang
Ġmeet ing
Ġà¤ķ à¥Į
à§ģ à¦ľ
Ġdem anda
Ġb Ã©n
Øª ÙĤ
og e
à¤¾à¤ľ à¤¿à¤ķ
Ðµ ÑĢ
çľŁ æŃ£
Ġà¦¬à¦Ľ à¦°
ĠH um
ĠÄĳ á»Ļc
Ġà²ķ à³Ĥà²¡
ĠØ§ÙĦØ® Ø·
Ġt Ã©lÃ©
: -
à°¾à°Ĥà° ¡
Ġà¤¸ à¤ª
Ġà¦¸ à§įà¦ķ
àµĩà´ ĸ
à´ķàµįà´ķ à´¾à´°
Ġà°ķ à°¨à±įà°¨
à¨¿à¨Ĩ à¨¨
ĠÙĤ ÙĦ
åĨ ¬
à®£ à¯į
ok i
à´¤àµįà´¤à´¿à´¨ àµį
à¦¿à¦¨ à§Ģ
S au
ĠMas cul
Ġà¤¦à¥Ĥ à¤¸
/200 7
B ack
Ġà¤ħ à¤Ĥà¤Ĺ
Ġà¦Ĩ à¦¤
à¥ģà¤² à¤¾à¤Ī
Ġà¤¸à¥įà¤¥ à¤¾à¤¨à¥Ģà¤¯
ĠM ore
> \"
Ġ6 7
Ġà°ķ à°¨
à¯ģà®µ à®¤
åĸ® æķ¸
à«ĭ àª®àª¾àªĤ
å¤ļ å°ĳ
Seg Ãºn
Ġà¤µ à¤¾
ent er
s em
è± Ĩ
A ng
t arget
L ink
Ġà¤¸ à¤ķà¥ĩ
ĠG ol
Ġs ar
ic ias
àª¶ à«įàªµ
Ġt Ã¨
Ġl eng
æķĻ æİĪ
Ġà¦ı à¦¤
åĥ ħ
à°¸ à±į
çķ ¢
è¼ ī
Ġlleg ar
Ġàª¨ àª¾àª®
Ġb ill
ĠH ouse
Ġà¤¶à¤¾à¤® à¤¿à¤²
Ġno che
ad min
pert ies
Ġatrav Ã©s
çĽ ¡
Ġform s
He ight
Ġà´µà´¿à´ ¶
ĠC es
Ġsem anas
G C
M ic
h n
u Ã©
àŃ ľ
ĠC ha
ç¥ Ŀ
Ġt á»ĳ
ĠH áº£i
Ġz one
å¾Į ä¾Ĩ
Ġc á»Ļng
Ġreturn ;
åĲĦ é¡¹
Ġà¤ª à¥Ĥà¤°
Ġà¤¨ à¤¾à¤Ĺà¤°à¤¿à¤ķ
Ġro d
Ġd b
èĩ ¨
à¨µ à¨¾à¨¨
åĪ© çĽĬ
min in
Ġapro b
à¨¿à¨ ª
ä¸į æĸŃ
re ci
Ġmus im
Ġàª¶àªķ à«ĩ
tic le
Ġà¤¦à¥Įà¤° à¤¾à¤¨
Ġlik ely
Ġà®ķ à®¿à®°
atu an
Ġmen emukan
Ø§Ø¡ Ø§Øª
Ġekonom i
ä½ł æĺ¯
Ġexpl ica
à´¿à´¨ àµį
Ġà¨®à©Į à¨ķà©ĩ
ĠØ§ÙĦÙĨ Ø³
Ġez in
Ġevent s
Ġp ackage
à¦£ à¦¾
Ġb os
ĠC amb
è§ ¦
Ġsou hait
Ñ ĸ
Ġd' indic
å½ĵ åľ°
ĠCent ro
D ur
Ġà¦Ń à¦¾à¦¬
ER A:
éķ¿ æľŁ
- à¤¸
Ġà® ¹
z an
ĠØŃ Øµ
Ġmon itor
= {
Ġà® ¸
Ġà¤¤ à¤¾à¤²
Ġà¤Ĺ à¤¾à¤µ
ĠÙħØ¹ ÙĦ
Ġà¨¨ à¨¿à¨°
Ġhiv yo
ĠTr ad
ĠØ¨ Øµ
Ø§Ø¦ Ø©
ÙĦÙĬ Ø§Øª
Ġva ig
Ġà¨µà¨¿à¨ ¦
d raw
Ġà®¤ à¯Ĩ
201 6
Ġcr Ã©d
Ġa im
à´Ĺ àµįà´°
Ġdes con
Ø±Ø¬ ÙĪØ¹
Ġalgum as
ÙĦØ³ Ø·
Ø§Ø± ÛĴ
Ġph áº£n
åĬĽ çļĦ
à²µ à²¨
ĠĠĠĠĠĠĠĠ ĠĠĠĠĠ
Ġhir u
à¥ĩ à¤ª
Ġincl uso
ĠH ay
B uffer
àª¿àª² à«įàª®
Ġà¦ħà¦Ń à¦¿à¦¨
à¯ģà®³à¯įà®³ à®¾à®°à¯į
aiss ance
ĠØ¹ ÙĪØ§Ùħ
elas kan
àª¦ à«ĩàª¶
se k
ÙĨ ÚĨ
àªµ àª¨
éĹ Ń
ĠM ur
19 0
æĽ´ åĬł
Ġy áº¿u
ict ure
Ġdec isiÃ³n
Ġorang -orang
ap us
ĠrÃ©s olution
Ġà´ķàµĬ à´£àµįà´Ł
Ġs ung
ĠM ak
à¤µ à¤¤
Ġap Ã³s
æī¿ è¯º
re w
Ġed ific
à° ĥ
Ġv áº»
ĠÄĳ Ã´
Ùĥ Ø¯
Ġber n
à¦ª à§įà§°
Ġà®İà®©à¯įà®ª à®¤à¯ģ
Ġis n't
Ġcent res
</ a
4 ]
ĠI ran
Ġà¨¹à©ĭ à¨µà©ĩ
Ġà®¤à¯Ĭ à®´
Ġà¤µ à¤¾à¤Ł
Ġdivers es
åĶ¯ ä¸Ģ
à¤²à¥ĩ à¤ķ
/sh all
Men urut
Ġà¦¤ à¦¾à¦ķà§ĩ
Ø±Ùĥ Ø²
Ġwill /shall
/200 4
è´¨ éĩı
Ġocc idental
Ġà®® à¯ģà®±
Ġj Ã¨hÃ³fÃł
æĹ¥ æľŁ
ÙĴÙĦ ÙĲ
Ġà¤ª à¤¡
Ġpartic ulier
é¦ĸ åħĪ
Ġà¤°à¥ģà¤ª à¤¯à¥ĩ
f on
à§Ģ à¦²
Ġseg Ã¼
Ġd ades
Ġà¤¯ à¤¾à¤¦
à§ĩà¦® à¦¨
ĠÃ©conom ique
Ġà°®à±Ĥà° ¡à±ģ
ĠM ex
ĠØ§ÙĦØª Ø¬
Ġch Ãº
à±Ĩ à°¨à±ģ
Ġyou /
text {
é¥ ®
à¥Ī à¤²
çĩ ĥ
An y
Ġnuc lear
ĠØ§ÙĦØ¯ ÙĬÙĨ
ĠÙģ ÙĦØ§
Ġpos terior
P ass
ec ciÃ³
Ġd ung
Ġmu erte
Ġmemb antu
Ġactiv idades
Ġà¤¨à¤¿à¤°à¥įà¤µ à¤¾à¤ļà¤¨
å± ¥
30 æĹ¥
ä»ĸä»¬ çļĦ
ĠGr and
Ġmand at
gun ta
Ġà¤ª à¤¾à¤ķ
Ġàª¶ à«ģàªĤ
é½ Ĳ
å¾ Ħ
Ġkh áº£
æ³ķ åºŃ
W ell
à¯įà®µ à¯ģ
Ġlevel s
à³įà²Ł à³į
ĠH á»Ļi
Ġà¥¤ à¥¤
Ġà¤ªà¥įà¤°à¤¶ à¥įà¤¨
d ec
à«įàª ¡
Ġà¦¬ à¦¿à¦ķ
ĠØ± ÙĪØ²
Ġm ig
Ø¹ ÙĬØ©
Ġà¨ª à¨¿à©°à¨¡
ĠÐ ¼
Ġà¤²à¥ĩ à¤ķà¤°
æ» ĳ
à±ģà° ¬
æĹ º
à°°à±įà° ļ
èĹ ¥
æĢ§ åĪ«
- as
Ġcol abor
Ġdis so
Ġà¤ĩ à¤Ĥà¤¡
ĠØŃÙĤ ÙĪÙĤ
Ï Ģ
ĠM ess
Ø§Ø³ ÛĮ
Ġjul io
Ãł g
ĠF ut
çĪ µ
ĠTr ue
à«Ģàª ¡
Ġà°¬ à±Ĩ
à° ĸ
Ġà¤ķà¥ĩ à¤Ĥà¤¦à¥įà¤°
ĠØŃ ÙĬ
anc y
ç»Ĩ èĥŀ
åı¯ æĮģç»Ń
Ġà¤Ĩ à¤²à¥Ģ
à¥ĩà¤Ĥ à¤Ł
Ġs empat
Ġgo es
Ġeg ingo
ĠT ype
åº Ł
Ġà®ĩà®² à®ķà¯įà®ķà®¿à®¯
iá»ħ m
Ġc lean
ĠÙħ Ø¬ÙĦØ³
ä¸Ģ å¹´
ç»ı è¿ĩ
Ġà°ª à°¾à°²
ex p
Ġà´ĩ à´¤
Ġà¤ķà¥įà¤° à¤®
Ġc á»Ń
Ġr ules
Ġr á»Ļng
æŃ¦ è£ħ
æĪĲ æŀľ
à¥Ģ à¤¸
Ġd ug
Ġg á»Ńi
av ing
Ġactiv ities
Ġv ag
Ġrela Ã§Ã£o
E A
ç¬¬ åħŃ
Ġform er
Ġà¦ķ à¦¾à¦²
åļ ´
ile d
ald i
à°° à±įà°ª
å£ ģ
Ġà´ª à´¦
åıª èĥ½
G ener
Ġc if
Ø§Ûģ Ùħ
e- al
Ġàªª àª¾àª¸
à¥ĥ à¤¤à¤¿
à©ĭ à¨¹
orr er
ĠJ umat
Ġgiá»į ng
à¤¿à¤ Ľ
à²° à²¿à²Ĺà³Ĩ
Ġav aient
// /
è¿Ľ å±ķ
y i
Ġb all
à¦Ł à§ĭ
Ġalgun as
M at
à±įà° ľ
if ique
Ġiz en
te p
à¤® à¤¾à¤¤à¥įà¤°
çīĪ æľ¬
å·¥ ä¸ļ
enc ana
Ġlarg o
l ant
u ang
Ġmeny el
Ġ6 8
à¨® à¨¾à¨°
ä¹ī åĬ¡
Î ·
è¯ ¸
T a
æ¥ Ĭ
uran Ã§a
Ġsa Ãºde
Ġren ov
Ġà²µ à²¿à²µ
éĢŁ åº¦
Ġà¤¦à¥ĩ à¤¨à¥ĩ
pro ject
Ġment al
Ġà¤ķ à¥įà¤²
ĠØ§Ø³Øª Ø¹ÙħØ§ÙĦ
Ġdin ero
Ġà¤Ĺ à¤¿à¤°
æ°´ å¹³
Ġproduct os
Ġeconom ic
Ġà¬°à¬¾à¬ľ àŃįàŃŁ
ç¬¬ 2
à¤® à¥Īà¤Ĥ
Ġà¤¸à¤Ĥ à¤ĸà¥įà¤¯à¤¾
Ùĥ Ø«Ø±
ĠØ¬ Ûģ
ĠâĶ Ĥ
z âĢ¿
Ġk Ã¬
ĠCons elho
201 7
Ġà¦ļ à¦¾à¦ĩ
Ġa uk
ill as
Ġv raiment
åĬŀåħ¬ å®¤
à´¯ àµĭà´Ĺ
Ġà¤ķ à¥ģ
å°± åı¯ä»¥
Ġeng ine
Ø§Ø¦ ÙħØ©
à²ķà²° à²£
ac cess
ä¸į çŁ¥
Ø¶ Ø§ÙģØ©
ampa ikan
ĠIm parfait
p ing
çĽĳ çĿ£
é ®
ag it
- ne
f ar
ĠØ¬ Ø§Ø±ÛĮ
ĠT en
ep ang
Ġesp ect
ĠnâĢĻ est
Ġà¤¸ à¥ģà¤§
à±ĭ à°Ł
Ġalm ost
Ġap ply
à¨¿à¨ ¬
ĠMar ÃŃa
è£ Ĥ
% s
ĠY o
Ġà¬¬àŃįàŃŁ à¬¬
à²° à²¦
Ã©r coles
ä¿Ŀ è¯ģ
Ġtu vo
ĠrÃ© p
à¦¿à¦¦ à§įà¦§
B o
Ġàª¬ à«ĭàª²
Ġtrou ve
ĠH uman
Ġ[ 1]
Ã¨s :
15 1
ion a
ĠØ¹ÙİÙĦ ÙİÙĬÙĴÙĩÙĲ
äº ķ
ĠO p
Ġà¬ķ à¬®
à²¾à²¨ à³į
çĪ¶ æ¯į
_ Ùħ
Ġ% s
Ġlay er
à±ĩ à°¤
Ġà¤ª à¥ĭà¤²
ÃŃp io
Ġl á»ĩnh
ÃŃn ia
angg ung
E B
Ãµ i
Ġeas y
à«Ģ àª®
ĠA PI
ä¹ ı
- mo
ĠStre et
ĠM inh
Ġprov oc
à¥° âĢĶ
Ar t
3 %
ĠØµ Ø±Ùģ
å® ¿
- 32
ĠÙħ Ø±Ø©
Ġp ec
ĸ àŃįàŃŁ
Ġà¦ĩ à¦¯à¦¼
à´¿à´ ¦
à±ģà°¦ à°²
à¦¾à¦ķ à§įà¦·
Ġs ample
Ġsem e-al
Ġà¤¸à¥įà¤¥ à¤¿à¤¤
2 14
ĠA R
Ġto Ã¡n
àªĤàªĹ à«įàª°
List <
Ġis ol
æ± ¡
ĠØ§ÙĦØª ÙĤ
ÙİÙĬÙĴ Ø±
è¬ Ľ
à®¿à® ¸
junt ament
à¤ł à¤¨
Ġ6 1
Ġmeas ures
Ġinternation ale
Ġm ampu
Ġà¨ķà¨° à¨ķà©ĩ
Ġà¨ļ à¨¾à¨¹
à²¿à² İ
à¤® à¥Ī
é¦ĸ æ¬¡
Ġà¤īà¤ª à¤¯à¥ĭà¤Ĺ
f ant
Ġà® Ī
Ġà¬¬ à¬°àŃįà¬·
Ġinstit utions
Ġfr ame
à¬°àŃįà¬ ¦
Ġin vent
ĠB ill
amb da
àµĬ à´°àµģ
à®¿à®© à®¾à®°à¯į
Pos ition
Ø§ÙĦ Ùģ
Ġà¦¸ à§įà¦¤
Ġà¦ķà¦° à¦¿à¦¯à¦¼à¦¾
Ġà¦¶ à¦¹
Ø·Ùģ Ø§ÙĦ
Ġà°¹ à°¿à°Ĥà°¦
ĠC osta
à¤Ĺà¥įà¤° à¤¹
og a
Ġap i
Ġkond isi
Ġquest Ã£o
ĠNE AT
ĠE conom
åŃ¸ éĻ¢
à¤¾à¤¤ à¥Ĥà¤¨
Ġà°¦ à±įà°µ
åħĦ å¼Ł
l ie
Ġà¦Ł à§įà¦°
Ġelecc iones
Ġcon tag
Ġtrou ver
çĸ¾ çĹħ
ÃĢÃ Ħ
Ġbr ing
Ġà¤ªà¤¹à¥ģ à¤Ĥà¤ļ
Ġao Ã»t
àŃĭà¬ §
P art
èĭ± èªŀ
Ġà¬°à¬¹à¬¿à¬ Ľà¬¿
Ġà¨ Ŀ
Ġg ard
ä»· æł¼
Ġmar ca
ĠInd ic
D eb
ĠUn icode
åŃ¸ æł¡
Ġà¤ķà¤° à¤¤
Ġmemb awa
à®¿à®¤ à¯į
L ength
Ġà°Ńà°¾à°· à°²
ĠP emb
& gt;
Ġà¨²à©ĭà¨ķ à¨¾à¨Ĥ
an akan
Ġc á»¥
Ġà°ķ à°³
ĠA gu
Ġà²¨ à³ĭà²¡
ant ar
ĠcÃ´ tÃ©
Ġà¦¹à§Ł à§ĩ
il ik
Ġà¨ķà©ģ à¨Ŀ
lect ions
Ġper ce
id el
ĠÙĪØ§ÙĦ ÛĮ
âĻ ª
Ġh Æ°á»Łng
à²°à³įà² £
Ġà°µà°¿à°¦ à±įà°¯
Ġt old
å· §
åĽ½ çļĦ
ĠPl us
Ø· ØŃ
art zen
19 24
Ġac ara
Ġset ting
Ġà¦¬ à¦¾à¦¡à¦¼
àŃ ª
ĠCh in
Ġà²¹ à³ģ
Ġalc anz
æ¡Ī ä»¶
â ģ
ĠP R
å®ĺ æĸ¹
is an
Ġno vel
à¦¤ à¦¬à§ĩ
Ġàªľ à«ĭàªĪ
Ġà« ¨
Ġà¨Ĩà¨ªà¨£ à©Ģ
äºº éģĵ
æ¸ Ĳ
Ļàµįà´ ķ
le ge
ÃŃcul os
Ġp az
Ø§Ø± ÙĬØ©
à±ĭ à°²
ç¼ ©
ART A
à°¾à° ¥
à§ĩà¦¶ à¦¨
ĠfÃ© vrier
Ġbias a
Ġà®Ĩ à®¯
n ames
è®° å½ķ
Ġinform asi
éĺ² æŃ¢
Ġs Ã»
Ġudalerri an
Ġà¦ħ à§įà¦¯
å¿ĥ çĲĨ
çļĦ åľ°æĸ¹
Ġsur at
ĠÙĤØ± Ø§Ø±
Lo ad
Ġs Ã¢n
qu ÃŃ
le ep
ĠÚ© ÙĦ
ell ow
Ð¾Ð ¼
éĿ Ī
à°° à°Ĥ
çĪ º
Ġà°¸à°Ĥà° ĸà±įà°¯
im edia
ĠF is
åĿ Ľ
Ġh ic
Ġl uc
ÃŃ do
Ġmat rix
iá»ģ m
å± ı
inst ance
ä¿Ŀ éļľ
Ġàª°àª¹ à«ĩ
à¦® à¦¨à§įà¦¤à§įà¦°à§Ģ
èĭ± è¯Ń
_ ST
t ip
åºĶ çĶ¨
ah u
ĠÙĤ ÙĪÙĦ
omb a
l ot
à« §à«
ĠÙģ ÙĨ
ĠØ§ Ú¯Ø±
Ġecon Ã²m
Ġto ol
Ġà¤ī à¤®
Ġàªª àª¶
Ú©Ø± Ø±
Ġthrow s
Ġl ant
ĠespaÃ± ol
Ġ7 7
Ġà² ĺ
ãĢĬ åħ¬çº¦ãĢĭ
Ġà¨ķà©ĭ à¨¸à¨¼
s [
æ¡ £
Ġth iÃªn
Ġà¤®à¤¾à¤° à¥įà¤Ĺ
å¿ į
iqu Ã©
Ġri Ãªng
Ġv id
ĠØ Ľ
Ġjue ves
ang unan
Ġoper ation
Ġb á»įn
ä¸Ń èı¯
Ġb od
am ientos
éĺ ħ
C urrent
I tu
Ã¢ t
ÙĴ ÙĤ
ĠØ§Ø³ ÛĴ
à´Ļàµįà´Ļà´³ à´¿àµ½
éģ¿ åħį
Ġà¦¨ à¦¯à¦¼
Ġà°ļà±ĩà°¶ à°¾à°°à±ģ
ãĢ ı
ĠV an
é£Ł çī©
à¨¾à¨° à¨¾
à¤¾à¤ķ à¤¾à¤°
ãĢ İ
Ġà¤¬ à¤Ĥà¤¦
akt ibo
ĠS QL
Ġes f
Ġlu áºŃn
ĠAC N
å£ ĵ
ind er
/0 5
gr Ã©
Ġcov id-19
U D
ØĮ Ċ
Ġà®¨ à®¾à®©à¯į
Ġà¤¸à¥įà¤µ à¤¾à¤¸à¥įà¤¥à¥įà¤¯
Ġà° ĸ
Ġà¦ķ à§ĥà¦·
à¤¶ à¤¨
- Ãł
æµ· æ´ĭ
Ġk ill
Ap plication
Ġàªľ àª£
ĠØ§ÙĦÙĴ Ø¨
Ġfoll ows
Ġris k
ly mp
ĠØ§ÙĦÙĴ ÙĤ
Ġextre m
res se
Ġà¤Ĩ à¤ķ
æ¨ ¹
à¦ ¯à¦
ĠF el
Ġp ain
Ġmen arik
à´¿à´¯ àµĨ
ĠT an
èĬ ¬
p ers
199 9å¹´
Ġdec ision
Ø±Ø¬ÙĪØ¹ _Ùħ
éļ¾ æ°ĳ
à°¿à°Ĥà°ļ à°¿à°Ĥà°¦à°¿
çļĦ ä¸»è¦ģ
à°Ĥà°¡ à°²
Ġm orte
äº Ĥ
Ġà²¸ à³ĩ
í ķ
G T
Ġgi Ãł
èĤ ¤
ĠSen in
z ak
Ø±Ø¬ÙĪØ¹_Ùħ Ú©Ø±Ø±
ÙĦ Ø§ÙĨ
Ġà¦Ĩà¦Ĺ à§ĩ
Ġà¨¤ à©±à¨ķ
à¨ Ľ
med iat
Ġà¤ķà¥įà¤° à¤¿à¤ķà¥ĩà¤Ł
ĠIS BN
Ġper cent
éĺ¶ æ®µ
Ãł t
Ġku w
E d
Ø® Ø§Øµ
Ġtit ular
ĠS and
ĠC NN
Ġ6 9
á¹£ Ã©Ì£
à´İ à´¨àµįà´¨
Ġf ast
print ln
à¬° àŃįà¬¤àŃįà¬¤
à®Ļà¯įà®ķ à¯ģ
: \\
G L
çİ Ľ
v ere
Ùİ Ø·
àª¯ à«ĭàªĹ
ð Ł
ĠP il
àµĭ àµ¼
Ð° Ð½
f ont
Øª ÙĬÙĨ
çĽ¸ åĲĮ
- up
Ø§ÙĦ ÛĮ
Ġus ted
à´¤ àµįà´¥
Ġprobl Ã¨me
Ġro om
è¡¨ çİ°
ĠØ¯ÙĪØ± Ø§ÙĨ
amo ja
Ġberb eda
à²¿à²ķ à³įà²ķ
Ø±ÙĬ Ùģ
à²µà²¾à²Ĺ à²¿à²¦à³Ĩ
re dit
Ġà¤ªà¥įà¤° à¤¦à¤°à¥įà¤¶
ĠØ¨ Ø§Ø¨
à´¯ à´¿à´²àµĨ
qu âĢĻ
Ã©ri que
Ġp ais
OR D
Ġens ure
Ġm ia
à°ª à°¡
M ain
en os
math cal
ĠAf ter
s ia
The y
å© ¦
Ç Ĳ
ib oa
ĠW IT
ĠØ£ÙĬ Ø¶
u o
Ġ å°ı
pl o
ĠÙĥ Ø¨ÙĬØ±
Ġexpl ain
Ø¨ ÙĬÙĨ
ada an
Ġà¨² à©±à¨Ĺ
Ġpen al
it en
ĠØ¯ Ø±Ø¬
Ġh iá»ĥm
Ġv inc
ĠE k
ĠÙĬ Øµ
Ġmot iv
D ialog
æĮ ¯
à±įà°Ł à±Ģ
N um
p df
Ø§ÙĦ Ø£
à§° à§°
Ġche f
àª ī
Ġà®ª à®¾à®Ł
à´¿à´¤ àµįà´¤
W rite
Ġà¦¸ à¦¾à¦²à§ĩà¦°
è¾ Ĩ
Ã¡tic as
Ġpr ison
àª¸ à«įàªŁ
Ġl' an
à¤¿à¤¯ à¤¾à¤ģ
em at
à¥Ĥ à¤¦
Ġsi endo
Ġper empuan
Ġàªķ à«ĩàªŁ
J ika
Ġà¬ķ à¬¹
à³ĭ à²§
åĪ¶ ä½ľ
ific ado
à²¦à³ģ à²ķ
àªľ àª¾
ant an
Ġà²®à³ģ à²ĸà³įà²¯
Ġit al
int 32
éĴĪ å¯¹
à±ģà°ķ à±ĭà°µ
_ H
ĠM esa
Ġb á»¥
lic a
Ġgi Ã¡m
à°Ĥà°¤à±įà°° à°¿
àŃĩà¬īà¬ ģ
ĠR abu
Ġrec ogn
Ur l
Ġà¤µà¤¿à¤° à¥ĭà¤§
à¤ķ à¤°à¥įà¤¤
Ġch amp
Ġstart ed
Ġd ign
Ġman agement
æĶ¹ åıĺ
ĠprÃ©c Ã©d
Ġno vi
ac ho
çģ ¾
Ġà°¨ à°¾à°²
à²¸ à³ģ
Ġder echo
b ig
Ġj auh
Ġt ut
ä¼Ĭ æĸ¯
Ġp Ã©r
ĠØ¯ÛĮÚ© Ú¾
up an
èİ Ĭ
apit re
Ġap o
à´¤àµįà´¤ à´¿à´²àµĨ
Ġt iá»ĥu
Ġà¦ľ à¦¨à§įà¦®
Ġposs ÃŃvel
Or gan
Ġà®ķ à®µ
ĠØ§ÙĦØ¬ ÙħØ¹
Ġpress ure
à¤® à¥ĩ
Ġp obre
Ġden unc
àŃĢ à¬¬
C S
ĠÙĪ Ø¶Ø¹
z er
200 6
å§Ķåĵ¡ æľĥ
ĠCh amp
ĠFeder al
Ġà¨¦à©Įà¨° à¨¾à¨¨
on ic
Ġh emos
Ġmed ios
P anel
Ġà¤® à¤¾à¤¹à¤¿à¤¤
ĠàªĨ àªĹ
à§Ģ à¦®
ĠÙĨ Ø§
à°¸ à±įà°¥
à¬¿à¬² à¬¾
Ġà¦¬à§įà¦¯à¦¬ à¦¹à¦¾à¦°
J o
Ġs un
à¤² à¤Ĺ
ĠIn form
amb re
Ġk end
à´Ļàµįà´Ļà´³ àµģà´Ĥ
Ġàªķàª° à«įàª¯à«ĭ
Ġpartic ul
et ak
Ġà®ªà¯ĭ à®²
al nya
Ġw oman
ĠÙĪØ§ÙĦ ØŃ
200 8
ĠI mp
Ġà¤¦ à¤¾à¤ĸ
Ġn á»Ĺi
Ġw el
ov t
err ia
Ġbon ne
- 14
Ġà®® à®¤
æī İ
à®¾à®° à®®à¯į
à¥ĩà¤³ à¥Ģ
Ġj Ã³
à±ģà°ķ à±ģà°¨à±įà°¨
à¥ģà¤Ń à¤¯à¥ĭ
Ġvost Ã¨s
ig i
ah i
Ġlong er
ĠN ame
Ġtrans m
Ġin icial
- 02
Ġk illed
k ÉĻ
Ġmakan an
åģ ¶
. ĠĠĠ
Ġmart es
ä¸į çŁ¥éģĵ
Ġgr ave
æĦŁ åĪ°
Ġà¤ķà¤® à¥Ģ
Ø§ÙĦ Ø¯
à¥ĥ à¤¹
æĦŁ è§ī
Ġdes cription
ĠV ict
Ġperm ite
b ra
Ġsept iembre
ĠV i
Ġav oid
åī Ĥ
Ġà¨² à¨Ĺ
à²² à²¿à²²à³įà²²
Ġà¦® à¦¾à¦¸
Ġàªľ àª¾àª£
ĠL i
Ġà¦Ĩà¦° à¦ĵ
Ġà´¨ àµ½à´ķ
à¬¿à¬¬ à¬¾à¬°
Ã± as
å© Ĩ
Ġch im
àµĩ à´µ
Ġr ub
Ø² Ø§
ou ch
æĽ ¹
Ġv ont
enar nya
ĠÄĳ a
ĠD eb
Ġmu itos
Ã¯ t
Ġcall s
ä»· åĢ¼
N O
az e
Ġà¦ķ à§Ģ
áº© y
tic s
à¦¨ à§įà¦Ł
Ġus te
Ġzerb itz
Ġk egiatan
à¦ķ à¦®
Ġin aktibo
ÛĮØ³ ÛĴ
l Ãº
ĠC ode
àµģà´ķ à´¯àµģà´Ĥ
Ġact ions
sp ec
Ġ199 1
à¯Īà®ķ à®³à¯Ī
ĠÙ¾ ÙĪÙĦ
Ġsol Â·lic
à¤¾à¤ģ à¤ļ
en ario
ĠÙĦ ÙĤØ¯
rit er
Ġeffect s
k ip
à¦¿à¦ «
ĠH and
ĠØŃ ÙĪØ§ÙĦ
Ġsur v
à°¸ à°Ĥ
à²°à³įà² Ĺ
AK ARTA
uc cess
Ġv Ã³s
à¥ĩà¤£ à¥Ģ
Ġà¤¯ à¥ĩà¤¤
ä¸Ģ èĩ´
àª² à«ĭ
ç¾ ½
åĿ ĳ
if ikasi
Ġà´¸ à´¹
Ġentre pr
w ik
/201 5
Ġbas is
åĹ İ
Ġar d
àªļ àª¾àª°
Ġcomm ercial
çµĦ ç¹Ķ
èīº æľ¯
imp le
Ø¬ ÙĪ
Ðº Ð¸
é¥ °
ec eu
ç» ©
Ġre forma
à²² à³ĩ
201 9å¹´
Ġà²°à²¾à²ľ à³įà²¯
ä¹ ¾
àª¿àª² à«įàª²
Ġà¤ķà¥ģà¤° à¤¾
Ùĥ ÙĬÙģ
Ġà¨¸ à©ĩ
ÙĪØ¶ Ø¹
ĠEnt Ã£o
ĠS un
Ġconstru ction
à¦¾à§° à¦¿
çª Ĺ
Ġà¤ªà¥įà¤°à¤® à¤¾à¤£
ä¸» ç¾©
Ø² ÛĮ
ç¢¼ :
Ġà²µà²°à³įà² ·
à¨¸ à¨¾
ĠFr anÃ§
se vol
Ġà¨µà¨¿à¨¸ à¨¼
ĠE uskal
ina Ã§Ã£o
à¯Īà®¯ à¯ĩ
Ø¸ ÙĬÙħ
è¯ģ æĺİ
éģĭ åĭķ
Ġpr inc
Ġd orm
Ġrel ation
ĠM are
Ġal tre
and ard
àªķ à«įàª°
ĠØ¹ Ø´Ø±
Ġà¦¬ à¦¸
Ġnovi embre
Ġà¦¸à¦®à§įà¦ª à¦°à§įà¦ķ
et as
ÙĴ Ø³
Ġc epat
ĠØŃ Ø¯ÙĬØ«
åĲĪ åĲĮ
Ġenpres a
ĠPar lement
1 10
Ġà¤¸ à¤¾à¤¤
Ġcre ar
é¢Ħ éĺ²
Ġh Æ°Æ¡ng
k it
Ùĩ Ø§Ø¨
Ġà¤ªà¤° à¤¿à¤¸
à²¾à²² à²¯
ĠR ey
ä¿Ħ ç½Ĺæĸ¯
Ġà°ļà±Ĩ à°Ĥà°¦
ĠMart in
ig ma
P ort
0000 0000
æĲ ľ
Ġà¤ªà¤°à¤¿à¤µ à¤¾à¤°
àª¤ à«įàªµ
at ang
ĠØ¨ ÛĴ
èĭ Ĺ
à§ĩà¦¯à¦¼ à§ĩ
Ġal bum
à§° à§įà¦
Ġgo verno
Ġà¤¸à¥ģà¤° à¥Ĥ
Ġà¤ļà¥ģà¤¨ à¤¾à¤µ
Ã¨ t
à®¿à®¯ à®®à¯į
Ġth áº©m
Ġl á»Ńa
à¤¾à¤® à¤§à¥įà¤¯à¥ĩ
Ġàª² à«ĩ
Ġob tained
ĠR oy
Ġmo ja
Ã©l ior
Ġn ost
ĠE ar
ĠØ£ ÙĩÙĦ
ÙĨØ§ Ùĭ
Ġà¬ªàŃįà¬° à¬ķ
V ersion
Ġcor ps
Ġhist Ã³ria
Ġà§§à§ ¦
ĠÙ¾ ÛĮØ¯
Ġamb os
Ġu ch
Ġàª¤à«ĩ àª¨à«Ģ
å¢ŀ éķ¿
Ġperts on
Ġsus pend
Ġmill or
à¦¿à§Ł à¦¾
ĠÄĳ Ã¡p
es ha
ĠM em
åħ¶ å®ŀ
- j
Ġmass a
;;;; ;;;;
w ana
Ùİ Ø¶
ĠM is
å¼ ĥ
ĠØ´ Ø§ÙħÙĦ
Ġso ul
Ġà®µà¯Ĩà®³ à®¿à®¯
çº ½
Ġad el
ĠP ART
y les
à®¾à®¤ à¯įà®¤
Ġ åįģ
Ġle ave
Ġà®® à®¾à®¨
çī¹ æ®Ĭ
Ġconf l
åĵ ¦
è¨Īç®Ĺ æ©Ł
Ġcamp aÃ±a
è´ ´
à§įà¦¯à¦ ¤
éĺ µ
è¡¨ æĺİ
Ġà¤Ĩà¤¤ à¥įà¤®
Ġà¤¹à¥Ĥ à¤ģ
is _
ER T
Ġim plic
ĠE X
à³Ĩ à²ª
ito y
v ement
ĠDan iel
à©Ģ à¨¨
Ġpro ve
Ġà¦® à§įà¦¯
à°¾à°² à±įà°²à±ĭ
ĠpolÃŃtic os
Ġà²Ń à²¾à²Ĺ
Ðµ Ð¼
n elle
å® ½
Ġre k
Ġà¦¬à§ĩà¦¶ à¦¿
Ġ7 4
ur at
à®¤à®±à¯įà®ķ à¯ģ
Ø¨ ÙĬØ±Ø©
ar qu
å¦Ĥæŀľ ä½ł
Ġd'indic atiu
ĠØ¨Ø§ÙĦ Ø£
á»Ļ n
act ers
à©Ī à¨²
Ġà¤§ à¥ĩà¤°à¥Ī
è± ª
Ġn' y
à³ģ à²Ĥà²¬
id ang
ĠFebru ary
Ġcin qu
Ġmeng ambil
Ġdest e
us aha
Ġgre ater
M s
Ġà¤ªà¥ģ à¤¸à¥įà¤¤
é¼ĵ åĬ±
à¦ļà§įà¦ Ľ
åŁº éļĨ
Ġà´Ĩ à´¯
end ra
Ġà°ī à°ª
ç¬¦ åĲĪ
ĠAle man
1 }{
ĠÃ©t ant
Ġà¦®à§ĥà¦¤ à§įà¦¯
Ġdu zu
çĲ ´
G R
ic iar
Ġs ources
Ġà¨¬ à©ĩ
à°Łà±įà°Ł à°¿
Ġch áº¥p
ĠPl uriel
Ġeconom ÃŃa
à¦¾à¦ĩ à¦¨
ta gram
è¯Ń è¨Ģ
ad ang
è¦ Ĩ
Ġneg eri
à² ĥ
Ġad anya
à®¾à®± à¯ģ
ual de
Ġtu áº§n
à¤° à¥ĭ
à²Łà³įà²Ł à³ģ
ĠØ§ÙĦØ¯ÙĪÙĦ ÙĬ
Ġmener ima
' n
Ġà¤ª à¤¾à¤ł
Ġalg orith
Ġas segur
Ġà¤ħ à¤Ĥà¤¤à¤°
Ġà¤¬ à¤¾à¤¹
Bu ilder
Ùı ÙĪÙĦ
iss ions
à¦¾ à§İ
- O
Ø§ ÙĪÙĨ
à¤¡ à¤£
Ġkh á»©
Ġide as
& nbsp;
à°¾à°Ĥà° ķ
Ġmat i
Ġdip lom
Ġà²®à³Ĭ à²¦à²²
Ġà²µ à³Ī
æ¯Ķ èµĽ
Ġre ach
em ment
Ġ1 10
à¤¾à¤ĩ à¤Ł
Ġà¬ĵ à¬¡à¬¼
Ġm Ãº
Ġtr Ã²
ĠÄĳo áº¡n
Ġà´ª àµģà´±
ä¸į è¶³
Ġentr ada
Ġ8 00
Conn ection
à¦ķà§įà¦· à§ĩ
k g
à¥Ĥ à¤¸
à¦¯ à§ģà¦ķà§įà¦¤
à ½
Ġqu ot
àª² àª¾àªķ
à¤°à¥įà¤Ĺ à¤¤
Ġp ush
ï ¿½
Ġgrow th
um s
à²Ĥ à²¥
Ġà®® à®±
J adi
ĠH á»ĵ
ĠÙĤ ØªÙĦ
åĬł æĭ¿
ĠM unicip
ĠV ic
à¨¹ à¨¿à¨°
Ġà´ħ à´§
à¨µ à¨¾à¨Ĥ
Ġc oc
Ġno ta
on ta
ĠØ§ÙĦÙĤ Ø§ÙĨÙĪÙĨ
Ã© ra
2 /
Ġà¤ķ à¤¿à¤ı
Ġhom ens
Ġpeut -Ãªtre
u atan
Ã§ ar
Ġac omp
ez e
Ùģ Ø§
à±Ĩà°¡ à±įà°¡
Ãł :
Ġà¤Ľ à¥ĭà¤Ł
t ik
Ġm ath
Ġbu ffer
Ġà§° à¦¾à¦ľ
ĠØ´ Ø±ÙĪØ¹
à¤ı à¤¨
Ġof rec
ĠØ§ÙĦØ¯ÙĪÙĦ ÙĬØ©
l le
Î ¸
ĠÙĨ Øµ
ĠÎ ¸
ĠÙĨ Øª
ir kan
ij i
à²¾à²µ à³ģ
og bo
By Id
Ġà´¸ àµĨ
Sel asa
à¤Ķ à¤°
Ġ ï¼Į
ÙİÙĦ Ùİ
à¨ķ à¨¿
à¬¾à¬ĩà¬ ¥à¬¿à¬²à¬¾
' #
Ġdeb ido
ĠChar les
Ġla i
ĠSel asa
Ġespecial ly
æĮĳ æĪĺ
; }
Ġnos otros
ed d
ab lo
Ġoper ator
Ġm ouv
Ã³ pez
Ġsu ara
à®¿à®µ à¯ģ
Ġac id
èµ ¤
æ¯Ķ äºļ
ĠØ¹ ÙĤ
ell ig
æŁ ı
Ġprop ri
ĠM aur
Ġà¤µ à¤¸à¥įà¤¤
à²® à²¾à²¨
éģĵ è·¯
ĠsÃ¡b ado
ĠB re
à¯Īà®¯ à®¿à®©à¯į
ç´ Ļ
Ġà´¨ à´¿àµ¼
Ø¨ Ø§
Ġà¤īà¤¦à¥įà¤¯ à¥ĭà¤Ĺ
à´¤àµįà´¤ à´¿à´²àµįâĢį
è´ ¡
Ġeduc ation
Ġvill age
c as
ion e
Ġcr ime
ĠSal ud
ĠØ¬ ÙĦ
Ġde ten
ĠÃ© crit
çķ ª
à²¿à²¸ à²¿à²¦à³įà²¦à²¾à²°à³Ĩ
à¥ĭà¤§ à¤¨
Ġh ous
à´¯ àµįà´¯
ĠÃ¡ r
uct ure
/202 0
èī ¦
æ¶Ī æģ¯
Ġt es
ĠTH E
Ġb inh
Ġl' av
Ġà¦¸ à§Ĥ
æŃ ¡
ĠØŃ ÙĦ
à¥ĩà¤ļ à¥įà¤¯à¤¾
ot er
ĠMar k
Ġà¤¸à¤® à¥ĩà¤¤
ĠK an
ĠCom isiÃ³n
M es
Ø± Ø§Øª
Ġv y
Ġg onna
à¤¤ à¤®
}} {{
èģĶ éĤ¦
à²¾à²· à³įà²Łà³įà²°
G l
Ġp ena
Ġr it
à¨£ à©ĩ
å½ĵ çĦ¶
ĠGu ard
he ure
Ġà¦¦ à¦ķà§įà¦·
à°Ĺ à±įà°°
à§§à§ ¯à§
im an
ĠÙĥ Ùħ
ç¼Ķçº¦ æĸ¹
æı Ĵ
Ġmaxim um
Ġve ut
W ork
Ġà¤µà¥įà¤¯à¤µ à¤¸à¥įà¤¥à¤¾
à³Ģ à²¤
_p ath
Ġmi Ã©rcoles
w u
Ġà¤ī à¤²à¥įà¤²
Ġà¨ķ à¨²
Ġà¤¬ à¤¿à¤¹
Th en
è¶³ çĲĥ
äº¤ æµģ
Val id
ri Ã¨re
Ġs ess
go ogle
ĠRet urn
ĠJ apan
200 4
ĠTh Ã¡i
à´² à´Ĥ
p es
Ġ Ñ
Ġl' Ass
Ġà¦¯ à¦¾à§Ł
ĠT x
åŃ Ļ
àª¾àªĤ àª¤
Ġà¤ķà¤° à¥ĩà¤Ĥ
En tre
iv ement
Ġà®ª à®¾à®£à¯įà®Ł
I r
/ ng
Ġter cer
Ġà¦¦ à¦¿à¦¬
à¥ģ à¤°à¥Ģ
ĠTh u
emb angan
ĠØ§ÙĨ Ùĩ
Î ³
Ġpass a
atic ally
Ġcatal Ãł
Ġà¦ħà¦¨ à§ģà¦·à§įà¦ł
Ġà¨¸ à¨¬à©°à¨§
à¤¿à¤¨ à¤¿à¤§
iko ak
Ġenc our
ĠKam is
Ġà¤¸à¤¾à¤°à¥įà¤µ à¤ľà¤¨à¤¿à¤ķ
à§ĩà¦² à¦¾à¦°
Ġneg ative
Ùģ ÙĪ
Ġre pos
ĠÙħ ØµØ±
Ġade qu
Ġprov inc
)Ċ (
C P
ang nya
ÃŃst icas
àµĨà´Ł àµģà´¤àµįà´¤
R abu
à¤ª à¤¤à¥įà¤°
ĠÙĦ ÛĮØ§
Ġdonn Ã©
ä½¿ å¾Ĺ
Ġà¤ĳ à¤«
Ġl' esp
à©± à¨¤à©ĩ
iv re
åº «
à¤ļ à¤¿à¤¤
Ġdoll ars
à¬¨ àŃįàŃŁ
Ġp ick
Ġun as
Ø§ÙĨ Ùĩ
èĻ ļ
D ir
Â ²
Ġs ites
Ġ Õ
Ġv á»ĳn
áº¿ p
Ġ ĊĠĠĠ
Ġm use
le ur
å®ī è£ħ
-d ess
à¬ Ľ
ĠI ra
ĠÙĦ ÛĴ
ass in
åĩ ½
à¤µ à¤¾à¤°à¥Ģ
Ġtu j
ak es
Ġinform aÃ§Ãµes
č Ċĉĉĉĉĉĉ
ï¼ ħ
Ġà¦² à¦¿à¦ĸ
Gr id
R et
à¯Ī à®¤à¯į
Ġà¤µ à¤¾à¤²à¥Ģ
Ġà¤¬ à¤¾à¤¬
à²°à³ģ à²¤à³įà²¤
y ou
Ġch em
Ġa trib
ĠÙħ Øº
Ġlle i
Ġmech an
Ġmus ic
ĠLle i
à°¾à°¦ à±ģ
Ġ ë
Ġv Å©
201 0
Ġà®īà®° à¯ģà®µ
Ġ áº
Ġ100 %
åľ¨ éĤ£
ord ing
à®ħ à®¤
act or
Ġfre qu
ĠV oc
Ġà²¸ à²°à³įà²ķ
Ġà´ķ à´°
K amis
ĠL A
à¦² à§ĩà¦°
à§įà¦¯ à¦¾à¦¯à¦¼
Ġà¤®à¤¹à¤¾à¤° à¤¾à¤·à¥įà¤Łà¥įà¤°
ĠØ¯ÙĪÙĦ Ø§Ø±
Ġverd ad
1 %
à°¾à°¸ à±įà°¤
ĠmÃ© th
pr it
Ġà¦ķà§ĩà¦¨ à§įà¦¦à§įà¦°
ĠLond res
ĠM ari
Ġà¤¸ à¤¾à¤¹à¤¿à¤¤à¥įà¤¯
ĠG onz
à«ĭ àª°à«įàª
Ġà§ Ń
Ġà¨¦à©±à¨¸ à¨¿à¨Ĩ
à²¾à² ¬
ä¹ ³
à¦Ĺ à¦£
Ġlog o
ÙĦ Ø§Ø©
le k
âĢ¦ Ċ
Ġwh ite
ĠÙĪØ¬ ÙĪØ¯
ĠÙĪØ§ÙĦ ÙĨ
à§Ĥ à¦¹
Ġsc ale
ĠØ§ÙĦØ¬ Ùħ
ĠØ§ÙĦÙĥ Ø«ÙĬØ±
ent ity
ĠÙĦ ÙĩÙħ
àª¥ àª¾
Ġà®ķà¯ģà®± à®¿à®ªà¯įà®ª
Ġcurrent ly
à¥įà¤¯ à¤¾à¤µà¤°
Ġus ually
ĠÙ¾ ÙĪ
Ġproduc ciÃ³n
Ġd ados
ĠS ome
àªĤàª Ł
ä¸ĸ ç´Ģ
à¥ĩà¤· à¥įà¤ł
ĠØµ Ø¯
Ġmon tr
atz aile
ä¼Ĭ æĭīåħĭ
Ġv Ã²ng
Ġm Ã´
Ø§ÙĤ Ø©
Ġoc as
Ġt Ãªte
ĠB on
Ġcab o
Ġstyle =\"
Ġb or
èĵ Ŀ
ĠÙĤÙİÙĪÙĴÙĦ ÙıÙĩÙı
ï ½
Ġsem akin
ro it
Ġà¤ľ à¤¾à¤Ĺ
à§ĭ à¦Ń
ĠN ote
å¹¶ ä¸į
Ġd' Ãªtre
à°§ à±įà°¯
Ġat ac
ÙĦ Ø·
Ġpr ix
Ġà®ļ à¯ĩ
r aient
ure tat
à±Ģà°¸ à±į
Ġs iap
Ġà¤¸ à¤¯
Ġà¦¨ à¦¹
Ġent ra
Ġl' E
ĠØ§ÙĦÙħ Ùħ
Ġà¤Ĺ à¤¤à¥ĩ
è®® å®ļ
Ġde le
Ġ$ s
è¦ģ èģŀ
Ġperson nel
Ġl' Est
éĢĻ æ¨£
à§Ģ à¦ª
Ġà¬° à¬¹
ĠØ±ÛĮ Ø§Ø³Øª
Ġrelations hip
Ġl áº¡nh
Ġpar ents
Ø¬ ÙħØ¹
Ġstr ength
ob e
è¯ ĳ
æ³ ½
Ġà¤ħ à¤«
Ġaur ait
Ġtex to
Ġg isa
F E
ĠcompaÃ± ÃŃa
à¥įà¤ ¶
_s ize
à°Ńà°¾à°· à°¾à°Ńà°¾à°Ĺà°Ĥ
à¦¾à¦Ł à¦¿
Ġestado unid
Ġà¤ķ à¤¾à¤³
Ġex ec
à²¸ à³įà²¸
éª ¤
ĠeconÃ³m ica
àŃĩà¬ ®
Ġ\" The
ĠO f
Ġv rai
ĠE j
ed o
ĠØ® ÙĪØ¯
Ġcu er
Ġany one
uest as
Ġch Ãłng
ä¾ į
Ġay ant
al ie
Ġseg era
um in
à¤® à¥įà¤ª
à´¯ à´¾à´³
à¬£ à¬¸à¬¿
Ġweb site
in cia
Ġà¬° à¬ĸ
Ġries go
is k
ĠH TML
Ġpued es
ĠÙģ Øª
æĴ Ĵ
t os
ir ing
ĠT api
De v
ĠØ´ÙĬ Ø¦
à¤¤à¥įà¤¤ à¥įà¤µ
âĢ ¯
à¬ª àŃģà¬°
fr ic
Ġa ce
ĠÙĨØŃ ÙĪ
Ġsost en
Ġà¤° à¤Ĥà¤Ĺ
Ġap ort
æª ¢
Europ e
à® Ĵ
um ia
ĠAN Y
Ġ' /
Ġà¤¸à¤Ĥ à¤¸à¥įà¤ķ
å¥ Ī
an ha
Ġam igos
à¤¿à¤¸ à¥įà¤Ł
è½¯ ä»¶
Ġa urr
Ġà®ķ à®¿à®Ł
Ġtá» ı
Ġconfig uration
ĠØ± Ø¬ÙĦ
è§£ éĩĬ
æĥ³ è¦ģ
àª³ à«Ģ
Ġàªķàª¹ à«įàª¯à«ģàªĤ
ĠK ir
Ġà¤µ à¤¿à¤¨
Ùĥ Ø§Ø±
Ġà¬ª à¬¾à¬°
Ġb ra
å¤ º
è¿ ħ
Ġest udio
Ø§Ùģ ÙĬØ©
C ategory
c ur
Ø± Ø³
ic ÃŃa
Ġs Ã¢u
à¤°à¥įà¤ ª
Ã©p ublique
Ùİ Ø§Ø¦
Øº ÙİØ©Ùı
Ġà¬®à¬§àŃįàŃŁ à¬°àŃĩ
v elles
Ġpro hib
æı Ľ
Ġmag net
Ġà®® à¯ģà®¤à®²à¯į
Ġà²® à²¨
ĠR I
èĳ ¡
^{ 2}
ĠÙĦÙĪÚ¯ ÙĪÚº
ul ah
Ġà²¹ à²¿à²Ĥà²¦
ĠNg Ãły
Ġch Æ°Æ¡ng
th eta
çĶµ èĦĳ
em uan
ĠP end
Ġà¨¦ à©Ĥ
Ġret our
I 've
à°Ĥà° Ń
Ġpart es
Ġà°¤à°® à°¿à°³
à´ķàµįà´ķ àµģ
Ġà¦¹ à¦¾à¦°
Ġcan vi
B O
Ġd á»ħ
Af ter
Ùħ Ø¨Ø±
ĠØ§ÙĦÙħ Ø®
ĠV is
à¦¾à§° à¦¤
Ġà®ħ à®ķà®°à®¾à®¤à®¿
à²Ĺà²³ à²¿à²Ĥà²¦
ater ra
h ara
çĬ¶ åĨµ
Ġà°¸à°Ĥà°¸ à±įà°ķà±ĥà°¤
Ġmu itas
Ġal ert
uest os
Ġw ays
Ġà¤¦ à¤ķà¥įà¤·à¤¿à¤£
à¤Ĺ à¤³
à¦ĸ à¦¾à¦¨à§ĩ
à´¤ àµįà´¯
à²® à²¾à²°
Ġk á»·
ap ol
Ġà¨¬ à¨²
Ġqu ick
um ul
åĨħ éĥ¨
á»Ľ m
æľĢ ä½³
ÙĬÙģ Ø©
Ġà¤¨ à¤¯à¤¾à¤ģ
ut usan
Ùı Ùĳ
ĠØ§ÙĦØ£ Ø±Ø¶
Ġhe art
AT V
Ġ Æ¡n
Ġbast ante
Ùı ÙĪÙĴ
Ġgr atu
ustr asi
3 \"
Ġpart idos
Ac cess
à°ªà±įà°ª à±ģà°¡à±ģ
ĠÚ© Ø´
à±ĭ à°ª
Ġà¤¶ à¤°à¥įà¤®
è² Ŀ
é¤ Ĭ
Ġbus car
Ġerr ors
àªª àª¾àª¸
Ġ ï¼Ī
Ġà²¹à³Ĭ à²°
T en
Ġwon 't
ĊĠĠĠĠĠĠĠĠ ĠĠ
Ġà°Ĳ à°¦à±ģ
ĠdÃ© part
Ġst ates
à¤¿à¤ ¥
ĠG a
Ġna iz
g in
ĠM ember
Ġsept embre
er va
æŃ· åı²
ä¿Ŀ çķĻ
åıĳ è¡¨
Ġdisc ip
éłŃæ¢Ŀ è¦ģèģŀ
Ġsu cc
t as
Ġun g
ĠR aj
ĠCh Æ°Æ¡ng
à¤ķà¥Ģ à¤¯
Ġtrad icional
çĪ¶ äº²
_ file
à¨¤ à¨¾à¨¨
act ual
à¤Ĩ à¤ª
Ġur b
ÙĲ ÙĬÙĨ
ĠConse jo
åĽŀ åĪ°
ĠEurope ia
æĭ Ĩ
Ġdir inya
' \"
ĠD en
à°¾à°ķ à±ģ
N ext
Ġàª§ àª°
ĠS S
ĠØ§ÙĨÛģ ÙĪÚº
Ġà®ª à¯Ĥ
Ã² s
Ġ> >
Ġj ang
Ġloc ales
Ġpar ler
Ġ\" L
ed ir
à±Ĩ à°Ĥà°Ł
ay an
Ġà¤ª à¤¾à¤¨à¥Ģ
2F 2F
Ġres mi
ĠÙĥ Ø°ÙĦÙĥ
Ġger al
ĠUS A
à¤ķ à¤¾à¤²
f un
Ġme us
à°¾à°¨ à±į
çĽĳ æµĭ
Ġl ock
Ġdr ug
Ġà¦ª à¦¾à¦¨
Ġ.Ġ.Ġ.Ġ.Ġ.Ġ.Ġ.Ġ.Ġ.Ġ.Ġ.Ġ.Ġ.Ġ.Ġ.Ġ.Ġ.Ġ.Ġ.Ġ.Ġ.Ġ.Ġ.Ġ.Ġ.Ġ.Ġ.Ġ.Ġ.Ġ.Ġ.Ġ. Ġ.Ġ.Ġ.Ġ.Ġ.Ġ.Ġ.Ġ.Ġ.Ġ.Ġ.Ġ.Ġ.Ġ.Ġ.Ġ.Ġ.Ġ.Ġ.Ġ.Ġ.Ġ.Ġ.Ġ.Ġ.Ġ.Ġ.Ġ.Ġ.Ġ.Ġ.Ġ.
æ´» åĭķ
Ġr Ã´le
Ø³ Ø§Øª
ĠM iss
ä¸Ģ åĲį
Ġr up
Ġà¦¯ à§ģà¦ķà§įà¦¤
Ġmenc ari
à¯ģà®² à¯ĭ
Ġpubl ik
val ues
æ¡ ĥ
Ent Ã£o
Ġg ust
Ġmus ical
Ġà¤ª à¤£
Ġà¤µ à¤¾à¤¹
ĠdÃ© t
D ele
re ment
àª¸ àª°
fin al
å´ ĩ
Ġd á»¥c
ĠØ§ÙĦØŃÙĬ Ø§Ø©
Ġà°ľà°° à°¿à°Ĺ
Ġà°® à±ģà°
Ġà´ħ à´±à´¿à´¯
ĠàŃ ª
Ġ/ a
Ø§ÙĦ Ø¹
à°µ à°¾à°ļ
Ġà¤®à¤¾à¤§ à¥įà¤¯à¤®
Ġr Æ¡i
Ġà¤¶à¤¿à¤ķà¥įà¤· à¤¾
c ap
ä¹ĭ å¤ĸ
ĠMig uel
B a
C I
Ġp ukul
ĠT op
ĠAnd erson
W hy
ĠB il
à¤¹ à¤¿à¤Ĥ
ĠEurop ea
Ġà¬¦àŃĩà¬ ¶
à¤¸ à¥įà¤¯à¤¾
ack et
Ġh tml
åĲ ģ
AC T
Ġp ud
Ġà¨¹ à¨¾à¨Ĥ
ĠØ¹ ÙĦÛĮ
åĪ° çļĦ
Ġà¦² à§ĩà¦ĸ
Ġsent it
Opt ions
Ġfor te
çº ¸
Ġhor ien
Ġà¤ħà¤µ à¤¸à¤°
Ġter re
K ami
z ar
Ġdes e
à°ķ à±Ĭ
iss ant
Ġpr ia
Ġ8 8
Ġf echa
Ġà¬¸àŃįà¬¥ à¬¾à¬¨
Ġab r
åľ¨ åħ¶
éĩį çĤ¹
Ġà®µ à®¿à®Łà¯įà®Ł
Ġamb iente
ĠEn tre
Ġapro xim
J umat
Ġà®µ à®¾à®£à®¿
ĠØ§ÙĦÙħØ± Ø£Ø©
Ġqual ity
Ġtip us
Ġla u
Ġl anjut
æ¬¡ ä¼ļè®®
à¯įà®¸ à¯į
Ġàª¤ à«ĩàªĵ
Ph one
Ġàª¤à«ĩ àª¨àª¾
à°°à±įà° Ĺ
à¤ķà¥įà¤° à¤¿à¤¯à¤¾
Ġàª¬àª¨ àª¾àªµ
ff ect
Ġà®ļà®¾à®©à¯įà®± à¯ģà®ķà®³à¯į
Ġintro duc
Ġt Ã¹
Ġà®ħ à®ķà®°à®®à¯ģà®¤à®²à®¿
ÃŃf ica
Ġ uz
Ġ8 4
er on
Ġo x
àª¤ àª®
åĮĸ çļĦ
Ġg ast
Ù¹ Ø³
àµĤ à´°
Ġaquest es
æ±īåŃĹæĪĸè°ļæ±īæ··åĲĪè¡¨è®°: ì
ion i
ĠØ³ Ø£
ĠØ´ ÛģØ±
ĠIs land
Ġaujour d'hui
enc ed
à°° à±įà°¯
_ W
ÙİÙĦ ÙĳÙİ
Ġprodu ce
Ġà®Ĵ à®©à¯įà®±
201 1
à¦¾à¦ģ à¦ļ
Ø¨ Ûģ
Ser ver
Ġqu anh
çı į
å¯ Ĵ
Ġà¦® à¦ĩ
Ġac onse
hub ung
Ġandroid: layout
Ċĉ Ċĉ
ĠPro ject
Add ress
Øª ÙħØ±
Ġarg s
ĠÙ¾Ûģ ÙĨÚĨ
os h
Ġà¦¦ à§ĩà¦¬
ĠÙĪÙİ ÙĤ
Ġav ril
ĠØ´ Ø§Ûģ
Ġà¨µ à¨¾à¨°
Ġà¦² à¦¾à¦Ń
à®¿à®³à¯įà®³ à¯Ī
à°¾à° ĸ
Ġà¦¬ à¦¿à¦¨
Ġkilomet ro
ÙĬ ÙĪÙĨ
ĠJ im
ĠØ¹ Ø´
Ġbu ilt
A k
Ġà¦¯ à¦¾à¦ĵ
å¤ª å¹³
à¤µà¤¿à¤ ·
ak ai
Ġem pez
æ£ Ĵ
Ġv ide
åŃ Ł
à§įà¦¯ à¦¾à¦®
Ġà®ī à®²à®ķ
Ġh áºŃu
m al
Ø§Ø¨ Ø¹Ø©
Ġset tings
Ġbat era
Ġc urr
Ġà¦¬ à§ģà¦²à¦¿
èĨ ľ
Ġà°ļ à°¿à°¤à±įà°°
art i
à®±à¯įà®± à®¿
Ä ĩ
å» ī
Ġl ema
Ġà¤¦ à¥Ĥà¤°
Ġdis k
Ġso on
Ġà²¹ à³ĭà²Ĺ
Ġà²ķà²¾à²° à²£
åªĴ ä½ĵ
Ġl áº¡c
Ġera ik
ĠØ¨Ú¾ Ø§Ø±Øª
à§ĥ à¦¤à¦¿
ĠĠĠĠĠĠĠĠĠĠĠĠĠĠĠĠĠĠĠĠĠĠĠĠĠĠĠĠĠĠĠĠ ĠĠĠĠĠĠĠĠĠĠĠĠĠĠĠĠĠĠĠĠĠĠĠĠĠĠĠĠĠĠĠĠ
Ġfix ed
ĠfranÃ§ aise
é ı
ĠUnivers idad
Ġpl aces
à¤¹ à¤¨
ĠÙĬ Ø¤
æ³ķ åľĭ
Ġà¤®à¥ģà¤ĸ à¥įà¤¯à¤®
Ġfri end
ä¸ī åįģ
Ġmus ik
Ġexist ing
à¤¿à¤Ł à¥Ģ
ĠC uba
Ġhe ader
ç½ ·
ĠÃ©ta bl
à¤¹ à¤¿à¤¤
Ġà¨ª à©Ĥ
æľĢ å¾Į
d on
æĬ ĵ
ĠT ok
à®¾à®µ à®¤à¯ģ
Ġutil iz
Ã© h
ĠM edia
Ġan Ã¡l
à±Ģ à°¡
Ġconoc er
Ġà´Ĩ à´°
B er
à®¿à®© à®°à¯į
Ġrecher che
Ġkat anya
Ä Ļ
çļĦ æĸ°
åıį å¯¹
j un
ĠZ e
Ġond oren
ĠP ac
åĢ ¡
ï¼ģ ãĢį
à¦Ĺà§ģà¦² à§ĭ
Ġtrabaj adores
h l
Ġqui ere
sp ace
à¦¶ à§įà¦ļ
Ġà¦ĩà¦ī à¦¨
Ġà¤¨ à¥Ģ
ÙĲÙĬ ÙĦ
or an
Ġk omp
Ġà¨ķà©Ģ à¨¤à©ĩ
Ġa lem
Ġàªķàª¾àª° à«įàª¯
Ġnag us
àµĭ à´§
Ġà¦² à¦Ĺ
E P
à¦¿à¦¯à¦¼ à¦¾à¦°
à®µ à®±à¯įà®±
atu h
Æ°á»¡ ng
à²¾à²Ĺ à²¿à²¦à³Ĩ
à±Ĩà°ķ à±įà°Ł
ien en
à¦¬ à¦°à§įà¦¤
éº Ĺ
Ġtrain ing
Ġtub uh
ĠAd emÃ¡s
- x
à©° à¨¤à¨°
Ġto i
Ġà¤ª à¤¡à¤¼
Ġà¦ª à¦¾à¦ł
Ġjusqu' Ãł
Ġà¦¸à¦° à§įà¦¬
Ġterl ihat
Ġà¤² à¥Ģ
DN Q
åħ³ éĶ®
à¨¾à¨ §
à¨µà©ĩ à¨Ĥ
à²¿à²Ĥà²Ĺ à³į
{{ DNQ
{{DNQ ATV
ĠG arc
ik uti
Ġtr im
ĠAn agr
åĳ½ ä»¤
Ġm ari
ecut ivo
ĠD ew
Ġco inc
Ġhon or
y Ã¬n
ĠÄĳá»£ i
Ġx ml
Ġnh iá»ħm
Ġut ama
éĽ» è¦ĸ
Ġà¨ķà¨¾à¨° à¨¨
Ġà¤ķ à¥ģà¤²
ĠK as
ĠAr m
Ġpu esto
çĤ¹ åĩ»
à²£ à²¿à²ķà³Ĩà²¯
è®®å®ļ ä¹¦
Ġà¤µ à¥įà¤¹
ĠCr uz
Ġà¤ħà¤¸ à¤²
ãĤ ĭ
Ġà´ľ àµĢà´µ
il aren
ond er
Ġwan ita
åĮħ åĲ«
à³įâĢĮ à²¨
à±ĭ à°°
à²¾à²¹ à²¿à²¤
åĲĮ æł·
Ġà¦ĸ à§ģà¦¬
t le
Ġp Ã©n
po ol
ĠMen urut
ĠN on
Ġfor est
Ġpat r
Ġà´ķàµįà´ °
de lete
å° ĭ
Ã Ĺ
Ġd h
åįı ä¼ļ
ĠTamb ahkan
æ· ¡
ÑĤ Ð°
Ġcr im
åıį åºĶ
Sel ain
- pro
it ado
Ġress ources
Ë Ģ
Ġal tra
201 2
Ġà¬¸ à¬¾à¬®
à¥ĭ à¤°à¥Ģ
ĠCons ell
Ġà´ªà´±à´ŀàµįà´ŀ àµģ
Ġl Ã©
Ġjov en
por ter
Ġtr am
Ġà¤¹ à¤¿à¤Ĥ
ain ts
Ġb á»ķ
Ġsocied ad
Ġà¤¬à¤¤ à¤¾à¤¯à¤¾
Ġm Ã³
Ġes pos
Ġk it
Ġdesenvolv imento
Ġà¤ķà¥ģà¤¨ à¥Ī
ins ert
Ġdi u
è¨ ´
ĠCast ell
Ġs akit
Ġp esar
çļĦ éĩįè¦ģ
É ľ
Ġàª¤ àª°
ĠØ® ÛĮ
Ġactiv idad
Ġtorn ar
el ine
ĠS M
Ġà¦ Ŀ
O per
åı Ķ
Ġà¤®à¤¹ à¤¿à¤²
Ġp Ã¨re
ib an
ĠCh eck
ç´ «
serv ice
à¤¿à¤· à¤¦
à¥Ī à¤¸
Ġnou velles
Ġà¬ķ àŃĮ
Ġcan al
Ġà²ªà²¦ à²¦
åĩ ¯
Ġà¤ħ à¤¶à¥Ģ
Ġser ing
à³įà²¯ à²¾à²Ĥ
Ġparticular ly
ÃŃ em
seg ura
Ġà®ķ à®¤à®¿à®°
Ġdro p
Ġ ä¸»
Ġcon fer
Ġà¥¨à¥¦ à¥§à¥
_ v
à¯Ĩ à®©
ĠØ§Ùı Ø±Ø¯ÙĪ
L ocation
å·´ åĭĴ
Ġr ig
In s
çļĦ æĸ¹å¼ı
Ġhab il
à´¾ àµ¾
ØŃ ÙĨ
Ġz ion
ont rol
à®¾à®µ à®¿à®²à¯į
Ġso ir
Ġd Ã²ng
Ġà¦ªà§įà¦°à¦¤ à¦¿à¦·à§įà¦ł
T op
åħ¬ è·¯
AT A
ĠÙĬ ÙĥÙĨ
Ġà¨®à©ģ à©±à¨ĸ
1 '
ĠK el
å¤§ éĥ¨åĪĨ
à¯ĭ à®ķ
à´¾à´° à´Ĥ
it ems
ĠÙĥ ÙİØ§ÙĨÙİ
Ġfil ename
AS S
ĠT á»«
à¤¯ à¤°
k á»į
or no
ÙĨØ³ Ø¨Ø©
Ġà°« à±įà°°
å¼ Ħ
ï¼ī åĴĮ
ĠC asa
Ġ7 6
ĠØ¹ ÙĦØ§
atu ak
Ġà¬¦ à¬¿à¬¨
ĠÙħÙĨ Øµ
Ġâģ ¡
Ġestr uct
àŃģ à¬ķ
Ġren for
Ġà²¹à²² à²µà³Ĩ
Ġpour quoi
ĠY ang
D ocument
Ġxu Ã¢n
r Ã²Ì£
Ġl Ã³Ì£
Ġse qu
Ġme le
ĠØ§ÙĦØ¹ Ø±Ø¨ÙĬØ©
ĠF utur
Ġincre ased
çĽ¸ éĹľ
ĠM á»Ļt
Ġ Æ°á»Ľc
ĠØ§ÙĦØ£ÙĪÙĦ Ùī
æ¦ ®
Ġb Ã¡c
ec o
af a
Ġf ight
ä¹ĭ éĸĵ
or b
Ġm áº·c
Ġng Ãłnh
Ø¹Ø§ ÙĪÙĨ
Sen in
ial a
ĠÏ Ĩ
Ġà¤¨à¤¿à¤¯ à¤®
d s
Ġcond iciones
- en
) Ġà¥¤
à¨® à©ģ
S in
åį ¿
Ùħ ÙĪ
àµģà´ķ àµĬà´£àµįà´Ł
Ġeffect ive
Ġexact ly
Ġà´µ à´²
å½ĵ å±Ģ
¯ à«
à¦¾à¦ ŀ
( !
Ø¨ÙĬ ÙĦ
Ġnh áº¡c
Ġà¦® à¦¿à¦²
r est
æŃ¥ éª¤
M ax
ons o
Ġdem ostr
è« ĩ
ĠUS $
Ġwe ight
èº« ä½ĵ
Ġh osp
ä¸» æķĻ
ç®Ģ åįķ
ÙĨØ¬ Ø§Ø¨
ch ester
å»º ç¯ī
Ø§Ùĩ Ø¯
ĠÙħ ÙĥØ§ÙĨ
Ġciut ad
ro b
Ġà¦Ĩ à¦ķ
Ġjud ul
Ġgarant ir
ĠB I
Ġvari as
Ġà¤® à¤§
à¯Ĩ à®²à¯įà®²
àª· à«įàªŁ
à¦¨ à¦¤
Ġàª¤ àª°à«Ģ
Ġà¤Ĩà¤ª à¤²à¥įà¤¯à¤¾
à®Ĩ à®Ļà¯įà®ķà®¿à®²
Ġle vant
Ġà¤¸à¤¾à¤® à¤¾à¤ľà¤¿à¤ķ
en 't
à¦² à§ĩà¦¨
Ġà¦¤ à¦¬à§ĩ
Ġà¤¸à¤® à¥ģà¤¦
à²¿à²¦ à³ģ
æ¯ı å¹´
à¦ ¢à¦¼
å¤« äºº
ual es
Ġs anc
ÑĤ Ð¸
oles c
ĠÙģ ÙĪØ¬
Ġà°µà°¿à°¡ à±ģà°¦à°²
ä» ²
ĠØ¨Ø§ÙĦ Ø¥
aman an
æĺ¯ çĶ±
Ġg uy
ĊĠĠĠĠĠĠĠĠĠĠĠĠĠĠĠĠ Ġ
à¥Ī à¤¯
Ġme ille
k ata
Ġdef end
Ġà®µ à¯Īà®¤à¯įà®¤
Ġà´µ à´³
Ġpass word
S '
Ġà²ķ à³įà²°
Ġesp a
Ġqu adr
à±Ĭ à°ķ
ĠL Ã³pez
ĠØª Ø¨Ø¯
àª°à«įàª ¶
ç¢ į
Ġit z
č Ċĉĉĉĉĉ
l ator
res ident
Ġeg on
à®Łà¯įà®Ł à®®à¯į
Ġbus c
à°¯ à°¿à°¨
\" P
Ġpresent ar
Ġpal ab
7 %
Ġmais on
Ġp amoja
_ 0
Ġatr Ã¡s
Ġj aw
Ġà¤ħà¤ª à¤¨à¤¾
Ġmarg in
à¤¸ à¥įà¤ª
Ġà¦Ĺ à¦¤
à¤ľà¥įà¤ŀ à¤¾à¤¨
ter i
Ġà¤Ń à¥ĩà¤Ł
Ġprocess us
ĠInstit uto
Ġh yp
èĤ ¥
Ġà¨Ĩ à¨¦
Ø¹ÙĦ ÙĪÙħØ§Øª
Ġ Ø§Øµ
Ġm ist
Ġnation ale
Ġk á»¹
ĠM and
Ġà°ª à°¾à°ł
Ġcr ise
2 %
_ key
it ia
w ell
ÙĪ ÙĬØ±
Ġch all
æľīéĻĲ åħ¬åı¸
éĻ ¶
Ġà¨ª à¨¾à¨°
Ġà°® à°¾à°Ł
ier an
izont al
ĠÂ ©
à¤µà¤¿à¤§ à¤¾à¤¨
à°° à°¿à°ķ
ä¹ Ļ
åĭ ŀ
ãģ ®
Ġwant ed
Ġp adre
ing er
Ġà°®à°° à°¿à°¯à±ģ
Ġà¤Ńà¤¾à¤· à¤¾
Ġcarr era
Ġ1 16
Ġmen it
arr ant
g res
Ġto wards
Ġespecial mente
Ġextra ordin
Ġpr Ã¡ct
à¨¸ à¨ª
Ġà®¤à¯Ĭà®ķà¯ģà®ªà¯įà®ª à®ķà®°à®¾à®¤à®¿
M ereka
Ġcon junt
Ġà¬īà¬ª à¬°àŃĩ
Ġlá» Ĺi
à¤ªà¥įà¤° à¤§à¤¾à¤¨
ĠD ay
Ġvo z
Ġch ance
à±įà°¤ à°¿
Ġrele vant
ul ia
åŃ¸ çĶŁ
ĠE S
A mb
ec ido
Ġtr atar
æ§ į
à¤ķ à¥Ī
Ġmil es
Ġj angan
Ġàª¨ àª¹à«ĢàªĤ
Ġqual sevol
Ġm ab
ac ciÃ³n
Ø¸ ÙĩØ±
iforn ia
f an
ä¼ į
F e
Ġ\" N
Ġàª¤ àª¾àª²
åĲİ çļĦ
åĬ³ åĬ¨
ĠC ant
Ġà¬ľ à¬¨
Ġà¤¨à¥ĩ à¤¤à¤¾
èĳ ī
kn own
àµĢ à´¤
A h
é į
Ġà²¸ à³ĩà²°
èħ ¹
ad al
Ġad iera
tim es
Ġà¬¸àŃĩà¬ ®à¬¾à¬¨
Ġt ai
ĠØ§ÙĦ Ø§Ø¬ØªÙħØ§Ø¹
= 0;
Ø± Øª
Ġà®ķ à®£à¯įà®Ł
Ġàªª à«ĭàª²à«Ģàª¸
Ġà¦¤ à¦ĸà¦¨
à§ĩà¦ ģ
àªĤàª¤ à«įàª°à«Ģ
T D
Ġà¨® à¨¾à¨®
Ġà¤ı à¤¨
Ġdest r
Ġbe aut
Ġprop ag
Ġà¦Ł à¦¾à¦ķà¦¾
Ġde port
ic araan
Ġcor por
à©±à¨ ª
Ġà°µà°¿à° §
Ø¯Ùħ Ø§Øª
Ġ: ::
15 æĹ¥
à´¿à´Łàµįà´Ł àµģà´£àµįà´Łàµį
Ġà®ķà¯Ĭà®£à¯įà®Ł à¯ģ
Ùİ Ø´
à¬¾à¬ īà¬
Ġà´İ à´²àµįà´²
onom ia
à¤Ĺ à¤¾à¤°
åĪĨ åŃĲ
Ġà²¹à²²à²µà³Ĩ à²£à²¿à²ķà³Ĩà²¯
U ne
y al
Ġà´ħ à´Ń
ou ver
ä¼ Ĳ
Ġà¦¦ à§Ĥ
é¡ ĺ
ÙĪÙħ ÙĨ
Ġre ch
ĠØ§ÙĦØµ ØŃ
Ġmonth s
åĬłæĭ¿ å¤§
Ùģ ÙĴØ±
ĠH otel
Ġre i
æĪĲ äºĨ
à¥ĭ à¤°à¥įà¤Ł
) ),
Ġincl us
ä» ª
ĠÙħÙĨ Øª
Th anks
Ġmud ah
Ġb ako
un ak
ĠF emin
à¨ª à©ģà¨°
× Ļ
è¯Ħ ä»·
Ġpart it
è§Ĥ å¯Ł
Ġobserv ed
ĠÙģÛĮ ØµÙĦ
ĠM oh
ip a
æĺ Ĥ
èĵ ĭ
ier en
Ġexper ience
Ġà®µà®¿à®© à¯įà®ļ
- E
ĠC oll
Ġà¨° à©ĭ
Ġ éĤ£
ol ina
DS Â§
ãĢĤ ãĢĤ
Ġj enis
à³įà²¯ à³Ĥ
à«ĩàª² à«ģàªĤ
ç² ®
Ġt uyá»ĩt
à§ģ à¦ģ
èģĮ ä¸ļ
Ġc Å©
Ġàª¸ à«įàªŁ
ific ations
ĠÙĨÙģØ³ Ùĩ
en ing
ĠÙħ Ú©
Ø¹ Ø§Ø±
à³ĭ à²²
Ġd' est
m /
our g
Ġcar ta
pect ed
at ri
Ø±Ùģ Øª
Ġinf ant
Ġàª® àª¾àª¨
ĠFr ench
Ġà¤Ĺ à¤£
\\ t
Ġsent ir
Ġà®ªà¯ĭ à®Łà¯įà®Ł
Ġstud ies
b ul
àµįà´ ľ
Ġà¤īà¤¤à¥įà¤ª à¤¾à¤¦à¤¨
ed u
Ġal Ã©m
ä¼ ı
Ġàªħ àª§
à¤ĺ à¤¿
ro gen
Ġres posta
à¨¾à¨Ĥ à¨Ĺ
Ġinform Ã³
b f
Ġf est
èħ ¦
Ġ[ '
Ġen vol
erg ie
Ġàªħ àªŃ
ann ing
ifica Ã§Ã£o
à¤² à¥ĭ
Ġref lex
Ġop portun
à°¾à°Ĺ à°¾
Ġl' emp
à¤Ĥà¤¬ à¤°
Ġvul ner
çļĦ ä¸į
àŃ ¬
Ġqu ais
ĠÃ¡ nh
9 %
g ers
Ġt omb
Ġà´¨ à´¿à´¯
M I
çĥ §
am or
äºº å£«
Ġjo an
Ġà²®à³Ĥà²² à²ķ
- ho
Ġà¤¤à¥ģà¤® à¥įà¤¹
Ġn enh
id =
ĠFr antz
ĠØ¥ÙĨ Ùĩ
Ġr ich
R un
eng ine
Ġfr on
Ġà´® à´¾à´¤àµįà´°
Ġà¤² à¤¾à¤Ń
Ġn j
ç½ ļ
à²® à²¨
Ġà¦¸à¦® à§įà¦Ń
æµ·æĭĶ é«ĺåº¦
av y
Ġacc us
ĠL is
Ġde jar
Ġà®ħà®²à¯įà®² à®¤à¯ģ
Set tings
æ¦Ĥ å¿µ
à²¾à²¨ à³Ĩ
ub le
Ġ èĢĮ
\\ #
Ġà®¤ à¯Ģ
à¬¾àŃŁ à¬ķ
Ġgest iÃ³n
Ġà´İ à´¨àµįà´¤
à°¾à°® à°µà°¾à°ļ
Ġà®µà®¿à®©à¯įà®ļ à¯ģà®²à¯ĭ
Ġà²Ĩ à²¯
A ix
é© ±
ĠSel ain
Ġtan ah
ĠÙĬ Ø£
ĠØ¢ Ø¬
Ġà¤ľ à¥ģ
ĠÄĳ á»ĳc
àª¦ à«Ģ
à¬¿à¬¨àŃįà¬¤ àŃģ
g ra
æ¤į çī©
Ġm t
D irect
Ġtr áº¯ng
è§Ħ æ¨¡
ĠCi udad
Ġàª¤àª°à«Ģ àªķà«ĩ
ad is
Ġro ws
Ġà¬ªàŃĤ à¬°àŃįà¬¬
Ġà¦ª à¦¾à¦ĩ
AL L
Ġfal lec
ä»¤ äºº
Ġà¨¨ à¨¿à¨
à¤° à¥Ĥà¤ª
Ġcomm ission
Ġhe ure
Ļ à¯įà®ķà®³à¯į
æıĲåĩº çļĦ
åĽ½ æ°ĳ
ĠØ¯ Ú¾
à¦¾ -
åĲ ´
Ġam igo
ine z
Ġl inh
ĠÄĳ Äĥng
Ġspec ies
Ġib u
Ġcro is
script >
Ġl ima
il ib
Ġà¦¨ à¦¿à§°
Ġà¤Ĳ à¤¸à¤¾
Ġà¤Ĩ à¤¤à¤¾
Ġcon eix
Ġdevelop ed
azio a
Ġll eng
æł¸ å¿ĥ
Ġinsp ir
ub ro
Ġal ign
Ġà¦ħ à¦¸à¦®
Ġà®® à®¾à®µ
âĢ¯ à¥¤
V ol
ĠNg h
ĠT echn
à°® à±ĩ
Ġm ission
ĠJ epang
à©Ģà¨ ı
Ġsitu aciÃ³
Ġl' ac
Ġàªª àª¾àª
ĠCh á»§
ĠPh Ã¡p
ĠN orte
Ġexist s
Ġà¦¬à¦¿à¦· à¦¯à¦¼
ë «
ik ia
àª¤ à«ģàªĤ
à´¿à´ ľ
éŁ³ æ¨Ĥ
à¬¨àŃįà¬¤ àŃįà¬°
Ġc Ã¡n
Ġparticip ar
ĠJ ud
og g
Ġpobl aciÃ³
ĠØ£ Øª
Ġ$ f
ĠÄĳá» «ng
è´¢ æĶ¿
Ġse quence
Ġs op
Ġà¦ī à¦¨à§įà¦¨
[ éĽ»åŃĲ
çļĦ å¥³
è¨Īç®Ĺæ©Ł ]
ĠJ aneiro
Ġ/ ></noinclude>
Ġh ier
Ġfor ward
Ġà¤ĸ à¤¾à¤¨
à§įà¦ Ľà§ĩ
ĠAs ÃŃ
ä¸´ æĹ¶
Ġà¦ª à¦¥
ho uld
çŃī çŃī
à§ĩà¦ķ à§įà¦·
Ã©r Ã©
à§Ł à§ĩ
il io
Ġvoc Ãªs
åįļ å£«
Ġc ens
ed \"
à¤°à¥įà¤ ¬
Ġmen unjukkan
ä¸¤ å¹´
æĻ® éģį
IL ITY
Ġelectr ic
Ġ Ø§Ø²
è² ¡
ĠÙĪØ¬ Ûģ
c ular
Ġh á»ĵn
Ġà² Ĳ
ter re
æĢĿ æĥ³
ad ura
è²ł è²¬
Ġsol utions
Ġesk ualde
jo in
m ing
O k
æĶ¯ ä»ĺ
Ġà¤¬ à¤ļ
Ġpemb icaraan
- on
Ġà¨µ à©±à¨ĸ
ĠNov a
å» ³
Ġàªĺ àªŁ
Ġà¤¸ à¥įà¤®
Ġdes af
Ġà®® à®Łà¯įà®Ł
et apkan
à¦¿à¦¬ à¦¾à¦°
_ url
ant uan
pl ugin
Ġà¤µà¤¿à¤¦à¥įà¤¯ à¤¾à¤°à¥įà¤¥
Ġ Ø§Ø«
à¦ķ à¦¿
Ġà¤Ń à¤¨
us ement
ĠB ib
Ġcol oc
Ê ¿
à°² à°¨à±ģ
Ġtrans porte
Ġn áº¯ng
Ġà´® à´±àµįà´±
Ġà¦ķà§įà¦· à§ĩà¦¤à§įà¦°
Ã© ch
Ġà²¦ à³ĩà²µ
à¤¶à¥įà¤ļ à¤¿à¤®
con d
ĠTh omas
de o
à¦¿à¦² à§įà¦ª
co le
ent ry
è´ ¦
à«ĭàª ³
Ġà¤« à¤¼
Ġà¨¬ à¨¾à¨°à©ĩ
Ġ[à¤¸à¤Ĥ à¥°
àª ĥ
Ġprodu its
Ġà¤ķ à¤Ńà¥Ģ
Ġ\" <
Ġcr ist
Ġform ul
() ))
à°¦ à±įà°§
pa Ã±
ĠD ic
åħ ¹
ak ala
Ġà¦¸ à§ĩà¦¨
Ġ-- >
Ġà¤ħà¤¸ à¥įà¤ª
Ġgb ogbo
or ie
ĠSt ud
Ġ7 8
à±ĥ à°·
Ġàª« àª¿àª²à«įàª®
al au
à²¸ à³įà²ķ
á µ
à¬°àŃįà¬ ķ
r Ã©taire
Ġviol encia
end if
pl ot
Ġreg iÃ³n
Ġf ailed
et u
ÑĤ Ðµ
qu ina
ir man
Ġh á»Ĺ
aks ana
å¹³ åı°
Ġà¤¹ à¤¾à¤¥
å±¬ æĸ¼
Ġat enciÃ³n
Ġf Ã¡c
Ġlá» ħ
è¼ ¯
å¥ ´
eb ra
Ġà¬ªàŃįà¬° à¬¦
é¾ Ħ
ĠCong reso
201 8
à³ĭ à²·
ĠdÃ©c ision
d ad
ij akan
Ġa udio
Ġm Ãły
ĠØ§ÙĨÛģ ÛĮÚº
àª¿ àªª
Ġà¤¸à¥ģà¤° à¤ķà¥įà¤·à¤¾
Ġà¨ķ à©Ī
sh ad
Ġrest a
åĬł ä¸Ĭ
è¯¥ åĽ½
çĨ Ļ
à«ĩàª ¬
Ġpass ed
Ġdev rait
Ġdeb en
à¦Ľ à¦¿
play er
Ġdago en
Ġcomp Ã©t
Ġà¤¸ à¤ŀà¥įà¤ļ
Ġrepres enta
UL AR
ĠSa at
Ġd' ad
å¹¿ æ³Ľ
Ġg ag
Ġà¤¸ à¤«à¤²
Ġb ahan
Ġà¤¸à¤Ĥ à¤°
è¼ ª
Ġag ents
à«Ģàª Ł
ĠAmer ica
Ġà²ħ à²²à³įà²²
à¤ħ à¤¨
Ġco i
25 5
å·´åĭĴ æĸ¯åĿ¦
à¤¿à¤¯ à¤°
ass es
à®¿à®¯ à®¾
Ġbu ena
Ġà°İ à°¨
Ġexpl os
Ġà´° àµĤà´ª
Ġc ore
æı ¡
Ġtr áº¡ng
ĠTh Ãłnh
untr y
ĠB uen
à¦¾à¦¬ à¦¿
Ġps ych
200 5
æľĢ å¤§
se au
Ġd' E
à°¾à°¨ à±Ģ
Ġl anc
aria ble
Ġl' Union
Ġven ez
Ġw atch
à¬¾à¬° à¬¿
éĵģ è·¯
ĠmÃ£ e
Ġseu le
ĠDevelop ment
ĠLa w
à°Ĺ à±įà°Ĺ
T itle
Ġk Ã¡
Ġre pe
Ġl ider
ĠØ¯ Ø§Ø®ÙĦ
Pro cess
ç¯ Ħ
Ġà¤¯ à¤¾à¤¤à¥įà¤°
à¨¦ à¨¿à¨Ĩà¨Ĥ
ç¼ ĵ
Ġmet ros
t x
Ġpar al
L at
ĠK ec
Ġtrav el
Ã ¥
Ġàª² àªĹ
çİ° è±¡
åĪĳ äºĭ
Ġà¨ ¢
Ø¹ ÙĦÙħ
ĠR ais
lic e
éĿŀ æ³ķ
è¿ ģ
ĠPol icÃŃa
Êģ e
Ġ9 6
Ġà¦¬à§įà¦¯ à¦¾à¦ª
Ġenqu anto
Ġàª¤ à«įàª¯àª¾àª°à«ĩ
àª°à«įàª ¥
ĠR oma
I E
ÙĲ ÙĬØ±
Ø· ÙĬ
àŃįà¬ ŀ
Ġpas ti
ĠØ§ÙĦØŃ Ø±
Ġà¤¤à¤¯ à¤¾à¤°
Ġk op
ç¾ Ĭ
Ġdem ikian
Ġpe ux
ĠDe ux
Ġdom aine
ĠØ§ÙĦØ£ ÙħÙĨ
c ell
ĠR usia
à®µ à®©à¯į
Ġthe ory
um es
H ot
Ġàª¤ à«įàª¯àª¾àªĤ
Ġc inc
Ġà¤Ĺ à¤¤
å ¶
àŃ Ń
1 000
ven es
ä»İ èĢĮ
ador as
r ad
Ġso Ã¡t
Ġencuent ra
Ġà¤¯ à¤¾à¤Ĥà¤ļà¥įà¤¯à¤¾
àµįà´ Ĺ
Ġng uy
é¢Ĩ åľŁ
Ġ ]]
à°¡ à°¾à°¨à°¿à°ķà°¿
h ana
Ãº r
à¦¾à¦° à¦¿
Ġà¦īà¦ª à¦ľ
Ġà¤Ĺà¥ģ à¤£
Ġmin ister
å» ł
Ġins ist
æµ ¦
Ġub ic
ĠtÃ¨ cn
Ġfem en
us r
Ġocc ur
à¥ĥà¤¤ à¥įà¤µ
à¬¾à¬¨àŃįà¬¤ à¬¿
Ġà²ª à²¡à³Ĩ
ĠT el
ĠG los
Ġà¤ľ à¥įà¤ŀà¤¾à¤¨
Ġgi áº¥y
Ġcom er
àª¾àª³ àª¾
ĠO N
ung o
iv ia
å¾ ª
Ġdire ito
ç² µ
æ¦ ľ
J '
à®¿à®² à®¿à®°à¯ģà®¨à¯įà®¤à¯ģ
Ġreal idad
Ġina ug
ator io
Ġg ure
ĠB and
Ġ19 89
ĠN asional
ian os
à´Ł àµģà´¤àµįà´¤
ç¨³ å®ļ
à´ª à´°
Ġà¥¨à¥¦ à¥Ń
P ero
å¯Ĩ åº¦
Ġà¤¹ à¤¿à¤¸
itar io
Ġtechn ique
à¬¿à¬ Ń
Ġber ikut
Ġk Ã©o
à¯Ĭ à®£à¯įà®Ł
àµ½ à´ªàµįà´ª
unc ul
Ġqu' un
_ user
M T
d Í¡
åıĥ åĬł
n aire
ä½ Ĳ
Ġà¦ªà¦° à§ĩ
wan za
Ġà¤® à¥Ĥ
Ġng á»Ŀ
ĠØŃ ÙĬØ§Øª
éĥ Ń
Ġ19 70
æĿ¥ äºĨ
Ġbeh ind
ĠJ uni
åĤ ¨
Åĵ ur
æĻĤ åĢĻ
ĠEsp ain
Ġelect oral
Ġir m
à¨¨ à©Ĥà©°
Ġdon ne
Ġo w
Ø§Ø± Ø³
åľ° çĲĥ
Ġbas ic
Ġterl alu
des cription
Res ource
Ġà¬¸à¬® àŃįà¬ª
d al
Ø¹Ø¶ Ø§Ø¡
à¤² à¥ĭà¤Ĥ
Ġà§ ®
æļ Ĥ
ĠØ§ÙĦØ¬ ÙĨ
Ġoct obre
à¥įà¤¤ à¤¾à¤°
Ø¶ Ø©
Ġven ir
ĠØª Ø±Ùĥ
Ġà¨µà¨¿à¨ ķ
éķ ľ
ĠpÃ¡g ina
à¦¬ à¦²
à°² à°¾
Ġag enda
Ġpl ate
Ġà¤ªà¥ģà¤° à¤¸à¥įà¤ķà¤¾à¤°
ĠHo Ãłng
Ġà¨ķ à¨Ī
at utako
it ional
Ġà¤ħà¤Ń à¤¿à¤¯
xim o
ol ar
ä¸ Ī
èĩ³ å°ĳ
iqu ant
è°Ī åĪ¤
Ġn ut
ĠAr ch
ĠÙħØª Ø¹ÙĦÙĤ
Ġr us
ĠIm age
ĠnÃ©cess aire
à¯ģà®² à®µà®°à¯į
à¤¾à¤Ĥ à¤®à¤§à¥įà¤¯à¥ĩ
i erto
s ec
à¦® à§įà¦¬
ĠØ¬ Ø§Ø¡
Ġrep et
Ġà¤ªà¥įà¤° à¤¦à¤¾à¤¨
à´¨àµįà´¤àµįà´° à´¿
Ġà®¨à¯Ĥà®² à¯įà®ķà®³à¯į
Ġà¦ħà¦Ńà¦¿à¦¯ à§ĭà¦Ĺ
Ġà²ķ à²¡
Ġposs ess
Ġà¤ķà¤¿à¤Ĥ à¤µà¤¾
Ġà¦¬à¦¿à¦ ¸
Ġes os
Ġmenj elaskan
Ġknow ledge
al ity
Ùħ ØŃ
à´¨àµįà´ ¯
Ġje une
åĽ½å®¶ çļĦ
æīĵ å¼Ģ
Ġà¥§à¥ ¨
Ø± Ùī
Ġl' inter
, ,
Ġn áº·ng
ĠPal est
à²¦ à³įà²§
Ġà¨µ à¨²
àŃĭà¬ ·
endele a
Ġà¬¬ à¬¾
Ġreturn ed
U Z
à¥ģà¤ª à¤°à¥įà¤¨à¥ĩ
ĠN O
Ã¢ ce
Ø§Ø¦ Ø²
t ons
ip zig
ven ue
Ġmem en
Ġc Æ°
Ġà®®à®° à¯ģà®¤à¯įà®¤à¯ģà®µ
à¦¬ à§įà¦¦
As ÃŃ
à¥ĩ à¤ķà¤¾
à¥¨ à¥¦
Ø§Ú© Ûģ
Ġ\" F
Ġan no
f aces
à¥įà¤¯ à¤Ĥà¤¤
Ġmemb eri
à²ª à²¡
Ġàª¬ àª¾àª¦
Ġà°² à°ķà±įà°·
Ġcal idad
R ight
Ġgr os
Ġà¦ķà§ĭà¦¨ à¦ĵ
at at
Ġe usk
Ġà¬ ¥à¬¿à¬¬à¬¾
ĠS ala
Ġà®ªà¯ĭ à®©à¯įà®±
à¨ķà©ĩ à¨¸à¨¼à¨¨
Ġà¨µ à©±à¨¡
Å ¾
Ġmil hÃµes
à¦¾à¦Ĥ à¦¶
èĥ ģ
H A
à´Ļàµįà´Ļà´³ àµģà´ŁàµĨ
Ġblo od
åģ ·
uct or
àµ Į
å¯ ¸
Ġà¦ĩ à¦¤
Ġà¦¹ à¦¨
Ġ æĸ°åĮĹ
Ġà¦¬à¦¿à¦° à§ģà¦¦à§įà¦§à§ĩ
Ġz ones
Ġà¤ļà¤¿à¤¤à¥įà¤° à¤ªà¤Ł
am er
ä¸Ģ çĤ¹
à« ī
Ġat tribute
æ¯ı å¤©
ĠÙĪØ¬ Ùĩ
tr ait
á»į t
Ġch Ã¢u
Ġsin Ã³
æ¯ķ ä¸ļ
Ġà°ļ à°¾à°²
omet ry
Ġà°µà±įà°¯ à°µ
Ġà®¨ à®¾à®Łà¯įà®Ł
Ġà®ķà¯Ĥ à®Ł
T emplate
ĠK ementerian
Ġà¤ķ à¥ī
ĠØ¨Úĳ ÛĮ
S ession
ĠE ta
Ġà¤ªà¥Ĥà¤° à¤¾
ad j
à¬¾à¬° àŃįà¬¥
Ġfour n
æľŁ éĸĵ
ĠUN K
à²¾à²° à³įà²¥
D own
ĠB og
Ġà¤Ĩ à¤¯à¥ĭà¤Ĺ
å°¤åħ¶ æĺ¯
Ġprop re
Ġà¨¸ à¨¿à¨°
b s
Ãºt bol
ĠØ§ÙĦ Ø§Ùħ
Ġà°ª à±Ī
æĽ´ æĸ°
occ up
Ġex cep
Ġsac r
ol it
Ġà®ª à¯ģà®°
Ġà¦¦ à¦¿à¦ķà§ĩ
Ġà² ĵ
Ġl' ass
Ġà¨Ĩ à¨Ī
Ġph im
æ¸ Ľ
ela wan
Ġà¦¬ à§ĭ
åľ° åĿĢ
à¦¾à¦ĩ à¦Ł
Un it
Ġà¤¹ à¤¾à¤®à¥Ģ
ä» °
Ġ7 3
Ġà¦®à¦¾à¦¨ à§ģà¦¹
Ġcontain ing
Ġsa w
Ġà´ªàµįà´° à´§à´¾à´¨
à´¸àµįà´¥ à´¾à´¨
Ã į
Ø¨ ØºÙĬ
Ø¶ Ùħ
ÙĪØ¯ Ø©
à®ªà¯įà®ªà®Łà¯įà®Ł à®¤à¯ģ
av ÃŃa
à¤ ±
Ġas c
ĠP usat
Ã¨ l
Ġsc ience
ĠLou is
Ġ ç¬¬
Ġs asa
m ic
{{ center
Ġprim ary
Ġà¬¶ àŃįà¬°àŃĢ
Ġprojet s
Ġà®¨à®¿à®± à¯ģà®µà®©
ĠN os
Ġà¬Ńà¬¾à¬¬ àŃĩ
ä¸į å°ĳ
lic h
à®ķ à®µ
Ġà¦¨ à¦¿à¦¶
amp ir
ARR ANT
K hi
Ġà¦Ĩ à¦Ľà¦¿à¦²
N on
Ġpr a
Ġ9 78
èµ· ä¾Ĩ
æ¯Ķ å¦Ĥ
Ġespany ol
à¬¾à¬ ¥
Ø±ÛĮ Ø¹
d ik
à²° à²µ
åŃ Ŀ
èĦ Ĥ
Ġk azi
àµĪ à´µ
Ġask ed
Ġk uz
Ø¨ Ùĥ
ese orang
å¹´ åº¦
Ġcont amin
ita ires
Ġappl ied
Ġsit uaÃ§Ã£o
ä¼ĺ åħĪ
à³Ĭà²Ĥà²¦ à²¿à²Ĺà³Ĩ
Ġl ar
ĠØ¹ Ø²
à±ģà°° à±ģ
l ;
Ã© pend
Ġà¤® à¤¾à¤Ŀ
Ġfe ature
Ġkon tr
Ú© ÙĪ
Ġng á»§
ust en
ĠÙĪØ§ØŃ Ø¯Ø©
Ùĩ ÙĨ
Ġà¤Ĩ à¤¶
éģĵ ï¼ļâĢľ
eta ils
è¨ İ
Ġman qu
ĠGlos arium
Ġber main
Ġ8 6
Ġcontr Ã´le
åķĨ ä¸ļ
Ð» ÑĮ
à¤Ĥ à¤¶
ĠÙĨ ÙĪØ¹
ĠØ§ï» ·
OR T
Ġà¤°à¥ģà¤ª à¤®à¤¾
ĠList <
id encia
ĠAl i
Ġmat eria
St ack
à§Ģà¦° à¦¾
ĠÙĪ Ø§ÙĨ
à®¿à®ķà¯įà®ķ à¯ģ
ÙĦØ§ÙĤ Ø§Øª
ĠÃ¨ Ã¨yÃłn
à®Ĩà®Ļà¯įà®ķà®¿à®² à®®à¯į
à¦¸ à§įà¦Ł
Ch ange
h it
tr i
åĩº åı£
Ġred istrib
Ġmarch Ã©
à«ĩàª¶ àª¨
Ġmeng had
ĠAfr ica
Ġform ula
à¬ ģ
K ategoria:
à´® à´¾à´ķàµįà´ķ
Ġà¤¸à¤® à¤¸à¥įà¤¯à¤¾
ĠUTF -8
Ġcer ta
: {{
ĠM uh
à¤¾à¤£ à¥ĩ
Ġà¤° à¤¾à¤¤
à²Ĺ à²¾à²°
ĠØº ÛĮØ±
å®¢éģĭ éħįè»Ĭè³ĩè¨Ĭè¡¨
Ġc iento
ter m
Ġà°¸ à°¹
çĥ Ł
ĠW ARRANT
Ġof er
ien nent
ĠØ§ÙĨ Ø§
Ġà¦®à¦¾à¦§à§įà¦¯à¦® à§ĩ
ĠP es
Ġbait a
ĠâĻ ª
ĠT our
ĠL ihat
àµĢ à´¸
Ġkap al
Ġà®ħ à®©à¯Ī
ä¹Ł åı¯ä»¥
æ¾³ éĸĢ
Ġel las
ult ip
ÃŃt ulo
Ġarr iv
ĠØ§ÙĦØ´ Ø®Øµ
à¥įâĢį à¤¯
Ġà¦¬ à¦°
Ġà®¤ à®¾à®©à¯į
Ġs iapa
Ġac abar
éĢĻ æĺ¯
n on
à´ķàµįà´ķ àµĨ
åĨ³è®® èįīæ¡Ī
Ġà¤¹à¥ģà¤¨ à¥į
Ġà²¸ à²Ĥà²¬
à¨¿à¨² à©įà¨¹
stit ut
Ġaz p
ĠFern Ã¡ndez
Ġà¤ł à¥ĩà¤µ
Ġcaus es
ĠS us
à³įà² ľ
æĬ ½
l Ã¡
ĠÙĦ ÙĤ
ep t
Ġà¤ªà¥įà¤° à¥ĩà¤®
200 1
Ġà¤¦ à¤°à¥įà¤¶
à¨¹ à¨¿
Ġà²¸ à³Ĥ
Ġconstr uir
Ġman o
Ġgener ated
Ġarg uments
à°° à±įâĢĮ
Ġtr anqu
Ġà®ķà¯Ĭ à®³à¯įà®³
åĵģ çīĮ
Ġref lect
ĠÏ ĥ
Ġgr ans
ĠÃ©p oca
ut ar
Ġurte an
Ġ å§Ķåĳĺä¼ļ
ĠÄĳ u
Ġtem an
à´¿à´ļàµįà´ļ à´¤àµį
Ġre for
Ġàª² à«Ģàª§
â ²
ÙĪ Ø¡
Ã©r al
Ġà¦¸à¦Ĥ à¦ĸ
ĠS ir
aix a
Ġnombre ux
Ġà¨ļ à©ĭ
Ġà¦īà¦ª à¦°
éĻĦ ä»¶
Ġpue blo
reg ular
å¯ ¨
Ġà¤§ à¥įà¤¯à¤¾à¤¨
G u
ĠÙģ ÙİÙĦ
5 ]
or em
âĢĻ âĢĻ
æĢ Ĵ
li ot
ÛĮ Ø§Ø¨
Ġà¤¬ à¤¨à¥ĩ
Ġnas ional
Ġà¬ħà¬¨ àŃįàŃŁ
ĠGl obal
Ġserve i
id al
Ġesp Ã¨
Ġsepar ate
Ġ èģ¯çĩŁ
à§Ģ à¦¤à§ĩ
ĠdÃ© b
åĩº çı¾
arg er
Ġfil ho
ĠNg á»įc
4 %
_{ n
ĠlÃŃ nea
Ġestab ele
Ġval eur
Ġà´ļ à´¿à´¤àµįà´°
O p
Ġà¤Ĩ à¤¸
à¦¾à¦ķ à¦¾à¦°
Ġà¬® à¬¨
à¦¾à¦ª à§įà¦¤
è° ĭ
at ges
Ġà²ķ à²²
Ġhain bat
Ġaver age
Ġr ibu
/200 9
à¦ Ļ
çİ° ä»£
é¸ ¡
à¯ĭ à®°à¯į
n umber
ĸ à¦¨
Ú© Ù¹
Ġà¤ħ à¤¦
à±įà° ŀ
Ġat te
éĻ °
Ġà°µà°¿à° ľ
Ġà¤§ à¤¨
æŃĮ æĽ²
Ġ Ø§Ø·
ĠCh Ãºng
n ement
ĠPr an
Ġspec ified
Ġcompar ed
ĠKep ala
Ġsh are
Ã³ Ã²
Ġd ona
Ġt áº¡m
Ġm am
Ġà°ªà±ĭà°² à±Ģà°¸
Pot ser
Ġmol ts
conn ect
Ġà¤Ĩ à¤²à¤¾
à¤¸ à¥ĭ
çĲĨ è§£
Ġà¤ĸ à¤°à¥įà¤ļ
Ġb ada
ĠB os
ux emb
Ġà®¨ à®¾
æĪĲ çļĦ
D R
ĠA M
Ġam Ã©ric
à°¯ à°¿à°¤à±ĩ
w Ã³Ì£
æĪ Ĵ
Ġmengh apus
n ik
à¤°à¥įà¤ ĺ
à¤¾à¤ ĺ
àŃģà¬ ¡à¬¼
ç®Ģ ä½ĵ
off set
) ĉ
Ġà¤ľ à¤¼
Ø£ÙĨ Øª
æģĲæĢĸ ä¸»ä¹ī
ĠAb d
àª° àª¸
à±ĭ à°¤
-b ased
Ġreg ister
ĠCont rol
ä¸» æĮģ
ĠR Ã©publique
ĠÙĪØ§ÙĦ Ø³
Ñģ Ñı
ĠGarc ÃŃa
ĊĠĠĠĠĠĠĠĠ ĠĠĠĠĠĠ
Ġconsum o
\\ end{
ÙİØ§ ÙĤ
ĠnÃº i
ĠâĻ «
Ġà¤¹ à¥ĭà¤Ĥ
ĠØ® Ø¯
Ġbo leh
Ġfeb rero
/ Add
à®¿à®ķ à®´
à¤¾à¤¯ à¤°
Ġd ulu
ĠØ¨ Ø§
con tainer
ÙİØ§ÙĦ ÙĲ
Ġtr ibunal
à¨µ à¨¾à¨²
åı° åĮĹ
b el
à¥ģà¤ Ĩ
Ġà¥§à¥ «
Ġà¬®àŃģà¬ ĸàŃįàŃŁ
à¯ģà®± à¯įà®±
Ġà²ľ à³Ģà²µ
b Ã¡
Ø¥ ÙĲÙĨÙĴ
ä¸ĵ éĹ¨
ĠJour nal
in Ã©
ĠM ov
on im
à¬¿à¬ £
ub wa
ed s
à©Ģà¨ ¡
à¨ĸ à¨¿à¨Ĩ
âĢ ī
à¥ĩà¤¸ à¥įà¤Ł
Ġw est
èĤ Į
Ġc Äĥn
Ġo in
ĠA L
Ġter ren
e ah
å¹ ¹
} \"
ag ens
à¤¦à¥ĩà¤ĸ à¤¿
æµ Ļ
Ġbel ak
à¬¾à¬ ĸ
æĭ ĺ
Ġàª® àª¨
ast ikan
ç© ·
à¤¨ à¤¾à¤¥
G E
Ġ7 1
ĠJanu ari
à´¾à´¨àµįà´ ¤
à¤¿ à¤°à¥Ģ
Ġà¨µ à¨¿à¨Ĩ
à¤Ĥà¤¦ à¤¿à¤°
A F
ĠÙĤ ÙİØ§ÙĦÙİ
à¬¿à¬¨ àŃįà¬¨
Y ;
Ġl imp
à´Ł à´¿
R el
Ġv in
æĵ ģ
Ġbate k
Ġqu ero
à¤¸ à¥ĩà¤ļ
æĹ¶ ä»£
Ġcont ing
Ġàªľ àª¿àª²à«įàª²
à°§ à°¾à°¨
el ess
orte ur
Ġdern iÃ¨re
Ġallow ed
ä»ĸ æĺ¯
Ġà¤µà¤¿à¤¦ à¥ĩà¤¶
[...]
