#version: 0.2 - Trained by `huggingface/tokenizers`
Ġ Ġ
ä ¸
Ġ t
ï ¼
ï¼ Į
Ġ a
h e
i n
ã Ģ
ç ļ
çļ Ħ
r e
o n
ä º
Ġt he
ĠĠ ĠĠ
e r
a t
Ġ s
e n
Ġ o
ãĢ Ĥ
æ ľ
å ı
Ġ w
ä »
Ġ c
å ħ
i s
i t
o r
e d
e s
å ¤
a n
å ®
a l
Ġ p
å Ī
è ¿
Ġ f
ä ½
Ġ b
Ġa n
in g
å Ĳ
ç Ķ
æ ĺ
Ġo f
a r
Ġ in
o u
ãĢ ģ
å ľ
Ġ d
Ġ m
å Ĭ
â Ģ
i on
ç »
i c
Ġt o
æ Ī
l e
- -
a s
Ġan d
ä ¹
è ¯
ä¸ Ģ
å Ń
æ ĸ
æĺ ¯
r o
ĠĠĠĠ ĠĠĠĠ
å °
è ®
Ġ h
å Ľ
æ Ĺ
Ġt h
ä ¼
en t
å ¹
c t
ä¸ į
æľ ī
åľ ¨
å ·
æ Ŀ
e t
e l
Ġ re
Ġ n
å į
å ¸
s t
o m
æ ī
äº º
é ĩ
Ġ l
æ ķ
å ¼
è Ģ
äº Ĩ
i l
Ġ e
å º
å ¯
è ¡
å Ĩ
å ¾
å ĩ
ĥ ½
i d
é Ģ
å Į
ä¸ Ń
æ ł
ç Ľ
è §
o t
i m
è ´
å Ĵ
i g
åŃ ¦
Ġ g
v e
æ Ĭ
u t
æ Ģ
ä¸ º
åĴ Į
çĶ Ł
Ġ I
Ġ T
å ¥
¦ ģ
Ġ is
o l
è ¦ģ
a m
å¤ §
ç İ
Ġ (
-- --
è µ
l y
a c
u s
ç §
at ion
å ±
o w
Ġb e
a d
u r
Ġf or
æ Ķ
ä» ¥
å ¿
Ġ S
é Ĺ
æĹ ¶
è ĩ
ä¸ ª
Ġth at
âĢ ľ
æĪ ĳ
Ġ on
ä¸ Ĭ
u n
0 0
æ °
é Ŀ
âĢ Ŀ
å ½
ç ī
ä½ ľ
Ġ A
æ ³
å İ
è ĥ½
é Ļ
è¿ Ļ
ä¼ ļ
Ġs t
æ Ń
ä¸ ļ
å ĳ
v er
Ġ C
ç Ĳ
ä ¿
a y
ç º
çĶ ¨
it h
åı ĳ
u l
æ İ
å¯ ¹
c e
å· ¥
æ ŀ
Ġ 1
é ¢
ç Ń
i f
æ ĥ
s e
åĪ °
Ġ y
è¡ Į
å¹ ´
æ ²
ĠĠ Ġ
Ġw ith
i r
ç ľ
Ġ he
æĪ Ĳ
åĽ ½
æĿ ¥
æ ¯
æ µ
Ġc on
åı ¯
c h
çĲ Ĩ
Ġa s
Ġ "
åĩ º
è Ĥ
ĠĠĠĠĠĠĠĠ ĠĠĠĠĠĠĠĠ
t er
æ Į
ï¼ ļ
æ Ħ
è ¾
o d
è ½
å ĵ
æĸ ¹
Ġ it
ä» ¬
èĩ ª
å° ±
åĪ Ĩ
Ġ M
æ ĭ
Ġp ro
åĬ ¨
å¤ ļ
Ġa l
a g
a b
è¿ Ľ
e m
å ¦
Ġw e
å Ł
åľ °
äº İ
u m
ç ®
p p
Ġ v
å® ¶
Ġw h
r i
at e
å® ŀ
çİ °
è¿ ĩ
Ġw as
Ġy ou
2 0
Ġ P
é «
å ģ
åĲ İ
é« ĺ
å ī
ä¹ Ł
Ġ $
q u
Ġd e
é ĺ
åĬ Ľ
æ ´
ä¸ ĭ
re s
o s
ä½ ĵ
p e
r a
æ ±
ç» ı
æ ¬
he r
Ġ B
å¥ ½
= =
ç Ĥ
æķ Ļ
éĿ ¢
ĠT he
ç ¨
is t
å® ļ
h t
es t
æ³ ķ
Ġe x
åħ ¨
æ ı
an t
Ġa t
åħ ¬
ä ¾
ç «
Ġc om
é ĥ
Ġ H
é ģ
ä» ĸ
åŃ Ĳ
ç ½
Ġo r
çŃ ī
äº §
l d
å° ı
Ġ r
åĲ Į
---- ----
æĢ §
é ķ
t h
åĮ ĸ
åĲ Ī
ä¸ İ
an d
æ ¸
Ġs e
Ġ \
å¼ Ģ
er s
é ¡
æĸ °
i v
Ġs u
a in
æľ ¬
es s
Ġ D
Ġa re
Ġ F
o c
èĢ Į
å¸ Ĥ
Ġb y
il l
è ·
ro m
o re
å¾ Ĺ
ä¸ »
å »
k e
éĥ ¨
o p
ç Ł
Ġ W
it y
å¿ ĥ
åħ ³
è °
éĩ į
é ĥ½
æ Ľ
ou n
åĬ ł
åº ¦
å¦ Ĥ
ç Ŀ
ç ¤
Ġh a
Ġn ot
åĨ ħ
Ġ 2
Ġ R
ç ¬
æľ º
m ent
å Ģ
Ġ L
èĢ ħ
çĤ ¹
ct ion
è ¶
è ģ
åº Ķ
åħ ¶
i ve
en d
å± ķ
æĸ ĩ
è® ¾
æī Ģ
æı Ĳ
* *
Ġn e
åĪ ¶
ig ht
Ġ -
äº ĭ
Ġ N
å» º
or t
æ į
Ġ =
åī į
ç® ¡
è¯ ´
ä¹ ĭ
åĵ ģ
éķ ¿
æĹ ¥
èµ Ħ
Ġf rom
p t
æĥ ħ
re d
ç ¾
éĹ ´
æľ Ģ
ar t
å Ŀ
' s
éĩ ı
el l
éĢ ļ
è¿ ĺ
é £
æ Ł
Ġth is
åĬ ¡
ä½ ł
è ī
ç ³
å·¥ ä½ľ
ç¨ ĭ
åı Ĭ
u d
Ġs h
é ļ
å ¢
æ ¶
Ġ un
å¾ Ī
Ġ us
t e
å¤ ©
ä¿ Ŀ
Ġ E
Ġ G
åĽ ł
æ Ļ
ç§ į
ä½ į
çĽ ®
æ° ´
p l
é¢ ĺ
20 1
re n
æ´ »
i es
åĳ ĺ
è Ĭ
Ġc h
ou ld
é Ľ
. "
åľ º
i al
ç Ħ
çĶ µ
Ġha ve
ä¸Ģ ä¸ª
é Ķ
è® ¡
æĦ ı
åħ ¥
f e
æľ Ī
at ed
al l
âĢ Ļ
ou r
å½ ĵ
Ġ le
ç ¡
çĿ Ģ
çľ ĭ
æľ Ł
ç ©
æĪĳ ä»¬
Ĥ £
çĽ ¸
ç Ĺ
u re
å §
æŀ ľ
in e
çī ©
åĮ º
ï¼ Ľ
é ľ
ä¹ Ī
æĽ ´
o g
æ ¡
u st
ç³ »
ä» İ
å° Ĩ
ç ´
ç ĸ
æ¯ Ķ
ä¸ ī
è¡ ¨
g e
ç ł
Ġ k
éģ ĵ
å® ī
è Ĳ
ä¿ ¡
å¹ ¶
ic h
i e
å¸ ¸
æĺ İ
åģ ļ
çĦ ¶
èµ ·
æ ģ
å¤ ĸ
åı¯ ä»¥
p er
ar d
ĠĠĠĠ ĠĠĠ
å· ±
ac k
å¹ ³
ic al
æķ °
äº Ľ
{ \
éĹ ®
ç Ī
ç ķ
åŃ¦ çĶŁ
è§ £
Ġ O
ç¬ ¬
èĩª å·±
Ġc an
ä½ Ĩ
é ħ
è½ ¦
å¼ ı
) .
Ġ *
Ġ 0
å¸ Ī
æĥ ³
è´ ¨
i z
ä½ ¿
èĢ ĥ
Ġm e
æ¬ ¡
ç» ĵ
ç ¼
æł ·
Ġ j
u p
æĪ ĸ
Ċ ĠĠĠ
am e
æ² ¡
ou t
om e
ç ²
ç Ļ
i b
ï¼ Ł
æ° ĳ
æŃ £
ag e
Ġa b
Ġw he
1 0
u e
d er
æ ·
å¼ º
çŁ ¥
è§ Ħ
ç ±
ä¹ ł
o st
æī ĭ
åĪ ©
ab le
åŁ º
Ġt r
ç ĥ
Ġ 3
å¯ ¼
æĹ ł
è ĥ
éĩ ĳ
é Ĵ
æĦ Ł
éĩ Į
Ġwe re
c l
èĤ ²
æł ĩ
Ġp l
Ġre s
ul t
id e
åĲ Ħ
ĠI n
Ġc l
ç¾ İ
æĶ ¿
T he
Ġ J
as t
åİ »
æľ ¯
ç½ ĳ
åıĳ å±ķ
å ķ
æĬ Ģ
è º
t her
an s
æŃ ¤
åĪ Ľ
Ġcom p
Ġal l
as e
çī ¹
æ± Ĥ
a ct
ç» Ħ
âĢ Ķ
è Ħ
å ĸ
Ġd o
ãĢ ĭ
at h
è¿Ľ è¡Į
Ġh is
è® ©
ä¼ ģ
a k
åı ¸
Ġa d
æķ Ī
Ġ im
i p
as s
é ª
oun d
. .
ç§ ĳ
ãĢ Ĭ
åĲ į
in d
== ==
a p
Ġcon t
äº Į
or m
èº «
ou g
on e
ig n
ou s
o k
ç ¥
ä¸ ĵ
è ĭ
åį ķ
éľ Ģ
Ġwh ich
ï¼ ģ
é¡ ¹
ä» ·
Ġb ut
é Ĥ£
æį ®
Ġ U
äº ¤
ä» £
è ¢
ä¼ģ ä¸ļ
ä» »
è į
u b
ç®¡ çĲĨ
on g
it ion
æľ į
åİ Ł
ç¤ ¾
æĬ ¥
æİ ¥
Ġin t
p h
Ġ en
ç ģ
c c
ĠĠĠĠĠĠĠĠĠĠĠĠĠĠĠĠ ĠĠĠĠĠĠĠĠĠĠĠĠĠĠĠĠ
å ŀ
è Ī
Ġ [
èĢ ģ
ic e
Ġw or
åĲ ĳ
æĮ ģ
å¤ Ħ
Ġa r
åı ª
åı ĺ
è° ĥ
ç» Ł
çĶ ±
im e
ar y
åħ¬ åı¸
è· ¯
æł ¼
å½ ¢
æĶ ¶
åħ ĥ
é ĵ
ä» ¶
é ¦
e p
ä¸ ¤
t y
Ġa pp
Ġ {
Ġh as
æ¯ ı
) ;
éĹ® é¢ĺ
Ġd is
æµ ģ
è £
åħ ·
è® ¤
Ġ +
ç» Ļ
res s
åı Ĺ
-------- --------
è¯ Ĩ
Ġo ut
çº ¿
d u
æł ¡
æ²¡ æľī
Ġh ad
æ º
n e
) ,
å° ĳ
en ce
Ġg o
1 9
å· ²
éĻ ¢
f f
e ar
en s
in t
ä¸Ń åĽ½
ation s
i a
æĸ ½
æ° Ķ
æ »
= "
è¿ Ĳ
å £
ç¡ ®
è¯ ¾
Ġ 4
å® Į
éĢ ł
éĢ ī
æĢ »
éĹ ¨
Ġ qu
å® ¹
a v
r u
æ £
o se
ac e
Ċ ĠĠĠĠĠĠĠĠ
Ċ Ġ
_ {
è¢ «
i le
Ġon e
c on
å¢ ŀ
Ġw ill
çº §
Â ł
b er
åĪ «
çľ Ł
é£ İ
Ġp er
æ² »
an ce
1 2
è¯ ģ
ent s
åĮ »
or y
åķ Ĩ
Ġs o
æĶ ¹
è Į
æ ®
æķĻ èĤ²
æĮ ĩ
æĶ ¾
al ly
æĬ Ĭ
æ³ ¨
åĩ Ĩ
èī ²
Ġ up
Ġthe y
æŁ ¥
ĠT h
åŃ ©
è® °
èĬ Ĥ
el y
è¾ ĥ
è´ ¹
è§ Ĥ
s o
çĹ ħ
ä¼ ł
oug h
æķ ´
é ©
i re
çł Ķ
Ġ if
ç¤ º
an g
åħ Ī
åı ĸ
å¤ ĩ
è ±
åı £
å¥ ³
Ġ 5
åŀ ĭ
ac h
å½ ±
çĽ ´
æĹ¶ éĹ´
a re
r y
æī į
d e
åŃ¦ ä¹ł
ä¹ ¦
Ġe v
Ġs a
} }
Ġ K
çİ ¯
åħ »
å°± æĺ¯
it e
Ġthe ir
ç ¦
æĢ Ŀ
Ġhe r
/ /
è¯ ķ
Ġm y
l l
ç ħ
1 1
ç± »
ion s
æģ ¯
ä¸ ĩ
æī ĵ
è Ļ
ow n
Ġm ore
' t
Ġthe re
ren t
èĩ ³
å ²
è¾ ¾
åĬ ŀ
p ort
f orm
æŃ ¥
Ġp art
æĿ ¡
èĲ ¥
è® º
å¸ ¦
Ġyou r
æº Ĳ
Ġl i
ver y
è¯ ¥
ç² ¾
æĸ Ļ
or d
ä» Ģ
Ġm an
åį ģ
åĽ ŀ
é »
åŃ© åŃĲ
x t
èģ Į
èģ Ķ
è§ Ĩ
æĬ ķ
ĉ ĉ
Ġa g
æ ¼
ä»Ģ ä¹Ī
Ġp re
æİ ¨
éĽ Ĩ
æ¶ Ī
o ok
a ke
åĽ ¾
é¢ Ĩ
Ġn o
Ġo ther
or s
åĨ µ
Ġbe en
æµ ·
¥ ¿
åŁ İ
ä¼ ĺ
éĿ ŀ
åĨ ³
ç´ ł
å¤ ´
éª Į
æľį åĬ¡
Ċ ĠĠĠĠĠĠĠ
f t
å Ħ
e ct
a il
v el
éĺ ²
ç« ĭ
æ´» åĬ¨
ä¸ ľ
Ġw ould
Ġg r
çĪ ±
è ¥¿
Ġs p
æĬĢ æľ¯
æ¡ Ī
è´ £
åĦ ¿
ç Ĭ
è¯ Ŀ
éĢļ è¿ĩ
åĨ į
å¹ ¿
åħ ±
æŀ Ħ
åı Ĥ
å Ķ
åĽ Ľ
w e
Ġ1 9
Ġs c
ç¤¾ ä¼ļ
re e
è İ
k s
y s
æ· ±
æĪ ·
Ġ V
Ġwh o
ĠS t
æ ¨
ur n
l ic
æµ İ
å¸Ĥ åľº
a us
æĪ ¿
Ġ <
æĬ ¤
1 5
åĬ Ł
ä» Ĭ
æ¸ ħ
å¿ «
æĺ ĵ
å¥ ¹
è½ ¬
Ġan y
è£ ħ
ç ı
ä¾ Ľ
å¼ ķ
å¿ ħ
ä»ĸ ä»¬
é£ Ł
c om
æķĻ åŃ¦
Ġab out
Ġwhe n
å¤ į
ä½ İ
re at
æĶ ¯
é ¥
éľĢ è¦ģ
Ġal so
å¦Ĥ æŀľ
ç© ¶
Ġt ime
è ħ
2 00
æł ¹
l ow
å® ĥ
ç§ ¯
æĿ ĥ
è¿ ĳ
ãĢĤ (
ĠĠĠĠ Ġ
åı °
Ġ$ \
[ @
er v
çĶŁ æ´»
æ£ Ģ
w o
çİ ĩ
I n
å»º è®¾
æ Ĥ
åĢ ¼
at a
et h
åĪ Ļ
at es
Ġth an
åı į
éļ ¾
ç»ı æµİ
å®ī åħ¨
åĨ ľ
Ġ ro
Ġo ver
3 0
åħ ļ
åĮ ħ
Ġs ome
è§ ģ
å¢ ĥ
çĥ Ń
if ic
è¿Ļ ä¸ª
è¦ģ æ±Ĥ
éĺ Ł
Ġo b
åĢ Ļ
ä½ ķ
ç© º
er m
åı Ī
\ ]
Ġ '
å¹ ²
Ġk n
æĢ ģ
è¯ Ń
f ter
Ġit s
r ic
åĩ ł
éĻ ħ
Ġb et
æĥħ åĨµ
çľ ģ
m ath
è¶ Ĭ
ay s
h at
o b
Ġs he
å® ¢
å± Ģ
åŃ ĺ
oun t
éħ į
Ġf e
éĢ Ł
Ġs pe
åĬ ©
åħ ī
çĻ ½
éĩ ĩ
æŀ ģ
åĽł ä¸º
æ ĳ
c es
åį Ĺ
Ġ &
o ve
æ® µ
çļĦ äºº
ä¸ Ķ
æ¨ ¡
Ġint o
p le
re f
ir st
è¯ Ħ
çĸ Ĺ
åĳ ¨
Ġa m
c re
Ġt e
Ġas s
æ¸ ¸
æĸ Ń
Ġ 6
æ ¢
åŁ ¹
ç¥ ŀ
j ect
å Ļ
Ġd es
å± ±
Ġd if
Ġ Y
è± ¡
æİ §
ing s
ä¸ ĸ
i ed
Ġg en
åĮ Ĺ
at er
o v
èĥ½ åĬĽ
ri b
è§ ī
éĢ Ĥ
Ġthe m
00 0
Ġs y
ç» Ń
èĮ ĥ
le ct
çħ §
ĠI t
} $
ä¹ Ĳ
æĸ¹ éĿ¢
æĮ ī
åĵ į
äº§ åĵģ
ç½ ®
åĪ Ĵ
is s
ç» ´
åĳ Ĭ
fe ct
Ġsa id
he d
æĿ ĳ
éĩį è¦ģ
ç ĭ
Ġin ter
ver s
g r
å¸ ĥ
ç® Ĺ
è¯ ·
ro w
æİ Ĵ
ä¼ Ĺ
ä¹ ī
è® ®
çķ Į
1 6
çĲ ĥ
åı ·
ol d
éĻ ¤
cl ud
æĿ Ĳ
é¢ Ħ
Ġof f
1 3
ç ª
Ġne w
é Ł
è¿Ļ æł·
æĹ¶ åĢĻ
ĠA n
äºº åĳĺ
åį ĩ
å§ ĭ
i an
åı ĭ
Ġ }
èĩ ´
é¡¹ çĽ®
Ġsu b
ĠH e
Ġa cc
c ed
in k
Ġli ke
Ġwh at
1 8
è¯ »
æ¬ ¾
åĽ ¢
Ġg et
ä¸» è¦ģ
åģ ¥
æĺ ¾
éĶ Ģ
æĪ ĺ
ç» ĩ
Ġre c
å¼ ł
èĬ ±
èĤ ¡
åĻ ¨
è¶ ³
it t
éĻ Ĳ
is h
è®¾ è®¡
Ġh im
Ġt wo
m a
^ {
ä½¿ çĶ¨
Ġon ly
Ġp e
p s
Ġun der
Ġa ct
èĩªå·± çļĦ
1 4
aus e
Ġcom m
ä¿¡ æģ¯
æıĲ é«ĺ
å± Ĥ
å¤ Ł
èµ °
å§ Ķ
åı¯ èĥ½
c k
ar k
Ġm od
ic k
Ġo ur
Ġ âĢľ
çłĶ ç©¶
Ġcon s
Ġre l
æľ ª
Ġm ay
t he
il d
åĲĮ æĹ¶
åį ³
u al
5 0
i ous
å¾Ī å¤ļ
Ġb l
çĽ ĳ
ĠC h
äº Ķ
g et
åİ ĭ
å¥½ çļĦ
çĬ ¶
Ġwor k
âĢ ĵ
Ġbe c
çī ĩ
æĸ¹ æ³ķ
æ» ¡
ä¸ ¥
ul ar
on s
åĬ ¿
åĽ½ å®¶
ad e
er t
Ġf un
çı Ń
éĻ ©
åį İ
ig h
æīĢ ä»¥
ä¸į æĺ¯
è ı
ä¾ ĭ
ã ģ
at ive
ç» Ĩ
è¿ĩ ç¨ĭ
Ġp os
Ġst ud
ç»Ħ ç»ĩ
Ġin d
ä¸Ń çļĦ
èµ Ľ
Ġe m
ç³» ç»Ł
å·² ç»ı
pe ct
_ _
u g
è¶ ħ
Ġy ear
å½± åĵį
éļ ı
Ġf irst
åĲ ĥ
ä¾ ¿
Ġre g
Ġc ould
é¦ ĸ
ä½Ĩ æĺ¯
r ing
æ Ĳ
el f
ä¸Ģ äºĽ
Ġde f
çŃ ĸ
Ġ 7
ç Į
Ġc o
è¡ Ģ
Ġv al
Ġp r
Ġtr ans
çĽ Ĭ
Ġj ust
ä» ħ
Ġp h
æł ¸
æ Ĵ
å¤ ±
==== ====
Ġsu ch
å¾ Ģ
çº ¦
åħ ħ
æķĻ å¸Ī
Ġad d
oc k
äºº çļĦ
æĭ ©
1 7
ie w
Ġin v
å¤ ª
è ¨
å·¥ ç¨ĭ
åĪ ĩ
c ess
as ed
ä¸Ģ å®ļ
Ġfor m
ä½ ı
æµ ĭ
è ŀ
# #
è¨ Ģ
çĶŁ äº§
å® Ŀ
e f
ä¸ĵ ä¸ļ
Ġd et
o od
åº ·
on t
å¤§ å®¶
ä¹Ł æĺ¯
Ġwhe re
èİ ·
ç¾ ¤
èį ¯
Ġthe se
ot h
Ġp res
p ro
åĨħ å®¹
ĠTh is
Ġl a
æ² ¹
Ġthe n
at ing
å¾ ĭ
o int
Ġa fter
è´ Ł
è® ¸
æ Ĥ£
èĲ ½
Ġ 201
Ġdif fe
å¯¹ äºİ
ãĢĤ âĢĿ
ç¦ »
æ¼ Ķ
Ġc ol
Ġh ow
åĨ Ļ
ĠW e
s s
æ ļ
æĸĩ åĮĸ
ç« Ļ
i ent
çİ¯ å¢ĥ
Ġat t
æľ Ľ
Ġre t
2 5
éĢī æĭ©
ç§ °
Ġ 8
æŀ Ĳ
st em
æ ĵ
å ¨
ä¾ Ŀ
we en
åİ Ĩ
âĢĿ ï¼Į
æĸ¹ å¼ı
on d
å ĥ
Ġd id
he n
? "
Ġs ign
ol og
od e
ä¿ ®
Ġex p
å ł
æ ¹
è´ ¢
Ġ1 0
è® Ń
l es
çİ° åľ¨
åŃ Ĺ
Ġp at
çŁ¥ è¯Ĩ
Ġre m
è¾ ¹
Ġkn ow
æ¸ ©
åĽ Ń
çº ¢
åĩ ı
Ġpro v
åŃ¦ æł¡
< /
il ity
] (
å¾ ·
è® ²
e c
æ ħ
å ¡
Ġbet ween
ç ¢
è¿Ļ äºĽ
ä» ½
çľ ¼
ç¬¬ ä¸Ģ
é ¾
Ġs et
Ġne ed
åĸ Ħ
Ġp ol
t a
ä¸į åĲĮ
i o
ä½ľ ä¸º
ä¸į èĥ½
ic t
å· ŀ
op le
is e
å¾ ®
çļĦ æĺ¯
f fect
ty pe
i x
Ġ _
åĿ ĩ
åĽ ´
è¿ĺ æĺ¯
id ent
åį ı
çļĦ ä¸Ģ
åİ ¿
å ĭ
é¡ »
åĿ ļ
ut ion
é© ¬
æĬķ èµĦ
æıĲ ä¾Ľ
Ġf l
ç± ³
Ġ 9
} \
o y
å® ¡
ç¼ ĸ
è´¨ éĩı
Ġb ack
éĿŀ å¸¸
Ġc ell
ä½ľ çĶ¨
å¤§ çļĦ
è´ Ń
åľ Ł
åĥ ı
Ġus e
Ġ i
åįķ ä½į
e x
ä»¥ åıĬ
åĪ° äºĨ
å® ¤
èŀ į
æĿ ¿
ol low
Ġ\ [
æł¹ æį®
r ough
, "
r it
åĩº çİ°
an ge
2 4
Ġres ult
éĻ į
) {
. ,
n ing
å¼Ģ å§ĭ
ç» Ī
æ¬ ¢
åĸ ľ
å¿ µ
éĥ¨ åĪĨ
æĪĲ ä¸º
Ġa c
ce pt
Ġsu pp
çİ ĭ
Ġus ed
iz e
r ight
çģ «
ib le
è¿ ŀ
ç® Ģ
f ore
çĽ¸ åħ³
i el
e g
ä¹ °
Ġsh ow
çī Į
f r
èī ¯
ĠU n
Ġs m
å± ŀ
Ġse e
æī ¿
Ã ©
åĳ ½
f ig
Ġs ur
éĥ½ æĺ¯
æĻ ¯
åĪ Ĺ
æķ ħ
æ ¿
al s
Ġin clud
ter n
äº ī
çļ ®
éĿ Ĵ
Ġn um
t o
ĊĠĠĠĠĠĠĠĠ ĠĠĠ
èī º
è§ Ĵ
äº ¬
b le
åħ į
w n
Ġ Ð
åº ķ
è½ »
äº Ĵ
å¯ Į
éŁ ³
åŁ Ł
åĲ ¬
Ġsh ould
c y
Ġd ist
åħ ĭ
åı Į
Ġd ata
ment s
åĳ ¢
éĥ¨ éĹ¨
æ¿ Ģ
çĶ ·
çļĦ æĹ¶åĢĻ
åį ´
Ġc or
Ġv ar
ç¡ Ģ
it s
åŁº ç¡Ģ
åĪĨ æŀĲ
Ġspe c
æŁ Ĳ
Ġth rough
æ± Ł
m er
Ġ |
Ġm ost
l i
Ġs im
our t
8 0
åĶ ®
ul l
Ġpe ople
åº ľ
å ©
u es
å£ °
Ġ .
Ġf act
æĢ İ
ction s
Ġf ollow
äºº æ°ĳ
" ,
it ed
çŁ¥ éģĵ
è¿ ľ
æĹ ©
2 2
4 0
m s
è¡ ¥
å¦ Ī
å· ®
åıĳ çİ°
ru ct
å£ «
æłĩ åĩĨ
Ġag ain
èĭ ±
åĪ Ŀ
in ed
in s
u ch
åıĳ çĶŁ
ä¸ĸ çķĮ
èĥ½ å¤Ł
ra ct
6 0
åħ ´
Ġw ell
e ver
Ġw ant
ç« ł
Ġus ing
å¸ ®
åħ· æľī
Ġt y
a x
æŃ ¢
æī ¾
ot her
åĲ ¦
ub lic
u res
æ¯Ķ è¾ĥ
ic s
ur ing
E R
éĺ ³
Ġbec ause
Ġcl ass
æĭ Ľ
äºĨ è§£
" }
äº ²
ä¸Ģ ç§į
åħ¶ ä»ĸ
Ġ end
Ġsy stem
in al
å¿ Ĺ
ãĢ ĳ
Ġr ight
2 3
ĠĠĠĠ ĠĠ
æ ¥
Ġin st
åĲ «
Ġl ook
çĻ ¾
å½ ķ
ate g
---------------- ----------------
è§Ħ å®ļ
æŀ Ĺ
æĸ ¯
p os
ãĢ Ĳ
å®ŀ çİ°
èĢģ å¸Ī
o x
e w
èĪ ¬
å¿ħ é¡»
Ġre qu
iel d
åŁº æľ¬
ä¸Ń å¿ĥ
åģ¥ åº·
é» Ħ
S t
Ġ ent
çĽ® åīį
å® ³
è¿Ļ ç§į
Ġpro du
Ġgen er
it ies
ow er
s c
ç Ĩ
em ent
æī §
å° ½
çķ Ļ
æĶ¿ åºľ
éĵ ¶
çŃ Ķ
ä¸Ĭ çļĦ
f ul
Ġev en
Ġ[ @
Ġe ach
Ġch ar
ou p
s p
ãĢĤ âĢľ
Ċ ĉĉ
å¼Ģ å±ķ
Ġex t
åĽł æŃ¤
Ġn ow
Ġh igh
w ard
iz ed
il y
æĺ Ł
a pp
å± ħ
åĲ ¸
l ed
u c
im es
åħ³ ç³»
çª ģ
æī ¹
çŁ ³
Ġdiffe rent
æľī æķĪ
T h
éĶ Ļ
.. .
è´£ ä»»
æĻ º
æ²» çĸĹ
åŁİ å¸Ĥ
) $
æĻ ®
ä¸į æĸŃ
æ¯ į
er r
Ċ ĉ
ĠS e
Ġw ay
con d
é Ĥ
ä¸ª äºº
å¾ ħ
Ġcon st
çĽ® æłĩ
éĤ£ ä¹Ī
åº Ĺ
ical ly
Ġp ar
ä¸ ¾
åĪ¶ åº¦
] {
Ċ ĠĠĠĠĠ
æĭ ī
åĨ Ľ
ï¼ļ âĢľ
Ġe very
ç» ĥ
å¯ Ł
ç§¯ æŀģ
Ġl ong
æķ° æį®
Ġ2 00
he s
ation al
Ġm in
çĶ »
Ġe ffect
g er
( \
le t
èµĦ æºĲ
åį Ĭ
æĪĸ èĢħ
ĊĠĠĠĠĠĠĠĠ ĠĠĠĠĠĠĠ
åºĶ è¯¥
Ġm ake
Ġd on
æİ§ åĪ¶
Ġ ke
åĬł å¼º
ä¿ ĥ
s h
è¡Į ä¸ļ
Ġ el
or k
ç» ©
åĪĽ æĸ°
å° Ķ
Ġd own
æĭ ħ
åĮ» éĻ¢
Ġd i
Ġhe re
Ġdo es
åĪĽ å»º
ç¨ İ
o ol
äº§ ä¸ļ
ä¼ ¤
åŃĺ åľ¨
äº ¿
Ġ very
p ut
æ¡ £
ç¼ º
ä» ĭ
ri v
p r
å®Į æĪĲ
Ġc ar
æ ¤
éħ Ĵ
Ġc all
åĳ ³
éĿ ©
çī Ī
al e
if e
ent ion
Ġbe fore
ç¦ ı
æ ¦
Ġs ame
æ³¨ æĦı
at or
è ĳ
éĴ ±
Ġt est
a ir
å¤Ħ çĲĨ
ç» ľ
I N
Ġb u
ä¸º äºĨ
1 00
Ġc ase
è§£ åĨ³
t ing
]( #
åĩ »
] ,
æ°´ å¹³
çĭ ¬
æĵ į
in ce
æĤ£ èĢħ
åĵ ª
ä¸Ģ èĪ¬
é¢ Ŀ
2 8
æĹ ħ
Ð ¾
è´ §
Ġde c
çĶ± äºİ
re ad
2 7
( )
ç´ §
Ġf ind
a red
ç§ĳ åŃ¦
éķ ĩ
è Ń
å¯ Ĩ
ç²¾ ç¥ŀ
Ġc ur
çķ ¥
Ġret urn
åį «
æľ ĭ
å¤§ åŃ¦
æĸ½ å·¥
r m
w ay
èĢĮ ä¸Ķ
Ġb oth
Ġin te
éļ ľ
ar ch
Ġyear s
Ġst at
å®ŀ éĻħ
ro l
æĭ ¬
è®¤ ä¸º
é¢Ĩ å¯¼
åı ¦
ant s
Ġ âĢĵ
æĿ¥ çļĦ
i ents
ĠĠĠĠĠĠĠĠĠĠĠĠĠĠĠĠĠĠĠĠĠĠĠĠĠĠĠĠĠĠĠĠ ĠĠĠĠĠĠĠĠĠĠĠĠĠĠĠĠĠĠĠĠĠĠĠĠĠĠĠĠĠĠĠĠ
Ġth ose
Ġb el
ri pt
Ġpart ic
in es
Ġh and
Ġf ound
ç» ¼
2 6
a ve
çł ´
Ġm ed
u pp
Ġo p
å¦Ĥ ä½ķ
oc i
Ġan al
èŃ ¦
Ġm at
é ¼
re st
çº ª
Ġm on
ä¸ ´
fr ac
æĿ İ
æ² ³
p ar
Ġp oint
éĢ ģ
y m
Ġpl ay
åı ²
ag es
èĻ ½
I t
è¿Ļ ä¸Ģ
åŃ £
Ġman y
é ¸
Ġa ut
Ġin cre
an n
A n
ain t
è¡Į ä¸º
åĬ ³
** **
âĢĿ ãĢĤ
eth od
æį ¢
æľĭ åıĭ
ut e
çŁ Ń
Ġg u
Ġt ra
äº «
9 0
Ð °
vel op
è· Ł
c ent
è¿ĺ æľī
Ġbe ing
å½¢ æĪĲ
å® £
çĹ ĩ
Ġp ers
ä¸Ģ æŃ¥
2 1
Ġc he
e v
an k
Ġm ade
Ġth ink
Ġs er
æĦ ¿
æķĪ æŀľ
_ {\
Ġfun ction
æīĢ æľī
è¡¨ ç¤º
o f
å¸ Į
Ġ est
ç½ĳ ç»ľ
ä»¥ ä¸Ĭ
ak ing
Ġ z
åį ļ
] \]
Ġgo od
Ġl oc
Ġex am
as es
Ġex per
æ± ½
æĿ¡ ä»¶
ç¨ ³
æĿĲ æĸĻ
Ġm em
æĪĳ åĽ½
åĬŁ èĥ½
æ£Ģ æŁ¥
å² ģ
æį Ł
çŃ ĳ
- >
Ġnum ber
te xt
9 9
" >
Ġres p
åł Ĥ
èµ· æĿ¥
è®¾ å¤ĩ
ä» ĺ
ä¹ĭ åĲİ
O N
ç¬¬ äºĮ
Ġapp ro
æĢĿ æĥ³
ç» §
ä¹ ¡
od y
Ġd ire
ç ĵ
æ¶Ī è´¹
æľī åħ³
as on
at ure
Ġ ,
Ġ et
è¯ ī
Ċ ĠĠĠĠĠĠĠĠĠĠĠĠĠĠĠĠ
3 5
y l
o ver
s et
Ġt ri
ä¸į è¦ģ
Ġm uch
ĠC om
ä¸į ä¼ļ
è®¡ åĪĴ
äºĨ ä¸Ģ
åħ Ń
Ġf il
ren ce
c al
m in
âĢ ī
d ay
åĮħ æĭ¬
æ ½
åĲĪ ä½ľ
åħ¶ ä¸Ń
ä»· æł¼
Ġst r
Ġ :
Ġo wn
æĺ ¥
n er
åŁ¹ åħ»
åŁ¹ è®Ń
åĲ Ĺ
en g
Ġin s
n g
é» ĳ
åģ ĩ
] .
Ġ Â
Ġs ol
t r
ĠF or
Ġhe l
é ²
è¾ ĵ
å¢ŀ åĬł
W e
åĲ §
oug ht
å¥ ĸ
as h
7 0
Ð µ
Ġ ra
Ġwh ile
é¾ Ļ
is m
çī¹ åĪ«
) )
ĠA l
at her
]{ }
åį ł
v al
c er
A T
è Ľ
å¥ Ĺ
åĪ© çĶ¨
ç ¿
Ġre p
ç»ĵ æŀĦ
f l
è¿ °
en se
æİ ¢
b e
Ġpro te
$ \
æľº æŀĦ
Ġl ar
æĢİ ä¹Ī
Ġ @
Ġpro cess
äº§ çĶŁ
åĽ½ éĻħ
è¿Ļ æĺ¯
iv ely
ç»ĵ åĲĪ
u ally
æĶ¿ çŃĸ
è Ĩ
Ġre ad
çĶ ³
g an
Ġ\[ [@
} {
ain ed
åī §
æĪ ı
el s
Ġpres ent
2 9
åº Ń
äº ļ
å®ŀ æĸ½
ä¸ °
åį ¡
éĵ ģ
åİŁ åĽł
ç« ŀ
b r
if ied
o id
a h
re t
ress ion
i red
Ġg reat
éĩį çĤ¹
form ation
ç¥ ¨
é¦ Ļ
n ess
èĤ ¤
å¼ Ĥ
Ġs om
åĸľ æ¬¢
åĲĦ ç§į
åı ¤
é Ĩ
å¾ ģ
çĽ ĺ
W hat
ĠAn d
Ġdis c
g g
3 3
Ġth ree
èĦ ĳ
éĴ Ī
Ġstud y
åĮĹ äº¬
éĩĩ çĶ¨
Ġle vel
Ġst art
4 5
ç»¼ åĲĪ
åį °
v en
åĽ °
åıĬ æĹ¶
ä»· åĢ¼
v ed
éģ ĩ
åĽ º
åģ ľ
Ġg iv
Ġse cond
å Ĥ
æİ ª
æĻ ļ
è´Ł è´£
ä¸ļ åĬ¡
am p
s elf
è¿ĩç¨ĭ ä¸Ń
le ft
Ġ /
ç§ »
ic es
éĺ ¶
é¢ ĳ
al k
an y
èĻ½ çĦ¶
çĽ´ æİ¥
çĪ ¶
ĠL et
ç¾İ åĽ½
åĿ Ĺ
åºĶ çĶ¨
f er
ä¸į ä»ħ
Ġ x
ä¿Ŀ æĬ¤
Ġde velop
æıĲ åįĩ
c ul
æŁ ĵ
æı ¡
åĵģ çīĮ
éĶ ®
ar ly
ĠB ut
çĿ £
ateg ory
å® ĺ
çİ ©
æĽ´ å¤ļ
al th
o le
Ġg l
t on
ä¸Ģ èµ·
èı ľ
Ġwith out
æĪĳ çļĦ
ä¹ĭ éĹ´
is ion
ç» Ŀ
Â ·
ç»ı èĲ¥
l ine
ä½ Ļ
ĠA s
è¿Ľ åħ¥
Ġpos s
m ed
ç§ĳ æĬĢ
åį ĥ
åħ¶ å®ŀ
ĠP ro
åº §
å¸Į æľĽ
å ª
çĹ Ľ
ou se
Ġre port
Ġe qu
æĮ ¥
Ġs erv
Ġb r
C R
E S
åıª æľī
è° Ī
å¹´ çļĦ
è¾¾ åĪ°
åħ¨ åĽ½
m an
åħ¨ éĿ¢
Ġd uring
Ġde p
å¸® åĬ©
ç¬ Ķ
ç« ¯
Ġf r
çº ³
Ġval ue
Ġc ourt
è· µ
ä»£ è¡¨
è½ ½
æĴ Ń
Ġm et
us s
ä½ł çļĦ
æĤ ¨
æŃ »
Ġa v
N A
èĩª çĦ¶
i er
3 2
å»º çŃĳ
åĪ »
éĢł æĪĲ
% ,
èİ· å¾Ĺ
H e
Ġt erm
æł ĳ
Ġn on
æĿ¥ è¯´
id er
ĠI f
çĶ ļ
er g
Ġan t
A R
ff ic
Ġs ay
èĥ Į
al ity
æ¶ ²
am s
æ¯ Ĵ
ter s
ign ed
å¯¼ èĩ´
an e
iz ation
Ġsupp ort
st r
Ġst ill
è¡¨ çİ°
Ġm ethod
ç´ ¢
è¿Ĳ åĬ¨
Ġle t
t il
åŃ¦çĶŁ çļĦ
å¹³ åı°
um ent
Ġcell s
èĢĥ è¯ķ
åī ¯
Ġor der
: //
ra ph
Ġper form
æĶ¹ éĿ©
æĪĲ åĬŁ
o h
åı ³
ro ss
a z
ä¸Ģ æ¬¡
æĺ¯ åĲ¦
åħ· ä½ĵ
å®¹ æĺĵ
æ¯ ķ
è¯ ¢
Ġp ublic
æĢ ¥
ç»ĵ æŀľ
å· ¦
æıĲ åĩº
ist s
æĵį ä½ľ
le ment
åĪ ļ
è¿Ľ ä¸ĢæŃ¥
é¡ º
ä¸Ģ çĽ´
éľĢ æ±Ĥ
äº ĳ
Ġ1 8
" :
å¼Ģ åıĳ
id ed
Ġsm all
Ġp a
3 6
åħ³ æ³¨
æĽ ¾
ç² ī
éĴ Ł
Ã ¤
èĤ ī
d ition
ä¸Ģ æł·
è¶ £
y n
æīį èĥ½
æĮī çħ§
åĬ ª
å ĺ
ial ly
Ġm ust
å¢ŀ éķ¿
en cy
Ġpat ients
åıĤ åĬł
è Ĵ
è¯ į
an c
æħ ¢
Ġhel p
$ .
l and
åľ° æĸ¹
ä»Ĭ å¤©
ĠH ow
$ ,
Ġ 20
r t
æ´ Ĺ
' m
æ¨¡ å¼ı
v iew
Ñ Ĥ
Ġc ount
Ġst ate
v ing
Ġt ake
math b
åĿļ æĮģ
o ad
, \
ç» ¿
a w
Ġl ast
æĬ ĵ
Y ou
æĿ ¾
d s
Ġl ine
ç¾¤ ä¼Ĺ
éĶĢ åĶ®
Ġd ay
Ġact iv
Ġgr oup
å½ ©
åĬª åĬĽ
m e
æĹ ı
éĢ Ĳ
çĨ Ł
çľĭ åĪ°
èµĦ éĩĳ
çļĦ éĹ®é¢ĺ
ç £
çļĦ äºĭ
t t
å© ļ
éĴ ¢
è¿ Ŀ
æ¥ ¼
Ġc le
ã Ĥ
åģļ å¥½
å®ŀ è·µ
è½ ¯
Ġim port
æĮĩ å¯¼
éĵ¶ è¡Į
çŃ ¾
åľ° åĮº
r ay
å² Ĺ
ç§ Ģ
è¿ ½
æľĢ åĲİ
å¿ĥ çĲĨ
è§ī å¾Ĺ
Ġpre v
æĦı è¯Ĩ
r on
æľī çļĦ
éħ ¸
Ġdes c
Ġagain st
éģ ¿
èģĶ ç³»
éĺ ħ
Ð ¸
Ġc ent
å¹ ¼
¤ Ĳ
ir c
ç ¯
Ġn ame
æ±½ è½¦
çĶļ èĩ³
a j
Ġ ed
O R
æľī éĻĲ
åĬ ±
è ĸ
' ,
am b
Ġpro ble
m m
åħ «
æĶ¯ æĮģ
ç» į
l ess
Ġsign ific
at ic
Ġle ad
é¥ ®
ul ation
C ategory
åį ±
Ġch ild
å®¢ æĪ·
o ot
æĬ Ĺ
if y
ä¿ĥ è¿Ľ
7 5
æĭ ¿
is hed
Ġr un
æľ ¨
Ġc re
ch n
ab ility
Ġd el
ar s
Ġqu est
æ³ ¢
e k
3 4
ĠY ou
ä¼ł ç»Ł
æİ Į
Ġf am
åĲĮ åŃ¦
Ġex pl
é£ ŀ
é£İ éĻ©
æ³ķ å¾ĭ
. âĢĿ
äº Ī
ä¿Ŀ è¯ģ
act er
id ence
æİª æĸ½
åħħ åĪĨ
n ot
åĳĺ å·¥
ä¸¤ ä¸ª
am es
æĻº èĥ½
Ġpers on
âĢĶ âĢĶ
mer ic
Ġf in
åª Ĵ
Ġar t
3 8
Ġ //
åİ Ĥ
Ġo per
åĪ ¤
å· ´
èģĮ ä¸ļ
åĢ Ł
éĿ ł
é¡ ¾
è®° èĢħ
S T
\ [
Ġ **
Ġ1 5
i k
( -
éĻ Ī
L et
Ġcont rol
ç ĩ
çĻ »
ä¹ ħ
è®¡ ç®Ĺ
äºº ä»¬
æ¹ ĸ
ä¿Ŀ æĮģ
Ġp ur
è° ¢
çĸ ¾
å¾Ĺ åĪ°
Ġvar i
æĸ° çļĦ
6 4
: :
æŃ Į
e ad
! "
ä¸į è¿ĩ
ç¬ ¦
F ig
åı ¥
ĠN ew
a im
Ġgo ing
ç« ¥
un d
qu e
Ġ Q
E N
ä»¥ ä¸ĭ
çĦ¶ åĲİ
Ġd em
Ġst and
é º
èº« ä½ĵ
Ġhe ad
i ence
Ġpro per
çİ° åľº
ä¸ ½
åıĺ åĮĸ
ric t
è® ¨
w w
åħ³ éĶ®
å®¶ åºŃ
Ġ Ã
æ¦ Ĥ
it ive
æĪĲ ç»©
Ġin c
è¯ ¯
olog y
æĭ į
Ġar ound
Ġde v
I T
Ġcon f
Ġdire ct
itt le
é ¤Ĳ
çĲĨ è®º
éļı çĿĢ
èĭ ¦
ur ther
Ġh y
' re
Ġw r
åĩ Ģ
9 5
åĨ ·
å°± ä¼ļ
ĠS he
éĩĳ èŀį
Ġo pt
at ch
0 5
éĺ¶ æ®µ
æĭ ¥
h ip
ä¸ĵ å®¶
ä»ĭ ç»į
ar m
id es
Ġl ife
Ġp ost
éĢ Ģ
å½¢ å¼ı
s erv
çĶ ²
åıĤ ä¸İ
çĮ ®
Ġp ass
Ġs l
è¯¾ ç¨ĭ
åħ³ äºİ
Ġto o
et s
Ġin formation
ä»ĸ çļĦ
ç© ¿
ç»ı éªĮ
ys is
æĹħ æ¸¸
in ation
æĢ§ çļĦ
u red
3 7
ab el
i um
b l
Ġ Î
our ce
Ġme as
i or
Ġb re
äº ®
Th is
Ġe lect
Ċ ĊĠĠĠ
Ġm ight
at ely
å®¶ éķ¿
-- -
åĲĪ åĲĮ
ot t
çİ° ä»£
Ġc r
è¡ £
éĿ Ļ
æĪĲ æľ¬
ä½ĵ ç³»
è§Ħ èĮĥ
ot s
et a
Ġis s
çĸ ĳ
å® Ī
Ġop en
çģ µ
åį Ī
åİĨ åı²
ag n
ä¸ĩ åħĥ
d a
Ġre al
Ġan other
ä¿Ŀ éļľ
Ġh um
ç»§ ç»Ń
Ġsignific ant
å¥ ĩ
åıª æĺ¯
è½ ®
æŃ£ ç¡®
ph a
è®¤ è¯Ĩ
Ġwor ld
Ġty pe
eth ing
ç¬ ĳ
ç½ Ĺ
èĦ ±
f or
g en
èĽ ĭ
pe c
Ġresult s
ĠW h
ur al
èĻ ĳ
ä¼ ¼
æĽ´ åĬł
Ġre f
ç³ ĸ
ï¼Į âĢľ
iss ion
m l
åĪ ĺ
Ġ Z
Ġc are
çĤ İ
r al
æĪĳä»¬ çļĦ
åĽ½ åĨħ
Ġm ult
ä¸ ĥ
) ï¼Į
å®£ ä¼ł
ĠT r
Ġ ident
it al
åº Ĭ
è´ «
æ¤ į
äº¤ æµģ
Ġcont in
Ġwith in
åĨ ²
æĥ ¯
äº¤ éĢļ
é Ń
è ĵ
Ġ err
ç¬¬ ä¸ī
Ġt reat
he re
Ġmod el
9 8
ain s
ä»» ä½ķ
Ġre st
çĶ¨ æĪ·
è§Ħ åĪĴ
Ġ u
åį ĸ
iv ed
èį ī
æī§ è¡Į
ent ly
èģ ĺ
ä»» åĬ¡
6 5
æĹ ¢
Ġdet erm
é ½
ord ing
çļĦ å¤§
or n
Ġfollow ing
ä»Ĭ å¹´
4 8
du ct
ar n
ä» ¤
åĩĨ å¤ĩ
de f
èĲ½ å®ŀ
Ġs ince
at t
Ġla w
ä¸Ģ ä¸ĭ
Ġ es
çī Ľ
er al
æĳ Ħ
åĲ ¯
i vers
ĠThe y
æŃ ¦
Ġl im
201 8
Ġall ow
w ays
çļĦ åıĳå±ķ
æĸ¹ æ¡Ī
A L
ater ial
le x
è¿Ļæł· çļĦ
ak es
æĦŁ è§ī
æ¯ Ľ
å¤ «
å»º è®®
Ġt em
è Ĺ
ä¸» ä¹ī
åĽł ç´ł
b y
( "
æīĭ æľº
ä» į
th ing
Ġbe h
Ġst ruct
æī ĺ
åĨ³ å®ļ
ion al
n ame
èīº æľ¯
ab ly
Ġt urn
å¹² éĥ¨
Ġad v
Ġim p
æĺ¯ ä¸Ģ
èĭ ı
åħ ¸
r ation
Ġp ower
ot e
w ork
Ð ½
3 1
çĲĨ è§£
Ġo cc
Ġme an
æĿ Ĥ
è´ ´
t s
å ³
Ġinte rest
åĨľ æĿĳ
è· Ŀ
æĶ¶ åħ¥
ĠA meric
èĮ ¶
èģ ļ
åĬ³ åĬ¨
Ġm ark
ĠD e
Ġne ver
Ġ X
A N
0 1
ent ial
Ġs k
ä¹ İ
è¿ İ
åıĳ æĮ¥
Ġl ist
Ġl ittle
æ ĩ
in ess
math cal
æĽ ²
éĹ »
ĠS h
Ġtr y
Ġcon dition
éĢ ı
è´ µ
Ġw om
èĮĥ åĽ´
res ent
äºº æīį
å® ģ
ä¸į å¾Ĺ
it her
ur y
v es
éĻ Ħ
ä¸ Ŀ
å¹ ħ
ĠN o
ç©º éĹ´
è¯ Ĭ
Ġs ing
è®¤ çľŁ
Ġadd ition
å®Į åĸĦ
è°ĥ æķ´
æ· ·
00 00
æİ¨ è¿Ľ
Ġas k
æ± ĩ
if f
) \
èĪ ª
Ġse em
Ġ1 2
]\] .
ç«ŀ äºī
iv es
Ġfe w
éĽ ¨
å¥ ¶
äº¤ æĺĵ
â Ī
æķ ĳ
Ġv is
æ¶ ¦
æ¸¸ æĪı
u ro
ç¡® å®ļ
Ġsom ething
C T
Ġexam ple
Ġha pp
ĠC l
å° Ħ
f ace
ĠO n
çī¹ çĤ¹
è¶ħ è¿ĩ
Ġre ce
3 9
å¹ ¸
ç ĺ
è¾ Ĩ
èĭ ¥
æĬ¥ åĳĬ
çļĦ å·¥ä½ľ
ä¸¥ éĩį
ch ool
é¦ Ĩ
éĺ ¿
åº ı
è´ ·
èµĦ æĸĻ
b ers
å¹¼ åĦ¿
æ± ¡
p art
E x
d d
4 4
__ __
Ġpl ace
Ġle ft
Ġcur rent
Ġre du
çł ģ
8 8
çĸ «
æİ Ī
çľŁ æŃ£
ç®Ģ åįķ
åį« çĶŁ
è® ¿
æķ £
éª ¨
Ġb as
re l
è¿Ļ éĩĮ
è¡Į æĶ¿
æĮģ ç»Ń
åıĳå±ķ çļĦ
æĸ¹ åĲĳ
ä»İ èĢĮ
åĲĪ çĲĨ
å® ľ
æ° ¸
æĺİ æĺ¾
pl oy
Ġres pect
ä¼ ĳ
Ġre ally
Ġl ess
Ġf ield
Ġch ang
u le
çĽ ĸ
ä¸° å¯Į
st and
o pe
ç¤ ¼
åħ± åĲĮ
åī Ĥ
se c
5 5
c ript
è®¸ å¤ļ
çĶ³ è¯·
ä¹ł æĥ¯
al pha
ht t
å» ¶
ä½ľ èĢħ
Ġg ot
ĠI s
è¯¾ åłĤ
èĤ ¥
s on
Ġcomm un
æ¯ı å¤©
} (
Ġo ld
é ±
åıĸ å¾Ĺ
Ġ ve
Ġb est
åº ĵ
Ġb us
æĺİ ç¡®
ar g
è¡ Ĺ
Ġp op
æĹ¶ ä»£
åĪĨ éĴŁ
Ġre le
å¸ ģ
çº ¸
Ġgiv en
Ġp ut
C h
Ġp ot
Ġ{ #
Ġcom e
ert ain
åĩı å°ĳ
Ġl ight
Ġl ow
æŀ ¶
Ġinclud ing
å®ŀ éªĮ
ĠĠĠĠĠĠĠĠĠĠĠĠĠĠĠĠ ĠĠĠĠĠĠĠĠ
Ġ âĢĶ
æ¸ Ĳ
ä¹ĭ ä¸Ģ
çĽ® çļĦ
æ´ ģ
é± ¼
å½ Ĵ
et y
gr am
æİ¥ åıĹ
ç»ı è¿ĩ
éĽĨ åĽ¢
è® ¢
in ing
é¢Ĩ åŁŁ
Ñ ģ
Ġc ap
is ed
ç¨ĭ åº¦
åĮ» çĸĹ
ä¸Ĭ æµ·
os s
å¤ ®
ã ĥ
æ¶ ¨
en e
åħ °
å¹¶ ä¸Ķ
åıĹ åĪ°
æŃ£ å¸¸
======== ========
h or
çĽĳ çĿ£
æĹł æ³ķ
) :
ä½ľ åĵģ
æī ©
ç´ ¯
ä¼ļ è®®
et er
Ñ Ģ
) ãĢĤ
6 6
åªĴ ä½ĵ
Ġinv est
os ed
ä¹Ł ä¸į
æ¸ ¯
ĠThe re
éĺħ è¯»
æĿ Ł
in a
æ¬ §
Ġh ig
èĥ ľ
è ľ
çĶµ è¯Ŀ
ver t
Ġte chn
Ġass oci
çļ® èĤ¤
çĶµ åŃĲ
åıĳ å¸ĥ
end s
Ġm ot
Ġc al
ĠHow ever
y pe
ç¨³ å®ļ
çļĦ éĩįè¦ģ
å° ¤
ä¼ ´
åĩº æĿ¥
Ġne xt
Ġpro b
a pt
Ġh ome
ä½ ³
ĠR e
m b
æ¢ ¦
æĶ¿ æ²»
ack age
è°ĥ æŁ¥
ä¿Ŀ éĻ©
Ġf our
ĠC on
åİŁ åĪĻ
æ¯Ķ å¦Ĥ
æĺ¯ åľ¨
é² ľ
re g
çĬ¶ æĢģ
é¦ĸ åħĪ
è¿Ľ ç¨ĭ
æĸĩ ç«ł
å°ı æĹ¶
å¤ ľ
èĩª èº«
Ġgo ver
Ġg row
b s
éĴĪ å¯¹
9 7
Ã ¡
çĿ ¡
ĠW hat
^ {\
iv id
Ġcl aim
è¯Ħ ä»·
in c
Ġb o
h o
å®Į åħ¨
äº¿ åħĥ
å¦Ī å¦Ī
çĪ ¸
i j
ä¹ Ŀ
åĿ Ĳ
èĦ ¸
Ġto p
æľī äºĽ
S E
er y
Ġob serv
ç¡ ¬
Ġar g
æ± ī
R e
åı «
çļĦ è¯Ŀ
ä¼ĺ åĬ¿
Ġb ased
çļĦ å°ı
åŃ¦ éĻ¢
Ġ* /
ä¸ľ è¥¿
å± Ĭ
Ġmon th
ç¬¦ åĲĪ
éĽ ¶
um p
åľ Ī
eng th
æľīéĻĲ åħ¬åı¸
ab l
åı ¶
æĲ Ń
y t
åķ Ĭ
Ġimport ant
ic ro
Ġ1 6
C on
ĠA r
4 7
æİĮ æı¡
æľª æĿ¥
çĸ¾ çĹħ
æĢ Ģ
ain ing
ra p
æĺ¾ ç¤º
Ġs am
Ġhe alth
ĊĊ Ġ
æĺ¯ ä¸Ģä¸ª
Ċ ĠĠ
é¥ °
Ġind ic
P ro
æĿ¥ è¶Ĭ
æľº ä¼ļ
Ġd er
å¦ ĩ
å¼ķ èµ·
çİ° è±¡
å° ļ
le ction
rib ut
Ġlar ge
è¶Ĭ æĿ¥è¶Ĭ
çģ ¯
ä¸º ä»Ģä¹Ī
Ċ ĠĠĠĠ
ä¸¥ æł¼
æľº åĪ¶
Ġanal ysis
Ġty p
è® ¯
åĩº äºĨ
Ġbet ter
) (
ne w
çĪ¶ æ¯į
äºĭ ä¸ļ
Ġs it
ap s
Ġb ro
8 5
Ġle g
éľ ²
åĪĽ éĢł
Ġbel ie
Ġpartic ular
Ġapp lic
er n
Ġob ject
Ġsu gg
æ¶ ī
æĶ¹ åıĺ
Ġsugg est
æ¯Ķ èµĽ
Ġpro f
å·¥ ä¸ļ
æľŁ éĹ´
åģļ åĪ°
åĿ ı
å®ī æİĴ
æĦı ä¹ī
p or
ro ll
Ġdesc rib
9 6
ar get
å¢ŀ å¼º
at s
L E
è° ģ
c o
ç ĳ
re en
è§ ¦
ä» ª
fe rence
é¥ Ń
) ãĢģ
, âĢĿ
Ġch ange
é¡ ¶
åº Ĩ
ir d
æ² Ļ
åİĭ åĬĽ
ä¹ĭ åīį
ç»ı å¸¸
ĠP h
e e
Ġcomm on
éĩı çļĦ
æĭ¥ æľī
cc ess
Ġ$ $\
Ġd en
èĦ ļ
201 7
éĻ¤ äºĨ
u ck
Ġm en
Ġgover n
åĨľ ä¸ļ
åĲİ çļĦ
end ed
å·¥ä½ľ çļĦ
åĢ Ĵ
å¤ ı
èį £
Ġob t
Ġ1 4
æĸĩ æ¡£
Ġ ide
è ¸
' ll
Ġd r
éĻį ä½İ
ä¸į åı¯
å¨ ģ
Ġab ove
å·¦ åı³
Ġw ater
æ² Ł
èµĦ äº§
èĢĥ èĻĳ
le g
ĠS c
Ġe as
æĸ Ĺ
ä¾ §
ĠA pp
Ġm ov
Ġb i
re qu
R E
pl ic
çĥ Ł
Ġth ings
åĪ¶ å®ļ
å¼ ±
ç´ł è´¨
ĠP l
v ar
æķ´ ä½ĵ
éĥ½ æľī
ä¼ļ è®¡
il ar
Ġth ought
pp ed
éķ¿ æľŁ
) /
æĶ »
' ve
I D
Ġle ast
ä¼ °
h ib
é¼ ĵ
Ð¾ Ð
çĬ ¯
è Ķ
Ġh ist
t en
o or
å· ¨
Ġs w
ific ation
ro p
Ġcon ne
èĦ Ĥ
Ġ3 0
( );
èĤ Į
Ġp ath
å® ½
' d
is k
Ġwhe ther
Ġprodu ct
ä¹Ł æľī
Ġv iew
pl es
è· ĳ
7 7
çĥ Ī
I C
ct or
åĢ º
æĬ ĺ
é¾ Ħ
åĨħ æł¸
A s
åĮº åŁŁ
ç® ±
Ġpos ition
èĪ ŀ
Ġchar acter
éĩ Ĭ
çĶŁ åĳ½
åĬŀ æ³ķ
çļĦ æĥħåĨµ
ç½ ª
Ġqu e
Ġh ard
ĠF r
re am
æĢ ķ
Ġ vers
åıª è¦ģ
n a
An d
ĠA ll
è§Ħ æ¨¡
Ġ #
æİ¨ åĬ¨
el ta
Ġf ail
éģ¿ åħį
çĶŁ æĢģ
æµ ª
é© ¾
æ»¡ è¶³
Ġex pect
çĶ °
ä½ĵ èĤ²
Ġposs ible
on se
## ##
æ·± åħ¥
Ġinv ol
Ġdid n
ç³» åĪĹ
Ġha ving
åİ ļ
Ġrec ord
å «
oc ument
Ġd ays
$ $
am ma
ĠS o
Ġcons ider
åĪĨ åĪ«
Ġal ways
ĠE x
çī¹ èī²
èĹ ı
Ġf ile
è¯ ļ
å¼ķ å¯¼
Ġproble m
ç§ Ł
é£Ł åĵģ
éĿ¢ ç§¯
ä¼ĺ ç§Ģ
æ¯ķ ä¸ļ
Ġun til
Ġse ver
æİ ī
a ction
å¸¦ æĿ¥
ç ¦ģ
i en
Ġs ide
å²Ĺ ä½į
ç¼ ©
éĥ½ ä¼ļ
Ġo pp
Ġre ason
Ġg ive
Ġ1 1
Ġs elf
ä¸į å°ĳ
æ¡ ¥
Ġre se
Ġcall ed
Ġfe el
Ġw on
è¿Ļ ä¹Ī
ĠT o
orm al
æĿ ¨
éĢ Ķ
Ġm us
Ġkn own
Ġ âĢ
éĩĩ åıĸ
Ġto t
è¯´ æĺİ
Ġv ol
c ur
Ã Ń
A S
ç« Ł
è¯ Ĺ
å¼ ¹
amb da
ra in
201 9
end ing
è¡ ¡
a ut
ä¸» åĬ¨
is on
Ġev idence
åħ¨ çĲĥ
ç¡® ä¿Ŀ
æ´ ²
æĪĺ çķ¥
à ¤
æ¯ı ä¸ª
w are
8 6
çº ·
4 6
åĴ ¨
Ġb ig
Ġquest ion
Ġim pro
op y
å±ŀ äºİ
åºĶ å½ĵ
un g
åĬŀ åħ¬
Ġhum an
Ġpro m
ä½į ç½®
å¾ Ħ
Ġrep resent
åĳ ¼
c he
æķ´ ä¸ª
Ġbu ild
ä¸į åĪ°
åģ ı
åľ Ĩ
Ġ1 7
Ġav ail
p i
éļ Ĳ
éĵ ¾
åĴ¨ è¯¢
an ces
ä¸Ģå®ļ è¦ģ
m un
as k
è± Ĩ
è¯Ń è¨Ģ
ig ma
a ult
åĵ Ī
ad d
åĦ¿ ç«¥
åİ ħ
Ġd ue
Ã ³
ac y
è´¹ çĶ¨
æĦı è§ģ
Ġor gan
ac es
ä¹ ³
åĨ Į
ĠĠĠĠĠĠĠĠ ĠĠĠ
al se
ivid ual
Ġc our
Ã Ĺ
i od
åĸ Ŀ
çī Ļ
Ġa way
åĿ Ģ
è¾ ĳ
A C
ä¸» ä»»
l ing
a u
h y
B ut
æ¶Īè´¹ èĢħ
ä½ł ä»¬
olog ical
å½ĵ çĦ¶
é½ Ĳ
ç¼ ĵ
Ġtreat ment
ãĢĭ ï¼Į
ä»¥ æĿ¥
å½ »
ç»Ł ä¸Ģ
Ġke ep
ä»¥ åĲİ
æ´ ¾
åħļ åĳĺ
ä¸Ģ çĤ¹
pl ay
åĩ Ŀ
è¿Ĳ çĶ¨
åį ·
ä½ľ ä¸ļ
m u
ç¤¾ åĮº
T o
éĢŁ åº¦
201 6
Ġf ree
ar ing
å° ģ
ir on
çĶµ è§Ĩ
Ġs ize
èĨ ľ
åįģ åĪĨ
æķħ äºĭ
æĪĲ éķ¿
åħ´ è¶£
I S
Ġl ater
æľº åħ³
Ġ --
Â °
Ġr ad
Ġs um
çĶµ å½±
Ġ {\
aj or
Ġf urther
æľĢ ç»Ī
éĩįè¦ģ çļĦ
æĬĢ èĥ½
l abel
Ġsh own
Ġd iv
con t
ra w
a it
éĨ Ĵ
th ough
} ^{
re m
ren ces
Ġb ook
et ic
ç½ĳ ç«Ļ
ic le
Ġloc al
ĠG r
å¡ «
æĬ¥ åĲį
çļĦ é«ĺ
% ãĢĤ
h ing
ep end
éĩį è§Ĩ
Ġfam ily
æī ¶
b ar
é¢ ľ
im al
èģĶ ç½ĳ
åĨ °
è´ ¦
èī¯ å¥½çļĦ
éŁ³ ä¹Ĳ
Ġin it
E D
Ġsing le
9 4
I f
ĠUn ited
é ¹
eg in
è®¾ æĸ½
èı Į
å® «
åĤ ¨
èĻ ļ
åĮĸ çļĦ
å°¤ åħ¶
ĠA d
åĪ º
0 2
çľŁ çļĦ
ou th
id d
è§Ĥ å¯Ł
èĢĥ çĶŁ
Ġexp ression
Ġt ell
Ġm ain
æ» ĳ
Ġel se
Ġe y
s el
åĩº çļĦ
og raph
Ġoff ic
read y
s er
è¾ ħ
Ġprev ious
æĢ» ç»ĵ
è´ ¸
åŃ ķ
é«ĺ çļĦ
åĨ ł
çİ ī
æŃ£ åľ¨
çī© è´¨
å¥ ¥
em ber
p one
ç¯ ĩ
ä½ĵ éªĮ
ä¸» é¢ĺ
Ġf ri
ĠM r
é£Ł çī©
.. ..
ä¹ Ļ
**** ****
mathb b
c ol
C l
8 7
çļĦ æĹ¶éĹ´
us ion
if t
å° ¿
Ġn et
ĠTh at
é¸ ¡
u ff
ind ow
Ġtr ue
Ġt imes
Ġor ig
Ġcom b
æĸĩ æĺİ
Ġf ar
âĪ Ĵ
çĻ Į
éĿ¢ çļĦ
åĨ ¬
Ġe ither
çº ¯
Ġsever al
é© ¶
ĠA t
Ġm ar
æĥ ł
è¿Ĳ è¡Į
0 4
ĠThe se
ress ed
} _
èĥ ĥ
å¹´ æĿ¥
Ġind ividual
ä¸įåĲĮ çļĦ
è®¾ ç½®
Ġp red
çŁ ¿
Ġc irc
e xt
ä¹ ı
Ġli k
m at
Ġsim ilar
ĠB l
å¹¶ ä¸į
res p
H E
è¡Į åĬ¨
Ġpro gram
æī ¬
6 7
ä¹ ±
g o
ĠU S
æĿ¥ çľĭ
éĽ ª
Ġgener al
ä¹Ł ä¼ļ
n d
C om
Ġp ay
im ent
éķ ľ
= \
åĳĬ è¯ī
Ġ< /
oh n
æ² ī
} ,
Ġprov ide
al f
ĠIn d
æ¹ ¿
s w
Ġv i
æĻ® éĢļ
éĿ¢ å¯¹
c hed
å¸ Ń
it or
a i
Ġme ans
éĽĨ ä¸Ń
å° Ĭ
çĪ Ĩ
Ġc ost
ç§ ģ
è¶ ĭ
å¢ Ļ
201 5
in f
ak en
æļ ĸ
ĠC ol
èĤ ¯
Ġapp ear
ivers ity
Ġab le
éģ Ĺ
Ġunder stand
ĠL e
Ġsu re
e red
æĬ ½
ç½ ļ
ĠW hen
Ġm ove
Ġal ong
Ġwe ek
æľĢ å¤§
Ġbus iness
ä¸į è¶³
èĥ ŀ
ip le
ĠC ourt
} _{
åı¦ å¤ĸ
éģ į
one y
èĢĥ æł¸
Ġc ode
Ġavail able
Ġab s
æĹ §
Ġb ody
åĪ ¸
erg y
b egin
å°ı åŃ¦
çĽ¸ ä¿¡
æĺ ł
u ed
Ġup on
Ġw ar
n al
oc ial
( '
éĽ ·
è´ ¯
å± ĭ
Ġpl an
è§Ĩ é¢ĳ
æĢĿ ç»´
ĠSt ates
~ ~
Ġj ud
x x
å² Ľ
æīĭ æľ¯
çĲĨ å¿µ
b ack
Ġ2 5
Ġf ull
æĤ ī
our s
ĠS p
Ġch o
or g
os p
å¯ »
å½ĵ æĹ¶
ä¸ī ä¸ª
Ġchild ren
Ġem ploy
Ġm aterial
Ġsh ort
éĤ£ äºĽ
è´Ń ä¹°
ou ps
ä¸Ń å¤®
ore d
æĢĿ èĢĥ
le y
um e
æĮ ĳ
åĽ¢ éĺŁ
åķĨ ä¸ļ
æĿ¥ æºĲ
åĪ« äºº
èĲ¥ åħ»
Ġse qu
ĠM ar
åĪĽ ä¸ļ
åĨħ éĥ¨
è®° å½ķ
er ing
is ter
ä¸ĭ æĿ¥
Ġs chool
å¤ļ çļĦ
Ġ1 3
Ġwh y
è´¢ åĬ¡
æĸ° éĹ»
Ġam ong
Ġph ys
æģ ¶
l er
en c
ri ed
Ġg ame
èĩª æĪĳ
un t
c le
ne y
r ist
m on
é¡ µ
A P
å· §
Ġdif f
Ġin fl
Ġth ough
åĢ į
n s
è´ ¥
æľ Ŀ
Ġhig her
æĿ¥ èĩª
æł· çļĦ
è®Ń ç»ĥ
Ġstud ies
åħ¨ éĥ¨
Ġc ertain
or th
Ġto ld
Ġal ready
op t
is ing
itt ed
Ġth ing
Ġc ame
å¤ļ å°ĳ
èĢ Ĳ
åĽ° éļ¾
n o
å³ °
Ġs at
æ° §
åģ ¿
Ġper iod
åķĨ åĵģ
y le
Ġspec ific
å¾Ģ å¾Ģ
Ġval ues
Ġh old
ang le
ill ion
d iv
å¿« éĢŁ
] ;
ard s
éĺ »
Ġen g
éĢĤ åĲĪ
}$ $
Ġen ough
em pt
Ġs ent
s um
å¦Ĥ æŃ¤
èģĮ å·¥
ç§ ĭ
ph i
Ġare a
Ġd one
èµĦ æł¼
èĤ Ŀ
Î ±
Ġm ajor
F or
s ide
Ġb en
çĶŁ çļĦ
äºĭ æķħ
åĬĽ çļĦ
iv ing
åĩł ä¸ª
id th
m p
Ã ¶
m it
Ġm om
op er
Ġpro ject
åĪ¶ éĢł
æī £
Ġc ases
a pe
åĽ¾ çīĩ
e b
Ġsu per
æķ ı
ãĢģ âĢľ
Ġin f
çĽ¸ å¯¹
æ ¾
al igned
ĠR es
å®ī è£ħ
v ent
Ġa ction
åħ¬ åħ±
ep s
d ata
æ· »
Ġ1 00
Ġgovern ment
Ġke y
T r
Ġof ten
Ġdes ign
ol ution
m ission
å¥ ĭ
m od
æĿ Ģ
0 3
æķĪ çİĩ
as ter
Ġdis e
6 8
ust om
å°± ä¸ļ
è¿ĩ åİ»
er c
am ent
4 9
lect ed
c d
åŁº éĩĳ
ar i
s q
ri es
Ġstr ong
æ¢ °
Ġk ind
å§ Ĳ
æĮ Ĥ
Ġp ri
Ġpr im
Ġpar am
åĪ¶ ä½ľ
Ġte am
èĤ ł
Ġtot al
æĩ Ĥ
èĢĮ æĺ¯
ä¼ģä¸ļ çļĦ
Ġl ot
çĶ¨ äºİ
m ost
4 2
åĲĦ é¡¹
ut es
è· Į
ç»Ł è®¡
æľī ä¸Ģ
Ġl ay
Ġc rit
ä»ĸä»¬ çļĦ
Ġex ist
Ġe le
Ġre view
Ġp ort
Ġs ays
ur s
åľŁ åľ°
åĪ© çĽĬ
ound s
èĩª åĬ¨
ffic ient
Ġsub ject
ç»Ħ æĪĲ
Ġm or
- \
Ġm ass
èĵ Ŀ
I I
Ġc oun
ĠO r
åĵ ¥
201 4
åħĪ è¿Ľ
ĠC al
Ġcour se
Ġf ore
and s
Ġp ract
åĭ ¤
ç» ª
èĲ¥ éĶĢ
201 2
Ġr ate
åĶ ±
0 8
ch an
åĬĽ éĩı
èĭ± è¯Ń
Ġt arget
ub l
_ \
Ġhow ever
Ġs ens
å¼Ģ æĶ¾
Ġne g
å¥³ æĢ§
åŃ©åŃĲ çļĦ
ç ŀ
Ġacc ess
ç§ ĺ
æķ° åŃ¦
Ġp ress
a f
çŃĶ æ¡Ī
ab les
6 9
N o
æĹł è®º
Ġsu ccess
èĢ ³
æľ «
Ġlevel s
Ġa ir
è¯ģ æĺİ
å®Ŀ å®Ŀ
è¿ ·
Ġwom en
Ġto ok
äºĴ èģĶç½ĳ
Ġp riv
Ġse en
4 3
ä¸º ä¸»
æĭ Ł
R O
Ġtri al
å¾ ª
å° ¼
a ug
i i
H ow
Ġm il
æ´ ĭ
æĶ¹ åĸĦ
ç¿ »
ä¸Ģå®ļ çļĦ
ä¹¦ è®°
æĹ¥ å¸¸
éĻ Ĩ
çª Ĺ
i que
o res
Ġerr or
Ġpol it
Ġdisc uss
å°± åı¯ä»¥
ç»Ĩ èĥŀ
æĶ¯ ä»ĺ
Ġman ag
Ġt alk
éĢļ çŁ¥
og n
Ġ >
åıª èĥ½
æ® Ĭ
201 3
éº »
è¯ ¦
ä¼ į
Ġ !
en ed
æ³ Ľ
b o
ib ility
æĪĲ äºĨ
åĵª äºĽ
éĩį å¤§
Ġp le
æĥ Ĭ
al es
u it
èį Ĳ
us e
se qu
å ´
Ġro om
7 8
Ġd om
E T
çĩ ĥ
èĪ Ĵ
æĹ¥ æľ¬
Ġinvest ig
id s
iv ity
Ġn ight
çĹĩ çĬ¶
éļ Ķ
Ġen c
æ½ ľ
å¹¸ ç¦ı
Ġen ergy
åŃ Ķ
as ing
ç»ĵ æĿŁ
æľī äºĨ
Ġl o
Ġassoci ated
çĥ §
Ġdef end
Ġf ac
Ġbe g
å¼ ĥ
upp ose
æ²Ł éĢļ
çħ ¤
Ġsp ace
å§Ķ åĳĺ
å½¢ è±¡
us ep
Ġc aus
usep ackage
us h
Ġev ent
ĠB e
æĬķ åħ¥
Ð »
O n
Ġre pl
éĩ İ
Ġ ver
å· Ŀ
Ġreport ed
åĭ ĩ
ĠĠĠĠĠĠĠĠ Ġ
Ġa ge
Ġ ==
ä½ĵ çļĦ
åıĤ èĢĥ
ct ed
çĽ Ľ
} ^
Ġresp onse
å¿ħ è¦ģ
Ġph ot
æ°ĳ æĹı
çĤ ¼
u ation
å¹ ķ
éŁ ©
ke y
9 3
è ª
æĪĲ ç«ĭ
get her
Ġto gether
æ³ ¡
ä½ĵ çİ°
ç¾İ åħĥ
0 7
åı ¬
ru g
Ġon ce
ver age
p m
A M
æł¹ æľ¬
åŃ¦ ä¼ļ
t able
ä¼ Ļ
at ors
A D
L L
l ambda
æ¥ ļ
htt p
g ed
Ġh ouse
èµĦ æľ¬
ç»´ æĬ¤
} )
Ġb it
or ies
éģĵ è·¯
æĪ ª
rib ution
Ġw ent
b ib
st it
Ġl ower
Ġacc ount
con om
çĽ¸ åºĶ
v iron
è½¯ ä»¶
æĸ¹éĿ¢ çļĦ
å°ı ç»Ħ
i ans
Ġm aking
å¹¿ å¤§
un ction
Ġl ove
Ġe arly
A l
éĩĮ çļĦ
i ver
Ġgr oups
éĹ Ń
ä¹ ĺ
è¿ ħ
åı¯ æĺ¯
æļ ´
cre t
u x
Ġ )
Ġw rit
çİ¯ èĬĤ
èĥ ¶
9 2
è½¦ è¾Ĩ
æ£Ģ æµĭ
Ġam ount
u f
on y
ç» ķ
w h
çĽ Ł
¹ ģ
Ġcomp ared
éĺ ´
Ġpot ential
5 7
Ġactiv ity
5 6
ä¸ĭ éĻį
Ġdevelop ment
cept ion
åĬł åħ¥
é¢Ħ éĺ²
iv al
Ġrequ ired
èĦ ı
Ġe ver
Ġin j
åĬ¨ åĬĽ
it le
oc us
åĳ Ī
Ġa ff
Ġf ace
å¡ ĳ
è®¨ è®º
% )
Ġ| |
å¿ ĺ
å°ı ç¼ĸ
å¤§ å¤ļ
æĿ ¯
çģ ¾
Ġcon v
Ġac ross
æ±¡ æŁĵ
æķ ¢
ret urn
ä¸ĭ çļĦ
Ġm icro
çļĦ æĸ¹æ³ķ
ä¼ Ł
æĭ ĵ
Ġterm s
äºĭ æĥħ
è¡¨ è¾¾
U n
ç ¹ģ
Ġl og
Ġan n
åħ¬ å¼Ģ
çļĦ åŁºç¡Ģ
æİ¨ èįĲ
N ame
ang u
ess age
Ġwork ing
éĽ Ħ
çĶŁ çī©
èĥ ¡
Ġf inal
å¹³ åĿĩ
g a
s ub
ä¸į çŁ¥éģĵ
ict ion
å¹´ è½»
çļĦ æĸ°
-------------------------------- --------------------------------
os is
æ¢ ģ
çĽ Ĳ
è° ĵ
de x
Ġe ar
Ġc ult
Ġrequ ire
aint iff
æĳ ©
Ġne cess
çĦ ¦
è¿Ľè¡Į äºĨ
ä¹ĭéĹ´ çļĦ
Ġ( [
çĽĳ ç®¡
Ġd ou
æ¯Ķ ä¾ĭ
Ġche ck
en n
åĪ© äºİ
åĬŀ çĲĨ
Ġ$ {\
ĊĠĠĠĠĠĠĠĠ Ġ
ĠC o
4 1
ĠSt ate
æľī äºº
in ter
Ġde ath
8 9
ĠAmeric an
e ction
at ory
æīĵ éĢł
èĤ ¿
åŁº å±Ĥ
Ġre d
i ation
Ġrel ations
m ber
y stem
5 00
I G
æĹ Ĺ
æĥħ ç»ª
Ġv ir
å±ħ æ°ĳ
The re
çĭ¬ ç«ĭ
åįı è°ĥ
å¾® ä¿¡
è®© äºº
. '
å¼º åĮĸ
Ġbec ome
ro du
åľ° äº§
Ġp ast
on es
å¯¹ è±¡
c m
Ġ( [@
ä¹Ł åı¯ä»¥
è¿ĺ è¦ģ
åĨľ æ°ĳ
Ġex c
é«ĺ æł¡
med i
0 6
Ġinclud e
æµ ĵ
æ· ¡
Ġr isk
Ġt w
Ġapp e
ens ion
èĦ ī
at ures
æĬ¤ çĲĨ
æĮĩ æłĩ
un e
èģĶ åĲĪ
æĺ¯ ä¸Ģç§į
th is
åıį åºĶ
] ).
clud e
cl ass
çŃ ¹
ï¼Ľ (
ĠJ ohn
é ī
æīĭ æ®µ
Ġaut hor
éĶ ħ
pt ion
ç»ı çĲĨ
éĽ ħ
Ġr ange
çĤ¹ åĩ»
g es
{ {\
éī ´
è· ³
Ġcomp ut
I ON
m y
Ġim age
"} ).
O U
éĢĤ åºĶ
æ³ķ éĻ¢
æķ° éĩı
ç»ı åİĨ
ĠUn iversity
I s
ãĢģ ãĢĬ
æŃ£ å¼ı
åĬł å¿«
Ġdo ing
èħ ¹
he ad
201 1
Ġcondition s
Ġask ed
Ġcomp let
et ers
im ate
åĪĨ äº«
æĢ§ èĥ½
æľ Ĺ
çī¹ æ®Ĭ
ud e
0 9
Ġiss ue
ol l
Ġdet ail
ist ic
^{ -
æ± ł
åĲ ī
æĭĽ èģĺ
s igma
æľº æ¢°
è ļ
Ġ `
Ġchang es
Ġdoes n
Ġme et
Ġest abl
Ġb ar
å¿ Ĩ
Ġdescrib ed
b t
le te
åĨħ çļĦ
Ġprov ided
ut ure
æĥ³ è¦ģ
æĢģ åº¦
č Ċ
Ġ2 4
Ġeffect s
å½ĵ åľ°
Ġresp ons
è¯ º
ç¼º ä¹ı
é¼ĵ åĬ±
Ġobserv ed
è®© åŃ¦çĶŁ
5 8
ä¸Ĭ å¸Ĥ
av a
éħį åĲĪ
éĢ Ĵ
å·¥ åħ·
ĠE uro
å± ı
çļĦ ä½ľçĶ¨
æ½ ®
åıĮ æĸ¹
Ġte xt
ç½ĳ åıĭ
Ġm ind
æĦŁ åıĹ
Ġse par
ir l
e q
201 0
åĬł å·¥
èĢ Ĺ
Ġf requ
èĥ Ĩ
Ġ Ċ
ç»Ļ äºĪ
é ŀ
èĩª ä¸»
å¿« ä¹Ĳ
Ġcan not
æ¯ «
T ype
resp ond
Ġy et
Ġe p
Ġacc ording
Ġro le
our ces
Ġm oney
Ġto ward
Ġrese arch
Ġincre ased
èĤ¯ å®ļ
åħĪ çĶŁ
å¤Ħ äºİ
Ġcomp lex
Ġr ather
åĩ Ń
çŃī çŃī
ar row
çļĦäºĭ æĥħ
it er
å¹¿ åĳĬ
Ġsur face
t est
Ġme chan
ib r
åħļ çļĦ
Ġper cent
el t
Ġcomp any
he l
åħ µ
Ġt re
çĬ¶ åĨµ
at ter
èĩª çĶ±
Ġincre ase
æ¶ Ĥ
åĲĪ æł¼
Ġmeas ure
æľĢ å¥½
çº ¹
ĠE ng
éĺ µ
ä¸ª æľĪ
mathb f
è´· æ¬¾
n t
çļĦ å½±åĵį
Ġc ou
ĠM ay
ac ed
èµ ı
å¿ Ļ
Ġother s
C C
åľ° åĿĢ
Ġcon duct
Ġcount ry
æĳ Ĩ
ĊĠĠĠĠĠĠĠĠĠĠĠĠĠĠĠĠ ĠĠĠ
èħ Ĳ
I d
Ġpartic ip
ill ed
åı¦ ä¸Ģ
æ³ ¥
Ġsign al
èĥ½ æºĲ
çĻ» è®°
Ġb ase
Ġcomp on
Ġse ction
P h
é» ĺ
b eta
Ġp ick
il on
çİ° å®ŀ
Ġmonth s
> <
è´¢ æĶ¿
å®ĥ çļĦ
æī¿ æĭħ
ro id
ce ed
ï¼Ł âĢĿ
å·¥ èµĦ
Ġf ive
S o
Ġcle ar
æı ı
o ff
ä½ Ľ
æ¼ «
Ġserv ice
D E
æŃ¤ å¤ĸ
Ġwho le
ic y
7 6
å® Ĺ
ĠC ar
Ġprote in
çĮ ª
éģ µ
Ġth ird
re w
ĠThe n
æĹ¶ æľŁ
p a
Ġmat ter
Ã ¥
æ´ ¥
çļĦ æĸ¹å¼ı
z e
uc le
åĪ ·
t ime
Ġstruct ure
it ch
éĺŁ ä¼į
Ġl and
n ow
æĸ¹ ä¾¿
å±ķ ç¤º
æķ ¬
å¹´ é¾Ħ
sp an
Ġn ormal
èħ º
æĢ§ åĴĮ
ç£ ¨
ort un
Ġso ft
Ġ %
çªģ åĩº
e y
èĪ ¹
ĠP r
R es
ĠG en
å¤ļ ç§į
Ġus er
è¿Ļ æ¬¡
Ġs ource
ä¸į å¤Ł
A G
ĠO ne
æ¬¢ è¿İ
viron ment
8 4
or der
5 3
ä¸ĭ éĿ¢
Ġfact ors
Ġcor re
og en
Ġt aken
ç½ĳ ä¸Ĭ
ir m
Ġbl ood
Ġcal cul
Ġj ob
al t
\ _
Ġcl in
ãĢĤ ãĢĲ
æĹ ¦
ĠC oun
è¯Ń æĸĩ
ul es
éľ ĩ
åĲ ´
00 1
ĠC an
æĮ ¯
ä¸Ģ å¹´
Ġc ut
ĠB r
æľĢ é«ĺ
æ¸© åº¦
9 1
å®ĥ ä»¬
op s
æ³¨ éĩį
in o
Ġ id
s u
8 3
æĪĲ æŀľ
± ä¹Ĳ
ä¼ļ æľī
Ġshow ed
ix ed
Ġs ocial
çļĦ ä¸»è¦ģ
Ġstand ard
Ġc y
Ġcont ent
ä¾Ŀ æį®
æİ¢ ç´¢
Ġag re
ri x
ä¸Ģä¸ª äºº
Ġf low
âĢ ¢
çĦ¶ èĢĮ
Ġ5 0
ç Ĵ
èĳ £
Ġd ri
ä¸Ń åįİ
çī¹åĪ« æĺ¯
epend ent
ĠF ig
min ist
è· ¨
Ġperform ed
åĪĨ ä¸º
gr ound
èµ µ
ä¸´ åºĬ
Ġh alf
Ġc e
Ġtem per
é«ĺ åº¦
o ber
e qu
O T
è¶ĭ åĬ¿
èĥ İ
ä¾ µ
èµ ŀ
ĊĊ ĠĠĠĠĠĠĠ
æ² ¿
Ġnot hing
ic ult
æĸĩ æľ¬
å½ĵ åīį
math rm
Ġany thing
åº Ł
Ġact ually
å¥¹ çļĦ
äºº ç±»
éĢĲ æ¸Ĳ
ra ft
åĩ ¡
åĲ¸ å¼ķ
sq rt
å° ¾
å¦ »
ww w
Ġd am
å¯ Ĵ
æī¾ åĪ°
Ġmult iple
åħ· å¤ĩ
åĮ» çĶŁ
Ġbel ow
å®ŀ è¡Į
ip s
åĬł å¤§
æī İ
æ® ĭ
åĶ ¯
ĠSe e
Ġqu ant
Ġs ite
è£ ģ
Ġpri or
Ġspec ial
éĶĻ è¯¯
å¾Īå¤ļ äºº
åĢ¼ å¾Ĺ
éĤ ®
. )
l og
Ġdem on
Ġvar ious
5 4
è° Ĳ
å·¥ èīº
éģĩ åĪ°
Ġben ef
c hes
Ġvers ion
b it
æ¦Ĥ å¿µ
ru ction
ac hed
i res
åĪ© æ¶¦
æĬ µ
Ġappro ach
ĠR ep
ä¾Ŀ æ³ķ
g ment
Ġ ut
Ġsystem s
éĺ² æŃ¢
Ġbeh av
Ġrequ est
Ġlim it
5 2
åĪ ĳ
Ġshow s
ĠW ith
Ġdet ect
éĹ®é¢ĺ çļĦ
ab or
çĶ¨ çļĦ
5 1
ç¼ ´
. [
åħ¬ å®ī
æĽ´ æĺ¯
æģ ¢
op h
d ate
é¼ »
è·Ŀ ç¦»
ens ity
Ġmom ent
ç©º æ°Ķ
Ġ er
ĠA fter
æķ° åŃĹ
Ġsy n
T hat
âĢĿ ãĢģâĢľ
Ġcor respond
Ġcl os
c i
åħ¬åı¸ çļĦ
Ġreg ard
æ° Ľ
ide red
om et
æľī çĿĢ
ï¼ģ âĢĿ
ç¼ ĺ
ä¸Ģ ä½į
Ġvi ol
æģ ©
äºİ æĺ¯
å¹´ åº¦
çľŁ å®ŀ
æĸ ĳ
IN G
æĶ¾ åľ¨
Ġdise ase
æĢ» æĺ¯
äº ¡
èµ ¶
Ġbre ak
7 2
å¹¿ æ³Ľ
ess ion
äºĨ ä¸Ģä¸ª
A r
Ġpos itive
er o
æľĢ è¿ĳ
Ġfact or
æĬ¥ éģĵ
éĵ º
Ġmem bers
c ular
å¡ ŀ
i ke
æİ¨ å¹¿
èª ī
æ¶Ī æģ¯
é©¾ é©¶
Ġal most
Ġ q
Ġm ax
è´Łè´£ äºº
èµ ¢
ĠĠĠĠĠĠĠĠ ĠĠ
im um
ĠT e
æĺ¯ ä»Ģä¹Ī
Ġwe ight
è¿ ª
pos ed
å¯¹ æĸ¹
èĢħ çļĦ
åĢ ¾
8 2
Ċĉĉ ĉĉ
Ġf ocus
çİ¯ ä¿Ŀ
éģĵ å¾·
Ġcon cer
Ġlook ing
æĽ ¿
Ġcon cent
pp ing
Ġlik ely
ie f
ä¸Ģ æĺ¯
Ġpoint s
Ġspe ct
Ġcons idered
åĩº çīĪ
æĮĩ åĩº
in ary
å¿ĥ çļĦ
S h
} {\
ä¸» ä½ĵ
Ġ( *
L ist
Ġcre ate
æ£ ®
è ¦
Ġev al
è§Ĵ åº¦
åį³ åı¯
â Ĩ
æ³¨ åĨĮ
ur ation
Ġmark et
æĬ ¢
åĽº å®ļ
g amma
Ġm akes
âĢ ¦
è¿½ æ±Ĥ
6 3
ç»¿ èī²
åŃ¦ ç§ĳ
ĠM y
t d
è§Ĥ çĤ¹
Ċĉĉ ĉ
r s
a ff
æĻ ĵ
Ġs ix
Ġobt ained
å¼º è°ĥ
Ġf ood
æ³ °
Ġexper ience
èº« ä»½
w here
O S
Â ±
æģ¢ å¤į
åº Ħ
å¿Ĺ æĦ¿
å¿ ½
Ġyou ng
Ġs us
åŃ Ļ
åĶ Ĳ
on al
) *
l oad
æĢİ æł·
Ġne ar
Ġcl ose
Ġc ross
Ġhe art
æ¸ ł
åĩĨ ç¡®
åĲĮ æł·
åŃĲ çļĦ
Ġocc ur
ç¼ĸ è¾ĳ
ĠG od
Ġbl ack
çī© æµģ
Fig ure
å¦Ĥ ä¸ĭ
è¿ŀ ç»Ń
+ \
ĠY ork
l im
id ing
åıį æĺł
ç½ ²
St ring
æľī æīĢ
Ġd at
Ġh tt
å¦Ĥ ä»Ĭ
Ġr at
Ġst e
b ig
Ġdev ice
è¿Ĳ è¾ĵ
Ġdiff icult
äºĭ ä»¶
ĠâĢ ĺ
Ġc reat
Ġd ig
Ġa ffect
5 9
åĵģ è´¨
ĠP at
åŀĭ çļĦ
r or
7 9
Ġde cre
æ¶Ī éĺ²
Ġtry ing
Ġdemon str
b ut
Ð° Ð
æĦŁ æŁĵ
A pp
æĽ´ å¥½
çĽ¸ äºĴ
å¤§ éĩı
å» ī
itt ing
æĪĲ åĳĺ
å¼ Ł
è¿Ĳ èĲ¥
n et
Ġc ustom
ä¼ĺ åĮĸ
se e
C ont
c ing
çļĦ è¦ģæ±Ĥ
Ġbelie ve
" )
Ġse x
æŃ¤ æ¬¡
åıĺ å¾Ĺ
200 0
Ġadd ed
åĲĦ ç±»
æĺ¯ æĮĩ
Ġd rug
ä¸Ģ åĪĩ
b ody
Ñ ĥ
Ġf uture
3 00
Ġent ire
um ber
Ġs il
; (
çļĦ åľ°æĸ¹
com m
çĶŁ ç´ł
Ġt able
çĽ¸ å½ĵ
è ¹
st ring
æĲ ľ
åŁº åľ°
ä»İ äºĭ
Ġc ause
è´ Ŀ
V al
ĠCh rist
Ġ ill
or ld
å°¤åħ¶ æĺ¯
Ġn at
ide o
èĤ º
éĿĴ å¹´
Ġproper ty
éĤ£ ä¸ª
st ruct
angu age
C H
æ± ¤
ul ated
Ġf av
æĿ Ĩ
u k
è± ª
è¿ ¹
t ies
èĽĭ çĻ½
Ġcons ist
Ġm ut
äº« åıĹ
Ġm agn
Ġmin utes
Ġh om
å± ¥
Ġfr ont
éĽĨ ä½ĵ
Ġinte gr
åĬĽ åº¦
æĽ´å¤ļ çļĦ
ä¸į å¥½
Ġpa rent
çī¹ å¾ģ
è£ Ĥ
æĬ ±
Ġhist ory
èĸ Ħ
åĬ¨ æľº
p ly
åĨį æ¬¡
èħ ¿
y ear
Ġrel ated
è¿ħ éĢŁ
çļ ĩ
7 4
^ \
Âł Âł
Ġapplic ation
Ġhe ld
-------- ----
Ï Ħ
Ġhim self
å§ ĵ
ä¾Ľ åºĶ
äºĮ æĺ¯
çī© çļĦ
am a
7 3
i et
æ·» åĬł
Ġc ity
b all
ĠF l
æī «
ä¸į éĶĻ
g l
Ġinclud ed
tern al
ag ing
Ġreg ion
Ġe conom
Ġpa per
Ġt ax
ro s
val ue
æķĻ æĿĲ
æ¬ ²
7 1
ful ly
æĥħ æĦŁ
il t
ĠĠĠĠĠĠĠĠĠĠĠĠĠĠĠĠĠĠĠĠĠĠĠĠĠĠĠĠĠĠĠĠĠĠĠĠĠĠĠĠĠĠĠĠĠĠĠĠĠĠĠĠĠĠĠĠĠĠĠĠĠĠĠĠ ĠĠĠĠĠĠĠĠĠĠĠĠĠĠĠĠĠĠĠĠĠĠĠĠĠĠĠĠĠĠĠĠĠĠĠĠĠĠĠĠĠĠĠĠĠĠĠĠĠĠĠĠĠĠĠĠĠĠĠĠĠĠĠĠ
Ġey es
A A
èī¯ å¥½
6 2
åĴĮ è°Ĳ
èĭ Ĺ
æ¬ £
et ition
æľĢ å¤§çļĦ
å¥³ äºº
å°± è¦ģ
ĠA ss
Ġp o
ç¤¾ä¼ļ ä¸»ä¹ī
d is
Ġan sw
æľ¬ æ¬¡
çļĦ å¿ĥ
å¤į æĿĤ
im port
çĵ ľ
åĬ¨ ä½ľ
res h
Ġan g
Ġst ory
r ho
Ġst ring
Ġsol ution
çªģ çł´
èĬĤ çĽ®
], [@
Ġcont r
çķ ħ
Ġide a
st er
çļĦ ä¸Ģä¸ª
Ġrelations hip
Ġtr ad
ag ed
æľ¬ èº«
ç¬¬ åĽĽ
ĠC ent
row n
éĥ ĳ
æĲ ŀ
åį³ ä½¿
Ġfl u
æļ Ĥ
Ġf all
æµĭ è¯ķ
itt en
æģ ĭ
Ġass ess
æļ Ĺ
$ -
åħ ¼
çļĦ çĶŁæ´»
ĠS te
æ¶ī åıĬ
Ġw alk
Ġp ubl
çļĦ å¥½
æĴ ĳ
ch ie
çĲĨ æĥ³
Ġl oss
ht ml
Ġser ies
æ¸ħ æ¥ļ
èĴ Ļ
Ġde al
Ġbl ock
åľ ³
em s
åľ¨ äºİ
Ġsa w
ly ing
å¦Ĥæŀľ ä½ł
ä¾ĭ å¦Ĥ
Ġatt ack
and om
Ġde cl
èĤ ¾
è¿Ľ æŃ¥
en ing
èĢĮ è¨Ģ
è¦ Ĩ
Ġrespect ively
C ol
çļĦ åĲĮæĹ¶
äºº ä½ĵ
æ ©
ĠĠĠĠĠĠĠĠ ĠĠĠĠĠĠĠ
ĠP ar
Ġ= >
Ġadd ress
çĽ¸ æ¯Ķ
Ġ ur
8 1
æī© å¤§
ä»¥ åīį
æ·± åľ³
ç»ĥ ä¹ł
Ġdef ined
ç§» åĬ¨
W hen
åĪĨ ç±»
Ġrece ived
æĽ¾ ç»ı
p ose
å¡ Ķ
O M
ĠB y
Ġl ength
çı ł
Ġm aint
ä¸Ģ å¤©
æ²» çĲĨ
A B
Ġse ason
S he
æµģ ç¨ĭ
åĪ¤ æĸŃ
I M
éĢļ å¸¸
æĦŁ åĪ°
: (
it ing
çĶ ľ
Ġget ting
in n
Ġsim ple
å°± èĥ½
å° º
çº ł
ad a
ĠA N
li ke
ta u
åĪĩ å®ŀ
en ces
iz ing
åħį è´¹
u ly
x i
Ġwor ds
ĠM ore
Ġcol l
Ġcan cer
Ġv oid
åħ¬ å¸ĥ
led ge
ĠA m
s k
åĲİ æĿ¥
è§ Ī
Ġac cept
ãĢĤ ãĢĬ
çĸ ¼
Ġapp l
il i
pec ially
Ġm iss
Ġperform ance
éĻ ·
ç¨ ¿
b ed
Ġsignificant ly
ac he
èĥ ¸
äºº åı£
æ¡Ī ä»¶
200 9
æ¨ ª
åľ° ä½į
.. /
ou d
Ġth us
/ *
Ġstart ed
çĬ¯ ç½ª
æİ¥ è§¦
åĬŀåħ¬ å®¤
ĠÂ §
Ġwor ks
ple ment
è ²
æĦŁ æĥħ
èī² çļĦ
é£İ æł¼
w ise
Ġle arn
ä» ĵ
Ġc amp
åĪ Ģ
äºĭ å®ŀ
æ¢ ħ
äºº çĶŁ
Ġim mun
Ġm illion
éĥ½ ä¸į
è§Ħ å¾ĭ
d ro
å¼º çļĦ
sel ves
Ġf ig
åĮĸ åŃ¦
is es
éĹ ²
* ,
ver se
æł¡ åĽŃ
ob al
art ment
æĭ ¼
Ġh ours
é¥® é£Ł
m itted
Ġb ound
Ġnet work
å¾Ī å¤§
æĳ ĺ
åıĬ åħ¶
åİ» å¹´
æĹ¶ çļĦ
ĠI N
à ¸
is f
è´ ¡
è§Ĥ å¿µ
um n
åįı è®®
A ll
Ġdef in
f ile
ĠEuro pe
åĩł ä¹İ
åĪ Ĭ
æĪ¿ åľ°äº§
éĽĨ æĪĲ
æľĪ ä»½
ĠH is
Ġdec ision
åĩº åı£
! [
com p
o ke
å¸¸ è§ģ
æ¼ ı
ä¼ ¦
Ġt um
çĥ ¦
çī ¢
un ch
Ġad j
çĽ ¾
m ore
çĳ ŀ
Ġdiffe rence
çľĭ çľĭ
Ġto day
åĸ ·
æ¹ ¾
ind ing
pos ition
ĠM ed
è¡Į çļĦ
Ġch all
ãĢĭ ãĢģãĢĬ
ol s
å±Ĥ æ¬¡
Ġst ates
Ġwant ed
åĨ³ çŃĸ
le q
Ġcont act
an ced
Ġl ink
é¡ ¿
ç¢ į
éļ¾ ä»¥
d o
}} \
å° Ŀ
Ġe ff
è½ ´
fe rences
è¿Ŀ æ³ķ
Ġaddition al
çľ ł
Ġpop ulation
Ġpriv ate
ä½¿ å¾Ĺ
Ġv ia
Ġpat tern
ĠM c
å£ ģ
t ic
è®¡ç®Ĺ æľº
V iew
çłĶ åıĳ
ç¥ Ŀ
å¸ Ŀ
Ġsh all
Ġneed ed
Ġ\ \
Ġen vironment
Ġcommun ity
an ks
å§ĭ ç»Ī
Ġmethod s
Ġb ad
c her
d elta
çı į
Ġgrow th
ä¸ĸ çºª
m iss
ä¸į èī¯
å·ŀ å¸Ĥ
Ġpat ient
èĤ¡ ä»½
6 1
è®© æĪĳ
Ġfil m
äº ķ
200 8
Ġd ie
i qu
æ¸ł éģĵ
Ġin hib
åķĨ åĬ¡
å¯ ¸
ĠM an
> </
ist ance
èĳ Ĺ
èĥĮ æĻ¯
çģ °
ove red
b ook
åįĩ çº§
P E
éĩį æĸ°
éĶ ģ
ĠE n
Ġits elf
éĢĲ æŃ¥
åįı ä¼ļ
ut h
Ġ2 1
P S
æĪ ´
çĶ ĺ
Ġin du
è¾ Ľ
Ġpart y
F F
ov ed
æ¡£ æ¡Ī
ill s
the ta
W h
w ith
in ks
Ġcom pl
Ġqu ick
oc al
Ġinfl u
ä¿ Ĺ
æ»¡ æĦı
çŃĸ çķ¥
ä¸ĭ åįĪ
æĻ ¨
åĲ ¨
æ¯ı å¹´
Ġc ard
å¾ Ĳ
ĠĠĠĠĠĠĠĠ ĠĠĠĠ
Ã ¼
Ġm other
è¿ ģ
Ġimpro ve
æ£Ģ éªĮ
æ³ķ è§Ħ
ens ive
éĥ½ åľ¨
åĲĦ ä¸ª
ç± į
at ively
çļĦ åİŁåĽł
ĠN ot
Ġlook ed
é«ĺ éĢŁ
Ġthere fore
è´¯ å½»
Ġseem s
b ased
Ġint rodu
Ġsome one
Ġbeg in
æĭ Ĩ
Î ¿
Ġa chie
at al
Ġwor d
åŃ©åŃĲ ä»¬
æįŁ å¤±
èį¯ çī©
Ġass um
M y
Ġp ain
éħį ç½®
om s
éĿ¢ è¯ķ
Ġde g
åĵ ¦
èµ Ķ
ç¾ Ĭ
Ġl ines
ĠC or
o o
éĶ »
èĪ į
ä¼ĺ è´¨
åħ¬ éĩĮ
re et
ä¼ ¸
çĵ ¶
Ġrec ogn
é² ģ
è¯Ħ ä¼°
èģ Ĭ
end er
åĺ ī
èħ Ķ
çº ¤
Ġbeh ind
çħ§ çīĩ
æıĲ åīį
oc r
ç¥ ĸ
è° ·
ĠM e
Ġprob ably
çĶŁæ´» ä¸Ń
Ġatt empt
æĬĬ æı¡
è´¸ æĺĵ
at us
Ġ$ (
c ome
Ġl ive
y p
Ġh ost
g ress
ĠA ct
Ġf oot
Ġg irl
Ġse arch
ï¼ļ (
20 20
1 000
çĿ Ľ
ç»´ çĶŁç´ł
ä¹Ł å°±æĺ¯
çļĦ åŃ¦ä¹ł
am ed
æ¶ µ
ĠP ol
ç» ĺ
åľ £
åĨ Ĵ
il es
æĮ ĸ
y ch
éħĴ åºĹ
// //
def ine
Ġpre t
Ġqu ite
ĠG e
å¹³ æĸ¹
il ities
è¿ Ķ
h a
å®ļ æľŁ
è£ħ ä¿®
d es
e ks
v ant
ä½į äºİ
èĻ «
åĪº æ¿Ģ
y ing
Ġinvol ved
w ord
Ġinst ead
Ġt aking
åħ¬ è·¯
è¡¨ éĿ¢
ä¼ł æĴŃ
Ġre ve
æł ı
åı¬ å¼Ģ
èħ ¾
part ial
Ġd est
Ġgr ound
å°½ éĩı
Ø §
å§Ķåĳĺ ä¼ļ
l ight
å·¥ä½ľ äººåĳĺ
ä¸į ç®¡
æĬ ĳ
ç¾İ ä¸½
èį ·
I R
çĭ Ĺ
æĿ °
ä¸Ģ æĹ¦
åľ¨ ä¸Ģèµ·
æīĵ å¼Ģ
çĶµ èĦĳ
com es
åį± éĻ©
od es
Ġdis play
I L
æĶ¹ éĢł
st e
st ant
ome ga
p ri
å¤§ éĥ¨åĪĨ
æĺ¯ åĽłä¸º
Ġfun d
Ġorig inal
U S
Ġneed s
ä¼¤ å®³
Ġk new
Ġproble ms
æ §
åĩ ī
Ġwh ite
T able
s m
Ġmod els
éĢĤ å½ĵ
g est
å¦ ¹
çĤ Ĵ
Ġprodu ction
æĺ ¨
åĽŀ çŃĶ
Ġst ep
) }
åĲĮåŃ¦ ä»¬
Ġp an
éĻĲ åĪ¶
æŁ ±
ç¤º èĮĥ
å¹³ è¡¡
åŀ ĥ
æģ Ĵ
è¡¥ åħħ
Ġex act
al ed
äºĭ é¡¹
us ed
åľ ¾
Ġmot ion
um ents
æĶ¶ çĽĬ
ed eral
æĦ¿ æĦı
he m
I V
n u
Ġcom es
èĤ¡ ç¥¨
è¿ «
åŀĥ åľ¾
æľĢ ä½³
ĠD o
çĶ· äºº
Ġad minist
Ġf alse
éĩĮ éĿ¢
x im
é¡º åĪ©
ast ic
æľ¬ æĸĩ
æķĪ çĽĬ
Î ¹
æłĳ ç«ĭ
yn am
èŀį èµĦ
è½ ¨
åŃ¦ä¹ł çļĦ
æ³ ī
æľīæķĪ çļĦ
ĠD r
åĬ¨ çī©
p re
å® ĩ
Ġevery thing
ç¼ Ŀ
è¯ģ åĪ¸
a e
.. ."
Ġserv ices
Ġp age
l ig
Ġex ec
å¾Ī éļ¾
Ġexpect ed
æį ·
çģ Ń
____ ____
è§Ĥ ä¼Ĺ
}$ ,
Ġ ess
ä¸¾ åĬŀ
æĥ³ åĪ°
å±± ä¸ľ
å¹¶ ä¸įæĺ¯
ar r
idd le
éĥ½ è¦ģ
å¦ Ĩ
æīĢ åľ¨
Ġqu ality
Ġgen e
å¿ §
ä¹Ł è¦ģ
Ġdefend ant
ç´ «
ĠG u
ä¸Ģ åĲį
å·® å¼Ĥ
fer red
æ´ ŀ
åħħ æ»¡
Ġdo or
D ata
åĲ¸ æĶ¶
Ġpred ict
å¤§å¤ļ æķ°
Ġcomp ar
Ġdist ribution
éº ¦
ĠĠĠĠĠĠĠĠ ĠĠĠĠĠ
æı Ĵ
it es
çļĦ åŁºæľ¬
æģ Ĳ
éĶ ĭ
an a
ĠC ont
è¢ ĭ
av ing
r am
ec ause
é¢ Ī
ç¾İ çļĦ
å¤§ åŃ¦çĶŁ
èĸ ª
ä¸Ĭ äºĨ
es e
èģĮ è´£
èħ °
ĠG erm
" );
Ġ2 2
ç² Ĵ
ĠN ational
Ġin put
Ġant i
Ġpro ced
ol ve
Ġcont ract
æīĢ è°ĵ
Ġn ucle
ä¹Ł è®¸
æľ¬ äºº
æĦ Ī
t imes
æµ ħ
åľ¨ è¿Ļ
å¹¶ æ²¡æľī
Ġfri end
æľī ä»Ģä¹Ī
åĪ° åºķ
æ¤į çī©
æľī åĪ©äºİ
éŀ ĭ
è¯ķ éªĮ
S e
Ġf ire
åģ ¶
Ġv o
åĲ¯ åĬ¨
è² Į
ĠTh us
æ¿Ģ åıĳ
r c
W ith
Ġb ring
éĿ¢ ä¸´
è· ĥ
çĮ «
âĢ Ĳ
åħ¬ ä¼Ĺ
å Ĺ
å· ¡
åħ¶ å®ĥ
å® ı
c ode
ç¦» å¼Ģ
Ġ( -
Ġnecess ary
Ġst ay
è¯ ¸
Ġins ide
+ +
Ġs em
æıĲ éĨĴ
Ġdist rict
ur ch
Ġinit ial
ä¹ĭ å¤ĸ
Ġe lement
ç¥ŀ ç»ı
E M
ĠD ep
æķ´ çĲĨ
Ġ4 0
Ġed uc
ä¸Ń åŃ¦
ill i
ad es
å¨ ±ä¹Ĳ
æ» ´
Ġl oad
Ġs ense
f ield
å® ¿
Ġrec ent
Ġw in
æ¯į äº²
ĠQ u
çĪ¸ çĪ¸
C L
å®¶ çļĦ
Ġs on
ä¸į åĨį
ro te
è§£ éĩĬ
ĠP res
æ°¸ è¿ľ
er ation
inf ty
Ġind ust
ä¸Ń å°ı
æĹ ģ
Ġtemper ature
è´¡ çĮ®
éģ Ń
Ġp ie
è ķ
åı¥ è¯Ŀ
d om
Ġest im
ä¼ Ĭ
èº« è¾¹
Ġf ather
æľŁ çļĦ
å¹³ æĹ¶
U T
ä¸ĵ é¡¹
åĽ´ ç»ķ
Ġ$ $
Ġd im
åģļ æ³ķ
è½¬ åıĺ
è¯¦ ç»Ĩ
Ġpr int
] )
æ® ĸ
çļĦä¸Ģ ç§į
çªģ çĦ¶
ä¹ī åĬ¡
s ize
æ·· åĩĿ
ä» ¿
çĪ± æĥħ
Ġes pecially
æľī ä¸Ģä¸ª
ul ations
d en
Ġw ait
b ox
A t
in ally
å®ŀ åĬĽ
ä¸Ĭ è¿°
ä¾Ŀ çĦ¶
ut ions
æĭ Ķ
Ġlong er
çĽ¸ åĲĮ
ä¸Ń åĮ»
ä¸¤ ç§į
Ġexper iment
b re
èİ «
éĻ ª
æ³ ½
çļĦ åĨħå®¹
åĲĮ æ¯Ķ
s l
Ġj o
è½¦ åŀĭ
4 00
å®ļ ä½į
å® ¾
Ġim plement
åĲ« æľī
Ġa verage
Ġout side
Ġclin ical
O P
Ġpres ence
çĸ« æĥħ
g ing
ä¸ ¹
ä¸Ĭ æ¶¨
è§Ĵ èī²
æĢ ª
å¾Ī å¥½
ĠT HE
è®© æĪĳä»¬
ic ense
Ġspec ies
ç¯ ®
ç§ĳ çłĶ
ĠJ an
Ġperson al
ä¸ ģ
ĠÂ ±
rib ute
è¡Ģ ç®¡
é¢ Ĺ
æľī æĹ¶
Ġiss ues
Ġev ents
éĶ» çĤ¼
Ġfe atures
å¹´ çº§
Ġsim ply
æĮĳ æĪĺ
Ġdeterm ined
éª Ĺ
Ġbec ame
æĺ¯ ä¸į
Ġcol or
çŃ ĭ
ä½ı æĪ¿
Ðµ Ð
åĬł ä¸Ĭ
æ··åĩĿ åľŁ
b or
æĬķèµĦ èĢħ
çŁ Ľ
ç² ®
å®¡ è®¡
ist ics
åĮ Ģ
çľ¼ çĿĽ
å® ħ
éĩĩ è´Ń
çĨŁ æĤī
æŁ Ķ
å·¥ä½ľ ä¸Ń
èĤ ª
Ġsequ ence
äº§åĵģ çļĦ
æ¡ Į
Ġprov ides
çİ »
Ġwom an
v ious
åĿ Ľ
æµ Ļ
èĦĤ èĤª
Ġc apt
çĽ Ī
åįĬ å¹´
æĻļ ä¸Ĭ
Ġ ...
Ġb ir
æĸĩ çĮ®
og le
çĪ± çļĦ
åı¯èĥ½ ä¼ļ
è§Ħ åĪĻ
ç¡® å®ŀ
çĺ ¤
ĠD ef
" .
Ġpress ure
Ġd ocument
ç¢ İ
ç§° ä¸º
Ġst ra
æ¯ı æ¬¡
Ġbe gan
å¯ ¿
ĠB o
os ition
ç² Ĺ
æī °
Ġout put
åĦ¿ åŃĲ
Ġmus ic
ç¢ ³
Ġw all
r im
av es
åģļ åĩº
Ċ ĠĠĠĠĠĠĠĠĠĠĠĠĠĠĠĠĠĠĠĠĠĠĠĠĠĠĠĠĠĠĠĠ
å°Ĭ éĩį
å°ĳ å¹´
Ġ2 3
å¸Ĥåľº çļĦ
ĠP a
Ġeff ort
ra v
æľĢ å¥½çļĦ
å¾ª çİ¯
Ġstr ateg
cc ording
Ġsam ple
Ġ2 8
Ġph ase
åº¦ çļĦ
Ġt iss
æĪ¿ å±ĭ
O b
ra ction
E n
I P
Ġm ole
å¥³ åĦ¿
it ude
åĽ¾ ä¹¦
å°ı çļĦ
æ¦ ľ
çĪ ·
rap y
ä»į çĦ¶
m ary
æľ ±
èĢģ äºº
w idth
èĶ ¬
Ġcor rel
R NA
Ġo x
Ġ ir
}$ .
æĿ¥ äºĨ
ä¸» ç®¡
Ġdi agn
Ġform er
Ġcomp lete
æµ ®
ä¸Ĭ åįĩ
èĢģ å¹´
M S
æī§ æ³ķ
å¹¼åĦ¿ åĽŃ
EN T
ĠA g
. _
Ġmed ia
D elta
Ġf em
Ġso on
Ġsat isf
\ *
Ġwr ong
cript ion
ron ic
ĠO b
æĵ ¦
u ous
Ġl anguage
æĿĥ åĪ©
ä¸»è¦ģ æĺ¯
Ġimp act
Ġh ope
åĿ ¡
Ġpol y
cl usion
æ¢ ¯
è¿ĳ æĹ¥
æĶ¯ æĴĳ
de red
I m
æĪĲ çĨŁ
ar ily
Ġs low
é«ĺ èĢĥ
èĳ£ äºĭ
Ġturn ed
Ġeas y
ad o
çļĦ èĥ½åĬĽ
ol ic
æ·± åĪ»
ä½ĵ ä¼ļ
è¿ŀ æİ¥
çŁĽ çĽ¾
osp ital
ref ore
å®ļ çļĦ
ä¸Ģ èĩ´
Ġg e
åħ» èĢģ
ä» ģ
èĩ³ å°ĳ
Ġfor ce
b f
Ġh or
Ġcorre ct
ä¸Ģ å®¶
Ġpre c
Ġhand s
å®¡ æł¸
ä»¥ ä¸º
ä¸ª æĢ§
qu ad
Ġdep end
æĿ ľ
ĠC ity
Ġcommun ic
Ġset t
s im
air s
å¹¿ ä¸ľ
ç² ĺ
" ;
æĺ¯ ä¸įæĺ¯
é«ĺ ä¸Ń
\ \
f s
Ġl ack
åľ° çĤ¹
Ġsur v
æĻ ¶
èµ ĸ
åĺ ´
Ġpol ice
å¥ ı
ĠĠĠĠĠĠĠĠ ĠĠĠĠĠĠ
ell ing
åĲĦ åľ°
æķĻ æİĪ
Ġpl aintiff
éĥ½ èĥ½
è¿ĺ åı¯ä»¥
çĪ¶ äº²
çļĦ æķĻåŃ¦
æĭĽ çĶŁ
id ge
æĹ ĭ
Ġv ideo
U R
åħ¨ ä½ĵ
st ate
é¢ľ èī²
ä» Ķ
ãĢĭ (
P l
å®Į æķ´
æĢĿ è·¯
Ġrem ain
Ġf elt
ç»Ŀ å¯¹
B y
th at
ä¿¡ çĶ¨
æ· ĺ
Ġw indow
Ġg ave
Ġc opy
å£° éŁ³
èĭ ¹
Ġ} ,
Ġtr ack
ç»Ī äºİ
Ġfun ctions
Ġl es
Ġwr itten
Ġac id
åĮ» åŃ¦
Ġd u
æº ¶
é¢Ħ è®¡
Ġm i
Ġc ry
Ġst ri
Ġpr inc
æ¡Ī ä¾ĭ
åİ» äºĨ
O L
ç±» åŀĭ
Ġhe av
ĠP e
å° ĺ
Ġpresent ed
h aps
å¤§ ä¼ļ
^ *
éļ Ĩ
Ñ ĭ
Ġanal y
Ġa p
èĻ İ
' )
è®º æĸĩ
ĠC D
Ġfollow ed
Ġhy p
æ¡ ĥ
Ġd ate
Ġst op
æŀĦ å»º
l ist
it ation
çī© çĲĨ
äºº åĬĽ
Ġm is
çļĦ åīį
ap ter
Ġle ave
Ġder iv
Ġcom ing
m ar
ä¸Ģ æĿ¡
te red
Ġquest ions
å®īåħ¨ çĶŁäº§
de v
Ġl ate
Ġs le
çļĦ ä¸į
Ġche m
Ġtyp es
ç¡® è®¤
htt ps
Ġgen es
ä¿¡ å¿ĥ
Ġc red
ĠI m
a ctions
Ġwas n
åķ ¦
æĺİ çĻ½
Ġt en
èĭ¹ æŀľ
çĶŁ éķ¿
Ġrun ning
å°± åĥı
Ġphys ical
it ary
ic on
un c
ribut ed
Ġoffic ial
Ġmem ber
æīį æĺ¯
til de
d own
è®° å¿Ĩ
Ġp ack
æı ´
è¯ģ ä¹¦
Ġag o
Ġre v
äºº å£«
b a
Ġsam ples
d ocument
Ġcre ated
Ġfor ward
con st
Ġright s
Ġeffect ive
åī ©
Ġproduct s
k en
Ġis n
é¦Ļ æ¸¯
Ġnat ural
li er
è´« åĽ°
è¯´ çļĦ
ac c
Ġin dex
å© Ĩ
Ġh ot
Ġval id
Ġb ur
é© ±
ch ar
èĤ¡ ä¸ľ
æĲŃ éħį
ĠG o
éĩĳ å±ŀ
p oint
ri ef
ĠO F
ĠP er
ĠA b
tr ans
Ġpolit ical
ç£ ģ
Ġstud ents
Ġincre asing
Ġdirect ly
et t
åı¯ä»¥ è¯´
ann el
p x
ä¸°å¯Į çļĦ
ĠN e
ĠP art
o on
Ġmem ory
| \
çıŃ çº§
åħ³ å¿ĥ
é¡¾ å®¢
æĢ» ä½ĵ
G et
ç³»ç»Ł çļĦ
æĻ® éģį
l in
Ġn ull
ĠE d
ä¿ Ħ
Ġeval u
200 7
Ġim medi
Ġwe eks
ä¸į äºĨ
ult s
t op
ag s
æ¡ Ĩ
Ġr andom
er a
Ġsc reen
Ġtri ed
Ġinst all
åĪĨ éħį
]{} ,
èı ²
ä¸Ĭ åįĪ
ĠW ar
èĭ± åĽ½
Ġd ark
Ġprim ary
æĭ Ĵ
è° ĭ
c ell
ĠB rit
Ġcons um
le ase
åĳ¼ åĲ¸
èµ ļ
æ®µ æĹ¶éĹ´
Ġproper ties
å¤ª éĺ³
åľ¨ çº¿
Ġparam eters
um b
k n
Ġal leg
å¤© æ°Ķ
Ġwr ite
ap an
Ġconst ant
Ġele ments
cul ate
] ^
ag ue
Ġde ep
Ġacc om
G r
N ot
è¿ĺ ä¼ļ
æ°Ľ åĽ´
Ġm ach
åħ ģ
ĠD ist
h ood
Ġcont roll
Ġknow ledge
Ġprev ent
ç«ĭ åį³
S S
æµ Ĩ
il s
èľ ľ
æĮĩ æķ°
Ġl ost
æ¯ı ä¸Ģä¸ª
å¾® åįļ
Ġwh ose
èĩª è§ī
Ġs ound
par am
å« Į
åĲ Ľ
Ġansw er
Ġdeterm ine
ish ing
ĠR ev
æĥ³ è±¡
æŁ¥ è¯¢
Ġhe ard
ç¬¬ åįģ
å¤ļ ä¸ª
Ġcon text
Ġare as
å£ ®
m en
Ġident ified
Ġconst it
Ġgreat er
Ġnew s
% ;
çĸ ı
Ġg as
Ġbuild ing
o ch
ic les
å±¥ è¡Į
Ġs ort
è´§ å¸ģ
æ´»åĬ¨ çļĦ
i os
o e
ä¹Ł å°±
Ġpol icy
å½ķ åıĸ
ç¬¬ä¸Ģ æ¬¡
ç»Ħ åĲĪ
cl us
T R
é¢Ħ ç®Ĺ
å¤į ä¹ł
åħ¨ å¸Ĥ
åĪ° çļĦ
Ġfollow s
è°ĥ èĬĤ
ĠW orld
old s
ä½ĵ åĪ¶
è¯» ä¹¦
å¿ į
è¦Ĩ çĽĸ
lement ary
åıĳ è¡¨
l a
æĦı æĢĿ
Ġb ott
ç§ Ĵ
æŀĦ æĪĲ
æĬĢ å·§
Ñ ı
å¿ĥ éĩĮ
Ġse lect
é»Ħ éĩĳ
Î µ
è¡ °
çļĦæĥħåĨµ ä¸ĭ
ĠR eg
çļĦ åŃ¦çĶŁ
äºº æķ°
å°½ ç®¡
å¹¿ å·ŀ
Î ½
å°Ĩ ä¼ļ
ag er
Ġw atch
Ġav oid
Ġmed ical
Ġinv ention
æ¯ķ ç«Ł
ĠCom p
, '
ï¼ļ âĢĿ
em ents
ym b
u el
æ¿Ģ åĬ±
Ġthem selves
çĤ ī
Ġfr ame
Ġsoft ware
Ġex cept
Ġstat us
Ġcon fig
ä¸Ń èĢĥ
as ons
ä¸Ĭ ä¸ĭ
f unction
æ¸ħ æ´ģ
çĴ ĥ
æľī çĤ¹
ĠA f
æ¾ ³
äºĴ åĬ¨
å° ĸ
æŁ ľ
Ġdevelop ed
ren g
ul a
C D
è¿ĺ èĥ½
The y
ib er
ĠM in
Ġp s
çĥŃ æĥħ
æĦŁ è°¢
Ġrele ase
fe ction
ĠD es
éĴ »
è¾ ī
Ġm ention
u ary
å§Ķ ä¼ļ
Ġbas is
Ġlim ited
ograph y
Ġb ed
è Ŀ
ĠIn c
Ġ â
æ´ Ľ
P s
Ġst yle
æĤ Ł
Ġappl ied
ä¿¡ åı·
g n
æĺ¯ ä¸ª
Ġtra ining
æĽ´ æĸ°
ĠR uss
äººæ°ĳ å¸ģ
ĠS im
ä¸» æĮģ
ang er
ic a
om a
E r
ĠS outh
Ġp ull
éĻ¢ æł¡
z z
ĠI I
ĠE l
éĤ Ģ
è¡¨ æ¼Ķ
Ġr ound
çĽ¸åºĶ çļĦ
å¤§ åĬĽ
Ð º
ä¸į çĶ¨
Ġf ul
Ġal though
Ġab ility
Ġ2 6
is c
im ents
çĹħ äºº
æĪĲ åĪĨ
å® ĭ
æ¼ Ĥ
çħ ®
Ġp ict
Ġse cur
Ġfav or
m ing
Ġa w
Ġf ast
ä¹ Į
åħ¶ æ¬¡
ĠS m
æµģ åĬ¨
ĠIn tern
ĠS ch
ve re
ell ow
Ġn ature
\] )
åģļ çļĦ
č ĊĠĠĠ
ĠA ust
è¾ĥ å¤§
Ġf ight
Ġh ar
Ġparticular ly
æıĲ ç¤º
ä¸¾ è¡Į
ri al
Ġve h
ru pt
åį± å®³
Ġm ice
Ġaut om
Ġopp ortun
æĪĳ æĥ³
ä»ĸ äºº
å² ¸
in clude
åħĥ ç´ł
ä¼¼ ä¹İ
æľĢ ä½İ
Ġar ray
l ish
Ġplay ers
ĠA ug
Ġprevious ly
Ġde ad
éª ¤
èĴ ¸
pp er
è£ħ é¥°
æķĻèĤ² çļĦ
ĠS uppose
p ite
ĠB ar
pr int
æľŁ å¾ħ
æ°§ åĮĸ
A d
******** ********
å¾Ī å¤§çļĦ
ĠN orth
Ġa ud
Ġredu ced
éĢ ĥ
éĩį åºĨ
Ġwe bs
ro ph
æĳ ¸
err or
ers on
æŃ» äº¡
Ġun d
çĵ ¦
åĲĦ çº§
åĬ ²
ĠTr ump
h am
sc ript
åģ¥ åħ¨
Ġre ference
Ġmat ch
iv il
Ġd raw
å¸Ĥ æ°ĳ
æĽ´ å¥½çļĦ
åĲį ç§°
Ġcont ain
ĠJ ust
Ġb ox
éŃ Ķ
Ġresp ond
Ġre pe
Ġre comm
Ġ( \[
æµĻ æ±Ł
ç§¯ ç´¯
ar ray
Ġal one
r an
le ge
or ks
æĥ ľ
åľ¨ æŃ¤
ear ch
} (\
åħļ å§Ķ
åĳĪ çİ°
i us
åĲĮ å¿Ĺ
Ġcomp an
eg a
åħ¬ åĳĬ
ä¸ĵ éĹ¨
è½» æĿ¾
Ġs al
éĥ¨ ä½į
å² ©
ç¢ °
ma x
èĶ¬ èıľ
Ġan im
éĵģ è·¯
æĺ Į
åĿ ¦
ol es
æłĩ å¿Ĺ
ot ic
å¤§ åŀĭ
Ġs n
å®¶ éĩĮ
M A
ĠS ome
is ions
Ġl iving
Ġn ational
çļĦ ç®¡çĲĨ
Ġgr ad
Ġgener ally
çŃī æĸ¹éĿ¢
her n
Ġus ually
Ġd riv
200 6
D e
ash ing
å¦ Ļ
ĠO ur
Ġ/ *
èŀį åĲĪ
ĠO ct
Ġinclud es
Ġl os
å¸ĥ å±Ģ
Ċ ĠĠĠĠĠĠ
ĠThe refore
Ġm ap
å¾Ī æľī
å¿ ł
å¼ķ åıĳ
æĶ¾ å¼ĥ
çİ» çĴĥ
m et
Ġthe ory
èº« ä¸Ĭ
g or
ĠD NA
ac hes
åĪĨ æķ°
æĶ¹ è¿Ľ
è¿ĳ å¹´æĿ¥
j oy
Ġfri ends
åĲ« éĩı
Ġjud gment
Ġbehav ior
ĠF urther
èĲ¥ ä¸ļ
çĭ¬ çī¹
ĠD av
äº ¦
Ġoff ice
q q
Ġpre p
å®ŀ ä¹ł
å¨ ĺ
Ġpubl ished
ä¼Ļ ä¼´
Ġbro ad
S D
Ġ6 0
p en
ĠHe re
å½ĵ ä¸Ń
æĮ º
f ra
æĥħåĨµ ä¸ĭ
ä¹Ł æ²¡æľī
åĩ ¯
^ [@
Ġspe ed
åĩº åıĳ
Ġco ver
is ms
ä¸ŃåĽ½ çļĦ
æĺİ æĺŁ
iv en
è¯¾ é¢ĺ
Q u
os ure
r angle
Î ¼
Ġnum bers
å°ı åĮº
çľĭ çĿĢ
éĥ¨ ç½²
p an
1 20
os ph
ig en
åĶ¯ ä¸Ģ
Ġdire ction
Ġsh are
è´¢ äº§
Ġexp ress
fe red
ill ing
æīĢæľī çļĦ
Ġop in
ç»ı åħ¸
Ġre n
æħ¢ æħ¢
b on
Ġim ages
é¥ ±
æŃ£ç¡® çļĦ
ç§į æ¤į
pr il
æİ¢ ç©¶
ä¼ĺ æĥł
æ¸ Ĺ
åİŁ æĿ¥
Ġstat ement
é© »
Ġany one
Ġlay er
å¤Ħ ç½ļ
åĩº æĿ¥çļĦ
éĺ³ åħī
in ated
Ġ! =
Ġ2 7
O D
Ã £
å¸¦ çĿĢ
Ġst age
æĦı åĳ³
un k
Ġ ;
æ± ģ
ac ement
é«ĺ æķĪ
åĮħ è£ħ
Ġeng ine
Ġcomp et
Ġ ?
è®© ä½ł
Ġv an
Ġl ed
ĠPres ident
æģ °
s ing
å¤© çĦ¶
æ°ĳ ä¸»
æ³ Į
åĲ¦ åĪĻ
ĠCoun ty
ĠL a
åĲį çļĦ
aug h
he st
æĹ¶ åĪ»
Ġnot e
O C
çº µ
å®¤ åĨħ
è¡Ģ åİĭ
è¡¨ æĺİ
æĿ¥ åĪ°
ĠWh ile
å¤ļ æ¬¡
çļĦåŁºç¡Ģ ä¸Ĭ
æĹ¶ å°ļ
æ°´ æŀľ
it ter
ĠAmeric a
Ġd ro
ĠM arch
l ation
å¹´ ä»£
ve y
å¾Ī å¥½çļĦ
Ġclaim s
pl ate
çº¤ ç»´
åĩł å¹´
ou ch
Ġacc ur
æ¼Ķ åĳĺ
äº ©
Ġact ive
æ¢¦ æĥ³
æ´ ª
åħ± äº«
è¡£ æľį
Ġon line
Ġind ependent
åĽ Ĭ
Ġc and
éĻ ¶
è¿ĩ çļĦ
Ġdiffe rences
ç²¾ å½©
Ġv ict
éĢ Ĩ
è¾ £
ä¹ĭ ä¸Ń
åºĶ æĢ¥
æĸĩ åŃ¦
èĩª è¡Į
æĢ§ è´¨
åĳ¨ æľŁ
ä»£ çĲĨ
Ġpro t
æķ´ æĶ¹
Ġcomm and
åĽĽ ä¸ª
çĹħ æ¯Ĵ
æ¯ı ä¸Ģ
ak er
è¶³ å¤Ł
ou l
æĲ º
ur g
ĠS ince
æľī æľº
Ġto wn
çł Ĥ
é£Ł çĶ¨
Ġpret ty
ĠN ow
åıĳ åĬ¨æľº
æĭ ĸ
æĬ¥ èĢĥ
E d
att le
p at
ent al
Ġpract ice
éĢĶ å¾Ħ
åŁº äºİ
åħ³éĶ® è¯į
Ġm essage
æŃ£ æĺ¯
åľº æīĢ
)$ .
Ġun it
u i
èĲ¥ éĢł
Ġart icle
( $
è¿ Ł
Val ue
å¯» æī¾
æī¶ è´«
) =
æľº åĻ¨
ar ning
ä½İ äºİ
ç´§ å¼ł
Ġt akes
Ġro ad
æĥ³ æ³ķ
å¤ļ å¹´
çļĦ è¿ĩç¨ĭä¸Ń
Ġant ib
å®¡ æŁ¥
æĹ ¨
ĠG l
Ġb rain
de ed
æľī å¾Īå¤ļ
ä¸Ģ ä½ĵ
åŃ¦ åİĨ
äºº å·¥
ä¸ī æĺ¯
r ite
Ġbr ought
å¢ ¨
å¤ º
Ġper fect
æľ¬ ç§ĳ
Ġh ref
il le
å¸¦ æĿ¥çļĦ
an ch
çĺ ¦
æ¶Ī åĮĸ
éħį å¥Ĺ
P L
åĳ¨ åĽ´
å¥³ åŃ©
Ġs qu
èĳ ¡
Ġim pl
çĽĳ æµĭ
å§ Ĩ
éķ¿ çļĦ
Ġoff er
D o
å¤© çļĦ
åī ª
ĠH er
Ġreg ular
15 0
çĩ ¥
åĩı èĤ¥
ĠS T
* ~
Ġcorrespond ing
Ġsecur ity
è¯¾ æĸĩ
at ives
p ath
und red
f n
Ġal tern
è®¾ ç«ĭ
âĢ ĥ
z y
Ġsay ing
ä»¤ äºº
Ġg ames
Ġen s
ç®¡çĲĨ çļĦ
ar ies
é¸ Ł
Ġre ach
æĭį æĳĦ
T H
ä¸ļ ç»©
æµĭ éĩı
Ġappro pri
ren ch
O ne
åıĺ æĪĲ
åĲĦ ä½į
å¹³æĸ¹ ç±³
Ġfe ed
æĺ¾ çĿĢ
Ġb and
åºĶ å¯¹
å¼º åº¦
E L
Ġd ynam
Ã³ n
åľ¨ è¿Ļä¸ª
ĠJ une
Ġprote ct
å²ģ çļĦ
er ve
Ġwrit ing
åħį çĸ«
ĠF irst
b b
Ġh on
èĭ± éĽĦ
ĠH ar
ter m
æĶ¶ è´¹
I F
oci ety
Ġappro xim
ä¹¡ æĿĳ
Ġneg ative
Ġp oor
c ast
åĪĽ ä½ľ
L e
ĠSe pt
ĠJ apan
å½¢ åĬ¿
B C
ç»´ ä¿®
è°ĥ çłĶ
åĢ ¡
Ġpres ident
Ġ âĪĴ
U N
Ġ201 6
a rent
Ġlar ger
æĤ ²
æıĲä¾Ľ äºĨ
Ġhtt p
Ġfin anc
ä¸į çŁ¥
æ±Ł èĭı
Ġor d
Ġet c
ĠÐ ¿
é½ ¿
l o
äºº çī©
ĠH ouse
åĵ Ń
Ġst reng
y ond
Ġen h
ĠCh ar
at form
Ġconst ruct
Ġro t
æĻ Ĵ
èĥ½ éĩı
è¾ħ å¯¼
cd ot
Ġ201 2
Ġatt ention
åĨĻ ä½ľ
u ild
Ġ& &
S uppose
ĠA rt
Ġd ensity
Ġcontin ue
Ġb all
Ġmor ning
Ġass ert
å¥ Ķ
p ret
in ate
åĲ Ĳ
éĥ Ń
çľĭ æĿ¥
s upp
åİŁ çĲĨ
v ention
å®¢ è§Ĥ
Ġ201 4
å¯¹ æŃ¤
O r
Ġf ine
èĥ ĸ
Ï ĥ
è¸ ı
ç¼ĸ åĪ¶
Ġw ays
æī¹ åĩĨ
Ġmeas ured
Ġ il
ur b
æ» ĭ
æĭħ å¿ĥ
N ow
eth yl
åł Ĩ
O h
our nal
åģļ äºĨ
Ġcent er
Ġdou ble
ãģ ®
re c
é«ĺ çº§
èī °
å¸Ī çĶŁ
ous ly
å© ´
èĲ Ħ
b i
f rom
Ġgr ant
çļĦ è¿ĩç¨ĭ
ef ul
e ah
æ²³ åįĹ
el ine
ay er
å®ĺ æĸ¹
Ġte le
gor ith
å§ ¿
ç»Ĩ èĬĤ
al ing
å¹² åĩĢ
Ġobt ain
ent y
Ġar r
æĪĸ è®¸
è¯ ±
u ge
è¡Ģ æ¶²
äºº åľ¨
Ġpro posed
èĥ Ģ
g y
èĳ¡ èĲĦ
Ġrel ative
Ġst ar
éĥ ģ
Ġst ress
æĻ °
ire ct
Ġhe ar
çļĦ åħ³ç³»
G F
éĻĦ è¿ĳ
æĪĲ å°±
Ġ[ *
l or
Ġtrad ition
Ġt itle
åħ¬ åĽŃ
ĠI d
Ġser ious
æĪĳ å°±
Ġc am
ãĢĭ ãĢĤ
ä¼ĳ æģ¯
ä¸ĭ åİ»
Ã §
s pec
æ Ĩ
Ġr ates
âĨ Ĵ
ï¼Į ãĢĬ
Ġ201 5
Ġsit uation
æİ ĺ
æĭ Į
è¿Ľ åı£
åĲ Ĭ
çĲĨ çĶ±
å¥ ī
Ġac qu
çĭ Ĥ
è® ¼
è¾ ĸ
Ġpur pose
Ġrec ently
èĢĥ å¯Ł
ĠC ir
å¤§ å°ı
çĦ Ĭ
ä¹Ļ æĸ¹
åŀ Ĥ
Ġvis it
uf act
ç¨ į
æĿ Ń
Ġdev ices
) );
j s
èİ· åıĸ
çĶŁæ´» çļĦ
ĠA P
Ġ ult
éĹ ¹
Ġl iter
a ign
èĤ ©
ch ange
vers ion
Ġtre ated
port s
è®° å¾Ĺ
éļĲ æĤ£
äº§ æĿĥ
}} $
ĠV al
æ± Ĺ
æİ¨ åĩº
Ġhigh ly
èĲ ¨
äº ı
it ness
åħ¬ åĬ¡
Ġdist ance
S C
k g
æĺ¯ å¯¹
Ġhy dro
Ġcle an
om y
Ġw rote
ç©º è°ĥ
ĠAl though
åľ¨ è¿ĻéĩĮ
Ġpur ch
å½» åºķ
å®¡ æī¹
çļĦ äº§åĵģ
om en
Ġf re
åħģ è®¸
Ġgl obal
ä½ľ åĩº
çķ ª
ä¸Ģ ä»½
! !
è¦ģ æľī
çİ° çĬ¶
ä¸ĭ åĪĹ
æŃ¥ éª¤
Ġ2 9
æľĢ æĸ°
l ength
Ġallow ed
Ġis ol
Ġro w
åı¸ æ³ķ
p id
çĶµ åĬĽ
åĽŀ å®¶
ĠS ystem
il ed
un n
Ġbe aut
ç¡ ķ
Ġcap ac
çļĦ ä¸ľè¥¿
ç»ĵ å©ļ
æĺ¾ å¾Ĺ
Ġt er
Ġevery one
çł´ åĿı
å°Ŀ è¯ķ
Ġr ule
å¾Ī å¿«
Ġ: =
æĶ¶ éĽĨ
ibr ary
çĤ ¸
ä¸ĵ é¢ĺ
Ġ ri
æĸ ¤
è¡Ĺ éģĵ
200 5
è¯ī è®¼
oc ks
çģ Į
Ġ201 3
ĠS u
es tern
ic o
b and
å¾ĭ å¸Ī
ob ile
Ġsu it
çļĦ è®¾è®¡
çĲ ´
å¾Ĺ åĪ°äºĨ
ĊĠĠĠĠĠĠĠĠĠĠĠĠĠĠĠĠ ĠĠĠĠĠĠĠ
å¥¹ ä»¬
çĸ ²
è½¬ åĮĸ
ch o
m ega
Ï ģ
Ġmy self
åĵª éĩĮ
Ġinter n
Ġarg ument
m ap
Ġp en
åĴĮ ç¤¾ä¼ļ
z a
Ġs old
Ä ĥ
èİ ±
æ·± åĮĸ
çĲĥ éĺŁ
å¥³ å£«
åŃ£ åº¦
åĵģ ç§į
ĠS er
ĠJ uly
çī µ
é¦ Ī
Ġbir th
N ew
M od
è£ħ ç½®
çĶµ åĬ¨
èŀ º
è¿Ļ å°±æĺ¯
âĢĿ âĢľ
C al
ul ate
re me
å®ŀ åľ¨
æĦıåĳ³ çĿĢ
è½¬ ç§»
Ġchar ge
Ġprof ess
Ġp hen
æĭ ¨
Ġdes igned
h ors
å¹ »
æĤ ¦
Ġin form
çŃ¾ è®¢
Ġm er
ĠA pril
è¾ Ī
ot ed
Ġm ag
å¼ ¯
æ² Ī
Ġsu fficient
Ġprodu ced
com ing
Ġb ank
ĠCh ina
ĠW est
Ġus eful
Ġres id
Ã ¨
ä» Ļ
ĠPh ys
å¯¹ å¤ĸ
æĳ ĩ
){ #
Ġo il
Ġhe at
Ġst im
èĤĮ èĤ¤
Ġf ixed
erv ice
Ġpro p
æ¯ķä¸ļ çĶŁ
æİĴ åĲį
çļĦ å®īåħ¨
in ct
Ġoper ation
Ġ201 0
Ġb al
ä¸ĭ äºĨ
æĽ ¼
Ġinst ance
ac ing
çļĦ æķĻèĤ²
Ġpro ceed
P ar
or ph
ce mber
çļĦ ä¼ģä¸ļ
å¿ħ çĦ¶
C A
æĿĥ çĽĬ
Ġback ground
Ġm ount
Ġ201 7
ir ing
ä¹Ł åľ¨
Ġlead ing
Ġstat ic
ï¼ģ ï¼ģ
Ġh undred
Ġtechn ology
ĠS w
è¯Ĭ æĸŃ
Ġm id
6 00
åİŁ æĸĩ
å¤§ ä¼Ĺ
åĬ¨ æĢģ
æķ´ æ²»
S P
è¿Ļ æ¬¾
Ġse cret
æ°ĳ èŃ¦
ĠAug ust
ä¼Ĺ å¤ļ
åı¯ è§ģ
ab ase
éĿĴ æĺ¥
åİ ¨
Ġfail ed
Ġf air
éĹ ª
æ£Ģ å¯Ł
ä¹Ł èĥ½
å¤© æ´¥
çİ© å®¶
## #
Ġdeg ree
å§ ľ
åīį çļĦ
Ġfrequ ency
Ġestabl ished
çļĦ æķĪæŀľ
çºª å¾ĭ
m pt
\] .
ä¿Ŀ åģ¥
å¸¸ å¸¸
æĢ§ æł¼
æĮ ¡
Ġsur pr
å§ »
éĺ² æ²»
å±ķ å¼Ģ
iz es
ĠJan uary
å¼ Ħ
æĶ¶ èİ·
Ġar ch
ond on
Ġcompon ents
èµ· åĪ°
åĩº çĶŁ
ä»¥ ä¸ĬçļĦ
ub e
M L
Ġ Ñģ
Ġgiv es
å¥½ äºĨ
æĴ ŀ
ä¼ļ ä¸Ĭ
è¿ĺ åľ¨
Ġen joy
ef ore
ç²ī ä¸Ŀ
åħ¨ çľģ
T ext
Ġpart s
an cy
çĶŁ åŃĺ
d r
ps i
ç« ¹
åĽ½ å¤ĸ
ail y
ĠD em
éªĮ æĶ¶
Ġleg al
Ġdetail s
ĠGen eral
æĤ ¬
Ġsub stant
Ġse lected
çİ°åľ¨ çļĦ
Ġcaus ed
ĠO R
c os
ers hip
Ġrat io
å°± åľ¨
Ġwon der
åĳ Ģ
äººåĬĽ èµĦæºĲ
n on
l ock
åĪĨ å¸ĥ
Ġsc ale
Ob ject
åĲĪ éĢĤ
Ġident ify
èį¯ åĵģ
at o
f ort
Ġcl ust
éļľ ç¢į
Ġann oun
Ġcomplet ely
Ġear lier
å°Ĩ åľ¨
Ġg raph
å®ŀéĻħ ä¸Ĭ
Ġwork ed
Ã£ o
ä¼ ı
ä¸Ĭ éĿ¢
Ġtra vel
Ġus ers
å¤§ éĩıçļĦ
Ġsom et
æĪĲ éĥ½
ent ially
æķĻåŃ¦ ä¸Ń
Ġvo ice
â Ĺ
en er
éĥ½ åı¯ä»¥
Ġde b
ä¼ ¯
çģµ æ´»
Ġfind ings
Ġe ight
ĠK ing
ç¾İ æľ¯
ä¸Ń éĹ´
å¥ĸ åĬ±
Ġindividual s
æĪĳ æĺ¯
åĩºçİ° äºĨ
æĹ¥ èµ·
ç»´ æĮģ
Ġmanag ement
å¤ļ äºĨ
or ing
æīĭ ç»Ń
k ing
èĤ ĥ
Ġcount ries
} =
â ĺ
èĬĤ èĥ½
æŃ¤ æĹ¶
å¯¹ æ¯Ķ
åĽĽ å·Ŀ
åŃ ¤
ĠJ ud
çĶ³ æĬ¥
ä¸¤ äºº
å¼º çĥĪ
Ġdiv ided
ä¸ĵä¸ļ çļĦ
ove mber
æĭĵ å±ķ
Ñ Į
è¾ĥ ä¸º
) -
Y es
Ġagre ement
Ġprote ins
éĢł åŀĭ
æĶ¯ éĥ¨
åıĳ æĶ¾
Ġ201 1
èĢĮ åľ¨
éĴ Ļ
æ¹ĸ åįĹ
Ġexper ien
èī² å½©
æĻ¯ åĮº
è¾ ©
åĲį åŃĹ
Ġbu ilt
Ġth reat
åĩº åİ»
eps ilon
e es
éŃ ħ
Ð ²
Ġderiv ative
Ġar m
è·¯ çº¿
Ġcent ral
ex p
åħ¬ çĽĬ
åĩºçīĪ ç¤¾
ç¾İ å®¹
åĪ© çİĩ
Ï Ģ
v is
çĽ¸åħ³ çļĦ
z ed
å¤± è´¥
åħ¬ å¹³
æĲ ¬
S c
çİ° éĩĳ
oc ation
Ġread ing
ç»© æķĪ
ĠM on
äºĮ åįģ
Ġl at
æ¸¸ å®¢
Ġs we
Ġf a
Ġd og
g u
Ġloc ation
äºĪ ä»¥
right arrow
Ġl as
id a
ĠĠĠĠĠĠĠĠĠĠĠĠĠĠĠĠĠĠĠĠĠĠĠĠĠĠĠĠĠĠĠĠ ĠĠĠĠĠĠĠĠĠĠĠĠĠĠĠĠ
Ġth ous
Ġcho ice
Ġeas ily
Ġh it
* .
w as
èģĮ èĥ½
ĠF rom
ell ant
G amma
è¯Ħ è®º
åĽ½ æľī
è§Ħå®ļ çļĦ
kn own
Ġdef ault
âĢĶâĢĶ âĢĶâĢĶ
un der
çł ĸ
å½ĵ äºĭ
Ġseem ed
åħ» æĪĲ
c ap
æµģ éĩı
æ¬§ æ´²
æķ Į
Ġpl ant
å® ł
çĶ² æĸ¹
O mega
ar a
è¡¥ è´´
ĠSept ember
Ġsa f
Ġmov ed
Ġpr ice
è½¦ çļĦ
Ġin n
æ³ ª
Ġno vel
æ¶Ī éĻ¤
Ġtoward s
Ġcompon ent
Ñ ĩ
Ġwor th
Ġne igh
éĺ Ķ
ç¬¬ äºĶ
æĪĳ åľ¨
ĠDist rict
Ġ\ <
ore m
ĠM ich
Ġchang ed
åī ²
ç±» ä¼¼
æŃ¦ æ±ī
1 10
åį° è±¡
æ¸ħ æĻ°
c all
Ġrele ased
çļĦ ä¸»
ib ly
Ġbo ard
Ġim m
ç§ ¦
ç»ıæµİ åıĳå±ķ
å¤ ¹
èĪĴ éĢĤ
Ġa im
Ġwebs ite
æ¤ Ĵ
at he
Ġnot ice
)$ ,
ĠR ed
æ¯ı ä¸ªäºº
åŁİ éķĩ
è®© åŃ©åŃĲ
Ġ ----------------
æħ İ
č ĊĠ
èĢĮ ä¸įæĺ¯
Ġcirc um
Ġsit es
c il
B S
w ide
% .
i ency
ç¨ Ģ
Ġsc he
Ġ[ **
Ġlook s
æ·± åº¦
Ġbe yond
åĮº åĪ«
Ġmat rix
è¾ ŀ
Ġem erg
Ġrequ ires
çī© åĵģ
ä¿® æĶ¹
ä½ľ æĸĩ
æ» ¤
Ġon es
Ġcurrent ly
æĬ ¼
ro om
è®¤ åı¯
Ġcom ment
ac her
åĲĪ æ³ķ
Ġcon cept
ï¼Į âĢĿ
ight s
åį± æľº
Ġph one
T T
oper ator
å¼Ĥ å¸¸
k a
åħ± äº§
ĠF eb
æĶ¾ åħ¥
éĵ ľ
æĪ¿ åŃĲ
Ġ ĊĠĠĠĠĠĠĠĠĠĠĠĠĠĠĠ
oc ol
se mb
åıĳ è¡Į
æĺ¯ æľī
Ġtr ust
Ġt im
è° ¨
od ing
f ord
or age
éĢ »
ĠOct ober
Ġfil es
Ġwe b
r ad
ir med
ou ble
äººåĳĺ çļĦ
Ġexp ressed
é«ĺ çŃī
E X
èį ¡
å½ ¼
---- --
Ġman ufact
åıį å¤į
gr oup
Ġmult i
Ġim ag
è¯ ĳ
æ£ ī
D es
Ġpr ime
åģ ·
Ġcar ry
p ol
In t
éĩĩ è®¿
å©ļ å§»
Ġform ed
Ġco ol
Ġn ames
/ >
åŃ¦ æľŁ
d f
Ġconcer n
Ġre cept
çĽ¸ ç»ĵåĲĪ
ä½ľ é£İ
Ġcomput er
am m
éĩĳ é¢Ŀ
Ġcult ure
Ġd a
Ġdec ided
è½¬ åŀĭ
éļı åĲİ
åĬ© äºİ
èĢģ æĿ¿
el le
å¸¦ åĬ¨
Ġaut hors
åıĳ èĤ²
æĺ¯ æľĢ
ĠDep artment
èĩª ä¿¡
Ġw ife
å¾ ½
S ec
åĬŁ æķĪ
é¢ ĸ
Ġbu y
C E
Ġex erc
å¼ķ è¿Ľ
æĿĳ æ°ĳ
å¾Ī å®¹æĺĵ
Ġfail ure
if ically
åĪĨ æ³Į
è¿Ļ ä½į
å°± æľī
Ġps ych
00 2
å¯¹ å¾ħ
\ '
Ġequ al
ps ilon
r is
Ġcont ains
å¸¸ è§Ħ
( (
Ġun ique
è£ħ å¤ĩ
: "
ward s
Ġrem ember
ä½ĵ æ£Ģ
p c
Ġf ederal
W ell
Ġcontr ast
Ġcompan ies
Ù Ħ
Ġindust ry
ç»Ļ æĪĳ
å®¶ äºº
Ġem b
od ies
åįĥ ä¸ĩ
pl it
Ġqu al
Ġ ĊĠ
è¦ģ æ³¨æĦı
æķħ éļľ
v oid
Ġro ll
h and
p y
Ġs ong
ç¾¤ ä½ĵ
å°± ä¸į
Ġhy per
å£° æĺİ
éĶ ¦
æŁ¥ çľĭ
éħ ¬
Ġtiss ue
00 3
Ġcont aining
Ġspe ak
A fter
çĥ Ĥ
Ġadv ant
å¾· åĽ½
æĪĳä»¬ åľ¨
åĩ Į
m ark
çº¿ è·¯
ĠEng lish
Ġsmall er
åįĹ äº¬
Ġplay ed
èµĽ åŃ£
Ġ upp
Ġext ra
aug ht
çĽĳ æİ§
p ublic
Ġallow s
åĩ ¤
æĪ Ĵ
çĿ¡ çľł
ff er
ur t
Ġdis cl
åĲĮ æĦı
Ġhig hest
ot hes
if ul
c in
è¿ĳ æľŁ
v are
P R
ä½¿ åŃ¦çĶŁ
ä¸Ģ æĸ¹éĿ¢
çº· çº·
Ġnum er
Ġexact ly
åĪĿ æŃ¥
os ite
us er
ä¼ļ åľ¨
F ile
ä½ ©
Ġloc ated
åĭ Ĵ
éĤ£ æł·
çıŃ ä¸»ä»»
èī ¾
ä¸» å¸Ń
éģµ å®Ī
o very
Ġdesc ript
Ġsl ight
æķĻå¸Ī çļĦ
æĳĦ å½±
éļı æĹ¶
ol der
Ġcould n
æĸ ľ
ir t
å¯ Ħ
Ġm ur
æĥ ĳ
åį³ å°Ĩ
åı¯ éĿł
æĽ´ ä¸º
çŁ¥ åĲį
qu est
Ġmean ing
æĭ ľ
Ġre asons
Ġquick ly
ç¼ĵ è§£
Ġelect ro
Ġc ook
an o
ĠSt ud
Ġcle arly
å§Ķ æīĺ
å·¥ åķĨ
åĨł åĨĽ
èĢĮ ä¸į
åĪĨ åŃĲ
Ġfind ing
åĽŀ åĪ°
å¤§ å¹ħ
per ty
Ġover all
act ive
æĪĳä»¬ è¦ģ
Ġappe al
ä¸Ģ è·¯
åľ¨ ä¸ŃåĽ½
Ġsupport ed
Ġdri ve
Ġple ase
Ġ Ã©
Ġhapp ened
arg in
Ġem ail
S A
éĺ² æİ§
in it
åŃ¦ æľ¯
over n
lic k
å¯Ĩ åĪĩ
ĠS un
èµ ĭ
ĠD et
çĵ ·
Ġ3 1
ut ed
Ġgo es
ĠÐ ²
ç´¯ è®¡
è¾ĵ åħ¥
Ġappear s
Ġcamp aign
èĢ Ģ
å±ħ ä½ı
éĶĢ éĩı
Ġn or
ve c
Ġappropri ate
Ġmod e
se ction
ĠR ec
d i
æŁĲ äºĽ
p ace
Ġa x
ç½Ĺ æĸ¯
it em
Ġconne ction
æī¿ è¯º
æ¬£ èµı
Ġrem ains
åĴ ĸ
è¸ ª
éŁ© åĽ½
å¼Ģ å¿ĥ
ĠSt ring
Ġadj ust
^ +
Ġsomet imes
ĠC ons
ç®¡ éģĵ
çĶµ æ±ł
Ġgener ated
è®² è§£
Ġst ru
Ġcomm it
l ink
O f
åħĪ åĲİ
ĠDe cember
çº ²
éĿ© åĳ½
Ġtum or
U LL
te e
Ġc yt
ĠTr ans
Ġsle ep
Ġg un
è¯´ è¯Ŀ
Ġcou ple
æĹ¥ åŃĲ
ell a
Ġfe et
åŀ «
è®¸ åı¯
é¡¹çĽ® çļĦ
Ġopt ion
å¤§ å¤§
èĲ Ŀ
æ·· åĲĪ
Ġal gorith
Ġshow ing
Ġcand id
æĺ¯ çĶ±
ĠM od
è´¢ å¯Į
åĪĿ ä¸Ń
ĠAf ric
é¢Ħ æľŁ
Ġh ab
Ġact ual
åĬł éĢŁ
Ġexper iments
Ġsp ir
çļĦ åİŁåĪĻ
================ ================
çĻ¾ åĪĨ
å¹¶ åľ¨
æĬĵ ä½ı
Ġmed ium
E C
Ġtrans fer
ç³ Ĭ
èī ³
M P
Ġar riv
Ġform ation
ä¹¡ éķĩ
çĥ ¤
en ge
æĬĢæľ¯ çļĦ
åĳ¨ è¾¹
æĻ ĭ
F r
é¢Ħ æµĭ
çĽ Ĵ
Ġe ffic
åıĤ æķ°
è° ±
ĠN ovember
åı¯ä»¥ åľ¨
è¿Ļ å°±
.... ....
st ance
çļĦ æĦŁè§ī
æĪĲ äº¤
èĦ ¾
F rom
éª ĳ
æļ ĳ
a el
åı¦ä¸Ģ æĸ¹éĿ¢
åĲ ¹
Ġvol ume
ç®Ģåįķ çļĦ
ĠM or
a a
ur ance
ä¸Ĭ ä¸Ģ
Ġcrit ical
enc ies
Ġha ir
èµĶ åģ¿
Ġus es
è®¤ çŁ¥
_ .
æ° ı
Ġactiv ities
Ġconcent r
Ġrele vant
éĿ¢ åīį
æıĲåĩº äºĨ
æ» ¨
Ġst ore
ition s
Ġh ospital
çŃī çº§
ĠI S
ä¸ī å¹´
çī© ä¸ļ
Ġ3 2
Ġpop ular
B e
wh ich
çļĦ æ°´
id ay
åħħåĪĨ åıĳæĮ¥
ri er
åĨ »
i ers
Ġw ide
è¾ħ åĬ©
200 4
æİ¢ è®¨
a res
çĩ ķ
ä»¶ äºĭ
Ġcl osed
å¾ Ĵ
å¾Ī å°ĳ
ç© ·
r um
äºº ä¸º
am ple
Ġthink ing
r ound
çº¿ çļĦ
b ase
äºĭä¸ļ åįķä½į
åį µ
D ef
åī ĳ
Ġle arning
d im
çĸ¼ çĹĽ
å¸Ĥ å§Ķ
S et
çľŁæŃ£ çļĦ
éĽ ¾
Ġfig ure
æ³ µ
çĽ Ĩ
ä¿¡æģ¯ åĮĸ
ä¿¡ éģĵ
../ ../
Ġst o
ashing ton
çĹĽ èĭ¦
b in
Ġ/ >
Ġp air
ru ary
ic ip
æĦı å¤ĸ
ang ed
çĲĥ åĳĺ
Ġinter view
èĩªèº« çļĦ
or ney
Ġopt ions
Ġparent s
çĨ Ĭ
è®º åĿĽ
as m
ĠRep ublic
M an
éĥ½ æ²¡æľī
åŁİ åĮº
\ <
or ge
Ġimmedi ately
Ġtrans port
v ision
éŃ Ĥ
Ġread y
é¦ĸ æ¬¡
ĠM ark
åı ī
F L
Ġconcent ration
Ġpart ies
æ´»åĬ¨ ä¸Ń
Ġeduc ation
åįģ äºĮ
ĠW illi
èĩ³ ä»Ĭ
Ġunderstand ing
Ġopin ion
if orn
Ġf ear
} ^{\
==== ==
Ġinter pret
ist ry
ch i
Ġfe ature
Ġp or
bo ard
çĽ ²
åħ³ èĬĤ
a ur
* -
Ġg one
Ġsub sequ
ab y
b um
m ail
Ġstreng th
Ġth row
å½¢ æĢģ
Ġg reen
ĠÐ ½
ä¸ ¢
ust r
ä¼ĺ åħĪ
åĵ ²
st ances
st atic
çļĦ å¤ĸ
Ġchall eng
ä¸į ä½Ĩ
Ġ201 8
ĠO f
Ġrest rict
åĴĮ åĽ½
æ§ ½
Ġ200 8
Ġpass ed
Ġapp ly
å»º æĪĲ
Ġm it
f o
Ġmil itary
ä½ı å®ħ
Ġprodu ce
Ġvari able
} ;
ç»Ļ å¤§å®¶
Ġse c
èµ· äºĨ
ĠS en
Ġst aff
Ġconne ct
ric k
Ġdam age
Ġgo al
çľŁ æĺ¯
ĠBrit ish
Ġreturn ed
Ġinterest ing
åıį é¦Ī
èµ ł
ĠÃ ł
çļĦ æľºä¼ļ
Ġfinanc ial
ç«Ļ åľ¨
clud ed
. $$
Ġfin ally
Ġparam eter
Ġ __
ĠS chool
Ġst ation
éļ¾ åº¦
å¿ Į
åŁİ ä¹¡
æıĲ äº¤
Ġfil ed
æ²³ åĮĹ
åı¯èĥ½ æĺ¯
vare psilon
Ġv s
al le
Ġbl ue
Ġp ul
Ġresult ing
indow s
l ib
Ġredu ce
for ce
ĠL ondon
w orks
äº§çĶŁ çļĦ
å¥ĭ æĸĹ
Ġ200 9
æīĢ å¾Ĺ
çĪ ½
Ġf at
Ġs i
ä¸Ģ è¾¹
Ġyour self
S upp
è¾ ¨
op l
A dd
æĲľ ç´¢
æĮĩ æĮ¥
åł µ
æ£ Ĵ
éĤĢ è¯·
åıĸ æ¶Ī
ä¸Ń æľī
ĠC he
Ġrece ive
k ay
var phi
Ġcost s
å¤ļ åħĥ
Ġful ly
æįŁ å®³
å¸ ħ
çĤ¹ çļĦ
Ġob vious
S im
ç¬¬ ä¸Ģä¸ª
çľĭ èµ·æĿ¥
Ġne arly
è¿Ļ ä¹Łæĺ¯
é¼ ł
ĠHe alth
çļĦ è§Ħå®ļ
w ell
åĲĮ ä¸Ģ
Ġpro gress
ä¿¡ ä»»
åŃĲ å¥³
Ġsc ore
éĤ »
Ġn ode
éĹ´ çļĦ
cul es
éĨ ĩ
d ed
çī §
i ant
æĹłè®º æĺ¯
ĠT w
çļĦ åŃ©åŃĲ
èľ Ĥ
) **
Ġst ated
Ð ´
ms g
åį ľ
h old
ĠÎ ¼
Ġmaterial s
Ġplay er
A b
å»ºè®¾ çļĦ
Ġreg ions
ĠA ccording
ĠH ol
ä¸ļ ä¸»
ä¸ ²
T ER
ind ex
å¹¿ åľº
åıĳ çĹħ
Ġlet ter
R I
operator name
Ġcon sequ
iqu es
Ġrel ig
éĢļ è®¯
Ġcar ried
è®² è¯Ŀ
èĤ¡ æĿĥ
Ġt ask
æĺ¯ éĿŀå¸¸
c ar
çĹ ķ
Ġinflu ence
ĊĠĠĠĠĠĠĠĠ ĠĠĠĠĠ
è¦ģ ç´ł
re p
Ġ3 5
* ]{}
Ġset ting
å¨ ľ
Ġinter nal
Ġb rief
Ġser ver
Ġas pect
Ġex hib
ä¸į å¦Ĥ
Ġindic ated
ĠL icense
iforn ia
ç¦ģ æŃ¢
åĪļ åĪļ
Ġvir t
çļĦ ç¾İ
O W
å±ķ çİ°
åİ ī
Ġb inding
Î ²
Ġl ives
Ġy es
ä»Ĭ åĲİ
éķ¿ æĹ¶éĹ´
Ġch ance
Ġthrough out
as p
è£ ¤
Ġconne cted
å°º å¯¸
Ġm iddle
Ġm ess
ate ver
200 3
à ¥
Ġlet ters
Ġmed ic
Er ror
P P
å·® è·Ŀ
èģ ª
äºº å¤§
Ġprocess es
ä¿® å¤į
Ġmeet ing
Ġcoun ter
Ġm al
åĨħ å¿ĥ
éĥ¨ çļĦ
èĦ± è´«
çĽ´ åĪ°
åĽ¢ ç»ĵ
è½¬ è½½
Ġpro of
çĻ¾ å§ĵ
åį §
çº¿ ä¸Ĭ
äºº ç¾¤
ing er
ä¸¤ å¹´
) ^
U L
éĽ¶ åĶ®
^{ (
Ġmove ment
Ġcontin ued
éĵ Ŀ
åĿĩ åĮĢ
ç»Ļ ä½ł
Ġl inks
Ġre ached
çīĪ æĿĥ
è¿ Ī
æĤ£èĢħ çļĦ
çŁ ©
åĮ ¹
Ġr ules
åĲĮ äºĭ
è®¤ å®ļ
} _{\
T ime
Ġext ract
k y
çļĦ è¡Įä¸º
ĠAust ral
Ġper haps
ç§¯æŀģ æĢ§
Ġon to
ç³ĸ å°¿
çĶ± æŃ¤
äººæ°ĳ æ³ķéĻ¢
Ġ" "
Tr ue
Ġc it
Ġref lect
æ±ĩ æĬ¥
Ġprom ot
æĹ¥ åīį
il ing
Ġpl aced
rel ated
Ġdem and
ad em
. \
ĠT H
Ġsol id
èµ° åĲĳ
é¢ĺ çĽ®
om as
Ġmov ing
æĪĸ æĺ¯
èĥ½åĬĽ çļĦ
8 00
èĩ³ äºİ
He re
æ¡ Ĥ
Ġhe ight
æĭĽ æłĩ
æĮ ¤
Ġapplic ations
Ġ( $
Ġcol lect
sh ip
æĹ º
pl ing
Ġre action
å¸ĥ ç½®
æī¿ åĮħ
st yle
åĽ½ åĬ¡
Ġabs ol
å®£ å¸ĥ
åĪĻ æĺ¯
Ġvari ables
os es
K ey
it ro
æī¹ è¯Ħ
Ġsk in
åģľ æŃ¢
Ġro b
Ġ ^
Ġj ury
Ġbe comes
W hy
Ġcol lection
st ream
Ġget s
ä¹Ł å¾Ī
ra el
å¯¹ æīĭ
åľ° çĲĨ
åľ° çĲĥ
Ġw idth
åİ ¦
Ġli qu
èĮĥåĽ´ åĨħ
Ġmax imum
ers ion
Ġn amed
é¦ ¨
Ġ Ø
Ġplay ing
Ġsc ient
çļĦ ç²¾ç¥ŀ
å¤ļ æł·
Ġit ems
as te
åŃ¦ åĳĺ
çĹħ æĥħ
are st
ç»ĵ è®º
æĹ¥ æľŁ
éĢĤ çĶ¨
ĠS ub
æĬ Ľ
ä»·åĢ¼ è§Ĥ
æı Ń
ĠB ro
Ġor g
çŃī å¾ħ
æĭħ ä»»
Ġreve aled
æ¸ħ çĲĨ
pect ive
Ġform s
çļĦ çī¹çĤ¹
D A
Ġy ield
åįļ å£«
åĳ µ
ĠC ong
Ġveh icle
ĠH igh
çļĦ åıĺåĮĸ
Ġsepar ate
Ġinj ury
ç»Ļ äºĨ
as is
å¸¦ é¢Ĩ
as ion
Ġw ild
Ġb oy
Ġbro ther
åĬĽ åĴĮ
Ġ( **
Ġ ign
è¿ĺ æ²¡æľī
æ¬ ł
æīį ä¼ļ
åŃ¦ çļĦ
ä¸į åľ¨
Ġstart ing
åŁ ĭ
åĪ ł
æĪª èĩ³
Ġnot ed
Ġh our
Ġf ix
æ· Ģ
at ur
ĠAn g
Re ferences
col or
Ġf it
Ġdef ine
åĬ £
Ġgr and
å· ©
Ġth ick
æľ µ
æĪĲåĬŁ çļĦ
Ġparticip ants
Ġrel atively
è¯¾åłĤ æķĻåŃ¦
Ġut il
æıı è¿°
ĠB ecause
Ġke pt
ĠĠĠĠĠĠĠĠĠĠĠĠĠĠĠĠ ĠĠĠ
çłĶç©¶ çĶŁ
Ġmod ern
æ· ĭ
æĽ´å¥½ åľ°
åįģ å¹´
åħ¬åĬ¡ åĳĺ
Ġgiv ing
ot o
ad y
at in
P C
Ġcirc uit
Ġs un
å¡« åĨĻ
ĠIn t
Ġs end
Ġline ar
æľº çļĦ
å®Į ç¾İ
ä¸Ģæł· çļĦ
æľī æ²¡æľī
å¿ĥ æĥħ
ĠE ven
éĽ ķ
r ant
æŀ Ŀ
Ġthe rapy
ä¸ĸçķĮ ä¸Ĭ
Ġhe aring
éĿ¢ åĲĳ
èĩª æ²»
ĠP ark
ro y
P A
æĿ¡ ä¾ĭ
Ġfield s
ĠM us
æķĪ åºĶ
\ ,
s a
Ġreport s
å®¶ åħ·
R A
Ġst eps
er ate
ĠAN D
Ġto ol
ĠJ e
Ġent er
Ġd ied
æİ¥ è¿ĳ
x y
æĺ Ĩ
åĩº åı°
ber g
Ġtrans form
åįķ åħĥ
om b
æľŁ éĻĲ
Ġne ut
ä»Ķ ç»Ĩ
m g
gr ams
åıĸå¾Ĺ äºĨ
æī ®
Ġt our
èĢ ķ
M e
Ġmajor ity
ä»£ è°¢
Ġpick ed
æĬĵ å¥½
æľį è£ħ
Ġp ow
éĤ£ ç§į
ä¼łç»Ł çļĦ
Ġother wise
è®¤ è¯ģ
æ³ Ħ
Ġsa fe
Ġregard ing
k t
[ '
Ġstra ight
èĤ¿ çĺ¤
R T
ab s
Ġinter action
am in
èĪ °
æ¸ħ æ´Ĺ
N S
( ).
Ġ8 0
d b
f il
åĢº åĬ¡
Ġinst it
Ġman ner
] :
ç¤¾ä¼ļ çļĦ
åĮħ åĲ«
èµ ģ
Ġcont ribut
o at
èĽĭçĻ½ è´¨
èĬ ³
èµ° è¿Ľ
gr ad
Ð ¼
çĤ Ń
åĽ½åĬ¡ éĻ¢
Ġanim als
om an
åŃĺåľ¨ çļĦ
) ).
Ġed ge
l angle
ä¸ĩ äºº
Ġdom ain
æ» ļ
ä»ħ ä»ħ
Ġbas ic
äº¿ ç¾İåħĥ
Ġcol umn
ç¥ ¥
ä¸ĭ è·Į
ot he
çº¢ èī²
ç§Ł èµģ
ur ity
çİ°ä»£ åĮĸ
äºĨ å¾Īå¤ļ
æĤ¨ çļĦ
è¿Ļ æĹ¶
å´ ĩ
å¤§ åĪ©
Ġsy mpt
ok en
æĽ´ æľī
Ġm ort
Ðµ Ð½
Ġbott om
ic it
Ġun its
Ġv ot
åľ° éĿ¢
ä¸Ģ çº¿
ä¸Ĭ è¯¾
Ġint r
Ġtalk ing
ge q
è¯ļ ä¿¡
o oth
åħ Ħ
çĮ ľ
if orm
è´Ł æĭħ
æħ °
ag on
è§Ĩ è§ī
åķĨ æłĩ
æĭĴ ç»Ŀ
Ġst uff
Ġs ources
æĩĤ å¾Ĺ
ock et
ree k
cl es
i ated
i Ã³n
Ġex ists
æ¼Ĥ äº®
ĠFeb ruary
ç³ĸå°¿ çĹħ
æį Ĳ
unt u
éĺ² æĬ¤
ä¼ļ åĳĺ
å·¨ å¤§çļĦ
çļĦ æľįåĬ¡
Ġwh om
æĸ° åŀĭ
é¸ £
}} (
Ġconv ention
f ree
Ġ9 0
ĠW ashington
Ġj ur
ut ive
Ġve ctor
çĽĳ çĲĨ
çĽ´ æĴŃ
Ġh ous
b ra
å·¨ å¤§
âĺ ħ
j e
pl ace
æĪĳ è§īå¾Ĺ
i pp
Ġz ero
å¥½ åĥı
é«ĺ äºİ
é©¬ ä¸Ĭ
Ġmay be
åıį æĢĿ
Ġcomb ination
erv ed
å¤ª å¤ļ
çļĦ æĬĢæľ¯
Ġpl aces
Ġb ul
åį ĵ
åŁ¹ èĤ²
m aterial
ĠD is
æĢ ¨
over line
Com p
Ġey e
æ¸ ¡
s is
æ¼ Ĩ
çļĦ çĽ®çļĦ
çĶµ åķĨ
Ġwould n
ĠMore over
è¯ģ æį®
Ġand roid
ä¸ī è§Ĵ
T est
çĲĨ è´¢
ä¿Ħ ç½Ĺæĸ¯
ä¸Ĭ çº§
Ġinc or
çº ½
ä¸įå¾Ĺ ä¸į
ĠCal ifornia
Ġopportun ity
Ġhist or
ç¨İ åĬ¡
æµ ¸
Ġeconom ic
i ance
f ont
Ġsyn the
ĠE r
Cl ass
æĳĺ è¦ģ
æº ª
c el
ç¢ Ĺ
çĸ Ĩ
om ic
æ¯ı æĹ¥
Ġfunction al
é¥ ¼
é¢ ģ
Ġwe ak
ymb ol
Ġestabl ish
èĬ ¯
' );
çĮ Ľ
Ġbegin ning
l s
ä¸į æĥ³
Ġw ave
ç¥ Ľ
ay out
Ġproced ure
æ¸© æļĸ
éĢļ ä¿¡
åħ» æ®ĸ
al y
Ġ( \
Ġcalcul ated
åıĳ è¾¾
çĽ Ĺ
é¸¡ èĽĭ
Ġsh ot
æ£® æŀĹ
å¿ħè¦ģ çļĦ
Ġhapp en
Ġmach ine
è¿Ŀ åıį
ä»ĸ åľ¨
Ġph osph
åľ° çļĦ
æľ¬ è´¨
æľī åĵªäºĽ
è¿Ŀ è§Ħ
åĩł å¤©
Ġin fection
Ġpa id
a is
Ġc ivil
Ġredu ction
éļ¾ çĤ¹
ĠS an
Ġprocess ing
Ġtr uth
Ñģ ÑĤ
å¤§ äºİ
Ġm ale
con s
å¯¹ çħ§
ĠUS A
ab led
it ors
åĮº çļĦ
èĤĮ èĤī
å¥ ĳ
#### ##
ä¼ł éĢĴ
ĠD ata
ens es
Ġmet al
Ġport ion
ĠPa ul
çļĦ åıĳçĶŁ
l ong
æħ¢ æĢ§
"} ,
äºĭ åĬ¡
Ġh op
Ġsuggest ed
Ġupp er
åĲĪçĲĨ çļĦ
éĩį å¤į
èĪª ç©º
Ġachie ve
}} _
0000 0000
é»ĳ èī²
Ġres istance
å¯¹ åħ¶
ä»ĸ è¯´
å¥³ çĶŁ
å¤« å¦»
Ġem ot
Ġcoun sel
Ġse ven
åĪ° ä½į
Ġconduct ed
Ġl abel
çº³ ç¨İ
ĠO ther
Ġbl og
éĢ» è¾ĳ
è¾ĥ é«ĺ
å¾ħ éģĩ
on ic
Ġmechan ism
èĳ ±
Î ·
äºĴ çĽ¸
ar ter
åİŁ æĸĻ
åĻ¨ çļĦ
Ġrem oved
æīĵ åĩ»
ç²¾ åĩĨ
ĠA D
n es
g ar
Ġ à¤
Ġpl atform
æĺ¯ æĪĳ
Ġhapp y
Ġc ore
åĽ¾ä¹¦ é¦Ĩ
æł¡ éķ¿
ç§ ©
Ġmet ab
c ase
AT E
c s
æĸ° æµª
e ch
æĪĲä¸º äºĨ
ä»ª å¼ı
å¼Ģ åĲ¯
ren d
æµ ĩ
Ġcom plic
Ġsus p
åĩı è½»
Ġanal ys
è¿ĳ å¹³
Ġapp arent
Ġdetect ed
æĬ ¹
éģĵ çĲĨ
Ġad apt
è§£ æŀĲ
Ġcap ital
ĠA T
Ġobject s
Ġdemonstr ated
stit ute
å¤± åİ»
in y
Ġag ree
Ġpe ak
ger y
Ġt ree
Ġequ ation
çŁ¥è¯Ĩ çļĦ
å½ĵäºĭ äºº
Ġch annel
Ġconsist ent
ĠDav id
p o
Ġ< <
Ġ eth
Ġsp read
ĠD on
ĠĠĠĠĠĠĠĠĠĠĠĠĠĠĠĠ Ġ
Ġra pid
è¥¿ å®ī
åıĳ çļĦ
200 1
le vel
æľº åľº
Ġbook s
Ġtest ing
ä¹ł è¿ĳå¹³
å®ļ ä¹ī
æĢ» ç»ıçĲĨ
c a
æĸ¹ çļĦ
z ym
æĥ ©
Ġintern ational
Ġw a
éĤ ĵ
åĩ ½
ä¾Ŀ éĿł
è¯Ĩ åĪ«
ä¸Ģ å¼ł
ä¸Ĭ åİ»
æľįåĬ¡ çļĦ
åľ° ä¸ĭ
ĠCent er
å¤§ æ¦Ĥ
å¤§å®¶ éĥ½
ä¼ĳ éĹ²
åĲ¬ åĪ°
Ġ200 7
éĺ Ģ
è¿ĩ äºĨ
åĲĥ é¥Ń
ĠEurope an
C t
augh ter
l am
Ġk ill
å½ĵ å¤©
ç¨ĭåº¦ ä¸Ĭ
Ġfl oor
t em
æĶ¯ åĩº
å¼ķ é¢Ĩ
ri a
è¾ ½
çĥŃ çĪ±
æĶ» åĿļ
Ġvari ety
wo od
ach ing
Ġconst ruction
c or
ot al
ç§© åºı
Ġt ouch
æĶ¶ åĪ°
n y
ç¬Ķ èĢħ
çļĦ ç¤¾ä¼ļ
ĠF rench
Ġw id
Ġco ord
P D
z en
Ġsaf ety
æĹħ è¡Į
è¯ķ çĤ¹
æķ° çļĦ
ĠWh ite
ĠI L
çľĭ åĩº
Ġsh ift
èº«ä»½ è¯ģ
éľ ¸
Ġindic ate
or ry
ä½¿ åĳ½
åľº æĻ¯
Ġmem br
æīĢ éľĢ
åĳ³ éģĵ
Ġreason able
ab il
è¿ĩ äºİ
Ġsp ent
čĊ č
æıĲé«ĺ äºĨ
åĨħ æ¶µ
èģĶ çĽŁ
åĽŀ æĿ¥
ol ar
Ġar rest
Ġstat ist
ĠG et
ĠJ ack
ing u
çº³ åħ¥
on ent
om in
Ġro ot
åĲį åįķ
Ġset s
Ġa ctions
å£ ³
è¡¥ åģ¿
å¿½ è§Ĩ
ĠA M
çŁŃ æľŁ
è£ Ļ
Ġcare er
w hat
æĦ ī
åĲĦ èĩª
åģľ è½¦
éĺ² èĮĥ
200 2
Ġl if
Ġsh ape
åķ ¡
åħ¸ åŀĭ
å®ŀ çĶ¨
æ¤ ħ
è´Ń çī©
Ġc ert
ç¢ ĳ
ct ors
ä¸ Ī
Ġtest s
Ġv ill
åħ± åĴĮåĽ½
Ġa part
j ava
Ġc ast
èĬĤ çº¦
çļĦ éĢīæĭ©
Ġsw itch
ä¸Ģ ä»£
F orm
æł· åŃĲ
Ġpl us
Ġcho ose
ä¸Ń èį¯
oc yt
Ġ ~
j o
çļĦ å¸Ĥåľº
Ġmagn etic
Ġprov iding
ĠE m
Ġvis ual
Ġadminist ration
é«ĺ ç«¯
çĹ ĺ
ĠT ex
b m
B ig
Ġequ ival
Ġt end
æī Ń
re ly
Ġpie ce
Ġn orm
Ġ- >
ĠSe ction
æĹł çĸĳ
Ġp etition
è¿ĩ æĿ¥
Ġh arm
ä¸į èµ·
Ġ\ ,
äºī åıĸ
æµª è´¹
æ³ķ åĽ½
Ġcompar ison
pect ed
us ing
Ġg old
åħ¬ äº¤
çļĦ éľĢæ±Ĥ
çĶ» éĿ¢
æ° ¨
t es
ç¨İ æĶ¶
Ġit em
O V
C S
æīİ å®ŀ
ĠT able
Ġsh oot
åħ¨ åĬĽ
[ ^
ä¸º æŃ¤
v est
Ġl ib
åŃ¦æł¡ çļĦ
Ex ception
æĪĳä»¬ åı¯ä»¥
ĠAl so
åĮĸ å¦Ĩ
é¢Ĩ åħĪ
âĢ ²
å¹¶ éĿŀ
p ir
å£ ¤
Ġappe ared
Ġk illed
é«ĺ åħ´
ä½Ĩ åľ¨
S ee
O O
ä½ł ä¼ļ
ä»¬ çļĦ
er ia
re y
Ġext rem
Ġm ac
çļĦ ä¿¡æģ¯
çŀ ¬
æ¯ ģ
çļĦ æľĭåıĭ
éħį å¤ĩ
": "
åıĳ åĩº
semb ly
ĠA rm
ot ype
Ġl abor
ĠA c
Ġres ources
/ (
Ġgl ass
Ġpro ve
å¥½ å¥½
èĬ Ŀ
Ï ħ
Ġc op
åĪĽ æĦı
ĠP ublic
ĠCom mission
O ver
Ġs en
in ner
åħ¨ æĸ°
çĶ¨ äºº
å¡ĳ æĸĻ
Ġ4 5
It em
Ġad opt
Ġstruct ures
çĶ¨ æĿ¥
è¢ Ń
æį ķ
åŃ¦çĶŁ åľ¨
Ġne arest
Ġm ist
\] ,
æµ ´
ç®Ģ ä»ĭ
Ġbenef its
è¿Ļ éĥ¨
ä¹ Ķ
æĬķ æłĩ
us es
ion e
Ġt al
èĪŀ åı°
è¯´ æ³ķ
åĿļ åĨ³
æ°´ çļĦ
è¾ĵ åĩº
æįŁ ä¼¤
å°½ å¿«
Ġcapac ity
æľī åĬ©äºİ
Ġun f
æ¯ı æľĪ
ou te
Ġrem ov
ol ved
* (
æ¡ ¶
l en
æĺ¨ å¤©
Ġc ru
æĪĳ ä¹Ł
éĨ ī
ä¸ĵ åĪ©
æĪĳ å¸Ĥ
æµ· å¤ĸ
æĺİ çļĦ
çĶ· åŃĲ
æ² ĥ
æ°´ æ³¥
Ġcharacter istics
ä¸´ æĹ¶
åĬŀ äºĭ
ä¿ Ĭ
å§ ĳ
Ġ9 5
è¿Ļ ä¸¤
å¦» åŃĲ
éĻ ķ
åºĶè¯¥ æĺ¯
ä¼ĺ çĤ¹
ĠFig ure
æĬ «
ä¿Ŀ åħ»
' :
Ġsa ve
ç¾ ½
Ġn one
ä¸į å¼Ģ
ell ig
åĽŃ åĮº
h r
åĸĦ äºİ
ä¸ĵ ç§ĳ
æľī å¤ļ
ing ly
ĠM iss
Ġ3 6
ĠInd ia
Ġ3 7
åĴĸ åķ¡
ĠIs rael
]\] ,
çĶ¨ åĵģ
è¿Ľ åº¦
Ġdat abase
pos es
æĬĳ åĪ¶
éĿĴ å²Ľ
éħ ±
Ġn ice
f low
çŁ³ æ²¹
éĶ Ĳ
Ġ2 000
Ġcomp r
h ow
Ġlaw s
åħ± æľī
in i
Ġd ut
æľ¬ æĿ¥
éħ ·
h ost
ä½ĵ åĨħ
ĠA ut
ä¸į ä½ı
å½ĵ å¹´
åģ¥ èº«
Ġmention ed
Ġbeaut iful
è·¯ ä¸Ĭ
at ically
Ġp un
è®© ä»ĸ
ar th
å°Ĩ åħ¶
Ġw ind
æ¨¡ åŀĭ
çŃĸ åĪĴ
it z
Ġexist ing
Ġr ace
Ġdis app
Ġ );
c irc
ĠP M
Ġfem ale
ä¸Ģ åľº
Ġl ab
èĢģå¸Ī çļĦ
Ġse lection
il ies
ĠDem ocr
æķı æĦŁ
Ġsc en
èİ ²
çļĦ çİ¯å¢ĥ
Ï Ĥ
ãģ Ħ
æĪĲ çļĦ
um an
d ot
Ġstud ied
idd en
è¡Į æĥħ
h an
å¼ı çļĦ
ra int
æĿĥ å¨ģ
Ġexp osure
æĪĲ æķĪ
ĠÃ Ĺ
ĠĠĠĠĠĠĠĠĠĠĠĠĠĠĠĠ ĠĠ
ag o
æĽ ¹
Ġc up
æĶ¾ æĿ¾
è¡Įä¸ļ çļĦ
Ġc old
åĤ ¬
æĸ° èĥ½æºĲ
ĠInd ian
Ġb urn
Ġcl ient
Ġconf lic
åħļ ç»Ħç»ĩ
è¯ ŀ
æĽ´ æį¢
Ġ200 6
å¦ ¥
ĠIn st
æ´» åĬĽ
Ġra ised
Ġens ure
ä¸Ģ æī¹
Ġpan el
ä»Ĭ æĹ¥
"> <
å®ŀçİ° äºĨ
çľĭ äºĨ
åĩº è¡Į
Ġun c
éĢī æīĭ
Ġm ill
åĬ¨ çļĦ
ĠS ec
æľī åºı
ĠP al
ä¸įä»ħ ä»ħ
åıį èĢĮ
åĿļ å®ļ
Ġf resh
ä¸ī å¤§
ind u
ĠL aw
Ġd anger
/ (-
Ġcent ury
è¶³ çĲĥ
Ġw itness
æĪĳ è¦ģ
Ġthe rm
åıĺ æĽ´
Ġpl ate
Ġheav y
åıĳ è¨Ģ
æ¡ ©
ify ing
Ġopen ed
stit ution
ç³ ķ
ens ions
Ġpre m
Ġreg ul
ä¹ ĥ
çľ ī
Ġdis s
c an
æĸĩåĮĸ çļĦ
ç»Ł çŃ¹
ĠBl ack
ĠN et
Ġrepl acement
ãĢĤâĢĿ âĢľ
Ġh us
æĲ ħ
Ġd aily
Å ¡
ric es
st art
ines e
å·© åĽº
B A
C P
éŃħ åĬĽ
ä¸į å¤ļ
> >
a ud
Ġgu ess
Ġcr im
Ġsub str
å·¥ç¨ĭ å¸Ī
app ing
ann ed
è´¦ æĪ·
èĲĿ åįľ
E G
å¹´ åºķ
æĿŃ å·ŀ
äºº äºĭ
è°ĥ åĬ¨
Ġtr ade
æ¶Ī èĢĹ
èĩ Ń
éĿĴ å°ĳå¹´
g s
ç§ĳ çĽ®
ä½¿çĶ¨ çļĦ
d ing
çľĭ è§ģ
Ġw at
Ġcontin uous
ç®Ģ ç§°
ĠY our
Ġprep ared
Ġfeel ing
Ġd oc
çķĻ ä¸ĭ
èĵ Ħ
Ġvict im
éľ ľ
Ġrem ove
è¹ Ī
åŃ¦ ä½į
é ¬
I A
if ier
Ġal bum
çĪ± å¿ĥ
åĬł çĽŁ
å½ ¹
çļĦ çİ°è±¡
app a
Ġtyp ically
D on
F alse
æĴ ¤
æĸ° é²ľ
Ġl ip
Ġincre ases
åİ Į
æ³ķ å®ļ
ĠRes earch
å½¢æĪĲ äºĨ
ĠJ ames
çļĦ è´¨éĩı
ï¼Ł (
æĿĤ å¿Ĺ
F A
ag ement
Ġdefin ition
ri an
v i
Ġgu y
ç¦ı åĪ©
Ġ7 0
ĠR ich
3 000
å®ī å¾½
ĠH am
åĬŁ çİĩ
ig ation
çļĦ çłĶç©¶
éī´ å®ļ
ç® Ń
çĶ· æĢ§
Ġdiscuss ed
St ate
åĨ² åĩ»
æ¿Ģ ç´ł
c hen
è¿Ļ ç±»
éĿ¢ ä¸Ĭ
v a
çīĽ å¥¶
//// ////
Ġfact s
Ġla ug
Ġsol utions
h i
` `
con ne
æľº åĬ¨
è¢« åĳĬ
ic ed
Ġpict ure
ĠIn ter
con fig
åĪ« äººçļĦ
å¿ĥ èĦı
ä¸Ģ ä»¶
ä¹Ł åı¯
çİ Ľ
çļĦ çĽ®æłĩ
è¦ģ åľ¨
Ġcl ub
i pe
æīĢ ç¤º
å¼ķå¯¼ åŃ¦çĶŁ
ç© ´
en ame
èĳĹ åĲį
æĭ ³
æĸ° åĮº
ĠFurther more
Ġse vere
å¯ ĵ
Ġdou bt
so ft
æĢ Ĵ
ç¢ ±
Ġw ood
æ¶Ī æ¯Ĵ
æŁ ³
P ath
å¨ ĥ
çĶµ è·¯
? '
Ġrespons ible
ot a
çļĦäºº çĶŁ
tr ue
Ġsp in
Ġl ock
ic ks
çļĦ åħ³éĶ®
in put
Ã¶ r
pos s
pro du
Ġapproxim ately
ä¸ª ä½ĵ
ru it
ar io
00 4
æľª æĿ¥çļĦ
Ġme ant
å¿ĹæĦ¿ èĢħ
Ġam pl
iv o
åĩº è¡Ģ
é¡º åºı
èĥ½åĬĽ åĴĮ
æĹ¥ æĬ¥
é© °
Ġb acter
ç«ŀäºī åĬĽ
ens ional
äºĳ åįĹ
Ġimpro ved
çº ±
rom e
åº· å¤į
å°ı è¯´
act ers
os en
~~ ~
åĽ½å®¶ çļĦ
åħļ å»º
Ġass ume
åİ ĺ
Ġsuccess ful
Ġ ]
sp ace
å¤ĸ è§Ĥ
j ection
åĩŃ åĢŁ
çĬ ¹
M E
çºł çº·
æĪĺ æĸĹ
Ġmeas ures
Ġs ell
d p
fra k
éĢĢ ä¼ĳ
èĥ½ åĲ¦
å¤ļ åªĴä½ĵ
èĤ ¢
ĠAss oci
Ġn il
y r
O ut
Ġcon vers
æľº éģĩ
é¤Ĳ é¥®
å¸¸è§ģ çļĦ
Ġpr ison
ä¸Ģ ç³»åĪĹ
Ġpre par
Ġcommunic ation
ĠT V
ç¡ķ å£«
ä¸ §
os ing
åı° æ¹¾
åĪ° è¾¾
Ġev olution
æĹ© æľŁ
éĿŀ æ³ķ
Ä ģ
åİŁæĸĩ åľ°åĿĢ
å±Ģ éĥ¨
pa rent
è¶ħ çº§
Ġdr ink
åĬłå¼º å¯¹
è¦ģ æĥ³
Ġdet ection
æ¶Ī å¤±
ä¸Ĭ çıŃ
y ou
Ġup d
Ġ um
S ub
Ġj e
U p
Ġ( "
æĿ¿ åĿĹ
çļĦ ä½¿çĶ¨
st on
** )
äººæ°ĳ æĶ¿åºľ
b an
çĶµåŃĲ åķĨåĬ¡
Ġrecomm end
ç½ ©
çº¦ å®ļ
Ġliqu id
c ount
åı¯ æĮģç»Ń
æĺ¥ èĬĤ
è½¬ æį¢
Ġexpl ain
éĢłæĪĲ çļĦ
c p
00 5
ä¸Ńåįİ äººæ°ĳ
ograph ic
ä¸ľ æĸ¹
* )
Ġalleg ed
å¹² çĩ¥
ĠGo ogle
or ter
è¿Ľ èĢĮ
åĬł ä»¥
æĺŁ æľŁ
ĠD an
æĽ Ŀ
è®© ä»ĸä»¬
çĽĪ åĪ©
Ġg al
Ġcertain ly
Ġb ud
Ġtrans ition
Ġb ond
åŃ£ èĬĤ
åįı åĬ©
. (
w id
i able
S I
æ¹ĸ åĮĹ
p ost
åŁºç¡Ģ è®¾æĸ½
æİ¥ çĿĢ
çļĦ å½¢å¼ı
enc ing
Ġpro grams
æĢĢ åŃķ
ĠS pec
æħ Ī
)/ (-
Ġm o
ĠG overn
Ġocc up
æĺ¯ ä¸ŃåĽ½
ç®¡çĲĨ å·¥ä½ľ
ÃĹ Â
Ġcomm erc
å¦ĩ å¥³
Ġro ck
ĠM ac
Ġopt im
ä¹ĭ å¤Ħ
Ġwant s
Ġst ream
c r
r ide
Ã© s
ang ing
Ġtrans l
Ġun s
ç¼º å°ĳ
Ġcl ick
t itle
Ġactiv ation
éĩĬ æĶ¾
æĢİä¹Ī åĬŀ
Ġstrateg y
èħ »
æį® äºĨè§£
Ġal ign
ĠR ober
åıĤèĢĥ æĸĩçĮ®
ç§į ç±»
ra z
ä¹ĭ è·¯
ul f
éĤ ¦
æĶ¶ è´Ń
th on
Ġfor ces
Ġchall enge
æ°ĳ éĹ´
æµ ©
å· ¾
Ġbenef it
= '
H T
Ġw ish
æľī æĹ¶åĢĻ
å·¥ åİĤ
Ġrad io
Ġdis miss
Ġr out
æĺ¯ ä»¥
ä¸Ńåįİäººæ°ĳ åħ±åĴĮåĽ½
S ize
Ġexpl ained
Ġmot or
èĤ ļ
Ġexperiment al
B l
åĲĮæ¯Ķ å¢ŀéķ¿
éĩįè¦ģ çļĦæĺ¯
le m
ld ots
åĿ ĳ
v o
ist ant
çĶµ æºĲ
f unc
ĠO ff
ĠI D
æĸ° çĶŁ
ä¹³ èħº
ĠGerm an
as cular
èļ Ģ
F T
èģĮ ä½į
ä¾Ľ ç»Ļ
Ġm g
æŀ ª
Ġlead s
è¿Ļä¸Ģ çĤ¹
éĢĤ éĩı
ail s
åį° åº¦
çī© ä½ĵ
çļĦ ç»ĵæŀľ
s f
Ġsubject s
ĠIntern ational
im ony
ĠA tt
Ġm m
èµ ´
im age
Ġins ert
å± Ī
t re
Ġun a
æ³ ³
åŁºæľ¬ ä¸Ĭ
ĠM ost
Ġcom ments
Ġold er
et te
æīĵ åį°
ri ent
Ġsex ual
ĠO h
Ġgrow ing
Ġb orn
Ġbel ong
ic ial
ĠP C
æĺ¯ æĪĳä»¬
èĬĤ å¥ı
Ġexp and
Ġexerc ise
çľĭ æ³ķ
ĠL ist
äººæ°ĳ ç¾¤ä¼Ĺ
Ġtechn iques
æĦŁ åıĹåĪ°
Ġdef ense
Ġserv ed
å¤© ä¸ĭ
Ġv ent
' ;
Ġv el
çºª å¿µ
å¹¿ æĴŃ
åĲĮæĹ¶ ä¹Ł
åĭ Ł
Ġess ential
æľĢ ä¸º
æ» ŀ
æ¨¡ æĭŁ
Ġa ward
Ġd ed
ar ant
ä»¥ å¤ĸ
or row
ĠM art
Ġadvant age
æµ· æ´ĭ
çĪ ¬
Ġc as
ä¸¥éĩį çļĦ
æ¸ ´
å°ĳ æķ°
è¡Į é©¶
Ã ł
ur rent
Ġrecord s
ç»ı è´¹
go ing
id el
åŃĲ å®«
æĮĸ æİĺ
Ġprofess ional
åĴ ³
çľģ çº§
ite ct
åľ° è¯´
inf o
Ġn ation
it ivity
as ma
fe rent
Ġf ib
å½ °
Ġk in
ar c
r ical
èŀį åħ¥
Cal culate
Ġp ark
ä¾Ŀ èµĸ
Ġto ols
Ġdel ay
æĪĳ è¯´
Ġoper ator
Ġag ent
Ġintrodu ced
Ġs av
åĪ« çļĦ
å¯¹ è¯Ŀ
æĹ¥ åĨħ
} ,\
ä» °
it a
Ġsur round
en ced
Ġhtt ps
ĠJ ew
èĦ Ĩ
ur a
çħ§ é¡¾
å±± è¥¿
çļĦ çŁ¥è¯Ĩ
Ġ4 8
å¤§ èĦĳ
Ġcomb ined
ĠP ost
çļĦ ä»·æł¼
ĠU K
Ġne ur
Ġm ig
ç«Ł çĦ¶
Ġopt ical
åĪĳ äºĭ
č ĊĠĠĠĠĠĠĠ
æ¿Ģ çĥĪ
end ant
éĢī çĶ¨
äº§ éĩı
as ure
ĠR NA
ä¾Ŀ æĹ§
çĿĢ åĬĽ
çĪ± å¥½
éĤ£ éĩĮ
ĠP ress
Ġh uge
ãģ «
. ](
ä¸ĭ è½½
lic ation
æ¶ ¯
v an
Ġchem ical
Ġr ing
Ġcol lected
å¥ Ī
i at
Ġun less
Ġ200 5
z on
is d
Ġ vert
æİĪ æĿĥ
å¤´ åıĳ
Ġide as
w in
Ġdes pite
D R
å¤ļ æķ°
ES T
Ġf if
åľ¨ æĪĳ
Ġdist inct
å¯¼ æ¼Ķ
p ass
2 50
Ġthan k
ic ity
Ġst ock
ä»İ æĿ¥
è¾ Ĳ
çĶŁ èĤ²
ç¬Ķ è¯ķ
åĮĹäº¬ å¸Ĥ
U M
ä¹Ł ä¸įä¼ļ
ph p
Ġf irm
èµ¢ å¾Ĺ
Ġcompl aint
åŁº åĽł
éĢ ¼
ĊĊ ĠĠĠĠĠ
åİŁ åĪĽ
ĠSt reet
æĬ ļ
çĶŁ çĲĨ
l t
, -
C O
Ġspec ifically
Ġs ch
Ġk id
Ġoccur red
åĽŀ æĶ¶
å¿ĥ çģµ
ãĢĭ ãĢĬ
Ġmole cular
math frak
ç¾İ å¥½
çİ° æľī
çģ« çģ¾
Ġser ve
Ġfore ign
å½ĵ ä½ł
å¦Ĥ æľī
p ers
Ġst orage
Ġwork ers
ä¿Ŀ åŃĺ
å°ı æľĭåıĭ
pt r
Ġsit u
Ġelect ric
çļĦäºº åĳĺ
Ġp ackage
l ook
ä¿Ŀ çķĻ
] [
åĪ¶ åĵģ
åı Ķ
çļĦ æĢĿæĥ³
åĽ¾ å½¢
æĹ¥ çĽĬ
åİĤ å®¶
åĮ» èį¯
ow s
Ġdescript ion
å¯¼ åĲĳ
æĸ¹ ä½į
( ),
Ġn a
ç´ł åħ»
1 30
) "
The n
ed s
è½¬ è®©
fect ed
æĸ° æĹ¶ä»£
æİ¥ ä¸ĭæĿ¥
è°¢ è°¢
è¿Ĳ ä½ľ
Ġcontrol s
C an
Ġwhere as
å¼Ģ æĭĵ
u ing
Â Ń
Ġpro s
Ġc at
å¤§ èµĽ
Ġtest ed
S H
Ġpro port
Ġsum mer
18 0
Ġconf irmed
Ġ3 3
å¸ ½
Ġpar a
Ġtechn ique
ä¾¿ åĪ©
oth ing
ot imes
æĪ¿ äº§
à ¦
Ġcor por
dd en
Ġem pt
å¢ŀåĬł äºĨ
å®ŀéĻħ æĥħåĨµ
Ġv ac
Ġhealth y
å¿ĥ æĢģ
Ġinvestig ation
éģ ¥
Ġaltern ative
act or
Ġup date
èĪŀ è¹Ī
ï¼ļ ãĢĬ
Ġrem aining
ar p
Ġpl ans
Ġanaly zed
ĠPl aintiff
å¾ ¡
Ġmon itor
Ġleg is
Ġhold ing
ES S
åı¸ æľº
æł¼ å±Ģ
Ġinter face
ĠW il
E vent
Ġf ra
Ġindu ced
Ġalgorith m
Ex p
åıĪ æĺ¯
å¸Ī èĮĥ
ĠE ast
olog ies
Ġfoot ball
m d
Ġdrug s
åįİ ä¸º
éĥ½ å¾Ī
æģ ¼
å¸¦æĿ¥ äºĨ
el ess
ĠP re
Ġb order
Ġoper ations
å¢ŀ åĢ¼
C M
ä¸ĵ çĶ¨
å½± è§Ĩ
ĠF e
åľŁ å£¤
æľī ä¸ª
Ġmiss ing
äº¤ å¾Ģ
æ¸Ĺ éĢı
Ġs ociety
on na
æķĻ å®¤
Ġtem por
E E
is her
åľ° éĵģ
ĠC H
it is
ĠE ach
AN T
ĠA dd
n b
Ġ Ù
Ġcircum stances
åĸľæ¬¢ çļĦ
Ġan imal
èĤ ĸ
Ġabs or
Ġw arm
Ġslight ly
ip ment
Ġcy cle
Ġk ids
æĪĺ äºī
è¯» èĢħ
ĠN ULL
å¹³ çŃī
Ġfil ter
ĠC irc
Ġmin or
åħ¨ èº«
å¸ Ĳ
P T
in ity
Ġc atch
L A
åĽł èĢĮ
R ead
Ġchar acters
Ġaffect ed
Ġfr ag
Ġr ul
Ġwh atever
èĩ Ĥ
æľ¬ ä¹¦
Ã¤ r
æĤ ł
Ġn ut
ä¸į éľĢè¦ģ
C ON
Ġcom fort
Ġopen ing
è§£ æĶ¾
æĥħ å½¢
æĪĲ å¹´
Ġassoci ation
å·¥ äºº
Ġ" [
æĺİæĺ¾ çļĦ
Ġcall s
Ġch rom
Ġcomp osition
ä»ĺ åĩº
é«ĺ è¾¾
ç»Ĩ èıĮ
ç¥ĸ åĽ½
æĻ¯ è§Ĥ
æ¸© é¦¨
D S
å¤§ æķ°æį®
äºĭå®ŀ ä¸Ĭ
Ġwe ap
Ġent ry
éĻ Į
Ġher self
åĵª ä¸ª
ĠS up
åĲİ æŀľ
Ġe fficient
ç²¾ å¿ĥ
ri age
Ġne uro
Ġm ix
Ġagre ed
åıĤ è§Ĥ
Ġsc ience
å¦Ĥ åĽ¾
èĤ¡ ä»·
ä»¥ å¾Ģ
æķĻ çłĶ
Ġenc our
Ġcard i
æĭħ ä¿Ŀ
et ry
ĠT wo
Ġsum mary
Ġfam ilies
çļĦ ä¸Ń
éĴ¢ çŃĭ
æĪ¿ éĹ´
åı ł
h ouse
çļĦ çĽ¸åħ³
åħ¬ æ°ĳ
çľĭ åĪ°äºĨ
ä¹ĭ æīĢä»¥
ĠC ON
èģĮ åĬ¡
æĹ¥ ä¸ĬåįĪ
Ġden ied
ell ed
èµĦ è®¯
Ġp al
Ġsurv ival
Ġoffic er
Ġ3 4
Ġprob ability
ĠN ote
èĴ Ĥ
æĪĳ æł¡
Ġvol t
d et
ç²¾ åĬĽ
ĠEng land
å¥ī çĮ®
k i
å¯¹ åºĶ
è¿ĩ åº¦
ÂłÂł ÂłÂł
Ġsu dden
Ġd rop
Ġjud ge
è¯¾ ä»¶
çĻ½ èī²
ĠGr oup
ç®Ĺ æĺ¯
ç¼ĸ åı·
ĠS y
éĺŁ åĳĺ
Ġch ain
è Ł
\ |
çĭ ¼
æĪ¿ ä»·
ĠC am
os c
çī¹ æĢ§
é¥ ²
æĥħ å¢ĥ
ç«ŀ èµĽ
ed om
çĶ¨ åľ°
Ġhand le
ä»İ å°ı
Ġcorrel ation
se m
Ġof fered
Ġsur gery
Ġr ank
æħ ķ
é» İ
ç»¿ åĮĸ
0 10
ç¬¬ åħŃ
è¿Ľ å±ķ
çĶµ æ°Ķ
æıĲ éĹ®
ĉĉ ĉĉ
ä¸į åı¯èĥ½
pr ime
å¿ĥ ä¸Ń
çıŃ åŃĲ
Ġsuggest s
çĶµè§Ĩ åī§
çĶ· åŃ©
åı Ļ
å¤ ¸
id ers
å¥³ åŃĲ
æłĩ é¢ĺ
u a
æĺİ å¤©
æ´» è·ĥ
éĻ µ
Ġinc ome
ä¼ĺç§Ģ çļĦ
çĶµ åİĭ
Ġestim ated
Ġgener ation
Ġent ered
æłĩ è¯Ĩ
[ \
ä¸»ç®¡ éĥ¨éĹ¨
Ġhus band
Ġdig ital
Ġrel ation
o z
5 000
éĤ£ å°±æĺ¯
å¤ĸ éĥ¨
che ck
c oh
è´µ å·ŀ
ç °
Ġtr ig
æµ ¦
Ġrepe ated
é«ĺ èģĮ
ä¸į ä¸Ĭ
ĠS am
ĠR el
Ġabs ence
O ur
å®ŀ ä½ĵ
çĶµ æµģ
æŃ¤ åīį
op en
ĠU p
å¼ ¥
ĠCong ress
Ġtradition al
Ph i
" />
res ents
us hed
is ation
çľŁ çļĦæĺ¯
Ġc ir
Ġsy mb
é¬ ¼
Ġrecord ed
) ?
it led
æĿ¡ä»¶ çļĦ
Ġder ived
ç¼º çĤ¹
æ¤ İ
åĨ¬ åŃ£
åĨ³ èµĽ
c ks
æİĴ æĶ¾
ear s
n ight
äºļ æ´²
Ġnucle ar
Ġdiscuss ion
ĠT est
uff er
Tr ans
Ġmin imum
åĴĮ åıĳå±ķ
æľīæķĪ åľ°
ãĢĤ "
åīį æľŁ
ant ly
æµģ éĢļ
æ¯ı åĳ¨
y a
å±ı å¹ķ
Ġbre ast
Ġsympt oms
P r
c f
è¯ µ
iz ations
çļĦ å°±æĺ¯
æĹł äºº
æŁĲ ç§į
ĠÐ ¸
å¤Ħ ç½®
éĶ Ī
åıį å¼¹
åĸ Ĥ
ç´§ å¯Ĩ
æ¶ Į
Ġeffort s
Ġ( (
ĠBo ard
Ð¾Ð ²
åĳ Ĩ
ä¼ Ĳ
è§Ħ ç«ł
çļĦ çĥŃ
R eg
Ġprote ction
èµĦ è´¨
12 3
land s
il os
^ âĪĴ
æ°Ķ åĢĻ
ä¸º å¤§å®¶
um in
Ġinst r
k in
Ġcon ver
g in
æ°ĳ çĶŁ
Ġstud ent
alle l
èĤ¡ å¸Ĥ
å¤Ħ çļĦ
â ī
æĳ Ĭ
èĬĤ è¯¾
ĠÎ ±
R ec
ä¸į å¤ª
éļı æĦı
æĹ© ä¸Ĭ
k appa
19 99
ä¹ĭ ä¸ĭ
å¼ ĺ
ä¸Ģ é¡¹
æĥ §
Ġbig gest
ir ty
èµ° åĬ¿
t i
åĸ Ĭ
Ġcaus es
Ġspir it
ç»ıæµİ çļĦ
åı ¹
åĬŀ åŃ¦
s ens
Ġdist ributed
i very
å¹ ½
Ġsc ript
Ġclass es
ip h
wh ile
å« ©
ĠGerm any
S ome
åŁºç¡Ģ ä¸Ĭ
Ġd aughter
åĪĨ è§£
æĸ° æĬĢæľ¯
åĽŀ å¿Ĩ
Ġd oll
id em
å¤§ çº¦
Ġ4 2
Ġr ise
æ¶ Ľ
å·¥ ä¼ļ
Ġrespons es
ĠĠĠĠĠĠĠĠĠĠĠĠĠĠĠĠĠĠĠĠĠĠĠĠĠĠĠĠĠĠĠĠ ĠĠĠĠĠĠĠĠĠĠĠĠĠĠĠĠĠĠĠĠĠĠĠĠ
åħ¬ä¼Ĺ åı·
k m
à ®
Ġconvention al
() );
ä»¥ åħį
çŃ Ľ
ĠF ound
Ġar ms
Ġno ise
éĩį çļĦ
å¹³ å®ī
Ġj oint
ĠÐ º
il it
ĠS upp
Ġst ood
A ct
æľī åı¯èĥ½
Ġen zym
Ġform at
ĠG reen
n ers
Ġd ry
R S
m and
åľ¨ å®¶
ä¾µ æĿĥ
r ich
çļĦ è¡¨çİ°
ĠCh inese
è¿ĩ å¤ļ
å±Ģ éķ¿
b olds
ĠA ir
èĥ ģ
Ġint ended
ç©¶ ç«Ł
Ġorgan ization
Ġgu ys
æĪĳ ä¼ļ
ç®¡çĲĨ åĪ¶åº¦
-------------------------------- ----------------
Ġext ent
ĠM al
æľīåħ³ éĥ¨éĹ¨
In fo
bolds ymbol
é£ŀ æľº
åİļ çļĦ
å¯¹ çŃĸ
ÃŃ a
Ġre fer
Wh ile
åıĳçĶŁ äºĨ
12 8
v ille
åĽ½ æ°ĳ
é«ĺ è´¨éĩı
åĤ ²
}} {
ob ject
ĠE very
L ambda
ä»Ģä¹Ī æĺ¯
Ġpl ants
åħ¬ ç¤º
ĠTex as
èĢģ åħ¬
å°½ åı¯èĥ½
ç¼º éĻ·
** *
in te
é¹ ı
ç¦ı å»º
èĴ ľ
Ġstru gg
åĿ Ĭ
ä¿¡æģ¯ æĬĢæľ¯
C s
Ġbre ath
n ormal
å¼Ģ åħ³
o om
Ã ª
spec ific
éľ į
I O
le br
Ġknow s
ĠK e
S igma
es is
åŁ¹åħ» åŃ¦çĶŁ
ä¸Ģ çº§
Con text
ĊĊ ĠĠĠĠĠĠĠĠĠĠĠ
è®² è¿°
å¼ķ åħ¥
Ġcry st
çİī ç±³
ä¸įæĸŃ æıĲé«ĺ
" ãĢĤ
ck now
Ġdiagn osis
æĹ¥ èĩ³
ot yp
Ġres olution
è¾Ĳ å°Ħ
ç¿ ¼
ist ory
æĴ Ĵ
Ġ ×
å®ĮæĪĲ äºĨ
Î º
è¿ĩ æķı
èĬĤ æĹ¥
ä»İ ä¸ļ
ä¸Ĭå¸Ĥ åħ¬åı¸
æŃĮ æĽ²
Ġear th
c ore
éĢĤ çĶ¨äºİ
Ġb es
ĠSu per
Ġch urch
P er
Ġle aving
æĻ® åıĬ
Ġdriv ing
ĠĠĠĠĠĠĠĠĠĠĠĠĠĠĠĠ ĠĠĠĠ
ym ph
Ġb ow
Ġdecre ased
Ġfa ith
çĿ¡ è§ī
ĠD el
éĵ¾ æİ¥
m ic
ä¼ł æī¿
åıĳ çĶµ
åģ¥åº· çļĦ
æķĻ ç»ĥ
ä¸į åıĺ
g b
æµģ è¡Į
Ġc overed
Ġe arn
ä¼ ª
æĥħ èĬĤ
ĠS uch
Ġsto pped
omet ry
} -
å¯¹ èĩªå·±
æĺ¾ çĦ¶
Ġannoun ced
Ġe lection
ĠW ell
Ġn an
ace book
ur l
Ġex ternal
F ield
Ġinterest ed
b urg
Ġe at
ĠT om
å»¶ ä¼¸
Ġsupp ly
Ġrep resents
Ġpattern s
èĢĲ å¿ĥ
è§£ éĻ¤
åī Ĭ
Ġm obile
åĴĮ åħ¶ä»ĸ
ç»Ħç»ĩ çļĦ
Ġcar bon
æĵ ħ
ä¸Ģ æ®µ
Ġwait ing
å°ı å¿ĥ
Ġs ales
al ysis
æĭĽ åķĨ
Ġb ill
ä¸į å®ľ
Ġrequire ments
Ġoff ers
Ġc row
g reg
mb ox
ub untu
L S
æ£ ļ
çīĪ æľ¬
Ġcred it
ä¼° è®¡
Ġh ol
Ġill ustr
r un
Ġsc ene
èį£ èªī
j a
ol f
In dex
ç½ Ĳ
Ġl atter
å¤į åĲĪ
ĠWh y
Ġsent ence
ä¸Ģ åıª
ä¸¤ æ¬¡
ä¸Ģä¸ª æľĪ
Ġco e
Ġin deed
æľĢ å¤ļ
ĠL ou
åĲĳ ä¸Ĭ
èĻ ¾
åĮ» å¸Ī
åĮĸ å·¥
ĠC a
) [
ĠMr s
èĥľ åĪ©
è¯ Ī
ĠSm ith
ĠB ank
èİ·å¾Ĺ äºĨ
ä¸Ģ éĥ¨åĪĨ
ä½¿ åħ¶
' ]
ĠO ver
Ġcreat ing
äºº éĥ½
ä¸Ģå®ļ ä¼ļ
Ġse a
Ġ200 4
çĸ ¯
ãģ Ĺ
åįı ä½ľ
ĠC ode
çļ Ĩ
l if
}} _{
æ°´ åĪ©
ĠO ut
Ġst re
éĻķ è¥¿
çļĦ ç¬¬ä¸Ģ
ç¦» å©ļ
æ¼Ķ è®²
åı¦ ä¸Ģä¸ª
æĿĥ åĬĽ
iz er
çªĹ åı£
pl ed
ĠD ay
Ġtest imony
æ°´ åĪĨ
åħħ è¶³
å»ī æĶ¿
çļĦ æķħäºĭ
Ġn orth
Ġsm ooth
éļ¾ é¢ĺ
åĲĮ æŃ¥
æĶ» åĩ»
æĶ¶ èĹı
Ġth read
i as
è´¯å½» èĲ½å®ŀ
äºĨè§£ åĪ°
Ġk it
å¥¥ è¿Ĳ
Ġag ents
Ġbehav i
& \
åĲİ æľŁ
åĲĦ éĥ¨éĹ¨
æ°Ķ è´¨
Ġsh ared
æį® æĤī
åĩº å¸Ń
ç» ³
ph one
å¦ĩ ç§ĳ
å¦ ¨
åĨħ å¤ĸ
æī¿ åıĹ
ĠC A
ist ed
åĽŀ æĬ¥
ĠCan ada
æĬ¥ èŃ¦
ĠUn ion
Ġsu st
ab et
èĨ ı
çļĦ é£Łçī©
å®ĥ æĺ¯
P O
Ġte acher
AN D
å®ŀéªĮ å®¤
åĨľ äº§åĵģ
Î »
ãĤ ĭ
ĠP ort
. *
Ġan c
é©¬ åħĭ
Ġl it
ĠGe orge
Ġsign als
éķ¿ åº¦
çŃī å¥ĸ
d y
Ġim plic
é«ĺ æ¸©
Ġf ol
å¹¿ è¥¿
Ġlar gest
äºĭ çī©
è°ĥ æİ§
ä¸ī ç§į
ĠB er
ĠFr ance
Ġliter ature
Ġprof ile
è¶ħ å¸Ĥ
é«ĺ è¡Ģåİĭ
æĢ» ä¹ĭ
Ġconcentr ations
Ġu int
èĲ Į
ä¸Ģ çīĩ
ĠAn y
re es
cher s
Ġdown load
å±Ģ éĿ¢
Ġ ing
ä»¥ ä¾¿
æĵ ¡
Ġdo se
æ´¾ åĩº
AR T
çº¦ æĿŁ
[ ]
å¼ Ĺ
Ġcit iz
indu ced
å¼º å¤§çļĦ
Ġr an
ä¸Ģ æ®µæĹ¶éĹ´
Ġm aster
ra pe
æ¬ º
åħ ĳ
á ĥ
ç»Ļ åŃ©åŃĲ
Ġin sp
( {\
æŁ ´
ans ion
å¦ Ĭ
æĸ° åįİ
è¯¾ æĹ¶
op ic
ç»ĵ ç®Ĺ
I B
ĠS ur
åįģ åħ«
æĤ Ķ
æĺ Ĥ
Ġadd ing
è¾ĥ ä½İ
æ¡ ĳ
ap ers
çİ ²
Ġcont ained
sub set
åįļ å®¢
st ract
Ġimport ance
Ġc atal
Ġemploy ees
é£ ĺ
Ġw el
Ġsp ot
Ġm outh
éģµ å¾ª
ĠUn der
Ã ±
ä¸Ģ çĶŁ
Ġoffic ers
se y
am eter
J ust
j ust
ill a
V ER
Ġb one
Ġre b
Ġmembr ane
Ã º
ĠE v
ord s
fr ont
Ġdri ver
è¾¾ åĪ°äºĨ
Ġst d
Q L
éĿŀå¸¸ çļĦ
AL L
p age
Ù Ĩ
Ġ201 9
Ġtra in
ĠMich ael
Ġreg ist
Ġerr ors
l n
âĢ ĺ
Ġep is
il arly
å«Į çĸĳ
P e
çļĦ ä¸ĵä¸ļ
Ġ// /
u ate
Ġsh ut
Ġw ire
è¶ħ è¶Ĭ
ä¸į ä¹ħ
ç¬Ķ è®°
ed y
åį ¸
é©± åĬ¨
å¢ŀ éĢŁ
åħ ½
Ġst ories
m t
æ°Ķ çļĦ
èĢģå¹´ äºº
Ġincor por
åĪł éĻ¤
Ġgreat est
Ã ¸
Ġcommerc ial
æĢĿæĥ³ æĶ¿æ²»
H and
èĬ ½
fr ame
Ġauthor ity
n am
Ġstand ing
åĬ¨ çĶ»
Ġes c
Ġanalys es
S p
ä¹Ł å°Ĩ
åħĭ æľį
r ange
ç¤¾ äº¤
Ġm ental
å¼ķèµ· çļĦ
r d
ĠSe cond
Ġlearn ed
Ġsupp osed
åĢŁ åĬ©
S er
æķ°æį® æĺ¾ç¤º
è¥¿ æĸ¹
æĦŁ åĬ¨
æĺ¯ ä¸ºäºĨ
è¦ģ æĬĬ
å¼º åĪ¶
æĪĳ ä¸į
åıĳçĶŁ çļĦ
ç¢ §
åİĺ ç±³
æŃ£ è§Ħ
åł ¡
çĶµ åĻ¨
i ate
Ġapp ar
æĬ Ħ
åĻ ª
Ġa head
Ġcomplet ed
ä¸Ĭ åįĬå¹´
æľ ´
åĽ½åĨħ å¤ĸ
æĢİä¹Ī æł·
æł¼ å¼ı
Ġinter actions
ä¸Ī å¤«
Ġsy mm
M O
Ġmechan isms
åı¯ä»¥ éĢļè¿ĩ
ä¸į åĩº
ä¸į åĬ¨
è¥¿ éĥ¨
he t
ĠT O
åŃĺåľ¨ çļĦéĹ®é¢ĺ
ul in
åĿĲ åľ¨
å®¶ æĹı
å®Ĺ æĹ¨
n ode
c are
Ġdescrib e
Ġsh ip
Ġsu ff
Ġdecre ase
Ġmod ule
ÑĤ Ð¾
å¤ĸ åĽ½
åł ª
ĠÐ ¾
æĮĩ å®ļ
ĠĠĠĠĠĠĠĠĠĠĠĠĠĠĠĠ ĠĠĠĠĠ
ãģ ¨
Con fig
è¾¾ æĪĲ
å² Ń
æ³ķå¾ĭ æ³ķè§Ħ
G L
çļĦ æĢģåº¦
cur rent
å½¼ æŃ¤
Ġpur poses
æĹ ¬
Ġofficial s
Ġp ure
Ġmeasure ments
k er
Ġjur isd
Ġproper ly
æĬ¤ å£«
çĹħ çļĦ
æķ ·
å¹´è½» äºº
ĠB en
bl ock
ĠB oth
æ±Ł è¥¿
æĭħ å½ĵ
åºĵ åŃĺ
èį Ĵ
åįķ çº¯
Ġempt y
ber t
æģ ¨
Ġrem ained
Ġpower ful
: **
Ġ ÏĦ
ç²® é£Ł
re ct
16 0
Ġre ferred
ĠA re
Ġlo op
çķĻ è¨Ģ
è´ ª
åīį åĪĹ
å¨ ł
ĠCoun cil
Ġlat est
i h
ãĢĤ âĢĶ
ĠR em
æĽ´ é«ĺ
å©´ åĦ¿
ic ians
æıĲä¾Ľ çļĦ
è§£ çŃĶ
ä¸ĩ åĲ¨
In ter
ĠC O
Ġdi et
Ġcons erv
roll er
Ġg ain
åī ĸ
åĩº çİ°åľ¨
å¯ º
åı¯ çĪ±
ĠE q
Ġst ars
Ġa f
Ġm ir
Ġcustom ers
Ġbut ton
in der
Ġexist ence
i pped
r ate
æľŁ è´§
å¡ ĺ
ä¾¿ æĺ¯
n um
å¦Ĭ å¨ł
åħĦ å¼Ł
æ°Ķ æ¸©
ç®¡çĲĨ äººåĳĺ
ĠTe chn
s ource
Ġex change
è¿Ļä¸ª éĹ®é¢ĺ
i am
Ġst reet
ä¹¦ éĿ¢
çŃ Ĵ
åĩº ç§Ł
Ð° Ð½
A V
ä½ĵ éĩį
Ġ --------
Ġinterest s
åĩ ¸
å¤į åį°
Ġf ell
ĠNew s
Ġb ra
Ġatt ract
å®ı è§Ĥ
ä¸į è¶ħè¿ĩ
Ġinvol ve
ĠY es
C ode
ç¡ «
çŃī äºİ
åĤ ħ
åħļåĳĺ å¹²éĥ¨
é¢ ĩ
æł¸ ç®Ĺ
ĠSup reme
åĨħ åľ¨
Ġposs ibility
' .
çŃī éĹ®é¢ĺ
åŁ ĥ
ä¸ľ åĮĹ
A meric
åĳ½ è¿Ĳ
åĬ¨ æīĭ
èĳ£äºĭ éķ¿
å¯Ĩ åº¦
ĠM at
æĪĳä»¬ å°±
re r
åħ¥ åı£
ond ay
è®° ä½ı
am ily
i ot
æ¸ Ķ
Ġm es
l ast
åıĺ å½¢
Ġapp re
æ£ ĭ
æľį çĶ¨
ĠW estern
or a
Ġelect ron
å¯¿ åĳ½
Ġgen etic
åŃ¦ å®¶
Ġf arm
ä»ª åĻ¨
Ġpe ace
ĠN OT
æĮ «
ĠP D
Ġo m
å¯¹ åŃ¦çĶŁ
Ġare n
Ġneigh bor
F irst
Ġcrim inal
æĢ» é¢Ŀ
Ġmov ie
åįģ ä¸Ģ
çĭ ł
Ġle aves
N e
ap i
åŃ¦ èĢħ
ä¼ļ çļĦ
å½ĵ ä»£
cont ent
å°ı äºİ
Ġrecept or
æİĴ éĻ¤
éŃ ı
M T
Ġcon clusion
æĸ¹ éĴĪ
a fter
äº¤ èŃ¦
çĶ¨ æ°´
ur ies
æī¿ è®¤
so le
ĠI ll
åĪĨåĪ« ä¸º
Ġ200 3
çº º
äºº æĸĩ
m as
Ġpol ic
éĢı éľ²
am ing
èµ° äºĨ
Ġpre fer
å¿ĺ è®°
çŀ¬ éĹ´
çĥŃ çº¿
** ]{},
ä¾¿ å®ľ
å¸Ĥåľº ä¸Ĭ
çļ ±
A tt
å¼ Ĭ
Ġha ven
ĠCom mun
çļĦéĩįè¦ģ æĢ§
ĠI II
c ence
oy al
Ġman if
éĹ ·
æł ĵ
å»¶ éķ¿
======== ==
æ¨¡ åĿĹ
è¿Ļ ä¹Ł
ste in
éħ ¶
How ever
æº ¢
ä¹Łå°±æĺ¯ è¯´
Ġbu ffer
çļĦ ä½įç½®
. [@
Ġm a
Ġsequ ences
ç¡¬ ä»¶
Ġpartic les
ä¸Ģ æµģ
Ġb illion
Ġel im
ä»¥ æŃ¤
çĽĳ å¯Ł
Ġsqu are
Ġoper ating
Å ¾
ä¸Ģ èµ·æĿ¥
C G
ä» ²
éĢī é¡¹
Ġident ity
è¾ĥ å¤§çļĦ
èµ ¤
Ġm ouse
ad er
åįķ ä¸Ģ
ãģ Ł
ĠSt at
çļĦ éĤ£
âĢ Ĭ
ĠD uring
S te
Ġdirect or
æµ· åįĹ
ä¿¡ å¿µ
out hern
re al
M R
ä¾ ¦
sm all
d raw
Ar ray
æİ¥ å¾ħ
ç±» çļĦ
å®ŀè·µ ä¸Ń
ro g
Ġv ote
Ġtrans mission
ill er
Ġl ibrary
Ġappar atus
Ġout come
ĠM ary
is hes
ĠPe ople
åı£ èħĶ
Ġequival ent
Ġp ool
æľ¯ åĲİ
and o
ä¼ļ åĩºçİ°
Ġd ra
çļĦ ç»ıæµİ
åįı åķĨ
é¢Ĩ åıĸ
éĢ ¸
ĠIn te
å¨ģ èĥģ
ä¸Ģ å¥Ĺ
å¤ı åŃ£
Ġpl ane
åİ¨ æĪ¿
çķ ľ
b orn
Ġun iform
è§£åĨ³ éĹ®é¢ĺ
Ġcon vert
é£İ æĻ¯
Ġdig it
iven ess
Ġf lex
æĹ¢ çĦ¶
æ°Ķ æ°Ľ
Ġexper t
æĺ¯ å¾Ī
Ġvel oc
å¼º å¤§
Ġcontroll ed
ç»Ļ ä»ĸ
Ġproject s
Ġst able
âĨ ĵ
è®© èĩªå·±
Ġele v
Ġs outh
pt ions
Ġ3 8
ç¾İ é£Ł
ens ure
çĨ ¬
Ġquant um
Ġhyp othes
âĢĿ .
ag en
çĿ£ ä¿ĥ
Ġmaint ain
Ġar bit
Ġindic ates
äºĮ æ¬¡
ç¼´ çº³
s he
Ġb right
å¾· èĤ²
Ġjo in
ãģ §
å¤§ éĺŁ
åľº åľ°
an i
] ),
Ġbelie ved
ant ic
ri ve
B I
æ²¡ æĥ³åĪ°
Ġreturn s
Ġfl at
å¤ĩ æ¡Ī
æ·ĺ å®Ŀ
èİ ī
) ï¼ļ
Ġl ung
æľī è¶£
ĠChrist ian
ane ous
çĸĹ æ³ķ
ĠM et
å¤ı å¤©
ĠĠĠĠĠĠĠĠĠĠĠĠĠĠĠĠ ĠĠĠĠĠĠĠ
åĩĿ èģļ
Ġn ic
åĨ ¯
B L
ject ed
Ġass ign
Ġ/ **
ç»ĵæĿŁ åĲİ
Ġorig in
Ġte ams
æĦŁ åĨĴ
å ļ
éªĮ è¯ģ
é¸ Ń
çĶŁ åĬ¨
è¯¸ å¤ļ
åħ¬ æŃ£
æĹ¥ ä¸ĭåįĪ
åı¤ ä»£
ĠOb ama
Ġext ended
åŃķ å¦ĩ
n ce
åīį åĲİ
èĥ½ åľ¨
ĠIn stitute
Ġins urance
ĊĊ ĠĠĠĠĠĠ
Ġ ------------
æ°ĳ èĲ¥
å¹³ éĿ¢
èº« æĿĲ
amp ions
å°ı ç±³
ord ers
å·² æľī
æĲħ æĭĮ
ä¸¾ æİª
Ġpro sec
} )$
Ġex ception
ä¹¦ æ³ķ
Ġexc ell
Ġcr ime
Ã ¦
c rib
éľĢè¦ģ çļĦ
M I
çĶŁæĢģ çİ¯å¢ĥ
Ġser um
icro soft
å®³ æĢķ
onal d
ang es
çī© èµĦ
Y eah
act ory
æĳĦ åħ¥
åĬł éĩį
è´ º
åİŁ æľ¬
å§Ĳ å§Ĳ
ç«ĭ è¶³
r as
æķĻèĤ² æķĻåŃ¦
re ate
( &
Ġevent ually
éķ¿ å¤§
Ġapp oint
ad s
Ġg onna
ĠS D
æĪĸèĢħ æĺ¯
Ġequ ipment
Ġhelp ed
è¡ ¬
Ġrepresent ed
çļĦåīį æıĲ
Ġc ateg
il de
è¶ĬæĿ¥è¶Ĭ å¤ļ
åĪĨ ç¦»
Ġchar ged
ru ctions
éĢı æĺİ
åįļ çī©
om es
æķĳ æı´
éĺ² çģ«
abl a
w rite
Ġsecond ary
Ġde bt
ain e
è´ ¾
åŃĺ æ¬¾
èĴĻ åı¤
çĻ¾ åº¦
åħ¨ åİ¿
Ġmil es
Ã ĥ
Ġhapp ens
ĠT ra
Im age
ĠAd dition
Ġmost ly
ĠComp any
Ġfor th
èµļ éĴ±
æ³¨ å°Ħ
æĿ¥ è®²
Ġsee ing
ä½ł åı¯ä»¥
é ³
Ġen em
åĨ² çªģ
æĸĩ èīº
æŀ £
Ġpl asma
ili ar
a per
12 5
æĹł éĻĲ
Ã¤ n
T O
Ġspect rum
Ġb attle
clud ing
åŃĺåľ¨ çĿĢ
æľĢ éĩįè¦ģçļĦ
non umber
ĠA lex
åĩºçİ° çļĦ
Ġb row
Ġgener ate
Ġt ro
ä¹Ł ä¸įæĺ¯
let s
Ġvir us
A ss
éĥ İ
è½¨ éģĵ
Ġn av
çģ« è½¦
åħ Ķ
æ³¢ åĬ¨
Ġ200 1
xt ure
Ġhold s
Ġexam ples
æ³¨æĦı äºĭé¡¹
ãĤ Ĵ
æ¼Ķ åĩº
æ´ Ĵ
åľ° ä¸Ĭ
çļĦ åħ·ä½ĵ
poss ible
Ġremain der
Ġpre gn
C F
ĠG reat
æĶ¹éĿ© å¼ĢæĶ¾
ç¨ »
æº ĥ
Ġsur vey
åİ¿ å§Ķ
Ġvolt age
çª Ŀ
å¤§ æ°Ķ
æłĩåĩĨ åĮĸ
f aces
Ġ ice
er ic
N T
ãģ ¦
F l
al ian
æĻ ķ
Ġs q
A re
éĶ ¡
we b
il der
çĭ¬çī¹ çļĦ
st ood
æ±¡ æ°´
åĮ Ļ
. **
æĦŁ æģ©
R L
Ġdise ases
su v
èĸ ¯
o pp
Ġmus cle
è¢ ĸ
Ġest imate
ä¸» äºº
Ġatt orney
ar ian
è®¾å¤ĩ çļĦ
å°ļ æľª
Ġextrem ely
é¤Ĳ åİħ
èĤ¡ä»½ æľīéĻĲåħ¬åı¸
åīį æĻ¯
ĠF inally
èĭ¥ å¹²
å¸Ĥ æĶ¿åºľ
Ġsign ed
Ġce lebr
åĴ ±
Ġflu id
Â »
ĠS al
M ap
åīį å¾Ģ
åĴ ½
æĪĳ åĴĮ
éĢļ é£İ
åĲİ éĿ¢
ä¸Ńå°ı ä¼ģä¸ļ
ä¸ĢçĽ´ åľ¨
éĹ¨ åı£
æľºåĬ¨ è½¦
åį´ æĺ¯
ãģ ¯
/ **
è·Ł çĿĢ
d t
ĠB el
Ġre ality
åĬł çĥŃ
ell o
åħ¬å®ī å±Ģ
ĠWh ich
N E
en a
p riv
Ġspe ech
Ġconf irm
å¤ļ åĲĥ
ä¸¥ ç¦ģ
y e
æ³ķ æ²»
èĩ´ åĬĽ
æ°´å¹³ çļĦ
ä¸¾ æĬ¥
æł ½
" ,"
ä¸ŃåĽ½ çī¹èī²
resh old
el es
è¡Ģ ç³ĸ
æĸ° çĸĨ
Ġfil ms
åıĹ çĲĨ
Ġa ware
ĠCal culate
ä¼Ł å¤§
il er
Ġb ug
é¹ ¿
ç² ¥
çĸ² åĬ³
Ã ¢
Ġocc urs
Ġsubstr ate
ĠV ir
an es
Ġl ov
ĠJ er
19 98
Ġ( !
åıĤ èµĽ
Ġthous ands
è®¾è®¡ çļĦ
Ġrel ief
å· ¢
èº« å¿ĥ
æŁ ı
Ġdel ivery
Ġexam ined
åį ¢
} +
äºī è®®
m o
ĠR et
ä½ł æĺ¯
é¢Ĩå¯¼ å¹²éĥ¨
æľī åĬĽ
åı¯èĥ½ æĢ§
p g
am mat
çĽ¸ åıį
Ġfin ished
Col or
10 1
ith ub
Ġcam era
Ġlead er
o es
ut or
$ $\
è¾ĥ å¤ļ
èĨ Ģ
ç¼ Ĩ
é¢ĨåŁŁ çļĦ
æīĵ çł´
opy right
ard en
Ġag ency
åĽŀ å½Ĵ
ä¸ĵ æ³¨
è¡ Ķ
cre te
è¯¢ éĹ®
åĪ¶ çļĦ
ĠL ord
é¢ĳ çİĩ
it ative
è¯ķ é¢ĺ
ĠJ es
ist or
Ġin ner
èĶ ¡
æ¢ ³
ĊĠĠĠĠĠĠĠĠĠĠĠĠĠĠĠĠ ĠĠĠĠĠĠĠĠĠĠĠ
ä¾Ŀ æīĺ
Ġbal ance
Ġdevelop ing
è¯´ è¿ĩ
é¢Ħ çº¦
ĠCl ass
åĬł æ²¹
åŃ Ŀ
AT ION
Ġc os
mit tee
è¦ģ çĤ¹
éº» çĥ¦
ä¸Ģ æ¬¾
åħ³ éĹŃ
å®¶ å±ħ
ad ing
æī ĳ
å¥½ å¤Ħ
çĻ» å½ķ
ĠJapan ese
Ġm el
éĻĦ ä»¶
åįł æ¯Ķ
å§ĵ åĲį
ab ilities
åĪ¶éĢł ä¸ļ
ĠS et
æİĴ æ°´
ä¸» åĬŀ
Ġt ill
çļĦ æ²»çĸĹ
å°Ĩ äºİ
ist ent
D is
Ġfin ite
Ġex cess
Ġk ing
L og
Ġch air
èŃ¦ æĸ¹
åĪ¶ çº¦
Ġj ournal
äº¤ æį¢
éħ µ
ĠH all
Ġn od
C he
éķľ å¤´
hen s
as ks
anc ing
äºº åĿĩ
åľ¨ å¤§
)/ (
ĠS ervice
Ġsubsequ ent
ok ing
Ġgirl s
æ®ĭ çĸ¾
s es
è´ ¤
æĪĲ äºº
OR T
ãĥ ¼
çŃĶ é¢ĺ
Ġrepresent ation
yn c
ä¹Ł æ²¡
äºĮ çº§
Ġfund ament
æ¼ ł
åĭ ĥ
Ġcall ing
Ġr ich
åķĨ å®¶
Ġschool s
åľ°åĮº çļĦ
ä¸Ĭ æľī
éľ ī
it ory
åħļ æĶ¯éĥ¨
Ġrun s
çļĦ æ´»åĬ¨
åħħ çĶµ
æĽ´ å¤§
est s
mat rix
æĶ¾ å¿ĥ
éĥ¨ éķ¿
Ġim aging
m em
Ġstat ute
n abla
æĩ Ĵ
çĤ ®
Ġs rc
"> </
" ).
å¦Ĥæŀľ æĺ¯
èĥĮ åĲİ
åľ¨ ä¸Ģä¸ª
æ°Ķ ä½ĵ
ial og
ĠN S
ç»Ħ éķ¿
E qu
ri e
åĽŃ æŀĹ
åĬ Ŀ
åĸ ĺ
åĵĪ åĵĪ
ip her
ä¸ª åĪ«
Ġachie ved
ĠK ore
pl ify
åľº æ¯ĶèµĽ
ç¾İ å¥½çļĦ
Ġeffic iency
åľ° è´¨
Ġne ither
Ġsubstant ial
Ġdirect ed
Ġfor ced
æľĹ è¯»
æĢ» ä¹¦è®°
ĠM any
æ ª
æĮģ æľī
we ight
åºĶ èģĺ
ific ations
æ¡Ĩ æŀ¶
---- -
Ġrese ar
ç»Ļ æĪĳä»¬
æĤ Ħ
p ack
è£ ķ
ĠF acebook
ol a
çİ© åħ·
éĥ¨ ä»¶
---- ---
è®¿ éĹ®
res ult
ĠR E
Ġposition s
Ġtw enty
è´Ń æĪ¿
å¾® ç¬ĳ
æĭ¿ åĪ°
Ġcon d
çĦ¦ èĻĳ
è½¦ ä¸»
Ġad ult
ĠFr anc
ortun ately
å¾Ĺ ä»¥
äººä»¬ çļĦ
åħ» çĶŁ
å« ģ
æľĪ åºķ
{ {
æĿ¥æºĲ äºİ
éĢļ æĬ¥
éļ Ļ
C I
() )
l aw
ç£ ·
Ġv ary
Ġiss ued
åĪ° æĿ¥
åĸľ çĪ±
é¾Ļ å¤´
Ġb aby
Ġ200 2
og ene
Ġ5 00
ensure math
éĺŁ çļĦ
r l
Ġj ump
çĶŁ æĹ¥
oc y
éĨ ĭ
C o
ĠL em
Re quest
æł ª
Ġcrit eria
ĠC T
h al
G o
as hed
ag ram
Ġch osen
Ġevalu ated
çľģ å§Ķ
ç´§ æĢ¥
P H
åĩĢ åĮĸ
å³ ¡
åĪĨ å·¥
ty p
è§Ĩ éĩİ
ic ian
è®² åº§
Ġsk ills
cl aim
Ġaut o
è¯Ħ å®¡
åħ¶ ä¸ŃçļĦ
åħ´ å¥ĭ
d oc
ä¸Ģ å¤§
éĺ² æ°´
Ġn arrow
ĠÐ ´
ĠR ob
è¯· æ±Ĥ
çĥŃ çĤ¹
ĠD E
Ñ ħ
çĻĮ çĹĩ
éĿĻ èĦī
è¯´ äºĨ
The se
äºĶ å¹´
åĤ¨ å¤ĩ
Ġint ellig
ç½ļ æ¬¾
An y
åŃĲ éĩĮ
æ¡¥ æ¢ģ
åİ» åģļ
Ġassess ment
l ocal
ĠCirc uit
Ġ( )
R ep
ash ion
å½¢ çĬ¶
Ġg ar
æĺ¯ è¦ģ
ĠT ur
ä¸įæĸŃ åľ°
ĠĠĠĠĠĠĠĠĠĠĠĠĠĠĠĠ ĠĠĠĠĠĠ
bre ak
Ġmanufact ure
åĶ ¤
çĶŁ æ¶¯
Ġconfig uration
Ġch ronic
æ¼Ķ çļĦ
æĢ¥ æĢ§
Ġhigh light
ä¸ Ļ
ĠFr iday
è¦ģæ±Ĥ çļĦ
å±Ĥ éĿ¢
æĲ ı
Ġmor ph
Ġdisc overed
ĠSc ience
ĠR ead
in st
ç»ıæµİ ç¤¾ä¼ļ
m i
ĠM ex
åĳ¨ å¹´
å®ŀ åľ°
Ġtyp ical
e al
è®¤è¯Ĩ åĪ°
éŁ µ
è° Ĭ
Ġcol on
åĽ½ äº§
åĲĪ å¹¶
åĩł ç§į
æĹł æķ°
èĩªæ²» åĮº
èĢĮ å·²
æĲº å¸¦
Ġisol ated
æĬķ è¯ī
èķ ´
æĹ¶ åħī
ort hern
Ġthan ks
Ġarch itect
åįģ ä¹Ŀ
åįģ ä¸ī
k l
Ġdes ired
çĶ¨äºº åįķä½į
M ay
æĽ´ å¤§çļĦ
b al
è¯Ŀ é¢ĺ
ä¹Ł ä¸įèĥ½
å¯¹ æİ¥
Ġenvironment al
Ġsche me
è´§ çī©
U E
====== =
K E
Ġprote cted
Ġli ver
Ġf raction
Ġs pl
Ġt ight
ä¸º ä¸Ńå¿ĥ
è§Ħ æł¼
Ġ6 4
å°± æ²¡æľī
éģ ®
çłĶç©¶ éĻ¢
å°Ĩ æĿ¥
Ġposs ibly
çķĻ åŃ¦
Â §
ä¸į æķ¢
Ġqu iet
åħ¨ ç¨ĭ
ç»§ æī¿
Ġm ixed
ç§ĳåŃ¦ åıĳå±ķ
æĿ¡ä»¶ ä¸ĭ
æĸ° å»º
å¤ļ å¹´çļĦ
æĮī æĳ©
Ġcol lege
Ġchang ing
Ġ iron
Ġl ived
F C
stand ing
èĲ½ åľ°
ĠFound ation
å¢ŀ å¤§
ĠC R
æĽ¿ ä»£
y gen
Ġf illed
ĠU N
ä¸»è¦ģ æľī
ĠB ay
Ġth in
m es
çĶ¨ äºĨ
supp lementary
it ud
å¼¹ æĢ§
éĺ¿ éĩĮ
æ³ķ åĪ¶
d ependent
ĠCh urch
æ© ¡
or gan
s in
åĶ ĩ
ç¿ Ķ
Ġnet works
os h
Ġcy cl
Ġmeasure ment
éª Ĥ
ost ic
åŃ Ł
Ġal coh
çĽ¸ ä¼¼
äºº æµģ
æħ §
ä¸º ä¾ĭ
and a
èµ «
æķ ²
Ġf uel
ak ed
ĠM ag
ce ived
ä¹Ĳ è§Ĥ
ĠJud ge
æľŁ æľĽ
Ġexpl icit
ĠA S
è¿ľ è¿ľ
å¥ ł
Å Ĥ
et ric
Ðµ ÑĢ
Ä į
ä¼ĺ èī¯
åľ¨ å¤ĸ
E O
ĠA R
äºº åĴĮ
Ġcur ve
Ġt on
æİĴ æŁ¥
è¾ĸ åĮº
g t
U ser
fe e
ä¸ĭ ä¸Ģ
Ġ} );
ri end
ä¸į è®º
Ġallow ing
åħ¨ æĸ¹ä½į
app ed
Ġt ub
è´¢ ç»ı
f alse
å¾ģ æĶ¶
éķ¿ æ²Ļ
ç»Ļ äºº
ge bra
Ġout comes
çļĦ æľīæķĪ
te en
Ġmin ute
b ug
Ġal t
ä¸ĭ æĸ¹
è¿ĺ éľĢè¦ģ
Y our
æķ´ å½¢
ĠCol lege
/ \
}} }
Ġtw ice
Ġang le
IN T
åįķ çĭ¬
åħħåĪĨ åĪ©çĶ¨
è¿½ ç©¶
du c
ĠThe orem
k et
åħ·ä½ĵ çļĦ
åĳĬ çŁ¥
è¾½ å®ģ
Ġcomp ens
Ġam az
as y
ĠPh il
Ġrece iving
ic ated
æĽĿ åħī
' '
éĩĩçĶ¨ äºĨ
æĶ Ģ
ĠLe ague
çķĻ åľ¨
ĠU sing
Ġto x
éĻ¢ éķ¿
ocyt es
çĶ¨ èį¯
å² ³
å¤ļ ä¹Ī
ĠM em
åĢº åĪ¸
Ġint ent
é¢Ĩå¯¼ å°ıç»Ħ
Ġse ctions
M D
Î ¯
ä¸İ æŃ¤
åĭ ĺ
çĶŁ æĦı
é¥® æĸĻ
A ut
________ ________
Ġsu p
j ud
Ġcomp ounds
Ġper t
æİ¥ åĪ°
ĠM a
Ġch ief
åĿĩ è¡¡
ĠL ike
Ð ¿
è¯Ħ éĢī
å®ŀ è´¨
æµĵ åº¦
Ġem ph
çĸĹ æķĪ
è¡ ·
æĪª æŃ¢
ä¸į æĺĵ
è¾Ľ èĭ¦
Ġrec all
åıĪ æľī
æĨ ¾
ä¿ ±
éľ ŀ
ä¿Ŀ æ¸©
Ġbr and
ammat ory
r id
æ¯ ħ
ä¸įéĶĻ çļĦ
ç¡ ħ
ĠF OR
ĠV ol
ĠS um
å¤ ķ
Ġinvestig ated
åĲĮ æľŁ
æ¸ £
è·Ł è¸ª
Ġb atter
çļĦ åİĨåı²
v ol
Ġmar ried
Ġco verage
Ġeas ier
Ġor dered
14 0
Ġext ension
åįı åĲĮ
Ġa cknow
m ain
ed ge
ä¿ ©
Ġrel ates
% ãĢģ
p ress
ä¸į å¤§
æ½ľ åĬĽ
åĢŁ æ¬¾
Ġcor ner
æĸ° åħ´
è§Ĥ çľĭ
atur day
ell s
Ġ7 5
c n
åľº çļĦ
Ø ±
Ġprinc ip
Ġsp end
Ġs ession
** (-
C ount
Ġinc ident
ĠWilli am
Ġsm art
ĠSun day
èģª æĺİ
Ġass ay
èĩªåĬ¨ åĮĸ
çĶŁ æĪĲ
çĲĨ æĢ§
and er
åıĹ çĽĬ
Ġsh ock
Î ³
ac le
æĪĳ è®¤ä¸º
Ġam b
Ġadv ance
Ġl ie
éĥ½ çŁ¥éģĵ
a ren
ä¸º ä½ķ
èħ¾ è®¯
æī© å¼ł
ä»Ģä¹Ī æł·çļĦ
s or
00 6
ĠG ood
F I
Ġelect ronic
ç» µ
ĠM o
å¸® æī¶
ĠB i
t ed
åħ¨ å¹´
æľĪ çļĦ
Ġcap able
as c
Ġdut y
Ġdep ends
åĽŀ å¤į
Ġdest roy
èĢĥ çłĶ
Ġal ter
ĠIn s
è§Ĩ ä¸º
Ġstrong ly
Ġunder lying
ed ing
Ġview s
ĠD iv
æ¸ħ éĻ¤
Ġemploy ed
åº ŀ
Ġg ly
Ġappro ved
éĴĪå¯¹ æĢ§
Ġg od
Ï ī
åĨį åĬłä¸Ĭ
Ġtrans cript
ĠR iver
Ġdep th
im b
Ġact s
Ġqu arter
Ġr is
Ġp aint
æ¹ ĺ
Ġ3 9
ĠFr ank
ict ed
æ¿Ģ åħī
Ġinc ub
00 7
Gr oup
A ccording
Ġsp at
Ġl ymph
N ode
Ġentire ly
Ġs itting
ch ild
E lement
Ġdetail ed
Ġpull ed
äºº äºº
Ġmetab ol
Ġv acc
æĭ ĺ
çļĦ åĬŁèĥ½
Ġimmun e
Ġfour th
çĶ¨ çĶµ
åĬ¨ èĦī
ĠP en
f a
ĠH ill
b id
t w
å¼Ģ è®¾
ä¸ª äººçļĦ
Ġbro ken
Ġtra ffic
åįļçī© é¦Ĩ
çª Ħ
Ġf ish
æŀ ¯
åıĺ æĪĲäºĨ
å°ı åŃ©
æ¿Ģ æĥħ
Ġask ing
am ber
éĺ Ĳ
è¶³å¤Ł çļĦ
å¯Į æľī
ĠM ad
å±ŀ æĢ§
Ġf ab
---------------------------------------------------------------- ----------------------------------------------------------------
åīį éĿ¢
"} .
æī¶ æĮģ
çŁ¥è¯Ĩ äº§æĿĥ
it ely
Ġp y
am ine
éĥĳ å·ŀ
çŃ¾ çº¦
] --
è¿ĲåĬ¨ åĳĺ
Ġs ides
al a
ä¸į åĲĪæł¼
Ġg ent
æ² «
Ġint ensity
Ġdisc rim
Ġeval uation
Ġconf idence
âĢĿ ãĢģ
Ġgal ax
Ġinte ger
Ġob lig
ĠAustral ia
èº ģ
Mod el
åĩł çĤ¹
se lect
ä¸¤ ä¸ªäºº
ä¸įæĸŃ çļĦ
ç¼´ è´¹
ä½ł è¦ģ
F P
Ġeconom y
it able
ä¸ĭ æ»ĳ
cre ate
èģĶ èµĽ
F il
å¿ħé¡» è¦ģ
ĠT ime
ot es
ok es
ç²¾ åĵģ
éĴ ®
Ġlead ers
Ġp ages
è¡¨ æĥħ
ĠAmeric ans
æł ĭ
Ġt error
Ġdec isions
åĴĮ ç®¡çĲĨ
Ġdefend ants
Ġbe at
ä¸į è§ģ
æĬ« éľ²
è¡¨çİ° ä¸º
Ġc aught
æĸ° è½¦
ĠThe ir
Ġt ag
Ù Ĭ
k o
å®Ŀ è´Ŀ
Ġs ac
ann els
un s
Ġde fect
éĢĤ å®ľ
å®ł çī©
å½¢æĪĲ çļĦ
æĹ¥ çļĦ
å¤§ å¸Ī
Ġposs ess
ĠM A
Ġsp ring
Ġmark ed
åºĶ åľ¨
è½ ¿
åĴ ¬
C lick
å¿« çļĦ
Ġfocus ed
Ġreg ulation
ĠM il
ues day
Ġpol ar
èĨ ¨
wid et
W here
Ġtre es
Ġdoc uments
Ġappear ance
Ġgu ard
Ġappre ci
Ġexpl an
widet ilde
Ġeven ing
å» Ĭ
á Ģ
è¿ĺ æ²¡
Ġo ch
Ġs in
ĠL eg
m id
æŀģ å¤§
Ġacc ord
æ°ĳ äºĭ
g i
ä¸į é«ĺ
Ġg ra
f irst
Ġproced ures
im er
ç»Ļ èĩªå·±
ä¸į ç¬¦åĲĪ
ul s
Ġpl ays
mod el
Ġl ose
éķ¿ æ±Ł
çĻ ľ
çħ Į
Ġimplement ation
è´µ çļĦ
å·² æĪĲä¸º
åĢ¾ åĲĳ
åĢŁ éī´
ä¸Ģ å¸¦
Ġ _{
Ġexcell ent
c at
å®¡ ç¾İ
èģĬ å¤©
è¯´ æĺ¯
åī¯ ä¸»ä»»
èĮ Ħ
ĠRober t
ç»Ī ç«¯
ĠH IV
oper ative
ç§ĺ ä¹¦
ä¿¡æģ¯ çļĦ
å¹¶ åıĳ
dim ensional
Ġwor se
ãģ ª
æ» ©
ä¸į ä¸Ģæł·
om orph
ist an
) ï¼Ľ
c up
D ate
d ots
åĩĨ åĪĻ
in ations
N N
çļĦ ç¡®
Ġviol ence
åİ ķ
Ġvers us
Ġgu ide
ĠQ ue
Ġlist ed
åĴĮ å¹³
Ġsc ores
ç« Ń
çĽ¸åħ³ éĥ¨éĹ¨
Ġal le
èĦ Ĭ
c ial
Ġclust er
Ġacc um
Ġ+ =
Ġ4 4
in er
ĠCom mittee
E nt
å¿« éĢĴ
ĠD i
å¼Ģ äºĨ
çļĦ åĨħæł¸
Ġra ise
åĬ³åĬ¨ åĲĪåĲĮ
\ {
Ġinter vention
Ġmanag er
èĻ ¹
Ġaccur acy
çĽ® çļĦæĺ¯
ä¼ł æŁĵ
ak ers
ãģ Į
G B
æıĲ åıĸ
æ°´ ä¸Ń
ven ue
æľī å®³
ä¸ī åĪĨ
äº§ä¸ļ åıĳå±ķ
åľ¨ ä¸Ģ
Ġstim ul
æī ĩ
ail ed
Ġst ored
åĲĦé¡¹ å·¥ä½ľ
Ġfor t
000 1
çŃ¾ åŃĹ
é» ı
ä¸º æĤ¨
Ġmain ly
æ°Ķ è±¡
ä½ĵçİ° äºĨ
A g
äºº ä¸İ
ĠTh omas
åĲĦ å¤§
ç»Ļ åŃ¦çĶŁ
Ġmanag ed
val id
ĠG old
Ġs orry
æĦŁ åħ´è¶£
æĹ¶éĹ´ åĨħ
è½½ ä½ĵ
Ġrec overy
è´¨ çĸĳ
åīį æıĲ
è¯¾ å¤ĸ
çļĦä¸Ģ åĪĩ
ç«ĭ åľº
G G
å® ´
ç¿ ł
çģµ éŃĤ
Ġun ivers
åŀĤ çĽ´
ï¼Ł âĢľ
ĠN a
åĳĺå·¥ çļĦ
Ġqu ery
ä¿® åħ»
ä¿ĥ ä½¿
ä¾ĽåºĶ åķĨ
æµİ åįĹ
ç§» æ°ĳ
Ġfor g
äº§çĶŁ äºĨ
} .
Ġpercent age
éĢł ä»·
Ġarg uments
èĪĴ æľį
è¢ ģ
Ġgrant ed
è¯Ĭ çĸĹ
å»¶ ç»Ń
ĠAssoci ation
ä¿ ±ä¹Ĳ
x ml
çļĦ çĬ¶æĢģ
ĠH el
çīĻ é½¿
Ġsens itivity
Ġdel iver
æĪĳåĽ½ çļĦ
Ġchar ges
Ġr ough
G e
Ġab use
æĶ¿ åįı
åŁİå¸Ĥ çļĦ
çĩĥ çĥ§
è¾ĥ é«ĺçļĦ
od ay
Ġj u
Ġsecond s
çİĩ ä¸º
å°ģ éĹŃ
Ġenh ance
å¹´ åĪĿ
Ġpro pos
Ġgu arant
æİ¨ è¡Į
Ð° ÑĤ
Ġnot es
Ġadv anced
ĠH en
ç¼ ¸
Ġhe ter
ç¥Ŀ ç¦ı
]-- [@
ä½ĵ è´¨
ĠOn ce
Ġconsider ing
çļĦ æīĭ
Ġhe ll
å¯¹ æĪĳ
äºĶ ä¸ª
åĬŁ å¤«
Ġb ag
ĊĊ ĉ
Ġmin im
å¤© å¤©
ĠWe b
g ers
he ight
Ġj our
éĺ³ å¸Ĥ
Ġt ens
Ġc ort
å¹¶ å°Ĩ
é£Łåĵģ å®īåħ¨
æ³ ¼
Ġr ats
ĠW ill
el se
çļĦ è®¤è¯Ĩ
è¡¥ åĬ©
å¥¶ å¥¶
Ġgo als
åĪ ®
Ġform ula
ĠGovern ment
est ed
çħ¤ çĤŃ
g ression
r at
Ġgl uc
Ġplan ning
Ġwalk ed
3 60
I ST
æ¬¡ æķ°
åĩº ç¤º
U D
è§£åĨ³ æĸ¹æ¡Ī
Ġd ream
Ġappro aches
åĨĽ äºĭ
ell er
Ġpath way
Ġown er
Ġfrequ ently
åĨħå®¹ çļĦ
æĹ¶éĹ´ çļĦ
ĠA L
Ġv ess
äºº å®¶
å°± ç®Ĺ
åĴĮ æľįåĬ¡
ĠF in
Ġs ale
åŃĺ åĤ¨
éĵ ĥ
10 5
Ġunder stood
èģĺ çĶ¨
Ġfre edom
æķĻåŃ¦ çļĦ
w ar
pro duct
é«ĺéĢŁ åħ¬è·¯
Ġob ser
ole an
åķ ¥
çļĦ è´£ä»»
æĢ» è£ģ
ost er
æ± °
äºĮ æīĭ
æ² ª
ĠPart y
æĿ ł
Ġdep ending
ĠB rown
èĩ´åĬĽ äºİ
åı¯ è°ĵ
åıĹ ä¼¤
Ġrem ark
ĠM onday
Ġt ick
ä¹° åįĸ
æĩ Ī
åĽ¾ åĥı
ic ago
IT Y
ĠRuss ian
çłĶ è®¨
te x
Ġopp osite
é©¬åħĭ æĢĿ
M C
èĢĥèĻĳ åĪ°
ĠS l
äºı æįŁ
Ġc ategory
Ġ6 5
å¸¦ æľī
Ġstat ements
æİ§ èĤ¡
Ġun known
ant a
Ġe gg
ĠV er
æľºåĻ¨ äºº
æ³ķ çļĦ
M ethod
æ¸Ĳ æ¸Ĳ
ĠC I
Ġcomp are
def ault
clus ive
x e
ä¸į åºĶ
the n
Ġcons ult
ĠB ill
èĦ¸ ä¸Ĭ
os a
äº² èĩª
æĿĲ è´¨
ä¸į åģľ
çĨŁ ç»ĥ
çļĦ é£İéĻ©
å®ļ åĪ¶
Ġexp osed
Ġdeterm ination
Ġapp ellant
æŁĲ æŁĲ
á »
åĪĽå»º äºĨ
ĠC r
ĠN or
Ġc m
åľ¨ æĸ°
li k
Ġ5 5
Ġr ac
åĪĨ çļĦ
å¹² æī°
æľ¬ åľ°
æ³ »
çĸ ¹
Ġox id
Ġc art
d ir
ĠOn ly
Ġobserv ations
éĤ£ å°±
åĭ ¾
Ġarriv ed
Ġresult ed
Ġconcer ns
Ġse at
èĲ½ åĲİ
b our
ä¸Ń å°ıåŃ¦
Ġcrit ic
åı¯ åľ¨
Ġ$ {
ij ms
æĪ· å¤ĸ
ç®Ģ çĽ´
c ut
Ġ ion
app ro
æĢİ æł·çļĦ
åĮ¹ éħį
åħ±äº§ åħļ
ĠIntern et
æ´» æĢ§
g ithub
Ġwill ing
Ġcomp etition
ä¹¦ åĨĻ
æ²» æĦĪ
Ġus ual
èĥİ åĦ¿
Ġpie ces
èĬ ¬
ious ly
Ġrecogn ized
IT H
åĨ³ å¿ĥ
Ġc a
Ġm ine
äº¤ åıī
æĿ¡ æ¬¾
urs day
Ġo rient
Ġp our
åĲ« ä¹ī
Ġexperien ced
Ġ-- >
L a
Ġprot ocol
ed nes
id o
Ġjo ined
N F
Ġpl ot
å½Ĵ çº³
çıį æĥľ
u ce
æĹ¶ æľº
ott en
ç»ı éĶĢ
b en
S U
Ġend ed
å¤įåį° ä»¶
Ġs alt
T e
éļĶ ç¦»
us cript
é«ĺ åİĭ
ä¸Ģ åı¥
è§£ è¯»
im ately
& #
åĲĥ çļĦ
âĢĿ ,
æļĤ æĹ¶
Ġd raft
Ġacc ident
è®¾ å®ļ
å® Ļ
Ġ1 20
å¨±ä¹Ĳ åľĪ
ĠB ook
Ġn ine
ut ely
æĥħ æĻ¯
è®¢ åįķ
ĠI T
çļĦ èĢģ
Ðµ ÑĤ
cret ion
Ġh all
Ġre plic
å·¥ä½ľ èĢħ
å¤ļ å®¶
X X
ĠE R
ä¸¤ ä½į
èŃ¦ å¯Ł
ĠAn n
ä¼ģä¸ļ åľ¨
Ġstand ards
Ġcandid ate
Ġad m
Ġswe et
P re
ack s
ç¤¼ çī©
å¾Ī é«ĺ
Ġexp ansion
å¹¶ å¯¹
å®¿ èĪį
çº§ åĪ«
æ·± æ·±
çļĦ å»ºè®¾
Ġmod ified
Ġf ellow
Ġhum ans
ĠG al
è®¡ éĩı
æĻ ´
åĪ¤ åĨ³
ren cy
å¹ħ åº¦
ç¯® çĲĥ
å¡ĳ éĢł
G en
ç¾İä¸½ çļĦ
ell ular
æıĲ åĪ°
èĪ Ĩ
Ġnumer ous
äºĨ åĲĹ
qu ery
ĠF ield
åĲĦ åĽ½
å±ķ è§Ī
pro cess
Ġn om
Ġsuit able
ater al
S ince
Ġim possible
åĽŀ åºĶ
omet ric
Ġord ers
çĸĳ éĹ®
ä¾Ľ çĶµ
Ġt or
ĠI r
ç§į åŃĲ
est ic
æľīåħ³ è§Ħå®ļ
Ġst rain
ä¸º æŃ¢
è¯´ åĪ°
Â ¥
Ġp ush
è¿ĺ å°Ĩ
ĠRich ard
æľĪ ç»ı
ç»Ĩ èĩ´
j i
è§Ħç«ł åĪ¶åº¦
and on
å¤ĸ çķĮ
æĿĲæĸĻ çļĦ
Ġdist ingu
çªģ åıĳ
h as
åİŁ å§ĭ
è¡ «
çļĦ éľĢè¦ģ
Ġassum ing
æģĭ çĪ±
Ġpurch ase
æįŁ åĿı
âĹ ı
åħĪè¿Ľ çļĦ
åīį è¿Ľ
y er
Ġtele vision
_{ {\
(\ [
Ġs ister
Ġcr is
Ġad vert
Ġanal og
Ġb le
åħ³ çĪ±
æķĻèĤ² éĥ¨
Ġb ool
ĠW indows
com ple
Ġveloc ity
end ment
ĠLou is
æµ ı
Ġlimit ations
Ġst ick
Ġconcern ed
ä»İ ä¸Ń
an ning
ç»ĦæĪĲ éĥ¨åĪĨ
çĻ½ çĻľ
ĠRuss ia
é¦ĸåħĪ è¦ģ
åĲ µ
Ġequ ations
èı ĩ
çĸ«æĥħ éĺ²æİ§
#### ####
æķ ¦
å¿½ çķ¥
Wh ich
åĸ »
Ġ4 3
æĻº åĬĽ
åĽĽ å¤§
ĠFl or
çºł æŃ£
ä¸» å¯¼
ä¸Ģ åĳ¨
éģŃ éģĩ
/ -
ç¤¾ ä¿Ŀ
Ġinvestig ate
Ġconflic t
éļ¾ éģĵ
çĻ½çĻľ é£İ
æ¸¸ æ³³
^+ ^
19 97
Ġg ate
çĦĬ æİ¥
Ð ·
éĢļè¿ĩ å¯¹
å¤ĸ åĩº
ednes day
å¸¦ å¤´
ad ow
æĦı å¿Ĺ
åı« åģļ
M r
Ġwatch ing
Ġind epend
çĥŃ æ°´
Ġf uck
çļĦ æłĩåĩĨ
ĠE arth
Ġvari ation
Ġjurisd iction
abet es
ä¾ ł
è´Ł åĢº
ri p
Ġconstit ution
il ty
çļĦ ä¸ĢäºĽ
çĶ· çĶŁ
Ġdo ctor
Ġmur der
ag ger
ĠM ot
å±± åĮº
èµ° åĩº
Ġent itled
èĪ Į
Ġadminist r
ed ia
åıį å¯¹
Ġ& =
ĠA p
Ġp od
Ġevalu ate
Ġbud get
èº«ä½ĵ åģ¥åº·
Ġkeep ing
et e
åĲİ ç»Ń
Ġassess ed
? ?
Ġkn ock
Ġcon clude
ent ed
Ġ3 00
Ġwar rant
d el
Ġtri als
}} {\
çĽĳçĿ£ ç®¡çĲĨ
ĠF ederal
çļĦ ä¸ŃåĽ½
Ġre produ
ä¼ļ ä½¿
äº§ èĥ½
åģļ å¾Ĺ
) =\
Ġwid ely
Ġphot o
ent h
P ol
åŃ¦çĶŁçļĦ åŃ¦ä¹ł
Ġl uck
M ore
Ġth r
ä¸į åıĬ
Ġtr ouble
åįł æį®
Ġ4 7
æ° ¢
åĲĪ æĪĲ
Ġg rav
Ġadv ice
æľª ç»ı
Ġar ter
Ex ternal
å®¹ éĩı
å¢ŀ å¤ļ
ä¸»æĮģ äºº
è®¾è®¡ å¸Ī
åĪĽ è®¾
ien ces
Ġide al
çŃī æĸ¹å¼ı
rape ut
od ed
if ferent
k ins
Ġd uration
èĮ Ĥ
ore t
åħ³ç³» çļĦ
ĠI ran
Ġf ans
Ġsp oke
çĭ ®
çİ¯å¢ĥ çļĦ
è¾¹ çļĦ
R ev
å¹´ åīį
éĵ ¸
çĲ ³
åİĤ åķĨ
Ġab und
ç¬ ¼
Ġtri p
ç¬¬ ä¸ĥ
ä½ľ å®¶
çĽ® å½ķ
Ġdis pl
Ġbi ological
Ġd il
ĠOff ice
end if
æ³¨æĦı åĬĽ
éĢīæĭ© äºĨ
æĵ İ
Ġfam iliar
Ġaccom pl
ER T
æŀ ¢
\ !
ä¸Ģ çľĭ
è§ģ åĪ°
èµĦæºĲ çļĦ
æĴŃ æĶ¾
Ġpre val
åıĤåĬł äºĨ
be red
Ġphen omen
éĵ ħ
us iness
å®ŀè·µ æ´»åĬ¨
åĬ³åĬ¨ èĢħ
Ġend s
æīĢä»¥ åľ¨
Ġclaim ed
æĲŃ è½½
å¯» æ±Ĥ
Ġpar allel
å¥ ¢
è®¤ åĲĮ
æĲŃ å»º
s d
çĶŁäº§ çļĦ
Ġbe coming
åįķä½į çļĦ
åĽŀ é¡¾
u v
å¼Ģ å·¥
å¾Ĺ åĪĨ
Ġspec ified
ug in
ç» ĳ
Ġne ck
Ġcons c
ç©¿ çĿĢ
Ã¡ s
ç» Ĵ
å¸ ķ
æ· ®
äº Ń
çĶµ æ¢¯
rodu ction
å§ĳ å¨ĺ
ä¸į å½ĵ
è¯ķ åį·
ĠF orm
) ^{
( {
åİĭ ç¼©
on ly
Ġh ur
Ġtechn ical
idel ines
éĻĮ çĶŁ
çĸ« èĭĹ
æ½ľ åľ¨
Ġ Ñ
Ġrelationship s
Ġjob s
ĠD en
æīĢè°ĵ çļĦ
æĽ² çº¿
é¢ĳ ç¹ģ
f ess
P art
æĪĳä»¬ å°Ĩ
è¿Ľ åİ»
è¿ĺ ä¸į
ne ver
æľįåĬ¡ ä¸Ńå¿ĥ
Ġf ill
en ance
åĽ¢ ä½ĵ
æĥ ¨
Ġrec ording
çļĦ æľĢ
ä¸Ĭ ç½ĳ
çĶ· å¥³
Ġs and
Ġe cho
ro ad
ĠM S
æķ°æį® åºĵ
éĢ Ĭ
çŁ¥è¯Ĩ åĴĮ
ort ed
it o
Ġ4 1
Ġp p
æĹł æķĪ
ä¸Ģ åĿĹ
Ġh at
B ack
Ġdemonstr ate
Ġj ava
P I
Ġt ables
Ch ar
Ġst ret
** ]{}
Ġk ne
ĠT R
ä¸» è§Ĥ
Ġcon ven
Ġsignal ing
Ġto m
èĻļ æĭŁ
åľ° æĿ¿
Ġdec ide
ĠS N
åĩŃ è¯ģ
Ġ} ;
å»º éĢł
æīĵ ç®Ĺ
se ct
åĪĨ æķ£
å¢ ĵ
ĠSc ott
æ³¨ æĺİ
Ġl oved
S ervice
éĩĳèŀį æľºæŀĦ
ç§ĺ å¯Ĩ
Ġ1 50
çĶ¨ å¿ĥ
ä¾ĭ åŃĲ
)* (
Ġun able
ult ure
éĻĨ ç»Ń
Ġra re
ĠB ur
Ġform al
åıĬ ä»¥ä¸Ĭ
Ä ±
ĠW ork
Ġre vers
Ġ19 99
% ),
Ġan s
ä»ĸ æĺ¯
çº¿ ä¸ĭ
Ġaccept ed
Ġstatist ical
åĤ »
æ¨¡ æĿ¿
æ¸ħ åįķ
éģĹ æĨ¾
Ġenc oun
å¯Į åĲ«
Ġman uscript
åĿ ª
Ġthere by
t ag
ç¦» ä¸įå¼Ģ
çļĦé«ĺ åº¦
è ¤
Ø§ ÙĦ
éĢ ¾
æ¼Ķ åĶ±
um s
M essage
Ġg ro
æľī ä¸Ģå®ļçļĦ
åĨľ æĪ·
T wo
L ine
æłĩåĩĨ çļĦ
åıĺ éĿ©
èŁ ¹
é«ĺ å±Ĥ
æ³ Ĭ
"} )
Ġinter val
å¤§ èĥĨ
å«Įçĸĳ äºº
æĸ Į
åħ¨ æĸ°çļĦ
Ġdep artment
Ġrelig ious
ï¼ģ âĢľ
Ġimprove ment
Ġc ab
çĭ Ĳ
Ġcomm itted
çĻ¾åĪĨ çĤ¹
Ġpop ulations
Ġth reshold
ä¸į å¯¹
Ġdis p
é¡¾ éĹ®
ĠT or
nb sp
i ples
C all
$ (
Ġinvol ving
ä¸Ģ æĸ¹
ä¿¡ è´·
æĴ °
Ġsett ings
åĳ¨ æľ«
å¾Ĺ åĩº
Ġhel ps
åıĳ æĺİ
ĠS erv
Ġph ilos
Ġs oul
et her
éª Ħ
ĠM er
ad ian
ĠW H
Ġvirt ual
Ġdis k
ĠSe cret
å®ŀ çļĦ
æĳ© æĵ¦
çĬ ¬
Ġbound ary
Ġsuggest ing
ro ke
Ġmot iv
ĠS olve
èĤł éģĵ
Ġfavor ite
éĢ ¢
è½¦ èº«
ĠAfric a
æĮ £
è¢« åĬ¨
åįģ äºĶ
Ġart icles
è½¦ éĹ´
Ġatt ached
çĮ ´
Ġsupp l
èĭ į
åŃ¦ä¹ł åĴĮ
æĢĢ çĸĳ
Ġpe pt
åĽĽ æĺ¯
Ġbr anch
Ï Į
é¾Ļ æ±Ł
Ġdat as
C K
çļĦ å¿ĥçĲĨ
çĤ¹ è¯Ħ
RO M
M ar
Ġd ress
Ġslow ly
åıĳå¸ĥ çļĦ
ç»Ī èº«
å µ
ĠO pen
Ġhe nce
ãģ Ļ
t ra
æŃ¦ åĻ¨
çħ İ
Ġsee k
D L
å¼Ģå±ķ äºĨ
w ater
B ox
é¢Ħ èŃ¦
E nd
ä¸į çĦ¶
åħ¬å®ī æľºåħ³
ç§ĳåŃ¦ çļĦ
Ġr ub
L ook
å¤§ éģĵ
, (
ä»ĺ æ¬¾
ä½ĵ ç§¯
Ġconvers ation
ä½ı éĻ¢
ĠN O
}} ^
ĠTw itter
ä»½ é¢Ŀ
äº§ä¸ļ éĵ¾
ä¼ļ å¯¹
é¡µ éĿ¢
ä¸¥ èĤĥ
ä¸Ģä½ĵ åĮĸ
å¤§ éĻĨ
çĸ ®
S ource
å· ·
sc ale
S L
ry pt
ä½ł å°±
çħ§ æĺİ
æľī åĪ©
Ġst ability
ĠS E
el i
t arget
æĺ¯ ä»İ
} =\
Ġhor iz
velop ment
l u
ain er
ĠE U
Ġwor ry
åĻ¨ å®ĺ
7 00
é¢ľ åĢ¼
çľŁ è¯ļ
Ġres ource
mon th
åħ¥ åŃ¦
Ġm ission
oc hem
Ġm and
ä½Ĩæĺ¯ åľ¨
èĭ± æĸĩ
æľī çĽĬ
Ġst rict
Ġcont ribution
çļĦäºº æīį
ä¸ľ åįĹ
ott ed
Ġo d
v s
Ġad ults
ĠF IG
å¹³ ç¨³
æ± ª
Ġc ogn
æĸ¹ åı¯
aut hor
W ho
leg al
ä¸ļ åĨħ
é«ĺåº¦ éĩįè§Ĩ
æī¾ åĩº
ä¸º äºº
m essage
é«ĺ éĵģ
éĴ ©
èµĽ äºĭ
Ġcommon ly
ĠH ence
ä¸ĭ ä¸ĢæŃ¥
ä½ł åľ¨
ĠR ef
Ġ$ {{\
Ġs ought
åĸ ī
çĶ¨ éĢĶ
br id
Ġpers ons
éĥ½ å¸Ĥ
Ġfor get
æ¢ ¨
S ON
å½ Ń
U s
å±ħ çĦ¶
åħ³ èģĶ
p et
æŁĲ ä¸ª
w ing
â ĸ
ä¸Ģ ä¼ļ
å¡« æĬ¥
åľ° éľĩ
Ġox ygen
ap ed
å½±åĵį åĪ°
ĠM ont
Ġcl imate
Ġaspect s
Ġhe ro
é«ĺ å³°
av en
Ġmi xture
äºİ ä½ľåĵģ
éĩį éĩı
æĬĬ å®ĥ
Ġb oot
Ġf le
æ¶¨ å¹ħ
Ġhe m
æīĢå¾Ĺ ç¨İ
æĸĹ äºī
b uild
æĦı å¤§åĪ©
æĭ ¾
hen tic
10 2
F e
å®« é¢Ī
Ġcol le
Ġdom in
Ġlim its
Ġtr uly
us hing
st s
åºĹ éĵº
Ġtell ing
çĥ ¯
Ġp et
ä¸Ģ éĥ¨
Ġindic ating
Ġalcoh ol
s rc
st ar
å¼Ģ éĢļ
Ġcontin ues
åħ¬ å¼ı
Ð¾Ð »
åĵ² åŃ¦
ĠF ree
ĠCar ol
**************** ****************
Ġ4 9
åĲī æŀĹ
ĠM ass
Ġr oute
ä¼ļ å¯¼èĩ´
Ġco f
Ġann ual
é¸ ¿
äºº å¿ĥ
B ar
Ġwalk ing
pl oad
çĽ¸å½ĵ äºİ
T C
Ġ4 6
èµ· çĤ¹
åĢ¡ å¯¼
Ġad equ
ĠL u
Ġapplic able
Ġcustom er
S olve
å®ĺ ç½ĳ
ĠPro ject
åħ» æĬ¤
çĮ İ
è°ĥ è§£
èĪ Ł
åĲ¯ åıĳ
Ġ ì
éĻ· åħ¥
Ù ħ
y an
ä»£ æĽ¿
Ġsign s
ä¿±ä¹Ĳ éĥ¨
åĬ© åĬĽ
èħĲ è´¥
æ´¾åĩº æīĢ
è¿İ æĿ¥
åıĳ ä½ľ
ä¸Ń ä»ĭ
ä»Ģä¹Ī æĹ¶åĢĻ
è± «
æĬĬ èĩªå·±
æĦ¿ æľĽ
Ġchalleng es
bl ing
Ċĉĉĉĉ ĉ
èĦ±è´« æĶ»åĿļ
Ġla unch
Ġconst raint
he rent
P lease
éĢļ çĶ¨
and roid
======== ====
act iv
Ġen force
? âĢĿ
or al
ĠInst ead
çºª å§Ķ
hel ial
char ge
æļ ¨
åİ» éĻ¤
ç´§ ç´§
ç¬¬ä¸Ģ æĹ¶éĹ´
å®ĩ å®Ļ
Ġa st
ä¸ĵä¸ļ æĬĢæľ¯
ä¸İ åħ¶
æ¦Ĥ æĭ¬
çļĦ ä¸įåĲĮ
Ġframe work
ive red
B P
Ġso le
ĠR ad
? (
Ġpot entially
Ġthous and
åĪĴ åĪĨ
OU T
if ies
Ġdynam ic
d ep
æĮī æĹ¶
å®ŀ æĹ¶
ç¿» è¯ĳ
åĺ Ľ
Ġas sembly
Ġme rely
Ġmar riage
å¹¿ä¸ľ çľģ
Ġs ounds
p onse
ä»Ĭå¤© çļĦ
Â ¶
å®ļ äºĨ
Sim plify
Ġ ÑĤ
ä¸ª çĻ¾åĪĨçĤ¹
å¤´ çļĦ
Ġmicro sc
Ġs an
ä¸ŃåĽ½çī¹èī² ç¤¾ä¼ļä¸»ä¹ī
å©ļ ç¤¼
å±±ä¸ľ çľģ
Ġrest aur
Ġpart ial
éĴ¢ éĵģ
d ict
ĠS ing
çģ¾ å®³
åĲ ķ
$ )
yt ic
Ġaff ord
Ġdeg rees
å¼ĺ æī¬
å¯ ¨
Ġrad iation
ĠJohn son
æ½ ĺ
æĦ ģ
å¸Ĥåľº ç»ıæµİ
çķ ı
ç¦» åŃĲ
ĠT imes
iver se
ĠP lease
Ð° Ð»
çĽ¸ å¤Ħ
éħĴ ç²¾
å§ ļ
èĩªè¡Į è½¦
ruct ure
éģĹ ä¼ł
Ġn odes
Ġcourt s
æŃ£å¸¸ çļĦ
ä¾¿ äºİ
A m
othe rapy
il ton
æ³ķ äºº
ç³» æķ°
éĩį ç»Ħ
å°± å¼Ģå§ĭ
Ġthought s
Ġdi vers
èĨ Ŀ
az ine
l ife
ad ed
Ġ19 90
æĥ³ æĥ³
ĠI V
Ä «
åĶ® ä»·
Ġp Ã¥
åĩĢ åĪ©æ¶¦
åħ¬ æĸ¤
çĪ± åĽ½
Q U
om al
æĬµ æĬ¼
é£ŀ è¡Į
Ġpart ner
æī¹ éĩı
è½» è½»
åĲ¸ çĥŁ
åľ¨ æľ¬
ap se
ç¬¬äºĮ å¤©
Ġf old
èģĮ ç§°
clus ions
F IG
th m
Ġaccur ate
æľī ä¸ĢäºĽ
U G
\[ [@
Ġax is
åħ¥ æīĭ
i ary
äººå·¥ æĻºèĥ½
Ġrepl aced
Ġdim ension
åĲ ĵ
ĠP R
ĠL ong
u zz
åıĹ åĪ°äºĨ
Ġcommun ities
Ġcell ular
è¿Ļ å¯¹
ar ks
ac ent
Ġp rices
åĲİ åĨį
ä¸Ń åħ±
Ġun e
å½¢ çļĦ
å¯¼ å¸Ī
Ġpolic ies
Ġp ed
ĠS aturday
Ġturn s
éĢĢ åĩº
æľª èĥ½
Ġfl ag
Ġcitiz ens
æ²¡æľī ä»»ä½ķ
æĮī éĴ®
ĠIt s
æĹħ å®¢
åĬ³åĬ¨ åĬĽ
éĵ Ń
æīĵ çĶµè¯Ŀ
ĠC P
def ined
) +
åº§ è°Ī
çī¢ åĽº
Ġmass ive
åģļ ä»Ģä¹Ī
ĠF our
19 96
Ġrel ax
Ġdep art
Ġpro lif
Ġ19 97
æıĲåĩº çļĦ
Ġstart s
Ġpay ment
åģļ ä¸Ģä¸ª
Ġs ir
f it
Ġw ound
4 000
form at
ç®¡çĲĨ åĴĮ
ä»ĸä»¬ åľ¨
a o
gr ade
ç« ĸ
éª¨ å¹²
è¢« ç§°ä¸º
Ġmole cules
Ġp il
çĥ¦ æģ¼
Ġ ĊĠĠĠ
çĶµè§Ĩ åı°
Americ an
Ġpro test
Ġh ole
Ġflu ores
ĠB re
æĢ» éĩı
æķħ æĦı
åģĩ æľŁ
but ton
å¯Ĩ å°ģ
um ns
åĩł åįģ
om er
æ·ĺ æ±°
Ġvill age
Ġfac ilit
åĩ ĳ
Ġinter act
è½¬ åĲĳ
æ¯« æĹł
ĠP y
åĢº æĿĥ
opt ion
åįĩ é«ĺ
AG E
ç§ĳ å®¤
ä¸Ń æĸĩ
ç¾ ¡
Ġmet ric
çĶµ ç½ĳ
è ©
Ġclos er
Ġpoly mer
ĠPar is
åĪĨæķ° çº¿
ä¸ŃåĽ½ äºº
æµı è§Ī
ä¸» æµģ
åĲ¬ åıĸ
åħ¬ ç§¯
æ° ¯
å®ī éĿĻ
Ġph arm
ĠU se
Ġsec ure
Ġantib ody
Ġphot os
Ġ5 6
m ac
av or
ĠW here
Ġabsol ute
ä¸İæŃ¤ åĲĮæĹ¶
ĠFlor ida
ĠâĢ ¦
f old
èĥ¡ èĲĿåįľ
Ġf aster
è¿Ļ åı¥è¯Ŀ
æĦŁ æĤŁ
Ġocc asion
Ġ 00
å¨ ĩ
H S
ĠF ore
Ġrec ip
R ef
Ġlist en
N O
ĊĠĠĠĠĠĠĠĠ ĠĠĠĠ
Ġd ys
åİ¦ éĹ¨
æ¯ı ä¸Ģä½į
åĽºå®ļ èµĦäº§
ç®¡çĲĨ èĢħ
Ġde fe
Ġn ative
Ġcon cluded
å¥½ çľĭ
Ġsc r
æħ Į
st d
Ġbur den
éļı æľº
Ġdec ades
ĠD ec
\] ).
çŁ «
åı£ ç¢ĳ
Ġfe es
ĠG ive
n av
ç»ĺ çĶ»
åĲį ä¸º
de c
æĮ¯ åħ´
ĠJes us
Ġsens itive
åĨĻ çļĦ
æķ¢ äºİ
T A
ä¸Ģ äºº
« çĹ
Ġun ion
ä¸ª å°ıæĹ¶
ĠSt ar
19 95
Ġlink ed
åŃ¦çĶŁ å¯¹
å§ ¨
Ġc ash
ä¸Ģæ¬¡ æĢ§
Ġv itro
Ġattack s
Ġlar g
Ġcon j
ä½ľä¸º ä¸Ģä¸ª
åıĳ éĢģ
èĤ¥ èĥĸ
å¤§å®¶ çļĦ
èĤº çĤİ
r h
æĺ¯åĲ¦ æľī
éĻª ä¼´
ĠAfric an
ä¸ī åįģ
æŃ¥ ä¼Ĳ
n el
ä¾ £
çº§ çļĦ
åĪ© æģ¯
Ġpict ures
Ġacc el
ĠL ife
çĥŃ éĩı
ĠÐ¿ ÑĢ
å·® åĪ«
Ġatt end
0 11
ĠM ax
å¯¼ åħ¥
. </
èĳ Ľ
Ġpl astic
Ġ19 98
å½ĵ ä»Ĭ
èĢģ å©Ĩ
ĠS and
æĦŁ åĴĮ
Ġtem plate
Ġor al
æĶ¶ ç¼©
çĪĨ åıĳ
èµ¶ ç´§
l ayout
Ġf an
èħ Ĭ
çĶŁæ´» ä¸ŃçļĦ
éĿ¢ éĥ¨
Ġinstr ument
f ast
m osp
ä¹¦ ç±į
Ġst ack
ĠR ule
G A
Ġinterpret ation
ä¸į æĩĤ
çĤİ çĹĩ
åĲĪéĢĤ çļĦ
Ġfundament al
ä¸Ģ æĬĬ
æĮī è§Ħå®ļ
éĩĩ éĽĨ
Th anks
äº® çĤ¹
èĮ¶ åı¶
èĮ ħ
ra q
çŃī å¤ļç§į
å°±æĺ¯ è¦ģ
æĶ¹éĿ© çļĦ
z eta
bl og
Ġen able
æĬ¥ è¡¨
åĿ Ŀ
è¿Ļä¸ª æĹ¶åĢĻ
; \
ĠP A
ç»Ħ å»º
è¿ľ ç¨ĭ
Ġac ute
u y
åģļ äºĭ
è¿Ļ é¡¹
æĮĩ ç¤º
Ġnecess arily
æį §
è°¨ æħİ
con f
ĠS ol
iph one
èĸª éħ¬
et ime
åľ¨ åħ¨åĽ½
Ġinvest ment
æłĩ çŃ¾
åıĺ éĢŁ
Ġrad i
æµª æ¼«
ä¸į å®¹æĺĵ
Ġdefin itely
ä¸ĭ æĿ¥çļĦ
ç»Ĩ åĮĸ
éĥ¨éĹ¨ çļĦ
Ġper man
Ġg ap
è¿Ļ ä¸¤ä¸ª
Ġcharacter ized
çĶĺ èĤĥ
æĪĲ åĵģ
ribut es
ç»ĵ çŁ³
Ġb are
ä»¿ ä½Ľ
æĶ¾ å¤§
Ġstrateg ies
Ġpoint ed
å»ī æ´ģ
ä¸Ģ å¼Ģå§ĭ
Ġ5 1
ĠS k
Ġmort ality
Ġassum ed
èµ Į
Ġfun ds
å½ĵ åĪĿ
Ġsim pl
Ä ħ
Ġtiss ues
Ġtest ified
ä½ł èĥ½
åĨ¬ å¤©
Man ager
ev ent
ok ed
è¾ĥ å¥½çļĦ
op ath
Ġse gment
æ² ¥
ern el
ĠP eter
æĪĳ çľģ
æĹ© é¤Ĳ
æĦı åĽ¾
é ¥¿
è¯ķ çĶ¨
ä»¥ä¸ĭ ç®Ģç§°
ä¸Ń æ¯Ĵ
ä¹Ĳ è¶£
Ġh al
IN E
Ġt it
çĽ´ çº¿
Ġpur su
Ġs ight
Ġfe at
Ġm RNA
ri or
Ġsupport ing
ch ing
ic ious
Ġcon c
Ġdepend ent
æİĪ è¯¾
ä¸Ńåįİ æ°ĳæĹı
ĠCh icago
åī ¥
åľ¨ äºĨ
he ther
Ġass igned
Ġres on
du le
ĠC ap
æĹ© å·²
çķĮ éĿ¢
Ġeffect ively
al d
åı¯ä»¥è¯´ æĺ¯
Ġfab ric
çĶ¨ æīĭ
Ġpass ing
èĢĥ è¯ģ
ampions hip
èİ İ
ä»·åĢ¼ çļĦ
F S
æĹł å¥Ī
æģĲ æĥ§
: \
åĬ¨ åĳĺ
und le
ĠB ig
ç¯ĩ æĸĩç«ł
1 12
è¿Ŀ çº¦
row s
In d
Ġprinc iple
çŁŃ ä¿¡
çŃī åĪ°
æĶ¿åºľ çļĦ
å±Ĥ çļĦ
Ġlay ers
ĠAr ab
ä¸į åĪ©
æĪĳ å¯¹
ĠT ype
g ent
Ġcomp osite
p ower
å®ŀ æķĪ
ĠJ im
ĠAn other
Ġinst ructions
E xt
Ġre verse
èĬ± åĽŃ
Ġsmall est
ç§į ç§į
ä¸ª èĤ¡
é¡¹çĽ® å»ºè®¾
å¥½ åıĭ
ĠT uesday
Ġprov ed
ĠE X
Ġa u
10 8
Ġput ting
åıĺ åĬ¨
å¤§ çĽĺ
æ¾ ¡
å·²ç»ı æĪĲä¸º
ä¼ł åªĴ
çĹħ ä¾ĭ
ä¾¿ æį·
Ġl icense
Ġ{ {\
Ġreal ized
Ġbas eline
ä¸» è§Ĵ
ç§° åı·
on ym
Ġc ra
ial s
L C
ä¸º åŁºç¡Ģ
- (
ĠVir gin
ĠIn deed
åĩº éĹ¨
Ġr ig
è¿ľ ç¦»
i pping
ch ron
åĢĴ åħ¥
ĠFranc is
Ġ5 2
è¿ĩç¨ĭ ä¸ŃçļĦ
ĠC le
Ġshe ll
Ġcons ent
ect or
æĺ¨ æĹ¥
ä»Ĭ å¹´çļĦ
è±ª åįİ
Y PE
S ystem
çģ« ç®Ń
or ation
å» ·
Ġobject ive
_ ,
æŁ¥ å¤Ħ
èĮ «
Ġvis ible
åħĥ çļĦ
éĢĤå½ĵ çļĦ
çłĶç©¶ æīĢ
ogen ic
Ġpredict ed
Ġscient ific
Ġinst ant
Ġp ix
é½Ĳ åħ¨
åħ¨ æ°ĳ
Ġcomm ission
Ġem ission
Ġimpl ies
Ġcomp ound
ire ctor
Ġmat ters
Ġb low
Ġmess ages
Ġsu c
ç»ıæµİ æķĪçĽĬ
é¢Ĺ ç²Ĵ
æĦ ¤
åĪĽéĢł æĢ§
Ġs plit
Ġgrow n
) }\
Ġ7 2
pl ant
Ġto ler
E very
å¤± ä¸ļ
æĬ¤ èĤ¤
n ames
éĢī æĭĶ
çļĩ å¸Ŀ
Ġqu i
up s
ĠD ev
è¯¾åłĤ ä¸Ĭ
ĠS ociety
ĠIs lam
Ġex ceed
Ġdynam ics
Ġemploy ee
åĵį åºĶ
Ġcoll abor
æľĭåıĭ ä»¬
æİ ©
çļĦ è§Ĵåº¦
ä¸¤ ä¾§
æĹł çº¿
Ġep it
é« ĵ
äºĨ ä¸ĢäºĽ
åİļ åº¦
ä¸Ń æľĢ
Ġv ision
çĽ² çĽ®
è¿Ŀæ³ķ è¡Įä¸º
æ¬² æľĽ
Ġbo ys
ĠE nd
en ess
å®¶ å±ŀ
op hy
çĥ «
è¾ĥ å¥½
Ġarbit r
v as
Ġcont ribute
æ¨¡ ä»¿
ass ert
è¿Ļæĺ¯ ä¸Ģä¸ª
Ġgu ilty
Qu ery
Ġident ification
åĳĬè¯ī è®°èĢħ
Ġar my
int on
åģĩ å¦Ĥ
Ã§ Ã£o
Ġlarg ely
p hen
Ġrepl ace
æŀ ļ
ä¸ ĳ
Ġo g
Ġconsider ation
Ġch annels
v in
å®ī ç½®
æ¶ī å«Į
Ġdro pped
Ġcl ar
èģļ éĽĨ
ĠD u
n i
Ġpartic le
Ù Ī
Ġclos ely
é»ĳ é¾Ļæ±Ł
çĶŁäº§ ç»ıèĲ¥
Ġra il
è¾ĥ å¼ºçļĦ
Ġv en
ä¸º åĨħæł¸
ollow ing
Ġhous ing
10 3
ä¸Ģ è¡Į
è¯´ è¯´
ĠApp le
è¶Ĭ å¤§
çļĦ æķ°æį®
er ated
Ġcont em
ĠPro gram
Ġri ver
æĺ ı
cont in
Ġdis put
åĵģçīĮ çļĦ
An other
è¿Ľ åıĸ
åĬł çıŃ
è·¯ å¾Ħ
æĶ¶ åıĸ
ane ously
ant e
Ġb odies
b el
ç¢ Į
å·¥ç¨ĭ æĸ½å·¥
Ġwall s
ĠSt and
éŁ ¦
Ġdes ire
He y
r ine
Ġp as
äºĨ èĩªå·±çļĦ
çļĦ æ¯Ķä¾ĭ
ĠÐ ¼
çİĩ åħĪ
å°± å·²ç»ı
ĠAr ch
é¼ İ
ĠJ ose
Ġestim ates
g dp
çĽ´ è§Ĥ
S R
Ġcon ference
Ġsq rt
Ġsim ult
å°ĳ çļĦ
ä¸ĸçķĮ çļĦ
on a
åľ¨ æł¡
10 4
ä¸Ń æīĢ
èº º
æī© å±ķ
F R
ä¸Ń åįĪ
ĠIn formation
St art
å¼ķ æĵİ
D NA
11 1
br idge
ĠCent ral
Ġt ail
Ġd Ã©
å¤ļ å½©
Ġr id
ov a
Ġint ention
ĠS H
æĮĳ éĢī
ig e
æĸ°æµª ç½ĳ
ä¾ ¯
ç« £
lect ric
Ġed itor
æıĲ èµ·
ĠS il
æĦıè¯Ĩ åĪ°
çĭ Ń
åľ¨ åĮĹäº¬
æĥĬ åĸľ
ĠC ount
åį³ ä¾¿
Ġwe ar
å¯Ĩ çłģ
ress ive
Ġexp ensive
éĶ Į
Ñ İ
åıĳ ç¥¨
" ),
ul ed
per t
en u
åĲĪ éĩĳ
2 20
Ġhon est
Ġdra wn
å¸¸ çĶ¨
n m
S M
äº§ åĲİ
åĵ¥ åĵ¥
rapeut ic
ä¼ł æĦŁ
å¦Ĥæŀľ æ²¡æľī
im a
Ġpract ices
Ġout er
Ġwas te
æĹĹ ä¸ĭ
we et
Ġf ashion
å®Į æ¯ķ
ĠĠĠĠĠĠĠĠĠĠĠĠĠĠĠĠĠĠĠĠĠĠĠĠ Ġ
åĬł æ·±
ft ware
Ġhundred s
| |
åº Ļ
åĭĩ æ°Ķ
Ġpre ced
Ð¸ ÑĤ
çī¹ å®ļ
ĠĠĠĠĠĠĠĠĠĠĠĠĠĠĠĠĠĠĠĠĠĠĠĠĠĠĠĠĠĠĠĠĠĠĠĠĠĠĠĠĠĠĠĠĠĠĠĠĠĠĠĠĠĠĠĠĠĠĠĠĠĠĠĠĠĠĠĠĠĠĠĠĠĠĠĠĠĠĠĠĠĠĠĠĠĠĠĠĠĠĠĠĠĠĠĠĠĠĠĠĠĠĠĠĠĠĠĠĠĠĠĠĠĠĠĠĠĠĠĠĠĠĠĠĠĠĠĠ ĠĠĠĠĠĠĠĠĠĠĠĠĠĠĠĠĠĠĠĠĠĠĠĠĠĠĠĠĠĠĠĠĠĠĠĠĠĠĠĠĠĠĠĠĠĠĠĠĠĠĠĠĠĠĠĠĠĠĠĠĠĠĠĠĠĠĠĠĠĠĠĠĠĠĠĠĠĠĠĠĠĠĠĠĠĠĠĠĠĠĠĠĠĠĠĠĠĠĠĠĠĠĠĠĠĠĠĠĠĠĠĠĠĠĠĠĠĠĠĠĠĠĠĠĠĠĠĠ
el a
Ġz one
è¾Ī åŃĲ
Ġcar s
éĨ Ľ
Ġco h
Ġsy nd
oun g
éĻ¤ æŃ¤
æ£Ģå¯Ł éĻ¢
Ġto w
æķĳ åĬ©
ogen esis
æ¢ Ĺ
Ġp H
Ġpl ain
åĭ ¿
Ġsc ope
éŁ §
æ¯Ķ éĩį
åı· çłģ
å®¢ äºº
u um
çŃī çļĦ
ul ating
z er
ä¸º ä½ł
æĸ ¥
go ogle
\* \*
å® ª
H is
å¹² é¢Ħ
çļĦ æĸĩåĮĸ
æĶ¿çŃĸ çļĦ
Ġw arn
æİ¥ æĶ¶
ĠIs land
çĽ ¼
Ġst em
Ġspe aking
éĹ ¸
Ġk ick
L O
Ġper m
çļĦ é¦ĸ
G E
ç¼© çŁŃ
æĢ» å±Ģ
u h
Ġarg ues
ont al
ĠMin ister
Ġ" (
Ġinform ed
åİŁ æ²¹
çİ¯å¢ĥ ä¿ĿæĬ¤
N D
ä¸Ĭ çº¿
Ġcomp re
Ġconsum ption
å¼Ģ åŃ¦
Ġest ate
æĮĩ åįĹ
0 15
out s
cle ar
ic ular
è´Ł èį·
ac iÃ³n
çĵ £
è¿ĩ æ»¤
Ġad mitted
Ġse ed
ĠN av
èĬ ¦
æĬ ĸ
è·¯ éĿ¢
ĠP o
çĪ· çĪ·
ç»ıéĶĢ åķĨ
sc rib
Ġer a
Ġf et
Ġsc hed
çļĦ ä¹łæĥ¯
æĹł å¿§
n ut
Ġrespons ibility
ott om
åİŁ ä»¶
dis play
ĠJust ice
æķĻå¸Ī åľ¨
if ts
èĵ ¬
æĢ» éĥ¨
ä¸įç®¡ æĺ¯
èı Ĭ
ĠL og
d ist
æ¦Ĥ çİĩ
p df
è¿Ĳ è½¬
èĢĥ éªĮ
Ġinn ov
ç¡¬ åĮĸ
å¾Ĺ å¾Ī
åĲ ŀ
åįł æľī
åĴ ¸
èľĤ èľľ
å¼Ģåıĳ åĮº
Ġrequire ment
se arch
åľ¨ æĪĳä»¬
St ream
cd ots
Ġass istance
p ng
æ´Ĺ åĩĢ
Ġh un
ack et
ç¨³å®ļ æĢ§
Ġm aps
æĦŁ çŁ¥
ĠJ ava
m ann
Al though
æĺ¯ æĢİä¹Ī
åİ¿ çº§
the less
äºĨ åĲ§
duct or
R ight
Ġwrit er
Ġv ul
G C
Ġnot iced
çĹħ åıĺ
Ġshe et
Ġlas er
12 6
ç§ĳåŃ¦ å®¶
line ar
çļĦ æĪĲç»©
ä¹ĥ èĩ³
Ġint ra
m ole
A Y
éĴ ī
Ġturn ing
f ind
al ign
Ġdef ic
å½ĵ ä¸ĭ
çºª å½ķ
çĸ¾çĹħ çļĦ
åĲĮ æł·çļĦ
Ġsudden ly
ç«ĭ ä½ĵ
Ġamount s
se ud
Ġjust ice
** ,
Ġsen ior
è§ĦèĮĥ åĮĸ
Ġv ivo
s en
çļĦ åºĶçĶ¨
åķĨä¸ļ éĵ¶è¡Į
å®¶ ä¹¡
ne g
Ġexam ination
un it
ä¼ł è¾ĵ
åĨ· åį´
Ġstruct ural
av el
è®¸åı¯ è¯ģ
Ġdanger ous
ĠChar les
ĠTh ursday
miss ions
è¿ŀ éĶģ
fl u
AS S
rib le
im g
ĠM ount
Ġdist ribut
Ġfig ures
æĸ¯ åĿ¦
è¯Ŀ è¯´
ç§ ī
ne xt
Ġh urt
èµĭ äºĪ
æĪĳ çŁ¥éģĵ
Ġobserv ation
m L
åĵĪ å°Ķ
è¿Ļç§į æĥħåĨµ
å¹³ è¡Į
æķĻåŃ¦ åĨħå®¹
çĲĥ è¿·
äººæīį åŁ¹åħ»
^ -
T E
ĠP H
Ġsuccess fully
è¿ĩ æ¸¡
åı¯ä»¥ çĶ¨
Ġplaintiff s
. -
èį£ èĢĢ
Ġsupp lement
ä¸įä»ħ æĺ¯
ef fect
f in
èĭı å·ŀ
med ia
èĤĿ èĦı
å¹¶ æľª
Ġc u
Ġem bed
åĨ° ç®±
Ġpol l
æ² ¸
æķĻèĤ² å±Ģ
Ġredu cing
Ġintegr ated
æľ¬ åĲĪåĲĮ
00 8
è½¬åĮĸ ä¸º
Ġproport ion
ĠI P
æĶ¿ åĬ¡
è¯Ĺ æŃĮ
= (
is ters
Ġautom atically
ĠÎ ²
II I
ab b
EN D
f riend
åĺī å®¾
ĠB et
N ote
R em
h igh
Ġsp r
13 5
Ø ª
Ġviol ation
è¿Ļ æĿ¡
Ð ±
! --
ä¸ ĺ
ĠCh ild
åħ± è®¡
èģļ çĦ¦
ĠH y
ĠS ocial
ĠM el
Ġc ities
åĿĩ ä¸º
Ġo kay
H z
å¤® è¡Į
çļĦå¤§ å°ı
çļĦ çĲĨè§£
åĬł æĭ¿
ç«ĭ åĪ»
æ¸ħ æ°´
ç¬¬ä¸ī æĸ¹
Ġs ke
åĴĮ å·¥ä½ľ
æĪĳ å¾Ī
æľįåĬ¡ ä¸ļ
Ġs ick
èķ ¾
Ġsee king
æķĻåŃ¦ çĽ®æłĩ
Ġbl ocks
Ġc ards
ĠJ ones
éħ ¿
Ġprov ision
ä¸Ģ æĶ¯
Ġv ast
ç«£ å·¥
çļĦ åĲĦç§į
èĬĤ çľģ
D et
åīįåĪĹ èħº
åħ Ĩ
è¿Ļæł· ä¸Ģä¸ª
Ġas ym
åħ¬ç§¯ éĩĳ
ig an
Ġco ach
ĠJ o
ri ev
ä¿® è®¢
å®Įæķ´ çļĦ
ĠM ethod
å°ı åŀĭ
Ġsome what
s g
e per
è¡ į
Ġ5 4
l as
åĩº åĶ®
åº ¸
no on
Ġneg ot
is a
Ġfl oat
æľīä¸Ģ å¤©
èĥ °
è¿Ļ ä»½
ä¸Ĭ åŃ¦
ĠÐ ±
ç¼ĵ æħ¢
ä¸į å¦¨
ob e
cont rol
ç²¾ èĩ´
éļı ä¾¿
åıĸ åĨ³
åĽ° æī°
ĠDef endant
åįĹ æĸ¹
éĹ¨ è¯Ĭ
åıĤ çħ§
ä¸į æ¸ħ
Ġde pos
Th ank
æľĢ åĪĿ
âĢĶâĢĶ âĢĶ
N et
Ġaud ience
D B
C ome
æľī ä¸Ģç§į
ä¸¤ èĢħ
ä¸Ģ å¯¹
æ¸´ æľĽ
Ġarr ang
Ġbe am
çļĦ å¤©
å¸¸ æĢģ
è§£åĨ³ äºĨ
ä¸Ĭ æĬ¥
Ġsol ve
å¾Ĺ çŁ¥
Ġfight ing
k es
èĴ ĭ
Ġcl ients
Ġ5 7
Ġb ath
z i
åľ° åĽ¾
æĬĳ éĥģ
çī ²
æĸĩ çī©
ä¸¤ å¤§
Ġemploy ment
ĠWh o
ä¸į éĢĤ
éĿ¢ èĨľ
Ġcons ists
äºº æł¼
çļĦ æ¦Ĥå¿µ
P RO
Ġexpl ore
ĠR oman
ĠC opyright
è¿Ľ äºĨ
æī¾ åĪ°äºĨ
æĹł éľĢ
çļĦ æĦıä¹ī
ur ally
19 94
Ġwe ather
Ġ19 96
in ates
ä¹ĺ å®¢
Ġoff ense
æī Ķ
åĲĪ èĤ¥
Ġ Å
Ġfin ish
ĠO N
č ĊĠĠĠĠĠ
å¥½ å¥ĩ
å¤į åĪ¶
b ound
Ġfund ing
u int
t ab
Ġre act
Ġover l
çĳ °
at ural
Ġat mosp
èĩª å¾ĭ
Ġtarget s
è°Ī è¯Ŀ
Ġâ ī
å®ģ æ³¢
çĿ£ å¯¼
âĢĿ )
åŁ¹åħ» åŃ¦çĶŁçļĦ
Ġtherm al
æį ī
èħĲ èļĢ
åĳ³ çļĦ
Ġimm ig
Ġn erv
ç»ıæµİ å¢ŀéķ¿
Ġsignific ance
ĠI raq
Ġch art
Ġrecomm ended
ĠF ed
ĠÂ «
d at
Ġp it
åĮĸ è§£
æĭ¿ åĩº
Ã© e
athe red
ä¸Ģ éģĵ
æĭį çħ§
Ġlegis l
æĶ¾ ç½®
Ġcaus ing
ĠĠĠĠĠĠĠĠĠĠĠĠĠĠĠĠĠĠĠĠĠĠĠĠ ĠĠĠ
ha ust
Ġ5 3
Ġl ift
ä¸ ¸
èĥĮæĻ¯ ä¸ĭ
n ull
ĠRev iew
ĠW ednesday
åįģ è¶³
æ¨¡ èĮĥ
L R
Ġgluc ose
è§Ħ ç¨ĭ
Ġaccount s
èĨ¨ èĥĢ
s up
å¼Ģåıĳ åķĨ
st atus
è° ¦
igh ter
Ġf ing
çĹ Ĵ
Ġneur ons
a èĤ¡
]^ .
q l
å¢ĥ çķĮ
å¤ĸ çļĦ
Ġo s
ç«ĭ æ³ķ
è¿Ľè¡Į çļĦ
we red
éĩĳ éĴ±
ä½ĵ çİ°åľ¨
Ġac adem
åĪĿ æľŁ
M M
B ecause
I E
Ġorgan ic
ç²¾ åįİ
Ġl ic
V ert
ç¥ŀ ç§ĺ
ĠN one
Ġrep air
ir al
Ġinstall ed
æķĻå¸Ī è¦ģ
c b
w est
è¯į è¯Ń
çľ¼ åīį
Pro perty
åĹ ½
l ie
ĠArm y
ĠB as
erm an
Ġprom ote
éĢļ è¡Į
ç¡® ç«ĭ
é¹ °
O ther
ig er
åĪ ¹
çĲĨ å·¥
ä¿ĥ éĶĢ
Ġapparent ly
ĠMart in
ĠĠĠĠĠĠĠĠĠĠĠĠĠĠĠĠĠĠĠĠĠĠĠĠ ĠĠ
Ġre form
è¥¿ åįĹ
CT ION
åĮ Ĩ
å±Ģ éĻĲ
äºĨ æĪĳ
ĠM ur
Ġantib odies
č ĊĠĠĠĠĠĠĠĠĠĠĠ
ĠS pe
15 00
åıĮ æīĭ
å¸ Ĩ
Ġsp aces
éĻĦ åĬł
Ġpract ical
æĿĥ çļĦ
æŀĹ ä¸ļ
æĢģ åĬ¿
ik i
Ġterm inal
ç¬¬äºĮ æ¬¡
å¹¶åıĳ çĹĩ
uss ion
åıª ä¼ļ
Ġdam ages
b ro
math sf
åĭ º
èĩªå·± åľ¨
å¯¹ èĩªå·±çļĦ
D C
åıĸåĨ³ äºİ
B efore
âĢĿ ï¼Ľ
å¼º åĬ¿
ä¸İ åħ¶ä»ĸ
Ġhor se
Ġp airs
Ð½ Ð¾
Ġdis cretion
z ing
Ġinit ially
æİĴ åĩº
Ġsm ile
Ġdi abetes
ploy ment
Ġdel ivered
: [
è¾ĵ éĢģ
éĤ® ä»¶
æį ŀ
èĸĦ å¼±
Ġsub set
J ohn
AB LE
æĹł åħ³
å© ·
Ġgent le
Ġinter net
Ġpur s
ç®¡çĲĨ éĥ¨éĹ¨
çĶµ æľº
åħ¶ ä½Ļ
E l
åĶ® åĲİ
Ġact ing
add ing
æĭĨ éĻ¤
w rit
ĠW ood
ç¤¼ ä»ª
åľ¨ åĽ½åĨħ
æĺ¯ åı¯ä»¥
L ast
èĬ± è´¹
Ġtell s
å¿« æį·
å®īåħ¨ çļĦ
G ood
al i
åĳ¨ å²ģ
ç´ł æĿĲ
å¤´ èĦĳ
ĠSt r
èĽ ĩ
åĨħ èĴĻåı¤
æĹ¶éĹ´ ä¸º
èº ²
ä¸» åĬĽ
èĪĨ è®º
Ġhad n
er ior
èĢģ çĻ¾å§ĵ
Ġprim arily
Ġsub t
åĪ© äºļ
åĽ½ çļĦ
ic ation
Ġenh anced
å½±åĵį åĬĽ
at i
Ġrepresent ative
Ġdoll ars
äº¬ ä¸ľ
ç¦ ½
çĶµ ä¿¡
æĪ· åı£
a ft
èµ° è®¿
Ġresear chers
pro te
F O
èĳĹ åĲįçļĦ
w s
è®² ç©¶
Ġsk y
ĠL i
z o
Ġimag ine
éĢ Ľ
çŃī æĸ¹éĿ¢çļĦ
è°Ī åĪ¤
er ry
Ġl ig
åī¯ ä¹¦è®°
Ġsupport s
pro p
Ġmil k
æ¢³ çĲĨ
j son
æŁĲ ä¸Ģ
ĠGr and
Ġdisc overy
Ġinvol ves
æ¿Ģ åĬ¨
èĩ £
* ^
è½ °
Ġconcer ning
* /
çļĦ ç©ºéĹ´
æ´ ½
åĽº éĨĩ
å¹¸ è¿Ĳ
Ġremov al
Ġst ages
} )\
ä¸į å¿ħ
çĶ³è¯· äºº
Ñ Ī
Ġamaz ing
å¯¹ ä½ł
Ġexperien ces
é»Ħ èī²
åľº ä¸Ĭ
Ġbig ger
åĽ½å®¶ åĴĮ
ä¸Ĭæµ· å¸Ĥ
Ġprop ag
Ġfeed back
V D
è¯Ħ åĪĨ
åĨ ¶
à ª
Ġstra ins
10 7
éĥ¨ éĺŁ
åĲĥ äºĨ
Ġsens or
Ġn u
medi ate
Ġman age
ä¹° äºĨ
ĠL os
åħ³ æĢĢ
èĿ ¶
æ¼Ķ ç¤º
Ġren der
ç¥ŀ å¥ĩ
ar ia
äºº çĶŁçļĦ
æ¸ħ åįİ
S pec
Ġcof fee
Ġa id
3 50
G u
l ang
èİ· å¥ĸ
è¸ ©
But ton
Ġm argin
Ġdisplay ed
è¿Ļä¹Ī å¤ļ
çļĦ ä»·åĢ¼
Ġso il
è¸ ¢
è¾£ æ¤Ĵ
å° ¬
åĴ³ åĹ½
ce an
èĩ´ ä½¿
r ac
æµģ å¤±
u able
æĦı çļĦ
ç³ Ł
ĠLem ma
æŀģ å¤§çļĦ
ĠL ee
å®¡ çĲĨ
Ġf o
èĩª ä»İ
è¯Ī éªĹ
ĠP CR
é¹ ħ
Ġelect rical
è®© å¥¹
è¾ °
P ost
åľ¨ ç¾İåĽ½
Ġcontain er
ĠMed ical
Ġsur g
åĻ¨ æĿĲ
i ological
S cript
ä¸Ĭ çľĭ
ĠC ath
1 19
çļĦ åĲĮåŃ¦
ĠF re
st ep
æĥ³ èµ·
ar l
è¾ Ł
çļĦ çĶŁäº§
ä¸» å¼ł
Pe ople
ens us
Ġyou th
mod ule
ç»ĵåĲĪ èµ·æĿ¥
p ad
çĭ ±
ä»İ æŃ¤
æ¯ı ä½į
ust er
equ iv
éĢ Ŀ
éĤ ª
Ġinhib ition
åĩł æ¬¡
çİ «
Ġdes k
Ġdr am
æī® æ¼Ķ
æĪĳ éĻ¢
æİ¥ åľ°
æĹ Ń
æĬµ æĬĹ
ä¼ł è¾¾
ĠWilli ams
Ġpers pective
ĠW all
Ġin qu
æ¯ı äºº
è±Ĩ èħĲ
ä¾Ŀ çħ§
) |
èµ° åĪ°
sh ow
r if
è¿Ļ ä»¶äºĭ
ä¸į åıĹ
åĲĪ çī©
Ġcomp act
çļĦä¸Ģ é¡¹
çĶµ ç¼Ĩ
Ġ9 9
æķĻåŃ¦ æĸ¹æ³ķ
èĵĿ èī²
ç§ĳåŃ¦åıĳå±ķ è§Ĥ
æľĭåıĭ åľĪ
ĠF ile
Ġfl ux
Ġv ide
Ġla un
ä¹ĺ åĿĲ
Ġinj ection
Ġprincip al
Ġb ought
å¤± åİ»äºĨ
Ġmechan ical
Ġhab it
ç¾İ çĻ½
ĠC amp
ĊĊ ĠĠ
Ġext ends
å¥½ å¤ļ
çļĦ éĩįçĤ¹
éĤ® ç®±
ç¬¬äºĮ ä¸ª
è¾ī çħĮ
ER S
Ġd ans
Ġdescrib es
Ġse ctor
à ¹
æĿľ ç»Ŀ
ĠRepublic an
æŀģ ä¸º
è¦ģ æĺ¯
éĥ½ éľĢè¦ģ
é ĳ
Ġadopt ed
çŃ¾ ç½²
& =
Ġkit chen
åĭĩ äºİ
åı¯ çĶ¨
ä»£ çłģ
Ġstr ange
Ġesc ape
ä¸į åĸľæ¬¢
Ġs now
ä»ª è¡¨
è¡¡ éĩı
æĹĭ è½¬
Ġh idden
Â ®
sens ors
ä¸ªæĢ§ åĮĸ
or i
ä¸ī çº§
æ°Ķ ç®¡
Ġv on
Ġloc ations
Ġreg ister
N umber
str ong
ĠE qu
ä¸Ĭ æĿ¥
èĤ Ľ
å¸Ĥ åĮº
er k
çļĦ æĸ¹åĲĳ
æĢ ¡
iat ric
è¡° èĢģ
çļĦ éķ¿
èĨ ³
> ,
çļĦ çľ¼
æº¶ æ¶²
ï¼ŁâĢĿ âĢľ
ak s
åĨħ é¥°
Ġoff set
et ing
åĲĦ çķĮ
å¸¸ è¯Ĩ
ĠN on
ä¿Ŀ ç®¡
æĿ¿ ä¹¦
Ġunc ertain
Ġsurround ing
R el
ĠS ir
un te
Ġpolit ics
èĲ į
E ng
åĢ¼ çıŃ
çŃī å¤ļ
17 0
ER R
ĠPro te
è¯¾ æľ¬
æĺ¥ å¤©
Ġl ies
åı¯æĮģç»Ń åıĳå±ķ
Ġcris is
çļĦ éĢŁåº¦
çº¿ æĿ¡
Ġg ender
Ġhe t
el ing
æĽ´ å®¹æĺĵ
æľī æľĽ
Cont roller
çĻ» éĻĨ
éĳ «
åħ¬ å¯ĵ
èĬ Ĵ
èĸ ĩ
Ġwindow s
Ġcont ro
Ġfam ous
h is
çº¿ ç´¢
li ament
Ġlow est
æľį ä»İ
Ġh o
Ġnew sp
ä¸¥æł¼ æĮīçħ§
Ġde let
ap ache
cl ient
çī¢ è®°
Ġsu gar
Ġcou pling
Ġd ust
çĸ ¤
pro perty
i pt
ç½ ¢
æŃ£ éĿ¢
æŁ ¯
O H
Cont ent
å»ºè®¾ åĴĮ
Che ck
å®Į äºĨ
å¯Ĩ éĽĨ
ĠW al
Ġs ed
æĳĦ åĥı
Ġwe alth
Ġexplan ation
æ¶Ĥ æĸĻ
Ġimmedi ate
éľĩ èį¡
reat ment
cre en
åĨį çĶŁ
Ġm ail
äº§åĵģ è´¨éĩı
}} ,
çĻ¾ ä¸ĩ
l ines
č Ċĉ
hy dro
æĦī å¿«
èī° èĭ¦
Ġcarry ing
å¼¥ è¡¥
æ°Ķ æģ¯
c ss
Ġsub s
Ġdiv ision
s ome
å¢ŀåĢ¼ ç¨İ
00 000
Ġopt imal
äºĨä¸Ģ ä¸ĭ
çļĦ åħī
åĽ½å®¶ çº§
Ġweek end
è´¯ ç©¿
Ġp ump
èĩª åŃ¦
Ġf inger
æºĲ äºİ
æĪ· ç±į
od er
å¿ĥçĲĨ åŃ¦
Ġspat ial
æĥ³ çĿĢ
Ġev ident
il a
åĩº åħ·
G R
Ġmonitor ing
ç¬¬ åħ«
çħ¤ çŁ¿
Ġclos est
è© ¹
Ġb an
è¥¿ åĮĹ
é Ħ
Ġb io
Ġcharacter istic
ĠR oad
åħ¨ å±Ģ
ĠL and
Î¿ Ïħ
å°ı ä¼Ļä¼´
S u
çĦ¦ çĤ¹
Ġbi as
æŀģ åħ¶
æľĢ æĹ©
å¤Ħ åĪĨ
åĪ¶åº¦ çļĦ
ä¼łç»Ł æĸĩåĮĸ
Ġ\ {
Ċ Č
ä¸Ģ è¾Ĩ
å¤Ħ åľ¨
Ġany way
ä¸¥æł¼ æī§è¡Į
fra id
éĴ ¾
Ġmaint ained
æıı åĨĻ
Ġrecogn ition
å¯ Ĥ
ell ar
B r
or ters
åį« æĺŁ
Ġsuper ior
h ome
è¿Ļ æĹ¶åĢĻ
è¾¹ ç¼ĺ
åķĨ åľº
ish ment
10 6
ost on
å¾Īå¤ļ çļĦ
ĠR T
Ġdeath s
Ġch apter
w a
D id
ĠS ign
èĻļ åģĩ
çĪĨ çĤ¸
éģĹ äº§
ĠO ffic
Ġf Ã¶r
æĬ½ è±¡
Ġve get
åŃ¦çĶŁ åŃ¦ä¹ł
ian a
Ġplan et
æīĭ æ³ķ
Ã¼ r
éĴ ł
å°± è¿Ļæł·
Ġprof ession
å®¡ åĪ¤
P oint
åĩº èµĦ
å¤ĩ è¯¾
Ġcre ation
om ething
æĹ¶ä»£ çļĦ
all ow
c ard
end ants
å®ŀ äºĭ
Ġp ig
\] ),
åĪĿ å¿ĥ
ax is
st at
ç¼ ł
B M
ä¾¿ ç§ĺ
ç¾İ å¥³
å¹³ å¸¸
sum mary
è½» æĺĵ
éĥ½ æ²¡
ĠC L
call ed
ist a
Ġr u
ç»Ī æŃ¢
' ).
çĻ½ å¤©
å®¶ ä¸Ń
Ġsp ending
ä¸ŃåĽ½ äººæ°ĳ
f oot
å° ´
ĠM ath
Ġprom pt
ir able
> (
Ġprepar ation
åĪĽå»º åģ¥åħ¨
ĠP RO
æĳ Ķ
åħ¨ åĮº
Ġap opt
è´Ł éĿ¢
Ġdriv en
11 5
ĠH uman
Ġ ÏĢ
Ġse g
çª ĥ
åİī å®³
ĠE duc
Ġinstit ution
çļĦ ä¸ĸçķĮ
Ġdeterm ining
AC K
å°± è¢«
OR D
æ¯« ç±³
az e
âĢ ĭ
Ġabsol utely
Ġemot ional
Ġg rew
èĲ §
24 0
Ġb ars
Ġst ead
å·¥ç¨ĭ çļĦ
D M
äºº æĢ§
æ²Ī éĺ³
ro t
Ġcl ock
$ {
Ġdecl ared
å¼ºçĥĪ çļĦ
Ġknow ing
S m
, _
} /
Ġ19 95
P at
æĢ» ç»Ł
å°´ å°¬
r ons
å¸Ī åĤħ
Ġsu f
** (
ĠMc C
Ġf ant
Ġimplement ed
25 6
çŃī åľ°
Ġm ask
Ġconstruct ed
Ġbe ar
Ġexc ited
Ġa fraid
è£ ¹
ol t
Ġd inner
æĬ± æĢ¨
ĠI F
Ġf ont
åį° åĪ·
å·¥ç¨ĭ å»ºè®¾
Ġpick ing
Ġpre ferred
ç¬¦ åı·
å¹¿ éĺĶ
Ġaccord ance
å¾Ī éĩįè¦ģ
ä¼ģä¸ļ åĴĮ
tem plate
åıĪ è¦ģ
çŁ¥è¯Ĩ çĤ¹
æİī äºĨ
Ð¾Ð ¼
Ġw inter
ä¸į åĩĨ
éĽ ĩ
ann a
D P
æ¯ĶèµĽ ä¸Ń
ĠF ire
Ġhot el
ĠN ever
å¤± çľł
éķ Ģ
Ġj a
å°±æĺ¯ åľ¨
ä»ĭç»į äºĨ
Ġlaug h
å·¥ç¨ĭ è´¨éĩı
Ġl ots
æ²¡æľī ä»Ģä¹Ī
ä¹łè¿ĳå¹³ æĢ»ä¹¦è®°
åıĳ çĥŃ
ç¨ĭåº¦ çļĦ
Ġrepl ied
ä¸Ń çŃī
æĬ¥ è®°èĢħ
con text
} |
Ġweap ons
ut il
çľĭ ä¸Ĭåİ»
é¢ĳ éģĵ
Ġresid ents
sk i
Ġf ly
~~ ~~
æľŁ åĪĬ
n ger
ĠMay be
èĦ± ç¦»
åĮ»éĻ¢ çļĦ
Ġwor st
Ps i
] $
Ġt asks
ĠF il
åĪ¶ è®¢
å°ı ç»ĵ
é©¾é©¶ åĳĺ
um er
ç®¡çĲĨ åĬŀæ³ķ
ĠT im
ot ing
ER E
åĮ»çĸĹ æľºæŀĦ
ud d
ĠT em
ä½Ļ é¢Ŀ
ä¸º èĩªå·±
ir a
Ġcal c
å®¢æĪ· çļĦ
Ġrapid ly
å°ĳ å¥³
19 90
çļĦ æľī
Ġd ual
Ġo k
çŃī å·¥ä½ľ
åı¯ è¡Į
åħ¬ ä¸»
Î ¬
æ» ¥
Ġy ellow
ç£ Ĭ
å¤§ è¿ŀ
W H
åĽ¾ æ¡Ī
Ġfl ight
æĬ¥ ä»·
å»ºçŃĳ éĿ¢ç§¯
Ġb rown
Ġemerg ency
æĿ ı
i pl
Ġo dd
çĹ °
éĴ¢ ç®¡
ort s
Ġre con
l ar
åĮ ł
ĊĠĠĠĠĠĠĠĠ ĠĠ
Ġreal ize
åįģ å¤§
Ġst one
å¦Ĥæŀľ ä¸į
s i
çļĦ åģ¥åº·
åı¥ åŃĲ
Ġident ical
19 93
åį ĳ
Ġ19 80
æī£ éĻ¤
Ġal gebra
ç§¯æŀģ çļĦ
åĴ± ä»¬
ä¸º ä¸Ģ
éļı ä¹ĭ
ĠH ospital
åĮ» ä¿Ŀ
qu are
Ġ[ ]
éħį éĢģ
çļĦ é¡¹çĽ®
Ġprom ise
æ¶² ä½ĵ
å®¢ æľį
ri ers
æĽ´ é«ĺçļĦ
åĢ¾ åĲ¬
äºº éĻħ
Ġorig inally
In put
Ġmarket ing
èĬ¯ çīĩ
å± ĳ
à ²
arg s
Ġsur ve
Ġafter noon
Ġfra ud
Ġn m
åĮº åĪĨ
Ġpow ers
Ġsynthe sis
Ġmin imal
åī¯ ä½ľçĶ¨
çĽ® åħī
Ġdem ocr
Ġw est
åıĳå±ķ åĴĮ
è¡¨çİ° åĩº
ä½ľ çī©
åī§ æĥħ
æĦŁè§ī åĪ°
æ¼Ķ æĬĢ
Ð ³
åĩ ¶
è ł
Ġs ports
åº¦ åĴĮ
Ġth or
Ġco ast
Ġcontribut ions
åĳ½ ä»¤
Ġv it
ĠSen ate
å¼Ģ è½¦
Ġs ad
Ġwat ched
wide hat
11 6
Ġmed ian
æĪĲå¹´ äºº
ĠU s
ĠMus lim
Ġorgan izations
æ²³åįĹ çľģ
Ġshould er
ist ing
èģĶ åĬ¨
ä¸¤ å¤©
ict or
ĠC up
å»ºçŃĳ çī©
éĻ¤æŃ¤ ä¹ĭå¤ĸ
Ġt rend
æľī æĿĥ
Ġcl oud
Ġfind s
G l
Ġ5 8
çĽ´ å¾Ħ
Ġb ind
Ġopportun ities
ĠA cc
ĠA ma
n c
Ġsus pect
io x
Ġb inary
ä¼ģä¸ļ å®¶
ç¨³å®ļ çļĦ
y es
æ® ¿
Ġm ent
ç¾İ è§Ĥ
Ġdifferent ial
id en
cent er
è¢« äºº
Ġp ip
ç§¯ åĪĨ
ad os
Ġepis ode
Ġdi ameter
åĲĪæ³ķ æĿĥçĽĬ
ĠE ll
Ġpreval ence
æ³¡ æ²«
Ġleg s
Ġhelp ing
å®īåħ¨ éļĲæĤ£
Ġdis order
Ġconsequ ences
Ġ20 20
Ġe uro
é¡ ½
åĲĦ æĸ¹éĿ¢
ĠE xt
çĪ¶æ¯į çļĦ
roll ed
B ase
æŃ §
ens ed
Ġcult ural
Ġhom es
éĿ¢ åĮħ
å¹´ ç¬¬
â Ļ
Ġf ro
è¦ģ ä»¥
ĠCh ief
Ġclass ical
Ġauthor ities
æĭ¿ çĿĢ
ä»ĭ åħ¥
Ġra w
em a
Ġw rt
å¾Ĺ äºĨ
val ues
........ ........
ay ers
æī¿ è½½
âĢĿ (
Ġt ip
Ġacqu ired
Ġvert ical
Ġf ruit
çģ ¶
Ġhypothes is
åľ¨ åŃ¦ä¹ł
Ã¡ n
the re
åıª éľĢ
}\ ,
æĪĺ èĥľ
å¯¹çħ§ ç»Ħ
Ġrem ote
å¤ª å¤§
Ġess entially
our se
omet imes
u ilder
Ġsup ra
ever al
AT A
èĥĨ åĽºéĨĩ
Ġrespect ive
é¢Ħ æ¡Ī
ĠAP I
is or
è¯¯ åĮº
Ġtyp ename
n ed
æĮĩå¯¼ ä¸ĭ
Ġexam ine
C IT
åĪĨ åħ¬åı¸
ĠD O
åľ¨ ä¸Ĭ
Ġf urn
Ġbehavi our
h ab
Ġsupp ose
Ġtum ors
çļĦ å£°éŁ³
Ġe in
ä¸Ģ åįĬ
åĬĽ äºī
Ġr ational
Ġarg ue
å¤Ħ å¤Ħ
åıĳçİ° äºĨ
Ġpath ways
æ³¨ åħ¥
åĲĪä½ľ ç¤¾
] [@
èĲ İ
è¡Ķ æİ¥
ãĥ ³
Ġch amber
åĵģ å¾·
ä¸Ģå®ļ ç¨ĭåº¦ä¸Ĭ
Ġform ing
gy pt
Ġcirc le
éķ¿ è¿ľ
Ġ\ >
ĠH aw
Ġreg ression
Ġg ift
ĠO ld
Ġche st
ĠSec urity
çĽ®åīį çļĦ
å°ı åŃ¦çĶŁ
ĠE st
Ġ1 000
Ġsepar ated
æĹģ è¾¹
c ers
Ġdeb ate
åľ° åŁŁ
is er
Ġfac ilities
Ġre nt
èĳ£äºĭ ä¼ļ
Ġres erv
çļĦ åĬĽéĩı
åĬ³ åĬ¡
å°ı å§Ĳ
Ġext end
Ġsuc ceed
ç§ĳæĬĢ åĪĽæĸ°
çļĦ æł·åŃĲ
åķ ¤
ĠChrist mas
äº¤éĢļ äºĭæķħ
Ġ4 00
äº² åŃĲ
Ġex haust
Ġdog s
åĮº åĿĹ
åįģ åħŃ
ex pected
éĢłæĪĲ äºĨ
s pe
æ±Łèĭı çľģ
æĦıè¯Ĩ åĴĮ
ç»ĵæŀĦ çļĦ
åľ¨ å¯¹
an ol
è¶Ĭ å¤ļ
Ġspect ra
Ġneut ral
ic ate
Ä Ļ
Ġsh op
ach ment
èİ ŀ
å·¥ç¨ĭ é¡¹çĽ®
M B
id ents
ĠP ower
æĺİ å¹´
ãģ ¾
y st
ä½Ĩ æĪĳ
T S
Ġch ick
om atic
Ġcorrect ly
Ġ9 6
åİŁ æĿĲæĸĻ
Ġmet ast
å®¶ åĽŃ
æĤ£ æľī
çĸ¯ çĭĤ
åģĩ æĹ¥
b les
åģ¶ å°Ķ
is ely
åģĩ è®¾
Ġtot ally
Ġl en
çİ Ħ
åħħ å®ŀ
äººä¸º æľ¬
ä¸ĢèĪ¬ æĿ¥è¯´
ĠB ob
è½¿ è½¦
èº« é«ĺ
èģĮä¸ļ éģĵå¾·
c aps
æĹ ±
Ġcateg ories
å¼ ¦
font s
ä¸º ä¸»é¢ĺ
Ġoper ators
éĤ£ æĺ¯
ç¥ ¸
åĽ¾ çº¸
Res ult
èİ· æĤī
å¥¹ è¯´
çļĦ å¤ļ
och ond
æľīäºĽ äºº
um a
ä¹ĭ æĹ¥èµ·
åĲ »
u an
åĮĸå¦Ĩ åĵģ
å¼Ģ å¹ķ
å°ı åº·
æī§ ä¸ļ
19 92
ä»· æ¯Ķ
Ġam ino
Ġter rit
ä½ı äºĨ
åıĳ äºĨ
Ġult imately
åĪĨåĪ« æĺ¯
i em
Ø ¯
Ġgen ome
å°± è¯Ĭ
as tern
è·µ è¡Į
åĲĪ ä¼Ļ
ĠS O
ä¸Ģ åº¦
tre ated
åħ¨ ä¸ĸçķĮ
Ġcandid ates
æĹ¥ åľ¨
Ġinf o
è¡Įä¸º çļĦ
ent ry
ii i
åľº åĲĪ
V ersion
ĠV iew
ä¸ Ľ
Ġg est
C reate
è¿Ļæł· æīįèĥ½
ĠAddition ally
ĠJ ul
Ġanc ient
å± ¡
] );
è¯Ń éŁ³
le ments
Ġc ro
ĠÂ £
Ġobvious ly
Ġw ww
ä¸Ģå¸¦ ä¸Ģè·¯
Ġw ra
Ġpost ed
D r
ä¸Ģ é¢Ĺ
å®īåħ¨ ç®¡çĲĨ
++ )
åľ¨ æĪĳåĽ½
Ġw ine
é¢ĺ æĿĲ
æ¶Īè´¹èĢħ çļĦ
åĺ ±
0 14
å®ļ ä»·
åĩĨ èĢĥè¯ģ
ĠD C
min imal
éĻĲ åº¦
Ġpublic ation
Ġtemper atures
ĊĠĠĠĠĠĠĠĠĠĠĠĠĠĠĠĠ Ġ
çĥ ĺ
æĬķ ç¥¨
0 12
Ġclass ification
Ġcur ves
æ¯Ķå¦Ĥ è¯´
0 16
æī¹ åıĳ
æĳĨ èĦ±
èĥ º
ç¹ģ èį£
å®½ æĿ¾
iv a
ĠMex ico
Ġe ast
ins on
d x
èĬĤ çĤ¹
æ´» æ³¼
èĽĭ ç³ķ
ic ide
è·¯ æ®µ
sc r
æķ°åŃĹ åĮĸ
çĻ¾ å¹´
fe ctions
åıĪ èĥ½
H el
åľĨ æ»¡
ĠTh ree
sc he
ev en
ent er
Ġmor al
00 9
æ¬¢ ä¹Ĳ
not e
Cl ient
ĠPro v
åĴĮ æĸ¹æ³ķ
Ġg all
ter ior
ĠOb ject
Ġbi om
èľ ¡
èµĦ åĬ©
ç»Ħ ä»¶
Ġsub mitted
åıĳçĶŁ åľ¨
æķ¬ ä¸ļ
å¹´ çºª
Ġsurg ical
çģŃ çģ«
çļĦ ä¼ĺåĬ¿
è¶ĬæĿ¥è¶Ĭ å¤ļçļĦ
å®¹ åĻ¨
ä¸Ģ éģį
å©ļ çº±
åĬłæĭ¿ å¤§
è¿Ľ æĶ»
Ġintellig ence
B D
Ð¾Ð ´
Ġshe l
Ġ\ *
Ġrec over
). [
ç»´çĶŁç´ł c
å¤ĸ æ±ĩ
å³ »
Ġis land
um es
è¯¥ åħ¬åı¸
Ġper ipher
Ġman ip
otyp es
æŃ ī
ĠP an
or ne
ä¸§ å¤±
ç»ıåİĨ äºĨ
çĿ£ æŁ¥
ĠB ack
ĠCont rol
çĨ Ķ
æ½® æµģ
ä¾Ŀ æ¬¡
ĠY et
ĠSo ftware
Ġm ob
ly mp
æĹ¥ æĻļ
r ition
å¿ł è¯ļ
n umber
ä¼ĺ éĽħ
Ġas ide
ä»¥ åĨħ
ri um
ä¹° åħ¥
ä½į çļĦ
åŃ¤ çĭ¬
åľ¨ ç½ĳä¸Ĭ
Ġsurpr ise
Ġtrans formation
Supp lementary
Ġf ault
çł Į
åİ» çľĭ
ĠR am
Ġyou nger
Ġbusiness es
è¯´ éģĵ
le ep
åĩĮ æĻ¨
ä¼ļ éķ¿
Ġcare fully
åħļ é£İ
ĠH ome
ç»¼åĲĪ ç´łè´¨
od ds
ĠHen ry
ä¸Ģ ä¸Ģ
æĦŁ çļĦ
Ġ6 2
IC E
å¥½ è¯Ħ
Ġdif fer
Ġtrans cription
æ³¨æĦı çļĦæĺ¯
ser ver
Ñ Ĩ
Ġcapt ure
å°± ä¸įä¼ļ
Ġmut ations
N ext
çļĦ æĬķèµĦ
Ðµ Ð»
Ġcryst al
b uf
ad or
Ġdisc over
Ġhistor ical
è¯Ħ å®ļ
Ġpost s
ren e
ç¾¤ä¼Ĺ çļĦ
å¤ľ éĹ´
ç¤¾ åĽ¢
äº« æľī
Ġcont ents
Ġansw ers
èĢ į
Ġinc red
Ġenem y
ĠN E
æĹ¶ è¦ģ
B R
æĹ¨ åľ¨
ä¸Ń çº§
Ġarg ued
Ġbo at
æĹ¶éĹ´ åĴĮ
Ġe igen
n ic
Ġinit i
åĪĽ å§ĭ
Ġra in
é¥² æĸĻ
Î ´
ĠVirgin ia
åĨľæ°ĳ å·¥
in ux
åŀ Ħ
ĠTh ose
åŃĲ ä¸Ĭ
ãĢĳ ï¼ļ
çĥ ¹
åĭĩ æķ¢
ä¸Ģä¸ª äººçļĦ
è½ ©
Ġprinc iples
Ġexec utive
æī¿ åĬŀ
ĠP ut
10 9
åĲ¬ è¯´
0 18
Ġcompre hens
Ġm ic
Ġag greg
Ġdr ag
æ°ĳ ä¼Ĺ
å·® ä¸įå¤ļ
Ġdis orders
Ġmaint enance
è§ģ éĿ¢
Ġrot ation
Ġg ast
g al
P a
ç§¯æŀģ åıĤä¸İ
æ°´ çĶµ
Ġsc al
Ġbro ke
å·¥ åºı
çĶŁ æ°Ķ
Ġthe rapeutic
åĮĹ æĸ¹
Ġe ating
é»ĺ é»ĺ
çŃ¾ è¯ģ
Ġo sc
Ġbatter y
æļ´ éľ²
0 20
A F
h h
Ġed ges
æŀ ķ
av ed
ĠM ult
çĽĳ ä¼ļ
O ff
æ¾³ å¤§åĪ©
è¦ģ ä¹Ī
åĲĳ åīį
on ents
æĽ´ è¦ģ
ĠDiv ision
Ġo l
çļĦ é£İ
the y
ann er
l oc
äºĨ ä¸įå°ĳ
åı¯ä»¥ çľĭåĩº
ĠJ ournal
ĠL ake
ĠY OU
éļ §
ç±» åĪ«
ä¸»è¦ģ åĮħæĭ¬
æłı çĽ®
Ġcr ack
æľ¬ åĳ¨
æĻºèĥ½ åĮĸ
å¸ĪèĮĥ å¤§åŃ¦
æ±ĩ æĢ»
n n
if er
æ£Ģ ä¿®
Ġass ault
Ġal ive
Ġf aces
ĠW ITH
è®° è½½
v c
æı ī
ta x
Ġupd ated
çĸ ¡
èĢ ¶
S Y
æ¨¡ ç³Ĭ
Ġre ct
æ¾³å¤§åĪ© äºļ
åĪĹ åħ¥
Ġ5 9
ä¸įä»ħä»ħ æĺ¯
Ġtop ic
ident ial
çĳ ľ
å®ĮåĸĦ çļĦ
çĦ¶åĲİ åĨį
èĶ ½
è¡¨ æī¬
Ġfe els
Ġro se
åıĬ åħ¶ä»ĸ
Ġthe oret
è¯ģ ä»¶
Ġmom ents
Ð°Ð º
éĺ ģ
æ²¡æľī äºº
çļĦ éĥ¨åĪĨ
çķħ éĢļ
ä¸į å¿ĺ
Ġs od
ĠS U
åľ¨ åŃ¦æł¡
) ]
åħ ¹
éĿŀ æ´²
æ¯« ä¸į
ä¸º åĩĨ
Ġsol ar
Ġread er
ĠPl an
Ġsold iers
èĢĥ æŁ¥
Ġrem ind
æµ ĳ
è¶ ģ
ĠS a
Ġcopy right
ä¼ģä¸ļ æĸĩåĮĸ
Ġtrans ferred
Ġans wered
åģļ èµ·
åħħåĪĨ çļĦ
Ġpl anned
ä¸ĸçķĮ æĿ¯
ĠA v
Ġper mission
åī© ä½Ļ
Ġp apers
åĪĨ æīĭ
éĶĻ äºĨ
æ© ĺ
è¯ŀ çĶŁ
Ġt ube
æĹ© åľ¨
ç¾¡ æħķ
p op
æī« æıı
çī¹æ®Ĭ çļĦ
ä¼ļ ä¸įä¼ļ
ç»¼åĲĪ æĢ§
ä¾ĽåºĶ éĵ¾
s plit
åĿ ¤
Ġcount s
åĨ³å®ļ äºĨ
Ġ19 94
Ġveh icles
Ġsome where
M on
å¹´ æľĪ
av as
Ġinj uries
è±¡ å¾ģ
ä¹³ æĪ¿
Ġp in
ou red
ĠAN Y
å®ŀ è®Ń
ĠĠĠĠĠĠĠĠĠĠĠĠĠĠĠĠĠĠĠĠĠĠĠĠ ĠĠĠĠ
Ġin equ
ĠC apt
Ġattempt s
ç² ª
åıĳ éħµ
G T
Ġwonder ful
og ether
åħ¸ åŀĭçļĦ
æ¯Ķ äºļ
( [
requ est
Ġjour ney
æľī æĹł
ĠL ib
ĠSecret ary
Ġbuild ings
Ġmen u
P CR
ĠR o
è¯ģ å®ŀ
ä¼łæĦŁ åĻ¨
Ġdep ression
éĽ Ģ
çļĦ ä¸ī
Ġhapp ening
æıĲ åĢ¡
Ġs oc
å¸ ĸ
Ġh ate
Ġnorm ally
çĻ «çĹ
ä¸Ģ è½®
å¹´ åĨħ
åĪ° çİ°åľ¨
åĳ½ é¢ĺ
w ho
st ack
ay lor
çĻ«çĹ «
Ġ8 5
Ġte aching
Ġ6 6
è¯´ åĩº
} +\
åĪĹ è½¦
çĶŁåĳ½ çļĦ
Ġn urs
ĠServ ices
Ã ½
æĬ¥ çº¸
Ġneighbor hood
ç² ¤
éģĵ çļĦ
out put
åĴĮ å°ı
çī º
Ph ys
å¤įæĿĤ çļĦ
Res ults
åºĶ æ³¨æĦı
Ġro les
é©¬åħĭæĢĿ ä¸»ä¹ī
æĸ° è¯¾
al ty
æĮ« æĬĺ
çº¦ ä¸º
è¾ ±
Ġwe aring
Ġde grad
urn s
Ġfac ility
Ġcontro vers
Ġour selves
æĸ° æ¬¾
priv ate
Ġt aste
d c
Ġapp lying
ä¸ºä»Ģä¹Ī è¦ģ
åįł åľ°
C ons
ĠH T
çľ¼ éķľ
Ġoff ering
èĪª å¤©
Ġd as
ä¸º æ°ĳ
rol og
0 13
Ġme at
æĺĨ æĺİ
ç½ĳ é¡µ
p ed
åľ¨ è¿Ļç§į
æ·± åıĹ
Ġinc idence
Ġsitu ations
D ec
ob j
Ġden ote
æ£ µ
ä¸Ģå®ļ æĺ¯
Ġthick ness
d em
Ġsem icon
on der
ä¸Ģ æĹ¥
æĶ¹ æŃ£
è¿Ļ æ®µ
çĽ¸åĲĮ çļĦ
ä¹ħ çļĦ
ĠO S
Ġcoun ty
Ġscreen ing
å¦ ®
on ia
çļĦ æĤ£èĢħ
Ġref used
æĭį åįĸ
an ish
å®Į ç¾İçļĦ
Ġserv ing
"} ),
å§¿ åĬ¿
æīĭ ä¸Ń
Ġbacter ia
ter day
C V
document class
Ġprolif eration
ĠÂ µ
es ter
g ence
Ġle an
Ġrecogn ize
æ° ®
åı· çº¿
ast s
Ċ ĠĠĠĠĠĠĠĠĠĠĠĠĠĠĠĠĠĠĠĠĠĠĠĠĠĠĠĠĠĠĠĠĠĠĠĠĠĠĠĠĠĠĠĠĠĠĠĠĠĠĠĠĠĠĠĠĠĠĠĠĠĠĠĠ
æ²» å®ī
å¦Ĥ åĲĮ
çĶµ éĺ»
Ġkind s
m ond
olog ic
è´£ä»» åĪ¶
m atch
Ġeng aged
åİŁ æĿ¥çļĦ
Ġcent re
å¸Ĥ æĶ¿
crib ed
Z E
Ġcrow d
åĵª æĢķ
åĴĮ æĬĢæľ¯
å¸Ī èµĦ
Ġ[ [
] "
ut ch
y les
è¡¨ æł¼
A ction
Con ne
Ġsymb ol
ä¸į éĶĪ
çļĦä¸Ģ éĥ¨åĪĨ
Ġrequest ed
éĴ ĵ
çīº çī²
Ġbeg ins
èĳ¡èĲĦ éħĴ
ap es
ç¥Ľ æĸĳ
ç§ĳåŃ¦ æĬĢæľ¯
å¾Ĺ å¤ļ
Ġcar cin
äºĨ å¯¹
åĿļ å¼º
è°ĥ çĲĨ
h ar
O kay
åľ¨ ä»ĸ
ol id
åı¯ æĥľ
ĠI g
æĲŀ å¥½
åĽ½ åľŁ
æĢ§ ä»·æ¯Ķ
s n
åıĳ èµ·
ys ym
Ġpat ent
ä¸ĢèĪ¬ çļĦ
ç±» åŀĭçļĦ
ç©º ä¸Ń
Ġlog ic
Ġext ensive
å¤ļ å¹´æĿ¥
r ants
åĨĻ åŃĹ
è¿ĩ å¤§
èĩ´ å¯Į
åĪļ æīį
åĨħ åľ°
Ġsur faces
é£Ł åłĤ
Ġf iber
Ġrad ical
æ© Ļ
! '
å¹³ åĩ¡
Ġins ulin
ĠÂ »
ç» İ
çļĦ åĽłç´ł
éĢī ä¸¾
å±± å¸Ĥ
0 17
Ġbet a
åıª éľĢè¦ģ
åħļ åĴĮ
è·¨ è¶Ĭ
K e
è¿Ļæł· åģļ
åİķ æīĢ
Ġcommit tee
å¡ Į
xi ety
å§Ĩ æĸ¯
p in
est ival
åı£ ç½©
é£Ł æĿĲ
irc raft
å¿ĥçĲĨ åģ¥åº·
åħĪ éĶĭ
t wo
b c
Ġ6 3
Ġsh arp
éĹ ¯
{ "
Ð ¹
en ger
ä¸Ģä¸ª å°ı
25 5
Ġperform ing
D I
O B
ĠCl ub
åĩº äºİ
äº¤ ä»ĺ
ä»² è£ģ
Ġab andon
. ^[@
il ly
æĭĨ è¿ģ
Ġre in
æŃ£ å¥½
çľĭ ä¼¼
éĤ£ä¹Ī å¤ļ
ä¸º ä¼ģä¸ļ
æŃ£ å½ĵ
Ċĉĉĉĉ ĉĉ
e als
Ġas c
Ġlead ership
çļĦ åŁ¹åħ»
end e
ĠHam ilton
Ä ĩ
éĺĲ è¿°
Ġcru cial
Ġwhe el
ä¸º æĪĳä»¬
Ġvers ions
éħį ä»¶
}{ -
Ġperfect ly
Ġgu idelines
ĠAc adem
ro ot
Ġhelp ful
åº¦ åģĩ
ĠD ie
æĿ¥ è¿Ľè¡Į
Ġintegr ation
co in
åŁºæľ¬ çļĦ
à¤ ¾
ĠMe an
ĠC S
å¸¸ å§Ķä¼ļ
ĠMed ic
èĬ± çĶŁ
å½±åĵį äºĨ
Ġacknow led
11 7
Ġassum ption
çĥŃ éĹ¨
11 4
Ġenzym e
å¢ ħ
åħ»èĢģ ä¿ĿéĻ©
ä¹ĭ åĨħ
æŃ£ å¦Ĥ
æĻ¯ çĤ¹
ĠCan adian
Ġf er
è° ħ
åĽŀ èĲ½
| -
æºĥ çĸ¡
E ven
åĸĦ èī¯
Ġincreasing ly
åķ¤ éħĴ
æĹ¥ çĶµ
å¤į åıĳ
Ġsynd rome
Ġcomplic ated
Ġl ad
k w
è¿İ æİ¥
æĹ¢ æľī
P M
Ġart ist
æĪĳ è¿ĺ
è½¬ åıĳ
Ġsong s
Ġreport ing
çİ« çĳ°
ä¸¥ è°¨
Ġac ids
Ġbo ost
æ°´ éĩı
ru ption
åĴĮ æĪĳ
Ġ ÑĢ
ĠAn t
âĪ ļ
çĽ¸ æľº
ir us
å¿«éĢŁ åıĳå±ķ
é¥® çĶ¨
Ġpro hib
f ortunately
å®¶ çĶµ
ri ver
Ġn am
åĪĿ çº§
çģ ¿
Ġpres um
Hand ler
ãĢĤ [
ĠAt l
o ir
w hen
Ġstand s
è¯Ħ ä¸º
atter ing
éĴ ¥
æ¬§ åħĥ
ut ing
ĠJ ac
Ġsubstant ially
s ign
Ġcom o
Ġr ide
çºº ç»ĩ
el ly
~ ,
ne q
Ġs ig
è¯¾ åĲİ
äºº å¯¹
ĠTh anks
Ġfair ly
ĠL o
çĶµ ç£ģ
ear ing
èģĮä¸ļ æķĻèĤ²
æµĻæ±Ł çľģ
æĬķ æĶ¾
ĠR ock
in ite
å¹´ éĻĲ
Ġinv ari
æ½ Ń
ĠÐ ·
ĠC all
mole cules
å¦Ĥæŀľ æľī
set length
sequ ently
' $
ĠM icrosoft
åĬ¨ æ¼«
ĠOr der
ament e
åºķ éĥ¨
ug ht
Ġshoot ing
ĠInte rest
Ġst orm
Ġgr ade
Ġreg ime
Ã Ł
Ñ ĸ
Ġext reme
Ġ Ø§ÙĦ
æĮ ½
å¤ĸ ç§ĳ
å®ĺ åĳĺ
Ġclust ers
åĪĨ å±Ģ
Ġ rib
ĠCol or
åįĥä¸ĩ ä¸įè¦ģ
æŁ ł
å¢ŀ çĶŁ
ä¸Ģ åı¥è¯Ŀ
æ¼Ķ ç»ĥ
12 7
å¿ĺ äºĨ
æĳ© æīĺ
Ġcon version
up g
ä¼ļ è®©
åĮĸ åĴĮ
èĢĥ è¯Ħ
èĥ½ ä¸įèĥ½
ac er
Ġint el
åħļ ç»Ħ
çļĦåīįæıĲ ä¸ĭ
i ro
Ġmark ers
}} ^{
èī° éļ¾
å½ķ çĶ¨
æŃ¤ ç±»
è·¯ åı£
Ġc ov
ãģ ĭ
è¿Ķ åĽŀ
ÐµÐ ¼
L ike
ĠCor p
åĬ© çĲĨ
r in
Ġsh aring
è¦ģ åıĬæĹ¶
ĊĠĠĠĠĠĠĠĠ ĠĠĠĠĠĠ
}^{ (
Ġenc oding
å¦Ĥæŀľ æĤ¨
å¢ĥ åĨħ
éĴ¢ çĲ´
Ġcon sole
OO ST
ĠL abor
in ical
ä¸į äºĪ
æĪ ļ
Ġbl ind
ä¸į ä»£è¡¨
Ġmill ions
Ġequ ally
Ġrequest s
Ġy e
Ġm as
å¤± æľĽ
æ±ĩ çİĩ
Ġpurch ased
åīį æĿ¥
ib ilities
å¸Ĥ éķ¿
Ġbring ing
åĤ¨ åŃĺ
Ġc av
æĦı æĦ¿
éĢī åıĸ
å°± åĮ»
p ackage
åľ¨ æĹ¥å¸¸
Ġs port
St at
Fr ame
Ġwar ning
Def ault
C or
çĲĨ äºĭ
å®Ŀ é©¬
vent ions
æķĻ è®Ń
åĿļæĮģ ä»¥
ĠE gypt
ĠJew ish
Ġgl ad
éĤ£ æĹ¶
åºĶ æľīçļĦ
Ġdirect ory
ĠC are
Ġ --------------------------------
Ġprodu cing
è¡¨ å½°
Ġcir cul
å¾ģ æ±Ĥ
Ġosc ill
Ġor th
Ġconv iction
. âĢĻ
åĿ ł
ĠIt aly
ä¸º åŃ¦çĶŁ
Ġtrig ger
å¸® å¿Ļ
ä¸į æĦ¿æĦı
å°±æĺ¯ ä¸Ģä¸ª
Ġs izes
æīĵ å·¥
è¿ĩåİ» çļĦ
è¿ĺ åı¯
ĠJe ff
Ġadd ressed
çļĦ åĲį
çļĦ åŁİå¸Ĥ
åľ¨ è¿Ľè¡Į
åĬ¡ å®ŀ
æĸ¹ ç¨ĭ
åİĨåı² ä¸Ĭ
æī ģ
éĶ ¤
æŀĦ éĢł
rs fs
ĠH D
ĠC ast
math rsfs
ams math
11 3
Ġsuf fered
E CT
ĠCl inton
Ġcorrel ated
Ġw et
bs y
Ġg ather
åºĶ åıĬæĹ¶
ç¥¨ æĪ¿
b as
Ġfav our
Ġfl o
ä¸į æŃ¢
åĮº éĹ´
w ill
ç¿ ħ
æīĢ å±ŀ
æĺ¯ æ²¡æľī
åİĨ ç¨ĭ
au ge
ĠP ac
× ķ
ç§ģ äºº
ox y
è´«åĽ° æĪ·
f ill
è¥¿ çıŃ
0 19
Ġinst ruction
Ġmedic ine
å·¡ è§Ĩ
m ethod
åĳ ķ
æķ´ æ´ģ
éĺ» åĬĽ
ag ues
åºĶ åĬĽ
Ġrel iable
Ġmov es
am ss
è¾¾ æłĩ
æīĢ åŃ¦
P age
éĶħ çĤī
è¿ĩ åĲİ
æĬĢæľ¯ åĴĮ
Ġper mit
éĹ´ æİ¥
Ġappro val
Ġ Ïĥ
æĸ° è¯¾ç¨ĭ
éĺŁä¼į å»ºè®¾
ĠB efore
ç¢° æĴŀ
æľŁ åĨħ
åħ¨ è¿ĩç¨ĭ
ĠN ame
è¥¿çıŃ çīĻ
æĿ¥çľĭ çľĭ
OR E
å¼ §
is o
com mon
åĩ ¹
amss ymb
åĴ ª
de g
x p
}^ \
æīį æľī
ĠĠĠĠĠĠĠĠĠĠĠĠĠĠĠĠĠĠĠĠĠĠĠĠ ĠĠĠĠĠ
ams fonts
Ġsepar ation
Ġadj acent
LE CT
äº¤éĢļ å®īåħ¨
Ġres c
% -
åĵ ®
çŃī çĽ¸åħ³
æľĢ é«ĺçļĦ
fr ast
Ġtreat ments
åŀĭ åı·
s ch
æħĪ åĸĦ
æīĭ æĮĩ
Ġcogn itive
Ġ: )
é«ĺçŃī æķĻèĤ²
xx x
åħ¶ä»ĸ çļĦ
ant ed
éªĦ åĤ²
Ġinst ruct
ams bsy
æħ ¨
è¯± åıĳ
å½ĵ ä½ľ
Ġk m
èµ· æŃ¥
was ysym
est ion
Ġord inary
Ġmagn itude
S O
åĽŀ åİ»
B B
å½± åĥı
Ġown ers
èģĮ åľº
è½® èĥİ
Ġin fected
è¡¨ çİ°åľ¨
ĠO per
] \
ĠAm ong
çļĦ åĪĨæŀĲ
åįģ ä¸ĥ
upg reek
Ġal pha
éĺ» ç¢į
A c
ä¸į å¼º
Ġal k
è´¢åĬ¡ ç®¡çĲĨ
Ġsubsequ ently
éĢģ åĪ°
æĹĹ èĪ°
å¸¸ å§Ķ
å¸ ĺ
æĬ± çĿĢ
æĦ §
æŁ¥ æī¾
æ§ Ľ
å¢ĥ å¤ĸ
R et
å·¥ä½ľ åĴĮ
ĠAng eles
æł¡ åĮº
ĠCor por
åıª ä¸įè¿ĩ
Ġadv oc
C OM
sp ring
å¤§ äºĭ
Ġ* )
Ġcol ors
L oad
idem argin
å¸Ĥ çº§
ä¸į åİ»
odds idemargin
äºĭ å®ľ
éĩĮ éĿ¢çļĦ
ä¼ ŀ
Ġread s
Ġnew ly
//////// ////////
ĠA ri
Ġown ed
< \
Ġk om
åħļ ä¸Ńå¤®
éĻĦ å±ŀ
Ġintrodu ce
le ctions
ä»» èģĮ
Ġbr idge
Ġt rib
M at
Ġli ability
are t
è°ĥ åº¦
b ul
Ġat h
Ġt il
ast y
oid s
ur se
Ġ19 93
-------- -
æľī çļĦäºº
å¤ļ å¤ļ
èĨ³ é£Ł
× Ļ
ä¸ī æ¬¡
Ð¾Ð ³
ĊĊ ĠĠĠĠĠĠĠĠĠĠĠĠĠĠĠĠĠĠĠĠĠĠĠĠĠĠĠĠĠĠĠĠ
11 8
Ġdifferent iation
Ġpass ion
æ·±åľ³ å¸Ĥ
ĠI R
è´¦ åı·
ç²¾ èĭ±
æ¶µ çĽĸ
çļĦ å¥³
åİŁåĽł æĺ¯
à ¨
t xt
Ġ1 80
ner gy
æŁ ¿
ĠF A
ch ain
ĠI C
h ad
å°Ĩ æĪĲä¸º
L D
O pen
èĢĮ æĿ¥
æĪ Ī
éĥ½ è¢«
Ġneg lig
Ġmi R
å°Ĩ æĺ¯
ĠÃ ®
å®¢ åİħ
è§£åĨ³ éĹ®é¢ĺçļĦ
ort ion
Ġd ies
Ġsum mar
in ction
çŃī æĥħåĨµ
ä¸ĭ å±ŀ
ä½Ĩ çĶ±äºİ
å¥ĸ éĩĳ
Ġill ness
å¾Ĺ ä¸įåĪ°
st one
Ġil legal
T em
m ode
ãĤ Į
æľī ä¸Ģå®ļ
ä¸į å®¹
åİ ¢
Ġpass age
) ãĢĭ
Ġw ed
ĠT re
ol ly
Ġt un
Ġall oc
æĺ¯ è°ģ
è§ģ è¯ģ
çĶ² éĨĽ
æķĻåŃ¦ è¿ĩç¨ĭ
Ġg el
sc ape
ess ions
Ġany where
è¶Ĭ é«ĺ
Ġsav ed
ex ec
Al so
re ams
Ġim per
æ¨¡ åħ·
è¿Ľè¡Į åĪĨæŀĲ
ĠM ike
æĥħ çļĦ
Ġce re
Ġ19 92
ç¼© å°ı
ä¹īåĬ¡ æķĻèĤ²
L ayout
Ġur l
yn om
Ġk illing
æļĳ åģĩ
ĠJ oe
EX T
Ġle ague
å·´ å·´
å°± å¿ħé¡»
Ġmiss ed
Ġfe e
Ġ6 8
è¡Į è½¦
Ġreview ed
Ġstri ke
Ġhy brid
Ġfing ers
æķĻèĤ² æ´»åĬ¨
Ġsurpr ised
çĽ ¯
j pg
å¤´ çĹĽ
èĥ½å¤Ł åľ¨
q quad
# :
åĩº èī²
Ġc oc
ffic ients
æľº çĶµ
åħħæ»¡ äºĨ
èĩ³ åħ³
ĠV is
ç¡ Ŀ
ĠF ort
Ġch ose
Ġte eth
ĠIt alian
Res ponse
ĠDemocr atic
å¤§ å±Ģ
ir ation
åĴĮ å®ĮåĸĦ
F ind
è¯´ èµ·
åĩ½ æķ°
16 8
ä¿ĿéĻ© åħ¬åı¸
çļĦ èī¯å¥½
è¿Ļ å®¶
æİ¥ åı£
âĺħ âĺħ
Ã ´
Ľ èµ·
" "
ä¸į è¡Į
Ġb its
è ¤Ĳ
éĢĤ æĹ¶
ic an
çļĦ è½¦
ĠB oston
ä¸ľ èİŀ
å¦ ĸ
avas cript
ç»¼ èīº
ĠGe org
re land
çĶ¨ è½¦
ä¼Ł å¤§çļĦ
åľ° åĿĹ
reg ulated
Ġgr id
å°± æĬĬ
æĭĵ å®½
appro x
ä¸ī æĺŁ
çĶ¨æĪ· çļĦ
Ġcomfort able
åıĳ å°Ħ
Ġperiod s
å°ı éķĩ
Ġqu ad
Ġpl enty
Ġcontroll er
æľĪ åĪĿ
Ġwin ning
) }{
æīĢ è¿°
åķĨ åŁİ
é¢ ł
Ġt all
Ġt ort
Ġdom estic
ä¹ Ĵ
M ENT
çļĦ æĹ¥åŃĲ
Ġpass word
] ]
ĠBrit ain
Ġhydro gen
éĽ¶ ä»¶
ĠA ff
çīĽ èĤī
amm ation
Ġpr oud
æĢ ľ
èĤļ åŃĲ
ab a
å¿ĥ å¾Ĺ
w orld
ä¸Ĭ æĸ¹
ä¸Ģ å±Ĥ
em ia
ĠS ar
èĽ ®
Ġcont ributed
æ¨ ±
åĵ Ģ
åıĭ è°Ĭ
å¥¶ ç²ī
ĠApp eals
åįĵ è¶Ĭ
æĪĳä»¬ ä¼ļ
æŃĮ æīĭ
é¹ ¤
Ġ6 7
Ġindu ction
å¤§ è§Ħæ¨¡
Over ride
èħ¹ æ³»
é¦ĸ å¸Ń
å¾®ä¿¡ åħ¬ä¼Ĺåı·
Ġcor on
U I
Ġp ra
çĨ ı
Ġph r
éķ¿ å®ī
å½ĵæĹ¶ çļĦ
Ġconsequ ence
èµ· è¯ī
åĽ° å¢ĥ
fl oat
èĩª æĦ¿
Ġarrest ed
ä¼ļ å½±åĵį
Ġreview s
æĺ¯ æĪĳåĽ½
èµ· æĿ¥çļĦ
æĿ¥èĩª äºİ
å¦¹ å¦¹
çĪ¸çĪ¸ å¦Īå¦Ī
Ġun us
èĵ ī
ç¾İåĽ½ çļĦ
åħ¨ ä¼ļ
Ġe c
Ġm M
per ties
æĺ¯ éĢļè¿ĩ
å°ı æĹ¶åĢĻ
ĠB est
æ³ķ å®ĺ
ä¸ŃåĽ½ åħ±äº§åħļ
æ¸© æŁĶ
èķ ī
å°¤ ä¸º
Ġp ushed
æ¯Ĵ ç´ł
st able
ĠH istory
m al
Ġ& \
rupt cy
Ġcop ies
ç Ģ
è ĺ
å°± éľĢè¦ģ
å¯¹ åŃ©åŃĲ
ä¹Ł è¢«
æ¶¦ æ»ĳ
Fil ter
åŀĦ æĸŃ
erm ine
æĮĤ çīĮ
ç¡® è¯Ĭ
Ġob st
ĠDe velopment
éĹ¨ åºĹ
éļ¾ åħį
Ġl ady
ĠDo es
is ition
un icip
ĠAccording ly
èħ¹ éĥ¨
St atus
Ġgood s
Ġsim ulation
åĨĽ éĺŁ
W ork
Ġsil ver
ä¸Ģ æľ¬
ty le
Ġmod es
Ġvul ner
p res
ä¹ĭ éĻħ
Ġvol unte
æĪĳä»¬ ä¹Ł
èĭ ¯
Ġn g
è¿Ľä¸ĢæŃ¥ åĬłå¼º
è¯¦ æĥħ
æª ¬
Ġ- \
Ġmanif est
çĿĢ çļĦ
æīĢä»¥ è¯´
att ice
ĠP ers
ä»ĸ äººçļĦ
Ġcou pled
Ġround ed
åĮºåĿĹ éĵ¾
ĠÎ º
Ġlabor atory
raz il
éĹ¨ æ§Ľ
Ġhead s
ç»Ŀ å¤§å¤ļæķ°
çļĦå¿ĥ æĢģ
Ï ĩ
æĺ¯ä¸Ģ å®¶
è° £
ä»¥ä¸ĭ åĩłä¸ª
Ã µ
ä¸į å¥½çļĦ
æĺ¥ åŃ£
Ġdepend ence
ĠJack son
Ġl ens
è¾ĥ å°ĳ
Ġval uable
and e
Ġgr ounds
è¿ĺæĺ¯ è¦ģ
ĠC y
Ġindust rial
ĠC ivil
ä¸ŃåĮ» èį¯
ĠH ot
Ġstrong er
èģĶç³» çĶµè¯Ŀ
Ġfore st
g le
Ġdec ade
ç»ĦæĪĲ çļĦ
éħį æĸ¹
Ġtr uck
èĳĹ ä½ľ
éĻ¶ çĵ·
Ġh osp
æĸ°èĥ½æºĲ æ±½è½¦
çĻ½ éħĴ
ä¸įå°ĳ äºİ
ĠM en
çļĦ åħ¶ä»ĸ
æľ¬ åľŁ
èģĶ åĤ¨
ä¸ĩ å¹³æĸ¹ç±³
N C
V AL
ĠKore a
ob s
è®º è¯ģ
Ã© n
ä¸ľ éĥ¨
ĠD irector
ĠT op
æģ¶ æĢ§
( *
Ġpresent ation
se cond
åģı å·®
ç®¡ æİ§
å¼Ģå§ĭ äºĨ
ä¸į åĪ©äºİ
Ġattempt ed
çĥŃ çĥĪ
16 3
å¤ĸ èµĦ
w r
Ġt iny
ä¼ļ è¢«
ĠR om
çľĭ å¾Ĺ
Ġintegr al
ä½ľ æĪĺ
Ġbl ank
ç½ĳ åĿĢ
Ġent ertain
w an
è¶Ĭ å¥½
éħ ¯
åĽ½ åºĨ
æĴ ķ
Ġprof iles
ĠPol ice
Ġcol umns
Ġelectro de
Ġbelie f
Ġrelig ion
-------- --
Ġgr ab
å¤© åľ°
ä»ĵ åºĵ
H D
h us
ut ory
æĸ°åįİ ç¤¾
Ġdis ag
ĠChe ck
ç» £
èĢĮ åıĪ
Ġstat istics
uc ks
ĊĠĠĠĠĠĠĠĠĠĠĠĠĠĠĠĠ ĠĠĠĠĠĠĠĠĠĠĠĠĠĠĠ
P V
å´ ©
ĠB ern
åĻ¨ æ¢°
ag raph
ç¿ ģ
éļĲ èĹı
è¯ķ åĽ¾
& &
Ġreg ional
s ur
è¿ĩ é«ĺ
c it
ĠN Y
We b
èĦ¾ æ°Ķ
ac hel
äºĮ ç»´
æĸ½å·¥ çİ°åľº
% %
act ic
du ction
çļĦ åħ¬åı¸
NA ME
Ġre actions
ä¸Ĭ åĳ¨
Ġbus y
ĠÐ½ Ð°
æ¦ľ æł·
åıĳ æī¬
ĠDes pite
è¡Į ä½¿
h ave
ä½ľ äºĨ
Ġtalk ed
E P
N U
Ġsurpr ising
Ġparticip ate
çļĦ æķ´ä½ĵ
æĤ£ åĦ¿
Ġhous es
åĲİ æĤĶ
all s
os ome
çļĦ çĹĩçĬ¶
Ġb read
æľīéĻĲ è´£ä»»
il ib
å¤ļåħĥ åĮĸ
Ġdivers ity
M any
Ġsim ulations
åµ Į
ĠAustral ian
Ġcut ting
as ant
æĿ¡ è§Ħå®ļ
åĥ µ
ic ul
æľº ä½ĵ
Ġcl othes
ä¸º ä¸»è¦ģ
ĠL ook
ĠAma zon
ĠÎ µ
Ġcomp osed
Ġpol ym
å¥ĩ æĢª
Ġcomp at
æľī åĬĽçļĦ
ä½ł çŁ¥éģĵ
å¼Ł å¼Ł
UR L
æ²¡ ä»Ģä¹Ī
ro sc
Ġsemicon ductor
Ġgreat ly
çĽ®æłĩ çļĦ
Ġstim ulation
è¦ģ åĬłå¼º
ä¿¡ æīĺ
Ġad verse
å¸¸ çĶ¨çļĦ
åº§ æ¤ħ
ĠW AR
ä¸Ģ ç¯ĩ
it ar
6 000
Ġgu id
Ġmit ochond
åľ¨ åĵªéĩĮ
æķ´ é½Ĳ
å¥ĳ æľº
ä¸Ģ åı°
ĠL ine
h m
æĹł çĹĽ
äº¤éĢļ è¿Ĳè¾ĵ
Ġk iss
åºĶçĶ¨ äºİ
åĨľ èį¯
éĻįä½İ äºĨ
ĠEduc ation
Ġsem i
Ġposs ession
æĹ¥ è®°
æ±Ł åįĹ
Ġ2 50
åįķ è¯į
ä¸ľ é£İ
Ġsatisf ied
it ure
M ax
çļĦ çĪ±
il ation
Ġa ver
is ons
Ġreg ulations
Ġ$ -
Ġinfl ammatory
æµĭ å®ļ
ĠMod el
ç´ Ĭ
ĠSp anish
åħ»èĢģ éĩĳ
æ² ¾
ä¾µ çĬ¯
å¤± è¯¯
St r
-------- ---
èŃ¦ ç¤º
ç¨į å¾®
ä¸ĭ åįĬå¹´
åľ¨ åīį
ä»İ æľª
Ġproceed ings
è¯· èģĶç³»
b et
Ġdifficult y
app end
æ¶Īéĺ² å®īåħ¨
Ġst abil
å·¥ä½ľ å®¤
Ġscen ario
ĠAg ain
çļĦä¸Ģ æ¬¡
Ù ĩ
u er
å°±åı¯ä»¥ äºĨ
Ġcon form
ar ters
ĠJ on
as i
Ġinstit utions
$ _
Ġsuff ering
æĲº æīĭ
çĨ Ļ
åı£ æĦŁ
Ġthem e
äºĶ å¤§
ä¸įéĶĪ éĴ¢
å¹´ ä»¥æĿ¥
çļĦ ä¸¤
å¾Ī å¼ºçļĦ
ç§ĳ æĻ®
Ġaud io
Ġw aves
ç¥ Ń
Ġent r
èİ ĵ
19 91
æĽ´ éĩįè¦ģçļĦæĺ¯
ans as
èŃ¦ åĳĬ
Ġs elling
æĪĳ çĽ¸ä¿¡
ĠR oyal
ian o
Ġm ethyl
Ġvict ory
çļĦ æĢ»
çľŁå®ŀ çļĦ
ar on
Ġcheck ed
Ab out
ĠPro fess
Ġopp osition
Ġprov isions
çĽ´ èĩ³
æľī è¿ĩ
eli hood
T HE
Ġsust ain
Ġbre aking
æ®ĭçĸ¾ äºº
åıĳçİ° éĹ®é¢ĺ
Ġte ach
Ġexper ts
Ġconsc ious
çŁ³ å¤´
Ġla id
ç§ĳæĬĢ æľīéĻĲåħ¬åı¸
Î Ń
éĥ½ è¯´
åĪĨ æĪĲ
Ġadv ent
Ġm ad
Ġde ar
á º
Ġrepresent ing
Ġfrag ment
è·ĳ æŃ¥
Ġ$ (\
è¢«åĳĬ äºº
åĲ¬ è¯¾
pos itive
ĠAtt orney
ĠM s
AC E
åĬł åĿ¡
Ġshould n
ap h
Ġmin ister
ĠBl ue
9 00
æĳĨ æĶ¾
sq l
ult ural
u j
ĠF ind
Ġspect ral
åĵĪå°Ķ æ»¨
æł ħ
èª ĵ
ä¸ļ çļĦ
ç®Ģ åİĨ
ĠS C
end o
åĲİ åĭ¤
t x
by te
angu ages
2 14
Ġm eth
åİ¿ åŁİ
æĹ¢ æĺ¯
Ġpro gression
å»ºè®¾ é¡¹çĽ®
Ġvir al
pro t
ĠĠĠĠĠĠĠĠĠĠĠĠĠĠĠĠĠĠĠĠĠĠĠĠ ĠĠĠĠĠĠĠ
Ġco oper
éĥ½ ä¸įä¼ļ
Ġass ist
Ġded icated
d on
å¤ĩ çĶ¨
ĠCarol ina
å¼Ģ æ°´
ĠOh io
v als
éĤ£ ä¸Ģ
Ġregard less
des cription
æķĻèĤ² åĴĮ
éķ¿ åŁİ
å¤® è§Ĩ
Ġtechn ologies
äº¤æĺĵ æīĢ
Ġco al
è¿Ŀ çºª
å° ¸
çŃī åĽłç´ł
s ystem
ç¬¬ ä¹Ŀ
çĹ ´
ç²¾ ç¡®
Ġstatist ically
åľŁ è±Ĩ
æľī å¤ļå°ĳ
Ġmark ets
aus s
åĲĦç§į åĲĦ
Ġmod ify
æ±Ĥ èģĮ
Ġpay ing
Ġmod erate
æŃ ĩ
æĢ§ åĪ«
ä»¶ äºĭæĥħ
Ġfail s
åįģ åĩł
msg id
Ġcalcul ate
Ġobser ve
Ġperman ent
èį£ èİ·
Ġrad ius
ä¸Ģ åĲĮ
ç© Ĩ
u z
m ult
Ġis t
ä»¥ åĲİçļĦ
msg str
æīĭ å·¥
åĩł ä½ķ
pro ject
Ġke ys
} );
å¸¸ åĬ¡
H R
Ġit er
oun der
çļĦ æľĢå¤§
å¦ ĥ
Ġrow s
ink ing
B O
ç»ıæµİ åŃ¦
å¤ªéĺ³ èĥ½
ä¸Ģ æĹ¶
Ġd os
Ġaccom mod
è¶³ ä»¥
ä¹¦ çĶ»
æ¹ Ľ
Ġregist ered
å·²ç»ı æĺ¯
ct ic
çĿ Ĳ
ĠApp ellant
cl ick
Ġcare ful
ĠSp ring
èī ĩ
åįģ åĽĽ
Ġtra ined
æŁ¥ éĺħ
å·¥ ä¼¤
å®ŀæĸ½ æĸ¹æ¡Ī
opt ions
Ġthe orem
ä¹° æĪ¿
M ed
çĩĥ æĸĻ
æµģåĬ¨ æĢ§
// /
AA AA
ç¼ĸ åĨĻ
Ġ6 1
Ġoper ate
Ġb on
ä¸Ĭ ä¼ł
ĠD own
Ġcomplex ity
åĽŀ äºĭ
ĠAnd roid
ç»ĦæĪĲ åĳĺ
Ġcorpor ate
Ġstre ets
Ġpro be
çĤ¹ èµŀ
æ»¡æĦı åº¦
æľºæŀĦ çļĦ
b efore
am i
çº½ çº¦
Ġcoe fficients
ĠC OM
Ġb in
ĠD onald
Ġste el
Ġlaun ched
å¥¹ åľ¨
Ġdocument ation
åĿļ å®ŀ
éĢļè®¯ åĳĺ
éĺ´ éģĵ
Ġsche dule
ä¸ĵä¸ļ çŁ¥è¯Ĩ
Ġwel come
åıĳå¸ĥ äºĨ
æĪĳä»¬ åºĶè¯¥
ĠC ard
M in
äº§ å¦ĩ
åħįçĸ« åĬĽ
Ġtrans lation
Ġmoment um
Ġbrow ser
ĠDan iel
ĠK ey
Ġnear by
E A
èıľ åįķ
å¯¼èĩ´ çļĦ
ç»Ħ çļĦ
in et
Ġinvolve ment
çģ¯ åħī
Ġun iversity
åĲĮ è¡Į
it als
Ð¾ ÑĢ
èĤł èĥĥ
{ -
Ġ rom
Ġtrans action
ĠE D
ç¾ ŀ
çľĭ å¾ħ
Ġgr an
ä¿Ŀ å¯Ĩ
å®ŀ çī©
ĠCh apter
4 50
ĠR ight
19 88
Ġad hes
çľĭ å®Į
Ġst ores
Ġcorrespond s
Ġ19 70
å¤§ èĩ´
ĠB ow
çıŃ çļĦ
è¡Į èµ°
ä¸¥æł¼ çļĦ
ro at
it an
che m
Ġopp osed
æĬ¢ æķĳ
è®º è¿°
Ġinv ent
ç¦ ħ
ĠE s
å½¢ å®¹
æ¿Ģ æ´»
Ġlo an
Ġpl ur
agn etic
ä¸į æĩĪ
C urrent
r ig
Ġaccom pan
iction ary
çļĦ åĩºçİ°
Ġemb ry
çĪ± ä½ł
Ġintrodu ction
e h
ä¸Ĭ éĹ¨
ä¼´ éļıçĿĢ
Ġf ed
Ġf ract
Ġcardi ac
Ġz u
Ġa ircraft
ĠY ear
ä¼ļ äº§çĶŁ
yn the
åĲİ èĢħ
at tr
Ä ĵ
æī¾ ä¸įåĪ°
çĶ² çĬ¶
M ost
ol y
åºĨ ç¥Ŀ
ĠL ast
Ġ Ñĩ
æĬ¥ éħ¬
å½ĵ æĪĳä»¬
å¤ª å¹³
Ġfeel ings
Ġpursu ant
n ership
è¯į æ±ĩ
Ġdim ensions
æĹ¢ è¦ģ
ç»Ŀ ç¼ĺ
åĿļ å®Ī
Ġvictim s
ot ox
Form at
Ġlos ing
éļ§ éģĵ
ä¹Ł éĿŀå¸¸
æŁł æª¬
8 000
æİĴ åĪĹ
Ġ\ |
ä¸ĵä¸ļ åĮĸ
ĠI mm
Ġset up
D uring
åľ¨ ä½ł
Ġpres ents
å¿ħ éľĢ
çĬ¯ç½ª å«Įçĸĳäºº
çĥŃ çļĦ
æ²³åĮĹ çľģ
åĪĨ ç®¡
åĨĻ åĩº
è¿Ļ åľº
âĢĿï¼Į âĢľ
åľ°æĸ¹ æĶ¿åºľ
R ed
Ġal ert
æĢ» çĽĳ
Ġcontr ary
ä» ĩ
åıĹ æįŁ
"} ](
ĠOr gan
ot ion
åĲĪ åĬĽ
d ig
Ġconne ctions
å¤©çĦ¶ æ°Ķ
å®¤ å¤ĸ
cent ury
å·´ è¥¿
aterial s
äºº æ¬¡
ä¿¡ ä»°
ep ing
æĢ» æĬķèµĦ
Ġ> =
ĠP ak
åĵģ çļĦ
Ġextract ed
éĥ Ĭ
çĹħ åĽł
èĩªçĦ¶ çļĦ
ĠS i
åħ¬åı¸ åľ¨
åįķä½į åĴĮ
ä»İ ä¸¥
H A
n ba
ĠV an
èĢĥ åľº
é¥° æ¼Ķ
ĠG iven
ä¸Ń åĲ«æľī
G ET
p ie
avel ength
Ġ} \
Ġemph as
Ġbr ings
è¯Ĺ äºº
ç¿ °
åħ³æ³¨ çļĦ
æķĪ åĬĽ
åľ¨ ä½¿çĶ¨
äºº æ°Ķ
Â «
è¦ģ çŁ¥éģĵ
g raph
ĠSim ilarly
Ġpriv ile
ps on
ĠAs ia
Ġrepe at
ç®¡çĲĨ å±Ģ
ar ation
Se lect
è´ ¿
Ġrob ust
Ġsam pling
U RE
O K
s ized
Ġcalcul ation
ad ata
ä¸į æ»¡
åħ± å»º
put ation
ç»ı çºª
èĥĥ èĤł
Ġb il
ä½ł æĥ³
Ġt ou
åĲ¬ åĬĽ
ä¸į ä½İäºİ
å½¢å¼ı çļĦ
æĥ© ç½ļ
Ġst aining
am ples
ĠS M
Ġcoe fficient
åľ¨ æķĻåŃ¦
Ġdiagn ostic
Ġwe ren
æ²ī æ·Ģ
Ġprogram ming
ç»Ĩ åĪĻ
åħļé£İ å»īæĶ¿
åıĳ èĩª
lik ely
ig inal
é£Ł æ¬²
çĶµåĬ¨ è½¦
æ·Ģ ç²ī
ĠAd minist
" ]
end ar
è¯ Ģ
æĪĲç«ĭ äºĨ
Ġw al
Ġpropos al
å¹´ ä¸ŃèĢĥ
å°ĳ è®¸
Ġrul ing
ä¸Ģ åı£
ĠY oung
Ġexpl o
U P
åĪĨ å¼Ģ
æĿĥ éĻĲ
åħ± è¯Ĩ
å½ĵ æĹ¥
äº¤ ç»Ļ
W S
Ġles ions
ç²¾ åº¦
ĠW ater
UL T
Ġre ar
Ġpro min
åĪĽå§ĭ äºº
Ġst roke
Ġgalax ies
Ġsufficient ly
ä¸º åħ¶
Ġdraw ing
I ES
çľĭ è¿ĩ
------------ -
æ´Ĺ æ¾¡
Ġ" \
åľ¨ å·¥ä½ľ
ä¸»è¦ģ çļĦ
èįī åİŁ
è£Ĥ ç¼Ŀ
çº³ç¨İ äºº
å¹¶ è´Ń
çľģ å¸Ĥ
å¤´ éĥ¨
çļĦ éĢļçŁ¥
æ¶Ī æŀģ
Ġac et
æĹ© æĻ¨
æĭ¨ æīĵ
Ġeffic acy
pr ise
å¯¹ æĬĹ
åįģ åŃĹ
Ġvide os
Û Į
15 5
çŁ« æŃ£
Ġreve al
Ġsm oking
ĠS P
ä¼ł è¯´
Ġpos it
Ġb at
Ġth irty
por ary
Ġst er
åĪ¶å®ļ äºĨ
åĸĿ éħĴ
Ġfac ing
Ġris ks
Ġrecept ors
frast ructure
å»º æĿĲ
ä¾ ¨
Ġmat ches
çļĦ èĬ±
ĠC OU
Ġcre w
Ġmanufact uring
Ĥ ¬
12 2
Ġpre jud
çľŁçļĦ å¾Ī
Ġ\ -
Ġing red
æį® è¯´
ç§ĭ åŃ£
Ġ7 7
æĮ¯ åĬ¨
Ġconstitution al
Ġh ung
ä¸¤ ç»Ħ
Ġdec ay
Ġass ets
Ġprep are
ĠP age
åĬŁèĥ½ çļĦ
Ġacc used
æļ´ åĬĽ
åĮĸ åĲĪçī©
ĠD ate
åĮº å§Ķ
f d
v m
o is
th rough
è§Ĩ è§Ĵ
ĠO lymp
Ġant icip
Ġsimult aneously
å´ Ķ
cl ose
äººæ°ĳ åĮ»éĻ¢
é»Ħ æ²³
Ġcry pt
Ġre ferences
ĠPl ay
f ol
é¥± åĴĮ
ä¹ ĸ
Ġ19 91
Ġconsider able
æīĢ èĥ½
è®¤çľŁ åŃ¦ä¹ł
m ut
Ġpregn ancy
ĠEx per
ç§Ł éĩĳ
Ġcreat es
è®© å¤§å®¶
ific ate
ĠN ext
sh ift
äºĨ è®¸å¤ļ
ĠĠĠĠĠĠĠĠĠĠĠĠĠĠĠĠĠĠĠĠĠĠĠĠ ĠĠĠĠĠĠ
Ġarchitect ure
æĽ´ èĥ½
C ell
åĲĦ æĸ¹
åī§ ä¸Ń
Ġcomput ed
T ex
èģĮä¸ļ æĬĢæľ¯
äº® çĽ¸
æ¬§ çĽŁ
Ġprec isely
åĭ ī
Ġaff irm
è§£ é¢ĺ
è§īå¾Ĺ èĩªå·±
Ġus age
æºĲ å¤´
. ;
çł į
ĠT own
Ġdecl ine
ĠH a
Ġhon or
ä¿¡ èªī
åı£ è¯Ń
åĩº æ¼Ķ
Ġbas ically
12 00
ĠI reland
éĢī é¢ĺ
ä¸į å®ī
åŃ¦çĶŁ ä»¬
èĢĮ æĪĲ
åłµ å¡ŀ
æĪĸ åħ¶å®ĥ
ä¼ļè®¡ å¸Ī
IG HT
æĴ° åĨĻ
Ġbut ter
çļĦ æīĢæľī
æĢ» ä¼ļ
Ġdis charge
çļĦ åģļæ³ķ
lim its
i ol
Ġt aught
T ab
i est
é¢Ħ ä¹ł
Ġro of
Ġcompl iance
çł´ äº§
Ġapart ment
or se
Ġhard ware
Ġun w
D isc
N OT
ç´łè´¨ æķĻèĤ²
åı¯ä»¥ çľĭåĪ°
Ġpart ners
In te
ĠCom mon
çĶļèĩ³ æĺ¯
æģ° å½ĵ
ä¼ł å¥ĩ
ì Ŀ
åıĺ ä¸º
Ġactiv ated
Ġregul atory
åįµ å·¢
ĠL ab
Ï Ĩ
ĠL ight
) }$
ä¹ĭ ä¸º
ä¸ļåĬ¡ çļĦ
åıĺéĢŁ ç®±
Ġtax es
Ġthere of
à ´
Ġn arr
æĬĺ æī£
åŀ Ĵ
t ion
M em
ç¤¾ä¼ļ ä¿Ŀéļľ
ä½¿ äºº
Ġev il
ãģ £
Ġtarget ed
çļĦå¿ĥ æĥħ
G ener
Ġh ier
æĶ¾ åĪ°
ç©º çĻ½
Ġphot ograph
Ch ild
ä¼ ½
Ġserious ly
ak a
åĪļ å¼Ģå§ĭ
N R
ĠM ake
Ġarbitr ary
Ġapopt osis
è¶£ åĳ³
åİŁ æľī
çļĦ æĶ¯æĮģ
å¯¹ ä¼ģä¸ļ
Ġsub stance
ç»ıèĲ¥ èĢħ
çļĦ äºĨè§£
ĠJose ph
riv ial
12 4
Ġs ending
ç®¡çĲĨ ä½ĵç³»
è¿ĺ åİŁ
å¹³ éĿĻ
Ġ9 8
ĠS her
ĠJ r
åºĶ æľī
he mat
ä¸ĩ ç¾İåħĥ
Ġcalcul ations
äºº èº«
Ġinter mediate
year s
ĠL ar
Ġg arden
çĶ²çĬ¶ èħº
çºª æ£Ģ
ä¸Ģ åº§
Ġenforce ment
èģĶ æĥ³
éĿĴ çĿĲ
dev ice
form ed
äºĨ èĩªå·±
å®¶ åºĦ
Ġan xiety
ä¸Ń æľŁ
ä¹ĭ ä¸Ĭ
è¾ĥ å·®
rop y
ĠM iddle
æ»¡ æ»¡
æĸĩ ä¸Ń
Ġappl ies
Ä Ľ
Ġdiv ide
Ġpl ug
ä¸Ģ å¾ĭ
æ¼« çĶ»
ĠTr ust
ĠEng ine
åıĹ å®³
å·¥ä½ľ è®¡åĪĴ
T D
ï¼ģ (
æĸ½å·¥ åįķä½į
ĠCol umb
å¤ļ åĲį
è¿ĩ åĪĨ
olog ist
ä½Ĩ åį´
ĠSpec ial
13 8
min us
Do es
æ¼Ķ ç»İ
\ ^
éĺ¶æ®µ çļĦ
çķ ¸
è¿ĳ è§Ĩ
az z
éĹ® åį·
Ġsome how
èģĶç³» æĸ¹å¼ı
Ġemb od
æĲľ éĽĨ
Int roduction
åıĬ çĽ¸åħ³
åľ¨ å®ŀéĻħ
ä¸º æľ¬
ç«ĭ æĸ¹
Ġfl ash
Ġcho ices
âĨĵ âĨĵ
å·² è¢«
Ġle af
ĠG ra
head er
M ult
Ġpred iction
e lement
Ġsh o
æľįåĬ¡ åĻ¨
åĪĩ æĪĲ
å¤§ æ¡¥
ĠCath olic
æ©¡ èĥ¶
åĢ ¦
æľī è®¸å¤ļ
ab out
Ġcra zy
Ġrev olution
V is
z h
çļĦ åħ´è¶£
ail able
æµĭ è¯Ħ
E F
ri ents
æĿ ŀ
éĺµ å®¹
Ġbacter ial
ä½ı å®¿
Ġincub ated
pl us
åıį å°Ħ
ä½ľä¸º ä¸ĢåĲį
Ġaut hentic
[ "
Ġclass ified
æłĩ çļĦ
Ġsatisf y
r ams
Ġtr ou
Î ¸
in cluding
çļĦ è¯Ńè¨Ģ
Ġur ban
12 9
d l
åĬĽ æ±Ĥ
ä¸Ĭ å²Ĺ
un a
Ġdiscl osed
æĺ¯ ä½ł
Ġb ands
Ġin fections
Ġtr ick
ĠP s
æĪı åī§
âī ¥
åĩ °
Ġbeaut y
iv ari
ĊĊ ĠĠĠĠ
in als
äºĭåĬ¡ æīĢ
çļĦ å½¢æĪĲ
ĠH arr
Ġweap on
IN D
et he
Ġvari ations
Ġlik ed
anc he
Ġx ml
å°Ĩ ç»§ç»Ń
Ġt ough
åĢ¾ æĸľ
çļĦè¯Ŀ é¢ĺ
å¤ĸ è¯Ń
ä»» æĦı
Ġadequ ate
èļ ģ
æĺ¯ å¦Ĥä½ķ
Ġ$\ {
Ġtro ops
åįģä¹Ŀ å¤§
re ement
æĬ¥ éĶĢ
f i
Ph one
å£® å¤§
å¥Ķ é©°
Ġun iverse
Ġcar rier
Ġannoun ce
æ± Ľ
for ward
o a
Ġrequ iring
b ottom
åĿĩ çº¿
Ġse ar
è¯¥ å¦Ĥä½ķ
Ġconsum er
ä¹ĭéĹ´çļĦ åħ³ç³»
ä¸º äººæ°ĳ
Ġsus cept
n ament
åĵ® åĸĺ
Ġtr ace
å¤ĩ åıĹ
Ġpart ially
Cont rol
æŃ¢ æįŁ
è¿Ļä¸Ģ åĪĩ
------------ --
çĩĥ æ°Ķ
Ġ1 10
Ġp el
ĠB ased
Ġdeal ing
åı£ åĳ³
Ġany more
Ġmut ation
æĬĬ èĩªå·±çļĦ
äºĮ æ°§åĮĸ
æ°ĳ åĬŀ
Ġret ail
æ´Ĺ è¡£
ac cess
add r
19 86
ä½Ĩ ä»ĸ
Ġcontr ad
ĠAn alysis
ĠF ar
ĠK n
è¾ĥ å°ı
åİŁ åĳĬ
åĿĩ åı¯
é²ľ æĺİ
çļĦ åı¯èĥ½æĢ§
Ġex cluded
ä¸įä»ħ è¦ģ
åĨħ åĪĨæ³Į
å°± è¿ŀ
s uch
ĠP et
ä¹ĭ åľ°
un ct
éĽĨä¸Ń åľ¨
ä¿¡ è®¿
å¹´ å¼Ģå§ĭ
H er
äºĭ åħĪ
G S
un ning
Ġcomplic ations
çĽ¸ å¯¹äºİ
13 2
ĠB Y
å¤§åŃ¦ çļĦ
åħ¨ æĹ¥
Ġw estern
Ġex it
ĠH and
è¿ĺæľī ä¸Ģä¸ª
åŃ¦ æĬ¥
ä¹Ł éĥ½
Ġwh is
åı¯ä»¥ è®©
Ġmist ake
æ°´å¹³ åĴĮ
åģļ åĩºäºĨ
æķ° é¢Ŀ
å½ĵ æĪĳ
Ġsupp ress
i ology
Ġlight s
éĿł è¿ĳ
çŃĽ éĢī
Ġmach ines
el d
ĠG L
çİ¯ æ¯Ķ
ä¹Ł éľĢè¦ģ
Ġread ers
Ġre new
Ġt ur
æ³° åĽ½
Ġto ken
èİ ¹
Ġload ed
ĠRe al
conom ic
Ġcyt ok
Ġh ide
Ġcorre ction
çļĦ æĦıæĢĿ
äº¤ éĻħ
æĹł å½¢
Ġh orm
Ġteacher s
æ²¥ éĿĴ
ãģ Ĩ
ĠW omen
Ġrem em
åĴĮ ä½ł
æľĪ ä¸Ń
ĠM use
å£ ¶
éĹ¨ çªĹ
Ġ7 8
éĺŁ éķ¿
Î ®
ĠE th
å»ºçŃĳ å·¥ç¨ĭ
Ð» Ð¸
çĤ «
Ġ$ |
æĿł æĿĨ
Ġch lor
æµ¸ æ³¡
çļĦ ä»»åĬ¡
èĹ ¤
Ġl ob
Ġre fe
è´¨ çļĦ
çī¹èī² çļĦ
Ġ ë
à ¯
äº² åĪĩ
es ome
å¤ ¯
èĳ ¬
Ġpol ynom
up id
ro se
ĠD id
èº«ä½ĵ çļĦ
Ġt one
çŁŃ çŁŃ
åıĭ å¥½
Ġexec ution
è¿ĻäºĽ éĹ®é¢ĺ
å´ Ľèµ·
éĤ£ å¤©
', '
åĽŀ å¤´
Ġmig ration
è®¾ æľī
çĲ ª
itro gen
Ġb anks
Ġnat urally
re ens
çļĦä¸Ģ å¹´
Ġhard ly
um ps
æŀ¶ æŀĦ
å¹½ é»ĺ
L ink
å¿ħ å¤ĩ
Ġsymm etry
og rap
æ¶ ¡
ocy te
ST R
åľ¨ èģĮ
å¤§ åİ¦
u ct
op her
U C
äº§ åĢ¼
éĺ² å®Ī
Ġdistribut ions
Ġspec im
å¿Ļ ç¢Į
å®īåħ¨ æĢ§
Ġst ir
å¤į åħ´
] ãĢĤ
å¢ŀ æ·»
Ġstru ck
ä»£ ä»·
Ġg ang
ä½ĵ æ¸©
çİ° å°Ĩ
åįł çĶ¨
ord an
å°ĳ éĩı
o i
å¥¥è¿Ĳ ä¼ļ
åħ¬äº¤ è½¦
b ell
ĠB usiness
ä¿ĥè¿Ľ äºĨ
Ġinfl ammation
Ġfif th
Ġclass ic
ut en
Ġimpl ied
æİ§åĪ¶ åľ¨
åı° éĺ¶
p erson
Ġelev ated
æī§ æĶ¿
ĠAm endment
19 89
Ġv eter
Ġpay ments
Ġdom ains
Ġp seud
åĪ° å¤Ħ
Ġser ial
åĲĪ è®¡
æ¹¿ åº¦
ĠTechn ology
ä¸Ń ç§ĭ
enn y
æģĲ æĢķ
ĠG ame
çī© æĸĻ
çļĦ åŃĺåľ¨
åħļ æĶ¿
åı¯ æĢķ
Ġunder t
aren ess
å¾Ī ä¹ħ
èĪ ¶
Ġag ed
éĶĢåĶ® é¢Ŀ
â Ķ
Ġindu ce
æį ¡
å¨ Ł
id ad
E V
çļĦ å®¶åºŃ
Ġbul k
Ġpl ates
serv ice
V er
ĠS outhern
Ġ1 30
13 6
æľ¬ çĿĢ
åĳµ åĳµ
æĮĩ ä»¤
æł¸ å®ŀ
åħ¼ èģĮ
Ġh am
ä¸Ģä¸ĭ åŃĲ
Ġa er
éĴ¥ åĮĻ
h s
)) )
yl van
Ġh ook
åħ¬åħ± æľįåĬ¡
å¯¼ èĪª
éħ ®
Out put
è¿Ļ é¦ĸ
ç»Ļ åĩº
è¿ĩåİ» äºĨ
Ġm apping
p u
ä¸ī å¤©
or ial
T YPE
éĩı åĮĸ
19 0
b uffer
19 85
çļĦ åĬŁæķĪ
æľīåħ³ çļĦ
u ity
çĲ ¼
Col lect
çľĭ çļĦ
Ġwith draw
ĠFor ce
åľ¨ åħ¶
ur d
è§Ĩ åĬĽ
å°Ĭ æķ¬
ç®Ģ æ´ģ
Ġt ab
ç»Ļ å¥¹
åºĶ ä»ĺ
Ġmark er
åĪĽéĢł äºĨ
åĪĨç±» åı·
oc ard
ä»ĸ å°±
ĠV ictor
H C
ĠAut hor
re ll
åĪ« å¢ħ
é¢Ĩå¯¼ åĴĮ
Ġb omb
åŃ¦ ä¸ļ
èĢĮ åĩº
Ġatmosp here
ile y
Ġdrink ing
å¾Ī ç®Ģåįķ
ä¸į ç¡®å®ļ
åıĹ æ¬¢è¿İ
Ġelect ed
Ġocc as
æ¯ı ä¸Ģæ¬¡
Ġent ity
æ¸ħ éĨĴ
çļĦäºĭ ä¸ļ
è´¨éĩı çļĦ
å§Ĳ å¦¹
æ·· ä¹±
æĪĸ åħ¶ä»ĸ
ä¸¥ åİī
äº§ çī©
Ġre com
is p
ed ef
ä¸ĢçĽ´ æĺ¯
x c
Ġdire ctions
we ek
å¿ĹæĦ¿ æľįåĬ¡
åıĳå¸ĥ ä¼ļ
æķĮ äºº
ä¸Ń å±±
e en
Ġ9 7
conne ct
äºĨ èµ·æĿ¥
ĠT ext
ĠC ase
åħ¥ éĢī
Ð½ Ñĭ
åĴĮ å¤§
In st
Ġlaw yer
æ¶² åİĭ
çľĭ å¥½
W AR
19 87
Ġgr ass
on om
ç»Ļ ä»ĸä»¬
ÃĹ ÃĹ
Ġs oci
æ¸ħ æĸ°
Ġre ly
æĸ° åĨł
çĽĳ æĬ¤
Ġd ialog
m ake
ij er
Ġexhib it
resp onse
ĠM aster
Ġcon ce
è¯¯ å·®
C ar
æĹ© å°±
åĽ½éĻħ åĮĸ
Ġsh ares
0000 00
Ġsil ence
ĠCon stitution
éĩĮ ç¨ĭ
æ½ľ èĥ½
Ġt ract
æĥħ æĢĢ
Ġintel lect
Ġscient ists
åĭ¤ å¥ĭ
ĠI M
I X
ä¿¡ èµĸ
Ġk ernel
Ġgen u
ff ff
ĠO x
ĠNet work
åľ¨ åĨħçļĦ
Ø§ Ø
Ġmut ant
Ġc yl
ä¼° åĢ¼
Ġquant ity
çļĦ æĿ¡ä»¶
Ġon going
Ġm ater
Ġbirth s
port ed
Ġsk ill
Ġ7 4
Ġphosph ory
åĴĮ ä»ĸ
Ġfl ood
ç¨³ æŃ¥
èĤ¾ èĦı
D ep
ene ath
åĩºæĿ¥ äºĨ
æĭ Ĳ
In stance
Ġdecre asing
Ġl ists
ãĢĭ ãĢģ
Ġ7 6
æŃ£ ä¹ī
è¯´ ä¸į
åħ¥ åħļ
t own
ĠSh ow
fil ter
Ġben ch
ogene ous
æŃ£ç¡® çŃĶæ¡Ī
Ġwhe never
çĮª èĤī
è¿Ľä¸ĢæŃ¥ æıĲé«ĺ
Ġnumer ical
Ġprec ise
ç¤¼ è²Į
ĠB it
)* (-
çļĦ æ¶Īæģ¯
y y
ĠG ar
R ANT
çĿĢ æīĭ
åĢ¼å¾Ĺ ä¸Ģ
å®Ĺ æķĻ
l ot
Ġrout ine
å¹´ åĲİ
çł ¸
Ġ riv
æĶ¯ä»ĺ å®Ŀ
æ·±åĪ» çļĦ
Ġsh it
Ġinhib itor
ĠD ar
åŁº åĩĨ
çĶµ ç«Ļ
å¹¶ èĥ½
act s
Ġmar ks
Ġtheoret ical
Ġmount ed
åľ¨ è¿Ļä¸Ģ
çī¹ éķ¿
åıĸ ä»£
Ġs ulf
B lock
ç±³ çļĦ
å½ ¦
Ġcompens ation
app y
Ġo ste
Ġm ales
ï¼ģï¼ģ ï¼ģ
ä¾§ éĿ¢
ä¼ĺ å¼Ĥ
å®¢ è¿Ĳ
ĠW ay
ä¹¦ ä¸Ń
}\ \
å¾® çĶŁçī©
åĮĹ å¤§
Ġhand ling
B uffer
ä½¿ ä¹ĭ
äº§ä¸ļ åĮĸ
Ġflu ct
åŃĲ åħ¬åı¸
Ġte a
çķª èĮĦ
Ġco inc
H L
Ġcomp rom
è£ģ åĪ¤
ĠU RL
éĶ ļ
ä¹ĭåīį çļĦ
ir k
äºĭ åĲİ
æµģ æ°´
çİ¯å¢ĥ ä¸ĭ
% ).
Ġcol our
i ar
ä¹Ł ä¸įè¦ģ
ochem ical
æı ½
ang ers
Ġcontroll ing
èĬĿ éº»
ch arg
Ġr ising
Up date
ĠH R
éĶĻè¯¯ çļĦ
g age
æľīéĻĲè´£ä»» åħ¬åı¸
me an
æľĢåĲİ ä¸Ģ
èĶ ĵ
Ġbroad cast
f ix
13 3
éĽ· éĶĭ
Ġmag ic
éĶĻ è¿ĩ
Ġre ward
æĮĩ å¼ķ
å¾Ģå¾Ģ æĺ¯
çļĦ æĪĲåĬŁ
æľĢ å¤ļçļĦ
Ġadministr ative
Ġrestaur ant
Ġel ig
ä½© æĪ´
æ³ķ åĪĻ
c ule
å¤© ç©º
Ġart ists
Ġexc it
è¿ĻéĩĮ çļĦ
mon ary
ä¸į æĢķ
re ason
ä¸į æĦ¿
On ce
å¾Ĺ å¥½
çłĶ åĪ¶
{ (
m ate
æ¥¼ å¸Ĥ
ĠB razil
åı¯ åĪĨä¸º
Ġcompar able
ĠCol l
Ġc able
ç»Ĩ èħ»
let on
å¯¼ å¼¹
æİ¨ åĩºäºĨ
ä¸Ĭ å¹´
Ġl ying
Ġperipher al
ä¸İ åıĳå±ķ
å¯¹ ä»ĸ
å¤ļå°ĳ éĴ±
onym ous
z ero
Ġreturn ing
ä¿® æŃ£
typ es
Ġmetabol ism
æľ¬ å±Ĭ
f c
ä¸Ń åĽ¾
çĲ Ĳ
èģĶç³» äºº
é¥Ń åºĹ
ä¼ļ éĢłæĪĲ
å·¥ åľ°
D ev
åĦ Ĵ
åĳĬè¯ī æĪĳ
ä¸Ģ æĿ¯
æ¸ Ĭ
Ġhead er
åģ¶ åĥı
åĲĪ èµĦ
Ġpul se
elle e
ĠP T
Ġwhere in
çļĦ æĿĥåĪ©
ĠM D
Ġen erg
Ġrel i
æī ¯
Ġcapt ured
G P
h ard
æŃ» äºĨ
çļĦ èīºæľ¯
Ġint ake
Ġnot ion
B uild
Ġm arg
Ġmetab olic
ä½ Ĳ
ĠR ay
åģ¥åº· åıĳå±ķ
ar se
è¡¨ è¿°
Ġj oy
å°± è¡Į
çĬ¹ è±«
èĢħ åĴĮ
Ġyes terday
æĸĩç«ł åĨħå®¹
ĠVal ley
S ch
åĸĿ æ°´
ĠTe am
èĭ ĳ
âĸ ł
è¿Ľåħ¥ äºĨ
Ġbe er
å®ļ å¾ĭ
b p
Ġg iant
åºĬ ä¸Ĭ
åıĳ åĬ¨
éģŃ åıĹ
Ġcomp aring
æĮ ª
çĶŁæ´» æĸ¹å¼ı
N one
ä¸Ģä¸ª ä¸ª
å®½ åº¦
Ġmeas uring
Ġnam ely
AT H
ĠC ross
ab e
Ġfem ales
Ġ icon
èģĮä¸ļ çĶŁæ¶¯
Ġ9 4
çļĦ å®ŀéĻħ
Ġroom s
ĠS ix
æ°¨ åŁº
æĴŃ åĩº
è¦ģ æ¯Ķ
t ml
Ġ6 9
æĸ° åĬłåĿ¡
å°ı å¹³
å¤ļ ä¹ħ
çļĦ æĹ¶ä»£
å¤§ çº²
å½ĵ æĪĲ
i ations
æħ° éĹ®
14 5
æİĪ äºĪ
ç¼º å¤±
ä¹Ł ä¸º
pl an
æ¸¯ åı£
ĠEn ter
é¢Ĩå¯¼ çıŃåŃĲ
Ġ1 28
Ġdo ors
P AR
ĠL ove
Ġp ocket
åĩł çİĩ
æ² §
è´£ä»» æĦŁ
éĺ² æĻĴ
éĹ¨ ç¥¨
Ġvess el
çī© ä»·
çļĦ åĽ½å®¶
13 7
è° Ń
Ġfrequ ent
Ġfall ing
Ġadjust ed
ä¼ł æİĪ
List ener
æľĢå¤§ éĻĲåº¦
a ire
çļĦ çĲĨå¿µ
17 5
äººä»¬ å¯¹
ä¸İ äºº
gen er
åĲĳ ä¸ĭ
ĠH on
çī© èģĶç½ĳ
çŃ¾ åĲį
Ġval ve
åıª å¥½
Ġ8 8
2 30
b u
ä½Ĩ è¿Ļ
Ġcommunic ations
èĢĥ çĤ¹
ä¿Ŀ æ¹¿
åĳķ åĲĲ
Ġampl itude
a ver
ç¬ĳ å®¹
ve ctor
æ±ī è¯Ń
M ode
åĬł åī§
äº§ä¸ļ çļĦ
æĺİç¡® çļĦ
å·¥ æľŁ
b led
F inally
he tic
Des cription
æĥ ķ
Ġinter ior
å²ģ æľĪ
Ġdisc ipl
ãģ ĵ
in fl
åĿ İ
Ġcon sec
\ "
åĩº åĽ½
P o
æľī æľºä¼ļ
ĠFrancis co
Ġ** (
Ġinst ances
çĿĢ éĩį
åħĪ è¡Į
Ġtom orrow
f ire
Ġdisapp oint
ä¿¡çĶ¨ åį¡
ĠSt art
ä¸ĩ æĸ¹
åĳĬè¯ī ä½ł
ack ing
é«ĺ æĸ°æĬĢæľ¯
Ch apter
Ġsw im
æĺ¯ çļĦ
æº ľ
Ġr Ã©
ä¿ Ń
æĥħ äºº
åĲĦ åįķä½į
Ġab normal
ç³ Ļ
å¤ļ é¡¹
çļĦ èĢĥçĶŁ
Ġinv al
2 60
ac ity
æľĢ æĸ°çļĦ
A rt
è´ ®
au x
Ġload ing
çıŃ ç»Ħ
é¥® æ°´
èµ· åºĬ
ĠR og
Ġdi agram
å¦Ĥæŀľ è¯´
åĽ½æľī ä¼ģä¸ļ
os ity
19 84
åĪĽæĸ° èĥ½åĬĽ
ĠW alk
å±± æ°´
æİ¥ ç§į
Se cond
2 10
ĠDemocr ats
Ġr um
åħī æĺİ
Ġple asure
åĨį åº¦
Ġpriv acy
Ġuns igned
am ination
Ġag encies
åĲĳ å¾Ģ
å¦¥ åĸĦ
æĭħ å¿§
æŀ ¸
Ġinj ured
con duct
op rote
ij u
S QL
ĠL ew
aw s
èĢĥ ç½ĳ
å¢Ļ éĿ¢
Ġarr anged
ä¸īä¸ª æľĪ
} .$$
çŃī çĹĩçĬ¶
}} }}
14 4
19 80
W R
ä¸ŃåĽ½ ç»ıæµİ
Ġdatas et
çľŁ å¿ĥ
ĠN A
å¥ĩ è¿¹
ä¸į åĲ«
æī© æķ£
Ġd ance
æĹł æ¯Ķ
Ġ7 3
åĽłä¸º æĪĳ
ä»¥ä¸ĭ çļĦ
è ¥
å®ī æħ°
èĢķ åľ°
Com mand
ĠM ic
åĸľ æĤ¦
åĪĨ ç»Ħ
å¤ĸ çº¿
åĪĨ åī²
é£İ åħī
L ength
Ġc ust
æĿ¥ ä¸´
çİ° è¡Į
çļĦ éĩį
æĺ¯ä¸Ģ é¡¹
æı´ åĬ©
Ġpros pect
ass oci
Ġst uck
çļ Ĥ
åĽłä¸º ä»ĸ
99 99
O per
è¥¿ çĵľ
Ġun con
èĮ ¨
ev in
è¡Ģæ¶² å¾ªçİ¯
åĨħ å¿ĥçļĦ
èħ ķ
æĵħ èĩª
ä¾¦ æŁ¥
éķ¿ æĺ¥
å¼ķ çĶ¨
çļĦ æľĢä½³
åŁ¹è®Ń çıŃ
Ġcover ing
Ġres erved
çĳ ¶
æīĭ åĨĮ
Ġsm oke
æĴ ¼
Ġthor ough
çłĶç©¶ ä¸Ńå¿ĥ
Ġindepend ently
ir y
ir atory
åĬŀ æ¡Ī
iz z
æĹł åĬĽ
æľĢ æľī
å·¥ä½ľ æĢ»ç»ĵ
Ġ19 89
us al
Ġcomprehens ive
å¹¶ éĢļè¿ĩ
éĩĩè®¿ æĹ¶
ont o
Ġrespond ed
Ġme re
Ġcult ures
åĳĪçİ° åĩº
çģ ¸
ĠR od
ĠSw ed
ijer ph
ä¸įæĺ¯ å¾Ī
ĠSc ot
ann y
çļĦ èĲ¥åħ»
ÐµÐ ´
å·¥ä½ľ ä¼ļè®®
åİ» ä¸ĸ
ĠIn it
æīĢ è¯´çļĦ
Ġre nal
æĭ ¦
ĠCh ris
} -\
ylvan ia
L abel
all oc
Ġh ors
ä¹ĭåĲİ çļĦ
m ay
æµ· åĨĽ
Ġconstraint s
æĪ· åŀĭ
æķ ŀ
Ġcre am
éĺ¿ å§¨
h l
éĥ½ éĿŀå¸¸
ä½İ ç¢³
ä¸ŃçļĦ åºĶçĶ¨
æ²¹ èĦĤ
ĠSp ace
ĠRep ort
è£ ¸
iss ions
Ġcreat ive
Ġsc an
æľº ç»Ħ
Ġm ild
åħ¨æĹ¥ åĪ¶
off set
ĠCar l
ä¼¤ åı£
äºĨ åĩł
Ġsh r
éĺ» æŃ¢
ĠIr ish
æµ· åħ³
gress ive
an im
ä¸¤ åĽ½
Ġ8 4
v y
met ric
é¦Ļ èķī
ï¼Ł ï¼Ł
Ġo mitted
åĩ¸ æĺ¾
ol i
M ark
æĹ¶ åºĶ
Ġimpro ving
im p
çİĭ èĢħ
D own
çĪ± æĬ¤
æĸ¯ çī¹
Ġreach ing
Ġorgan ized
åºĶ å±Ĭ
å®ĮæĪĲ åĲİ
æŀģ ç«¯
çľ¼ éĩĮ
çļĦ è¯´
äºº ä½ĵçļĦ
éĿĴ æµ·
Ġth y
ĠO K
ĠB OOST
medi ated
æĹ© æĹ¥
ç¾İ èģĶåĤ¨
æĶ¾ ä¸ĭ
st ic
Ġg auge
In it
ä¼ĺ è¶Ĭ
Ġst ations
ä¼´ æľī
ov ascular
point s
Ġdo ct
å®ļ åĲĳ
æľĢ åħ·
ĠG P
Ġmat hemat
Ġdri vers
13 9
ç»ĵæĿŁ äºĨ
ĠL ie
under line
ĠF red
Ġdev iation
OC K
èĤ² äºº
em an
ĠF und
æĺ¯ å¤§
çī¹ ç§į
Ġc raft
clud es
Ð°Ð ²
ä¹Ł æ¯Ķè¾ĥ
Ġnod ded
d ays
w art
ĠCon f
å¼Ģ åĪĽ
å·¥ä½ľ ç»ıéªĮ
çĶŁ æķĪ
åº¦ è¿ĩ
æ²¿ æµ·
h av
åĩ¤ åĩ°
çļĦ åıĮ
Ġre jected
åı¯ä»¥ éĢīæĭ©
è¯ķ è¯ķ
el ve
tt p
itud es
Ġdiv isor
éĿ ĸ
Ð½ Ð¸
ä¸ŃåĽ¾ åĪĨç±»åı·
ov ing
ä¸Ģä¼ļ åĦ¿
èĪ ±
Ġw avelength
ic ht
èĪ¹ èĪ¶
0 23
b d
èį Ĩ
èĸ Ľ
çĥŃ éĹ¹
Ġabsor ption
Ġl iber
}_ \
Ġ7 1
æīĢ èĩ´
ä¸°å¯Į å¤ļå½©
Ġemploy er
è¦ģ å¯¹
æīĭ çļĦ
S W
æĸ° äºº
ä»¥ äººä¸ºæľ¬
. $
Ġunivers al
T op
. /
in ating
æĿ¿ çļĦ
Ġplur ality
Ġdi verse
Ġ1 25
å¹ Ĥ
W rite
Ġ< =
ual ity
Ġco vers
ĠN ov
100 00
è´ ¬
åĿĹ éĴ±
Ġbas ket
Ġv ascular
è¦ģ ä»İ
Ġlegis lation
d ra
Ġdiscrim ination
è´£ ä»¤
ĠT aylor
Ġd ict
ion ed
S ION
è§ģ çļĦ
æĶ¹åıĺ äºĨ
æıĴ åħ¥
Ġexpl os
æ°¸ ä¹ħ
æ¬§ ç¾İ
Ġc um
Ġleg it
çľŁ çĽ¸
Ġde com
ç²¾ç¥ŀ åĴĮ
Ġfew er
å¢ŀ æĶ¶
èĢ³ æľµ
è¿ĳ åĩłå¹´
éĽ¶ é£Ł
Ġstrugg le
å¤ĸ éĿ¢
æıĲåįĩ äºĨ
Ġyield s
æĺİç¡® äºĨ
Ġmount ain
å®ŀ æĪĺ
ath an
åĲĪä½ľ ä¼Ļä¼´
p ool
èĥ½ è®©
çİ° æľīçļĦ
Ġc ited
æĢ§ å¼º
çľĭåĪ° çļĦ
Ġref ers
åı¯ä»¥ æł¹æį®
äºĽ ä»Ģä¹Ī
éľĢæ±Ĥ çļĦ
å¤ª å¤ļçļĦ
Ġst om
æŃ¥ è¡Į
èļ Ĭ
çĶŁæ´» åľ¨
èŃ¦ æĥķ
å®ª æ³ķ
ç² ¹
æļĤ åģľ
ĠR a
å¾Īå¥½ åľ°
Ġh ang
Ġn erve
èĢģ åĮĸ
N P
åı¦ ä¸Ģç§į
ĠN umber
12 1
å¹¶ ä¸įèĥ½
è´Ŀ å°Ķ
ens or
Ġmod ification
åĨĽ äºº
ä¸į åĲĥ
Ġl ips
åı¯ è¾¾
è®¤ä¸º æĺ¯
Ġmatch ing
çĶ¨ èĩªå·±çļĦ
ç®Ĺ æ³ķ
Ġt ape
äº¤ äºĴ
Ġed ition
ĠCon ne
è¶ħ åĩº
äºĴ åĬ©
ĠE V
çļĦäºº ä»¬
äºº ç¤¾
æĹłå¿§ èĢĥç½ĳ
æĿ¥ åĪ°äºĨ
Ġl oud
å¾Ī åı¯èĥ½
å¹¿ å·ŀå¸Ĥ
Ġf ool
Ġanal yt
Ġse vent
ĠP oint
åıĳ æĢ§
ç¤¾ä¼ļ ä¿ĿéĻ©
wh ite
Ġvari ance
Ġbeh alf
åĬłå¤§ å¯¹
Ġhas n
åıĳ æĶ¹
v r
Ġrestrict ed
ĠG reek
I LL
éģ £
å®¶éķ¿ ä»¬
ĠSt an
åĮ» åĬ¡
åı¯ä»¥ å¸®åĬ©
æĸ° åªĴä½ĵ
Ġ19 83
çļĦ ç»ĵæŀĦ
æįĲ èµł
è§ģ è¿ĩ
Ġserv es
ãĤ Ĥ
Ġmagn et
ist ical
Ġprint ed
é«ĺ ä½İ
å¥½ äºĭ
l ers
Ġapp s
------------ ---
ĠWil son
å¨ ©
Ġappoint ed
h ire
ubl ished
U se
æĪĲä¸º ä¸Ģä¸ª
éĺ¶ çº§
Ġvot ers
åıĺ çļĦ
Ð°Ð ¼
ĠE p
Ġaim ed
Ġins u
Ġdecl are
åŃ©åŃĲ åľ¨
Ġmir ror
åĽ¾ ä¸Ń
å¯¹ ç§°
B E
d est
]{ .
å½° æĺ¾
åı¤ åħ¸
n ie
ĠB uild
ir ms
åħī æ»ĳ
çľģ ä»½
Ġat oms
Ġatt ribute
Ġapproxim ation
)$ $
åģļ äºº
æµģ æĦŁ
Î± Î¹
ç«¥ å¹´
Ġy eah
æł¹ æºĲ
ä½ĵ åĬĽ
Ġacadem ic
å·¥ å§Ķ
èı ł
f ull
ä¼ģä¸ļ ç®¡çĲĨ
Par am
éĿ¢ è²Į
æŀģ éĻĲ
åĲ¬ äºĨ
ĠO l
Ī °
u its
éģŃ åĪ°
åį° åıĳ
è¿ĻäºĽ éĥ½æĺ¯
å¦Ĥæŀľ åľ¨
ict ions
æľ¬ èģĮ
æĺ¯ çĶ¨
ĠRes ults
é¦ĸ éĥ½
Ġinn oc
ĠF ROM
ã Ī°
çİ¯å¢ĥ ä¸Ń
åĨ· éĿĻ
ĠM iller
ä¾Ľ æ°´
èĬ± éĴ±
é¾ Ł
Ġth inks
äºĴ èģĶ
Ġdestroy ed
æĥħåĨµ è¿Ľè¡Į
ä¸Ģ æĿ¥
ow a
æľŁ æľ«
æĻ®éĢļ çļĦ
âī ¤
æŀ¸ æĿŀ
Ġ( âĢľ
Ġcoh ort
Ġsu ffer
Ġorient ation
Ġclos ing
Ġchalleng ing
k it
Ġmove ments
Ġmult ip
ĠMich igan
Ġl attice
è¥¿ äºļ
uns igned
ä¹ĭä¸Ģ çļĦ
3 20
æĶ¶çĽĬ çİĩ
Ġnerv ous
st ra
æİ Ģ
å¿ħé¡» åľ¨
å®¡ è®®
è¯Ħ è®®
å¥¥ è¿ª
Å Ľ
æµģ åħ¥
=" #
æĻ ĥ
Ġres olve
äºĮç»´ çłģ
em ic
ct x
æİĴ éĺŁ
åľ¨ ä¸Ń
è¹ ²
æ¨ª åĲĳ
unt ime
Ġdiagn osed
ç§° ä¹ĭä¸º
Ġredu ces
æ¨¡å¼ı çļĦ
Ġfluores cence
åĪ© çļĦ
åħ¬å¸ĥ çļĦ
Ġexplicit ly
ĠC hem
ĠCh ampionship
è¾ĥ å¼º
å¤ĸ å¥Ĺ
è°ĥ è¯ķ
åĨ² æ´Ĺ
ĠD M
Ġim posed
åı¯ çĪ±çļĦ
ĠDav is
Ġheav ily
åľ° è¿Ľè¡Į
ĠSte ve
Ġhyper t
å®ļ æĹ¶
æĸĩåĮĸ å»ºè®¾
Ġhere in
pro d
Ġsm iled
p ush
å¢ŀå¼º äºĨ
ino is
y g
åħĭ æĸ¯
åĨħéĥ¨ æİ§åĪ¶
re le
çĶ¨ åĬĽ
æĹ¥ è®¯
è½¦ ç«Ļ
May be
ĠD isc
Ġ9 3
A K
èµ° è·¯
ç» ŀ
èĩª è±ª
up date
å·²ç»ı åľ¨
ä¸º éĩįçĤ¹
ĠâĢ ¢
`` `
Ġche ap
R ow
Ġgener ating
è° İ
) ),
Ġtempor ary
ç° §
Ġf ired
ä¸ĭ ä¸Ģä¸ª
os omes
æĪĳ åİ¿
Ġch ip
åĴĮ å¯¹
åĪ¶ åĬ¨
è¿ĺæľī å¾Īå¤ļ
èµ· åĪ°äºĨ
Ġ8 3
éĽĨ åĲĪ
ä¸ĵ äºº
è¡Ģ èĦĤ
_ >
et ies
ç»ĵ å±Ģ
éª ı
ä¸¥ å³»
é© ³
Ġu pt
æĢ¥ æķĳ
å°± å¥½
ĠKing dom
å¿ĥ è¡Ģç®¡
in ition
çĶŁäº§ åĬĽ
ä¸° çĶ°
æģĴ å¤§
Ġro ots
èĢģå¸Ī ä»¬
åĳ¨ çŁ¥
ä¸Ģ æł¹
å¾ģ éĽĨ
è´´ è¿ĳ
Ġ1 23
ĠL ittle
at re
RNA s
ilib rium
2 11
åĳ¼åĲ¸ éģĵ
è©¹ å§Ĩæĸ¯
æ¶ ©
å®ļ çĤ¹
Ġupd ates
åıĺ åİĭ
åħ¬å¼Ģ æĭĽèģĺ
Ġbu ying
å¤§ å£°
bl ack
Ġt ank
ĠL uc
åĳĺ çļĦ
pro v
= -
ĠSp ain
åį´ æ²¡æľī
éĺ³ åı°
å·´ é»İ
çŁŃ çº¿
å¾Īå¤ļäºº éĥ½
Ġintr ac
ä¸ĩ è¾Ĩ
å¿ĥ ä¸ŃçļĦ
Ġengine ering
Ġadvant ages
b ial
æĺ¯ æ¯Ķè¾ĥ
Ġexec uted
çļĦ æł¹æľ¬
Ġve ctors
m aster
E m
ĠP S
é£İ éĽ¨
Ġ ],
Ġch a
ä¸įåĪ° ä½į
var iant
ä¸ĢçĽ´ ä»¥æĿ¥
et ch
åĨ³ è®®
ĠE lect
Ġeduc ational
å¼Ĥ è®®
ns ylvania
Ġde ploy
ä¸İ ç¤¾ä¼ļ
å®Ŀå®Ŀ çļĦ
å·¥ä½ľ æķĪçİĩ
ĠF ox
ä¸į æĪĲ
ç®¡çĲĨ ç³»ç»Ł
ä¸İ ä¹ĭ
). $$
ros is
ĠE L
Ġin her
ut ter
è½¬åŀĭ åįĩçº§
Ġin clusion
ij n
æĥ ¹
Ġres olved
çĿĢ çľ¼
P i
Ġl anguages
ĠA ward
Ġelse where
ov es
Ġbr anc
ĠB ush
Ġden omin
ä¸Ģä¸ª æĺ¯
çŁŃ æļĤ
åĩı å°ı
) ãĢĲ
å¯¹ æĪĳä»¬
éĢ¾ æľŁ
Ġt ack
éĢī è´Ń
ad el
ä¸į ä¸ĭ
ĠDet ermine
Ġtrans plant
Ġconsist ing
B o
å®½ å®¹
op es
åŃ¦ è´¹
ä¸Ĭ å¸Ŀ
æ¥¼ æ¢¯
ä»ħ ä»£è¡¨
. ]
P ER
Ġsett led
Ad dition
am ps
olog ically
b ool
æ²³ æµģ
\ }$
Ġsub stit
ä¸¢ å¤±
Ġmag azine
å±Ĥ å±Ĥ
Ġeng age
y o
Ġs outhern
çļĦ åİĭåĬĽ
åĪĽ åĬŀ
Ð° ÑĢ
Ġsett lement
ç¥¨ æį®
é¥± æ»¡
Ġde but
åĵ º
Ġcontin uing
s ite
Ġ== =
æº ¯
Ġtrack s
æĸ¹æ³ķ åĴĮ
å°ı åĦ¿
d am
ĠV ersion
Ġdu plic
è¡Į ç¨ĭ
ĠK im
åįĹ å®ģ
çĸĹ ç¨ĭ
å°ĳ äºĨ
on ed
ä¸įæĸŃ æıĲåįĩ
å¾Īå¤ļ æĹ¶åĢĻ
Ġel der
2 80
Ġc ache
çĸ¤ çĹķ
éĻ¤ å¤ĸ
Ġfac ed
S ign
åĽĽå·Ŀ çľģ
è¦ģ åģļ
Ġconsum ers
Ġpr on
Ġ( $\
AR Y
O ptions
è´¨éĩı åĴĮ
çĽ¸ ç»§
çłĶç©¶ çļĦ
æį £
un ctions
Ġsh ook
èµ° ä¸Ĭ
ä½ł è¯´
l ayer
è¦ģ çĶ¨
Ġref lected
Ġkeep s
ç«ŀ æĬĢ
Ġne ural
åįĹ åĮĹ
Ġ9 2
ä¸ĵ èģĮ
T oken
ä¸ĭ çıŃ
ä¼Ĺ æīĢ
Ġ19 88
èĢĮä¸Ķ è¿ĺ
çŃī äºº
ur i
è¯¦ç»Ĩ çļĦ
æĪĲçĨŁ çļĦ
ĠAnd rew
Ġlist ening
Ġenjoy ed
, $$
å¸ĮæľĽ èĥ½
çļĦäºĭ å®ŀ
å¢ŀ è¿Ľ
æ¹ĸåįĹ çľģ
Ġpro gn
å¿ħ å°Ĩ
åįĹ æĺĮ
å¾Ī ä¸į
Ġe en
F urther
g reen
ogen ous
è¿Ļä¸Ģ æ¬¡
op ed
è´Ń ç½®
Ġ10 1
Ã© t
æľīäºº è¯´
Ġb eneath
Ġag ric
åģļ è¿ĩ
Ġ8 7
Ġimp air
16 5
ul ator
ĠB on
ific ial
Ġadd s
æµģ è½¬
Ġincorpor ated
å¿ħ ä¸įåı¯
0 22
Ġpart ition
å·¦åı³ çļĦ
æ¾ Ħ
ä¸į è¯´
ad i
è§Ħ çŁ©
ĠEx p
ç¢° åĪ°
Ġalleg ations
Ġn ose
éĩįè¦ģçļĦ ä½ľçĶ¨
å¼ķèµ· äºĨ
é¼» åŃĲ
ÐµÐ½ Ð¸
st ore
Ġâ Ļ
ĠCom put
ne cess
Ġde lete
ust ration
æĴ¤ éĶĢ
çļĦ å¤ĦçĲĨ
æİĴ è¡Į
åŃĺ æĶ¾
Ġcon front
h d
ĠC ur
ä»ħ æľī
ĠIn vest
åĮ» æĬ¤
ĠB E
Ġdes irable
ask a
çĶ ¸
Ar g
Ġdist urb
Ġprodu ces
åıĸå¾Ĺ çļĦ
æļĹ ç¤º
ÂłÂłÂłÂł ÂłÂłÂłÂł
Ġtra v
æĪĲç»© æŁ¥è¯¢
Ġalgorith ms
c us
Ġ ..
Ġapp ell
æ±½ æ²¹
åĲ¸å¼ķ äºĨ
é¢Ĩå¯¼ çļĦ
N on
äºĨ ä¸ª
æķĻ èģĮå·¥
åķĨ åºĹ
ĠE mp
ĠMus ic
çĶ¨ éĩı
ĠMed ia
ç½ ķ
ä¸į ä¸Ģå®ļ
æľĢ å°ı
Ġevery body
g el
Ġconstant ly
å·²ç»ı æľī
å¼º åĬ²
F D
å¥³ ç¥ŀ
çļĦ å¼Ģ
ĠP L
Ġover come
çļĦäºº çī©
Ġsc rew
se x
Ġbelie ves
ĠT oday
æ¯ ¯
Ġpharm ac
å¾Ī é«ĺçļĦ
19 8
ĠI l
éĻį æ¸©
iment al
ĠH ard
åĽ¾ ä¸º
å¤ļ äºº
ĠIm age
ĠU k
es ides
çİ° è´§
ç§ĺä¹¦ éķ¿
15 6
ä¸Ĭ æĺ¯
ĠPer haps
æīį èĥ½å¤Ł
Ġret ire
Ġhealth care
æľį é¥°
å¤ĩ èĢĥ
ĠS ov
æģ¶ åĬ£
Ġmet a
Ġmov ies
è¶ħè¿ĩ äºĨ
ä¸į å·²
Ġt rem
Ġv oc
Ġse es
åĽł åŃĲ
æ³¨æĦı åĪ°
åıĳè¾¾ åĽ½å®¶
éļ ¶
= {
ĠMan agement
Ġc ig
Ã¨ re
æ°´ è´¨
å¥³ æĢ§çļĦ
Ġconserv ative
Ġen abled
ĠCorpor ation
w orth
ĠR h
ç¤¼ åĵģ
æ¡ Ĳ
Ġsil ent
ĠĠĠĠĠĠĠĠĠĠĠĠĠĠĠĠĠĠĠĠĠĠĠĠĠĠĠĠĠĠĠĠĠĠĠĠĠĠĠĠĠĠĠĠĠĠĠĠĠĠĠĠĠĠĠĠĠĠĠĠĠĠĠĠ ĠĠĠĠĠĠĠĠĠĠĠĠĠĠĠĠĠĠĠĠĠĠĠĠĠĠĠĠĠĠĠĠ
ç©¿ è¶Ĭ
Ġstat utory
Ġdi ag
æĹł æīĢ
å¸Ī å¾·
åĥı æĺ¯
èī² ç´ł
éļĲ ç§ģ
çĻ½ éĵ¶
ĠE nt
ibr aries
æĹł éĶ¡
Ġter rible
ĠB a
ä¸ĭ è½¦
H ave
oun ced
Ġco at
Ġexpl ains
ĠMuse um
w ed
ĠM ajor
Ġinter rupt
Ġh oles
å¯Ĵ åĨ·
Ġsp okes
éĢīæĭ© çļĦ
çĲĨè®º åĴĮ
åĻª å£°
Ġparticip ation
è¿Ľ é£Ł
ĊĊ ĠĠĠĠĠĠĠĠĠĠĠĠĠĠĠ
}^{ -
å¯¹ è¯¥
Ġun likely
æŃ¦ è£ħ
æĸ¹ å½¢
åģļ åĪ°äºĨ
ä¹Łæĺ¯ ä¸Ģä¸ª
æ·± çļĦ
åĽ° æĥĳ
æľī æĦı
Ġt ren
| ^
ä¸įä»ħ åı¯ä»¥
è¿ĲåĬ¨ çļĦ
f iles
ne um
çŁ ¢
ĠPal est
åįļ è§Ī
Ġ8 9
Ġdeep ly
éĺ² å¾¡
Ñģ Ðº
t v
èµ° åľ¨
' ),
ä¸į åģļ
Ġunus ual
âĢĿ âĢĶ
åĽ½ éĺ²
Ġsign ature
Pro v
Ġbir ds
çĤ ĸ
ä¸¤ æĿ¡
çľŁ é¢ĺ
Ġin frastructure
ĠU ser
ra ined
Ġp itch
pl ain
×ķ ×
Ġc ock
Ġk il
ĠC as
çŃī å½¢å¼ı
çļĦ ä½ľåĵģ
Ġte en
åħ³ç³» åĪ°
Ġ ell
Ġby tes
id al
ä» Ĺ
ĠF ather
Ġsc ored
èº« çļĦ
ish op
g ood
ĠH E
On ly
æĹ¶ æ®µ
Ġnewsp aper
empt y
è°ĥ åĳ³
çĦ ķ
% ~
ä¸½ çļĦ
ç»Łä¸Ģ çļĦ
end a
è°ĭ åĪĴ
å¤§ äºº
cl ip
Ġrough ly
éĺ² èħĲ
åıĳçĹħ çİĩ
ĠT ri
äººå¤§ å¸¸å§Ķä¼ļ
æį ı
ĠJew s
Ġ8 2
æĪĳ éĥ½
ĠC EO
Ġsh out
Ġpept ide
ne x
åħ° å·ŀ
ç»ıèĲ¥ ç®¡çĲĨ
Ġdomin ant
äºĮ äºº
ĠTh ank
æµģ çķħ
ä¸»åĬ¨ æĢ§
ad ium
åħ¨éĿ¢ çļĦ
å¸®åĬ© åŃ¦çĶŁ
æĽ´ å¿«
olog ists
æĪĳ åıĪ
Ġmanufacture r
Ġfrequ encies
æ¶īåıĬ åĪ°
çº ¬
Ġl unch
em ed
ä¸į ä¸Ģæł·çļĦ
ä»ĸ å¯¹
ä¼ł åĬ¨
ab eth
è¿Ľ æĿ¥
å¹³ æķ´
ãĤ ī
å¤§ è¡Ĺ
çŁ¥éģĵ äºĨ
æŀĦ ä»¶
åª ³
åĬ «
Ġ9 1
F unction
ad vant
å°± åºĶè¯¥
ret t
ä¸Ģ å£°
å°¿ éħ¸
éĿ¢ä¸´ çĿĢ
Ġu pload
çķĻ å®Ī
Ġy ards
Ġon set
æ¸© åĴĮ
Ġman ual
Ġperson nel
å® °
çŁ³ å®¶åºĦ
èªī ä¸º
Ġchick en
k ind
åĩĨå¤ĩ å¥½
end ix
è½¦ éģĵ
åĬ¨ èĥ½
Ġad mit
éħį çĶµ
Ġant igen
h older
åĪ ĥ
par se
åı Ľ
Ġfall s
Ġsing ular
Ġsched uled
çļĦ åĪĨ
ĠM ir
Ġper mitted
w hel
éķ¿ å¾Ĺ
F actory
æĶ¿ æ³ķ
Ġabund ance
ä¼ĺ ç¾İ
åĲĮ ä¸Ģä¸ª
ĠAs ian
Î Ķ
æĬ Ĵ
est inal
Ġ7 9
Ġtele phone
çļĦ æĸĩç«ł
åīĸ æŀĲ
åħ¼ é¡¾
Ġaccompan ied
æĸ° åŁİ
è¿ĩ å¾Ĺ
Ġtim ing
Ġarrang ement
å¸¦ ç»Ļ
Ġopin ions
U ST
è´« è¡Ģ
ä¸Ĭ æĺł
h ol
Ġs el
åĩº åľº
å¸Į èħĬ
åıĮ åĲĳ
éĿ¢ ç²ī
è´£ä»» äºº
çĿĢ æĢ¥
ĠTh ough
an z
17 7
åį§ å®¤
ä¸į åŃĺåľ¨
çĭ¬ èĩª
equ al
ĠR ub
è°Ī è°Ī
W indow
u ated
Ġst upid
ä¾µ å®³
ç»ıæµİç¤¾ä¼ļ åıĳå±ķ
åĪĽæĸ° çļĦ
çª ĳ
åħļå§Ķ ä¹¦è®°
æĿ ī
Ġwrit ers
Ġview ed
æī§ çħ§
èīºæľ¯ å®¶
Ġprof it
æĪĳ èĩªå·±
å®ŀåľ¨ æĺ¯
ib ration
è¥¿ èĹı
re q
æĸĩçĮ® æłĩè¯Ĩ
Ġ1 40
Ġappreci ate
Ġrec ru
Ġdismiss ed
Ġpil ot
ĠN C
Ġuncertain ty
Ġprov en
ç«ŀäºī å¯¹æīĭ
Ġbar rier
ĠB ell
ĠAcadem y
æĳ©æīĺ è½¦
Ġr ural
å¥³ åıĭ
Th read
Ġp i
ĠS us
Ġlip id
Ġres ist
Ġfound ed
St ud
ä¼¦ æķ¦
ĠA ge
å¤§ åİħ
ĠN orthern
è¿Ĳ ç®Ĺ
Ġsome body
å¤§ æī¹
ber ry
![ ](
Ġbl ess
ç«ł ç¨ĭ
ä»ĸ è¿ĺ
È Ļ
word s
èĦļ æŃ¥
Ġc odes
æĭ¼ æĲı
col umn
Ġhop ing
Un ited
éĢĤ åº¦
å§¿ æĢģ
Ġcolle agues
ĠÃ ¨
åĨ Ģ
åĶ± æŃĮ
ä¼ĹæīĢ åĳ¨çŁ¥
ä¸į éĻĲ
éķ ģ
ĠK en
Ġatt ended
Ġin fer
qu es
ä½łä»¬ çļĦ
o j
åĪĩ åī²
çļĦäºº ç¾¤
åı¯ä»¥ ä»İ
} [
Ġ> >
Ġhouse hold
çļĦ å¢ŀéķ¿
èĲ½ åĪ°
éĢĢ å½¹
æľ¬ æľŁ
éĤ£ æĹ¶åĢĻ
çģ« éĶħ
Ġver tex
( _
èī¯ æĢ§
vious ly
è¿ĺ æ¬¾
æĦıä¹ī çļĦ
in ternal
Ġcon crete
ph y
æŀ «
åĴĮ é«ĺ
Ġver dict
â Ħ
çī¹åĪ« çļĦ
Ġ ),
Ġt unn
ble m
Ġbut t
å½ ¬
éģ Ĥ
æĦī æĤ¦
åħī ä¼ı
æ»¡ äºĨ
Ġ8 6
éª¨ æĬĺ
Ġ Ä
ä¸Ģ éĿ¢
éĺ¿éĩĮ å·´å·´
ĠTr ue
æĢ ĸ
ĠQue en
Ġprior ity
ĠL ibrary
åĴĮ åŃ¦çĶŁ
; ;
èĲİ ç¼©
ĠG all
Ġtra il
e re
Ġ( '
åĲį ä¹ī
18 8
Ġconven ient
æīĭ åĬ¨
è¶ħ å£°
çĽĳçĿ£ æ£ĢæŁ¥
æķ°æį® çļĦ
p ot
ĠM id
æĹ¶ ä¸į
Ġre venue
è¿Ľ åĩºåı£
æ¸¯ æ¾³
T V
Ġvary ing
Ġquant itative
æĸĩçĮ®æłĩè¯Ĩ çłģ
éĽ Į
ĠP ass
Ġport ions
ace ut
ĠW at
B uilder
Ġpres erv
è¯ķçĶ¨ æľŁ
ä¹Ł è®©
å»ºè®¾ å·¥ç¨ĭ
Ġloss es
å°ı äºĭ
m aking
Ġsc ales
< ?
æīĢåľ¨ åľ°
ä»· çļĦ
ç»Ħç»ĩ å®ŀæĸ½
h w
Ġdi ver
Th ree
èµł éĢģ
Ġf older
Ġinv asion
åĲ¦ è®¤
æĸĩç«ł ç¼ĸåı·
Ġinter vals
iju ana
éĻĪ ä»£è°¢
Ġinsp ired
åĢ¼å¾Ĺä¸Ģ æıĲ
Ġfriend ly
n an
æ·±åħ¥ å¼Ģå±ķ
å°¤åħ¶ æĺ¯åľ¨
ĠÃĹ Â
Ġrec ur
æĺ¯ä¸Ģ ä½į
Ġind irect
è®² æİĪ
P ort
E v
SE T
é¥® éħĴ
Ġcoord inates
ãĢĤ -
ĠD ig
å¹¸ç¦ı çļĦ
Ġcompr ising
f amily
çİĭ æŁĲ
ire ction
è¦ģ æł¹æį®
ult y
u id
Ġphenomen on
Ġt urb
ä¸Ń åİ»
å¿ĥ çĹħ
Ġavail ability
éĩİ çĶŁ
åı¯ éĢļè¿ĩ
æķĻèĤ² å·¥ä½ľ
ä¹Ļ èĤĿ
Ġvis ited
or ous
éħ¸ å¥¶
Ġad mission
æ¥¼ çĽĺ
è¿Ļ å¼ł
Ġbound ed
è¿Ļ åº§
éľ Ĩ
13 4
åħĭ åĬĽ
Ġn orthern
he rence
åĴĮ åŃ©åŃĲ
èĬ Ļ
Ġdo ctors
åĩĨå¤ĩ å·¥ä½ľ
è¸ı å®ŀ
æ°ĳ æĶ¿
Ġperson ally
ĠL y
ĊĠ ĊĠ
åĮ»çĸĹ ä¿ĿéĻ©
Ġregular ly
Ġcomb at
èĬ± çļĦ
è´ ©
Ġpow der
ä¸Ń å¤ĸ
æ¯ıä¸ª äººçļĦ
èī ĺ
æ¯Ľ æ³½
æł¹æľ¬ ä¸Ĭ
viron ments
all ing
Ġconvert ed
Ġcons pir
ä¹Łæĺ¯ éĿŀå¸¸
text rm
Â ½
æĹ¶ å¸¸
èĪ¬ çļĦ
Ġton ight
æľī ä¸¤ä¸ª
ot ation
et r
å¯¹ çĿĢ
ï¼Į (
å°ĳ åĲĥ
ĠA C
Ġpar as
s ys
åĴĮ å¤§å®¶
S tyle
çĻ £
Ġ1 60
ç£¨ æįŁ
Ġimprove ments
åħ¨éĿ¢ åıĳå±ķ
è¿ĺ åºĶ
Ġ8 1
à º
Ġpar ad
æľĢåĲİ çļĦ
Att ribute
U sing
ĠT urn
ĠF ood
åįĸ åĩº
åĲ¸å¼ķ åĬĽ
as er
ON E
æº º
math scr
Ġdem ands
æĹł åı¯
Ġcalc ium
d m
æ²Ļ åıĳ
é¢Ī æ¤İ
æ¯ķä¸ļ åĲİ
aw a
L Y
Ġag es
Ġgr ay
æŁ´ æ²¹
è¯± æĥĳ
N G
æº¶ è§£
éĴĪå¯¹ æĢ§çļĦ
ç»Ĩ åĪĨ
ç½ĳåıĭ ä»¬
Ġfore ver
c raft
w ent
Ġste pped
æ¶ ¤
è´£ä»» ç¼ĸè¾ĳ
å¤« å¦ĩ
ä¸İ ç®¡çĲĨ
ç»Łè®¡ åŃ¦
Un der
çļ± çº¹
å®ĥä»¬ çļĦ
ä¸Ģ ç»Ħ
èĩª å°Ĭ
æĺİ æĺİ
Ġmaint aining
ĠL ow
Ġegg s
Res ource
ä»ħä»£è¡¨ ä½ľèĢħ
00000000 00000000
Ġtempor al
H igh
oles ter
Ġworld wide
é¢Ŀ åº¦
subset eq
ĠStud ies
ä»İä¸ļ äººåĳĺ
Ġn in
çĨŁæĤī çļĦ
Ġwitness es
Ġdegrad ation
è´£ä»» å¿ĥ
åīį æ²¿
Ġevery where
ä¸Ģ çķª
æĬķ å½±
å·¡ æŁ¥
é¢Ĩå¯¼ ä¸ĭ
ä¸Ģ æľŁ
Ġhoriz ontal
Ġg ay
ĠPat ent
Ð°Ð ·
å¹´æľĪ æĹ¥
ä¸ºä¸» çļĦ
ĠPen nsylvania
æ¡£ æ¬¡
Ġstr ings
av id
æīį çŁ¥éģĵ
Comp onent
ament o
Ġj et
ä¸Ń æĸ°
ĠCam bridge
t an
çĽ¸ å·®
æ´Ĺ æīĭ
Ġex clusive
\ ,\
Ġsyn chron
ĠC ell
A cc
Ġcon clusions
ç«¯ æŃ£
æľĿ éĺ³
ĠCons ider
b its
ä¹ĭ æĹ¶
Ġa z
14 7
æĵħ éķ¿
äºĭ çī©çļĦ
Ġstay ed
sh ould
éĹ´ éļĶ
> .
éĺŁ åıĭ
Ġdeterm in
Ġdec or
å¥ ´
ä¹ĭ ä»¥
åĽĽ åŃ£
è·Ł éļı
ä¿¡æģ¯ ç³»ç»Ł
F OR
Ġw ake
Ġcl im
æīĭ éĩĮ
æĶ¯ éħį
Ġprofess or
æĿİ æŁĲ
ãĤ ¹
Ġkin ase
è®¡åĪĴ çļĦ
Ġent ering
åĩº èī²çļĦ
åİŁ æľīçļĦ
Ġdesign s
Ġf usion
Ġpen alty
Ġstri p
æ¯Ľæ³½ ä¸ľ
S um
è¯¾ åīį
æĺ Ń
åı¯éĿł æĢ§
éĥ½ å°Ĩ
Pro ject
ĠT otal
çķ ´
b ot
åħ¨åĽ½ åĲĦåľ°
åĳĬè¯ī æĪĳä»¬
è¾ħå¯¼ åĳĺ
ant i
å¦Ĥæŀľ æĪĳä»¬
Ð¾Ð ¹
Ġprov ider
æĮģ èĤ¡
ĠD R
ry st
Ġrece iver
Ġinequ ality
15 8
éĥ½æĺ¯ åľ¨
ĠPac ific
çļĦ æĿĲæĸĻ
éŁ³ åĵį
é«ĺ ä¸ī
ĠT ake
Ġprint ing
çģ« çĪĨ
ĠDes cription
b es
ä½Ļ äºº
p ay
èĦĨ å¼±
è¯ķ è¡Į
Ġfun ny
Ġprocess ed
åķĨåĵģ æĪ¿
çľģ æĶ¿åºľ
h ot
)) /(
cl er
Ġaward ed
è§ĤçĤ¹ æĪĸ
ĠJer sey
Ġf el
Ġcompet ing
æµĩ çŃĳ
Ġme al
åĴĮ åŃ¦ä¹ł
]{} ]{}
åĪ° æľŁ
Ġb att
åħ¨ çıŃ
19 83
é¦ĸ æī¹
ĠE nergy
å®¶éķ¿ çļĦ
åĩıå°ĳ äºĨ
Ġaffect s
æĤ¬ æĮĤ
) _
åıĮ çľ¼
Ġsp ons
ĠAr ray
æĪĳ æ²¡æľī
Ġstud io
a wn
Ġoper ated
ç»Ĩ å¿ĥ
å¸Ĥåľº åĮĸ
ç»Ħç»ĩ å¼Ģå±ķ
reg ulation
è´¢æĶ¿ éĥ¨
C ase
Ġra rely
éĹ®é¢ĺ è¯·
Ġinhib itors
ĠK enn
åĿĩ æľī
å¿ĥ èĤĮ
ä¿Ŀ å®ī
è¯ļ å®ŀ
æĸ°çĶŁ åĦ¿
åĲ ģ
Ġmus ical
s v
! âĢĿ
ä½ĵåĪ¶ æĶ¹éĿ©
Ġath let
æł¸ æ¡ĥ
éĢļçŁ¥ ä¹¦
Ġ$ [
ãĢĳ ãĢĲ
åįĬ å°ıæĹ¶
ĠÂ °
}( {\
Ġpetition er
è¿Ļæĺ¯ åĽłä¸º
æĹĭ å¾ĭ
ĠC urrent
ic ing
Ġ+ /-
er ies
Ġv ice
è° ľ
çļĦéĩįè¦ģ ç»ĦæĪĲéĥ¨åĪĨ
Ġa ux
éģĩ åĪ°äºĨ
ĠWAR RANT
on i
åŁºç¡Ģ çŁ¥è¯Ĩ
ist ence
èŀº æĹĭ
Ġinter ference
ĠDes ign
åĨį åĪ°
çļ®èĤ¤ çĹħ
çķĻ ä¸ĭäºĨ
å¯¹ ä¸ŃåĽ½
çļĦ ç»ıéªĮ
åħļ æĢ§
éĽĨåĽ¢ åħ¬åı¸
const ruction
l ocation
åĲĮ ç±»
Ġcy cles
Ġprotect ive
ur able
Ġle ct
å§ ¥
c am
åĽĽ å¹´
éĽĨ èģļ
å¥½ è½¬
Ġpat ch
æĶ¯ æŀ¶
ĠSt ill
ç§Ł æĪ¿
ä¸Ģ è¾ĪåŃĲ
æģĲ æĢĸ
Ġaccum ulation
çļĦ ä¸»é¢ĺ
æ°´ åºĵ
æĪĲäº¤ éĩı
ä¹° çļĦ
çľĭ ä¹¦
S l
Ã ¹
Ġexpand ed
og l
åħļå»º å·¥ä½ľ
å¤© ä½¿
m ol
çĪ±å¥½ èĢħ
æĪĺ æľ¯
Å ¼
ĠB ase
è½¦ ä¸Ĭ
åħļ åĨħ
Ġstead y
is en
ä¸» æ¼Ķ
æĭ Ń
åĪĩ éĻ¤
Ġremov ing
ĠR est
19 2
èĬĤ åģĩæĹ¥
U til
Ġ }}
ä½İ æ¸©
æ¸ Ŀ
Ġang ry
ry ing
Ġign ore
çİĭ åŃĲ
ĠApp lication
åĭĩ å£«
æµ· ä¸Ĭ
Ġrat ios
Ġencour age
äº§ä¸ļ ç»ĵæŀĦ
Ġsub mit
æĶ¶ çĽĺ
Ġm amm
åĪĨ å¨©
sh ot
æģ Ń
çļĦ æĵįä½ľ
Ġsepar ately
A ccess
å¹¶ ä¸İ
Ġ19 60
in ch
P G
çī¹åĪ« æĺ¯åľ¨
æ°ĳèĲ¥ ä¼ģä¸ļ
é«ĺ åĪĨ
ä¸į åŃķ
æĪĳ æľī
ĠL ocal
ĠM ain
19 82
é©¬ æĭī
" (
ab c
å¾Īå¤§ ç¨ĭåº¦ä¸Ĭ
men u
èĲ½ æĪ·
Exp and
N ET
ĠB al
éĢĶ ä¸Ń
çı Ĭ
æŃ¥ åħ¥
Ġsurv ive
çĽ¸åħ³ è´Łè´£äºº
ĠZ eal
ol o
æİ¨ åĩºçļĦ
åģ¶ çĦ¶
T arget
Ġgun s
Ġs ie
èĥ½ ä½¿
Ġcompet itive
ä¸ĩ äº©
Id ent
Ġaw areness
çĹ Ķ
Ġwas hed
Ġob j
ĠM ap
åļ ¼
Ġmax im
çļĦ åľ°
ĠH ig
çļĦ æ³ķå¾ĭ
ĠEr ror
æĶ¹ ä¸º
Ġ( %)
éķ¿ ä¹ħ
Le ft
é¡¶ çº§
åľ£ è¯ŀ
Ġc ow
Ġsc attering
æĪĳä»¬ éľĢè¦ģ
èµĦæľ¬ å¸Ĥåľº
Ñ ī
çīĩ åĮº
Ġfil ing
Ġpre lim
Ġmass es
Ġsur ge
W E
åĴĮ æĶ¯æĮģ
åħ¶å®ŀ æĺ¯
æĮģ ä¹ħ
Ġcal m
Ġ: :
Ġc ord
ĠS at
åĩº åħ¥
å¤§ æĸ¹
ä½ĵä¼ļ åĪ°
æĺ¯ çĽ®åīį
çĶŁ çĹħ
å¯ ŀ
è¿Ļ çĤ¹
ĠStand ard
Ġext raction
ç µ
åħ¨ ç¤¾ä¼ļ
æ¸©é¦¨ æıĲç¤º
Ġwire less
bl ue
Ġsod ium
åħ¥ ä½ı
é¢Ĩ ä¼ļ
Ġfl av
Ġcommit ment
éĿ ĵ
ens ities
ĠCapt ain
åį«çĶŁ éĹ´
ra ine
çĶ· åıĭ
å½© èī²
æłĳ æľ¨
ex ample
ik a
D D
d oor
b ow
å·§ å¦Ļ
Ġadminist ered
t ri
æĬķèµĦ çļĦ
Ġquestion na
çĶ ©
è½´ æī¿
M c
Ġsystem atic
ĠPro position
æŁĶ è½¯
le v
Ġfail ing
pe red
æĬ¥ éĢģ
comple te
è¦ģ å¤ļ
c ies
äºĨ ä»ĸ
Ġchild hood
Ġt ired
Ġan ch
åħ±äº§ åħļåĳĺ
Ġcool ing
éļ¾ å¾Ĺ
ä»ħ ä¸º
Ġhors es
s it
ä¸ī ä½į
äºº æĺ¯
ä¸Ĭ éĿ¢çļĦ
åī§ çĥĪ
Ġlater al
Ġcapt ion
éķ¿ æķĪ
Ġreason ably
ĠÂ ¶
ä¸į è§ī
f ive
V M
è¦ģ åĿļæĮģ
é«ĺ ç§ĳæĬĢ
ä¹ĭ å¿ĥ
ĠE vent
Ġg ained
ãĥ¼ ãĥ
h n
å®ĮæĪĲ çļĦ
ĠL A
Ġab stract
om eter
çĲĨæĥ³ çļĦ
Ġthe ories
ç«ĭ æ¡Ī
Ġmet all
EN SE
l an
} ]
Ġf ur
æİ¨ çĲĨ
çĨ¬ å¤ľ
^ ,
æĢ§ ä¸İ
Ġf lying
Ġox ide
ç§ī æī¿
h op
w atch
ä¸į åı¯ä»¥
br ace
ä¸ĭ éĿ¢çļĦ
åħŃ ä¸ª
åħī çº¿
M et
material s
Ġdisput e
æĿĳ åºĦ
æĬĵ ç´§
é©¬ äºĳ
ach ine
Ġcomp ute
Ġcon ve
ĠGl obal
br al
Ġsat ell
å¼¯ æĽ²
L ong
å¸Ĥ åĢ¼
Ġpart nership
ä¹ĭ æĹħ
ç½ĳ çĤ¹
com mun
åį« è§Ĩ
æĺ¯ ä¸º
ĠS n
Ġin cl
Ġhe pat
. ),
çŁ¥ çļĦ
ç¾¤ä¼Ĺ è·¯çº¿
Ġgrad ient
åĮħ å®¹
æ¼Ķ å¥ı
Ġabs ent
ä¾ĭ å¤ĸ
Ġwor ried
åı· åı¬
è£ħ éħį
Ġ( (-
Ġ19 87
Ġal tered
ä¸į å¹¸
ç¬¬ä¸Ģ æŃ¥
d n
Ġt err
Ġs li
å© ī
çłĤ æµĨ
et ics
uck y
su per
Ġacqu isition
äº² å¯Ĩ
å¾ĹåĪ° çļĦ
æĺ¯ä¸Ģ ä»¶
È Ľ
æµģ ä¼ł
ä¸ĭ è¾¾
åħ¨ æł¡
Ġprev ention
99 9
è§Ĥ èµı
Ġhar vest
Ġaff ili
æĬĢæľ¯ äººåĳĺ
ä½ľçĶ¨ çļĦ
æ²ĥ å°Ķ
Ġut ility
ä¸į åĲĪçĲĨ
ag a
ĠM R
ins ic
çŁ¿ çī©è´¨
åº§è°Ī ä¼ļ
o vers
Ġre ject
åľĨ å½¢
ĠSer ies
H ello
çķĮ çļĦ
=" ../../
æĽ¾ åľ¨
æĲ¬ è¿ģ
ĠIll inois
å°Ĩ ä»¥
éĹ® æĪĳ
er as
çĭ® åŃĲ
ç´Ĭ ä¹±
Ġexp enses
AR D
T yp
ç»Ł æ²»
auss ian
ce o
èĦ ĵ
ç²¾ ç»Ĩ
Ġ19 86
éĢ Ĺ
Ġcomplet ion
Ġ Ñĥ
ç»ıæµİ åıĳå±ķçļĦ
ĠG a
ĠPr ime
ir it
he ast
r r
åı¯ æł¹æį®
Ġpack ages
Ġad en
æĮĩ çļĦæĺ¯
w edge
Ġdi pl
çĭ¬ç«ĭ çļĦ
ill ance
è¿« åĪĩ
ĠTh ird
]{ }\
éĺ² çĸ«
Ġpromin ent
ĠH un
ä»ĸ ä¹Ł
Ġrep ly
ĠSc ient
ä¸º å®¢æĪ·
çł´ ç¢İ
sa fe
ä¸į åĥı
Ġsever ity
ĠPlaintiff s
åįĥ å¹´
ĠRepublic ans
ĠC ook
å¤ĸ è´¸
éĤ» å±ħ
Ġmal ign
éĿŀå¸¸ éĩįè¦ģ
âĢĿ ãĢĤâĢľ
em ail
è½¦ åĨħ
add ress
ä¸ĩæĸ¹ æķ°æį®
Ġdecre ases
Ġsc hem
Ġ"" "
èµĦéĩĳ çļĦ
æİĮæı¡ äºĨ
E ach
ç» ¸
ä¸İ åŃ¦çĶŁ
æĦ ļ
å¤§ çģ«
Ġbow l
èĢĮ å¯¹äºİ
ä½ł æĢİä¹Ī
é¦ĸ è¦ģ
Ġbott le
ch anged
åºŁ å¼ĥ
ĠT our
è¿ģ ç§»
èĥ ±
ĠHT ML
çŃī çĿĢ
xx å¹´
A CT
T ag
çī¹åĪ« å£°æĺİ
b at
Ġsw it
å¸Ĥåľº ç«ŀäºī
ĠL ind
èµĦæł¼ èĢĥè¯ķ
çŃĶ åºĶ
çĩĥ æ²¹
Ġregard ed
Ġvari ants
new s
æ¸© å·ŀ
å¿į ä¸įä½ı
æ·ĭ å·´
ä¸Ģ å°ı
Ġprec ision
Ġguarant ee
ä»ĵ åĤ¨
ĠCent re
ĠCom mand
ĠL td
b ing
Ġb oss
Ġdiscuss ions
15 4
Ġautom atic
çļĦ åĵģçīĮ
AM P
æĤ£ çĹħ
Ġprov iders
Ġbes ide
æľī éĴ±
Ġent ries
æĺ¯ ä¼ģä¸ļ
çŁ ®
Ġnic ht
Ex ec
åıĤ ä¿Ŀ
åĽłæŃ¤ åľ¨
æ¯Ķè¾ĥ å¥½
Ġloc ally
èĬ ¹
Ġfun c
Ġg ut
åı¯ ä½¿
å¾® éĩı
è¯ ł
ĠD oug
s b
Ġd ial
çĶŁ åŃĹ
i otic
Ġno body
çī¹ æľĹ
ĠDef endants
çĶŁ æ®ĸ
çŃī æ´»åĬ¨
ä¸īè§Ĵ å½¢
Ġgener ic
åĴĮ ä¼ģä¸ļ
ä»ĸ ä¼ļ
ĠEx ec
ac on
çī©ä¸ļ ç®¡çĲĨ
W idth
ĠTh rough
åĽ¾ æĸĩ
æĪĳä»¬ éĥ½
âĢĶ "
çļĦ çĶŁåĳ½
Ġdevelop ers
åŁİéķĩ åĮĸ
åĴĮ çĶŁæ´»
ĠG O
ĠZeal and
åıĸ åĩº
p ref
ä¸Ģ ç»ı
Ġconcept s
å¸Ĥåľº éľĢæ±Ĥ
Ġcr imes
ä½ľ æģ¯
IL ITY
e a
az a
je ctions
ä¼Ĭ æľĹ
. :
Ġbe aring
ĠĠĠĠĠĠĠĠĠĠĠĠĠĠĠĠĠĠĠĠĠĠĠĠĠĠĠĠĠĠĠĠ ĠĠĠ
åı¯ä»¥ ä½¿
Ġdis h
Ġtrad ing
Ġe ase
åĮĹ éĥ¨
åĨ² åĬ¨
g han
èĢ »
å¤± è°ĥ
Ġpath s
å¤ļ ä½Ļ
st o
Ġb unch
Ġflow ers
Ġwrit es
Ġsh ips
3 30
åĿĲ æłĩ
èĭ± å¯¸
æ³ķ åºŃ
ĠRes p
ĠCommun ity
éĽ ¯
åĪĽå»º èµ·
act ivity
æĪĳä»¬ å¯¹
th ur
ĠM other
Ġhe ating
Ġd rew
Ġsim ilarly
Ġhard er
Ġr ice
Ġi k
ĠU V
ä½İ çļĦ
ag g
Ġsuppl ied
D eb
ä½ł èĩªå·±
çľŁ çĲĨ
Ġc ried
Ġ< -
ĠM inn
18 5
14 6
åĲĦç§įåĲĦ æł·çļĦ
Ġend ing
æĭĺ çķĻ
ĠSe a
èĲ¥ æĶ¶
ç®Ģ åĮĸ
å¾Ī å°ı
ç½ĳ çº¢
çªģ åĩºçļĦ
ĠM u
è¨Ģ è¯Ń
è¿Ŀ ç«ł
å¸ĮæľĽ å¤§å®¶
æĸ ©
Ġsearch ing
a ired
Ġfor um
åĴĮ ä½¿çĶ¨
é£İ æľº
èħ Į
ĠF ollowing
Ġinter ventions
Ġinf inite
åı¯ä»¥ å°Ĩ
Ġflex ible
ĠT al
æ±ī åŃĹ
æ²ī é»ĺ
çļĦ æĶ¿çŃĸ
l ab
Ġsh orter
ä½Ĩ ä¹Ł
Ġlock ed
èĩª ä¿¡å¿ĥ
Ġ Ã¤r
Ġt ong
Ġa uf
e ared
Ġsubject ed
at tered
ĠH or
ä¹Ĳ åĽŃ
eng ers
Ġge ometry
åı£ æľį
Ġkne e
ĠF amily
å¹³ ç±³
æļ´ éĽ¨
Ġexhib ited
), \
Ġmod ules
ge red
ĠB oy
ç§» æ¤į
Ġproceed ing
Ġcent ers
ç»ıéªĮ çļĦ
b ecause
ä¸ĭ æ¬¡
Ġlik elihood
æ° Ł
Ġper ceived
åĲĲ æ§½
åĳ¨ ä¸Ģ
æ¯« åįĩ
èº«è¾¹ çļĦ
d rop
Ġm unicip
æ¾ ľ
çŁ¥åĲį åº¦
éĢīæĭ© é¢ĺ
ç± ½
Ġexc iting
AP I
ĠE astern
Ġb ull
ĠS everal
è·¨ å¢ĥ
C B
æĿ¿ ä¸Ĭ
Ġpass es
ĊĊ ĉĉ
æģ ³
ãĤ Ĭ
ol ving
è®°èĢħ ä»İ
è®¨ åİĮ
ĠVal ue
èµ¢å¾Ĺ äºĨ
çļĦ çħ§çīĩ
æŀ¢ çº½
d agger
çķľ çī§
èº« å½±
æ© ±
åĬ¿ åĬĽ
çļĦä¸Ģ å¤§
äºĮ èĢħ
14 8
` ,
é¦Ļ åĳ³
e ff
in v
å®¶ çĶ¨
æĢ» çĲĨ
ang el
Ġanaly ze
red it
IV E
ä¸Ģ åĪĨ
ĠD irect
ĠK ent
æĪĺ å£«
Ġmeet ings
çĶľ èľľ
Add ress
å¹³åı° çļĦ
éŃ Ħ
it Ã©
ĠPol icy
åŃ µ
ĠG ames
ĠH ave
Ġmed i
Ġcult iv
G O
back ground
åº§ ä½į
Ġinflu enced
ä»Ĭå¹´ ä»¥æĿ¥
ĠNever theless
èĦ ĸ
Ġdel ight
Ġo u
è®¡åĪĴ çĶŁèĤ²
å¼ł å®¶
ĠAb out
ĠO p
èĮĥ çķ´
ĠBro ok
åĨľ æľº
ĠHar ry
Ġpix el
æİĮ å£°
Ġdenomin ator
æķ° åįģ
ä»£è¡¨ äºº
Ġp ill
å°ı å°ıçļĦ
ä½¿ ä»ĸä»¬
å¤ļæł· åĮĸ
ä¸ĢçĤ¹ çĤ¹
ĠW T
Ġtal ks
æ²¹ ä»·
Ġdistingu ish
ĠEd ward
æĪĳ çİ°åľ¨
çļĦ ç»Ħç»ĩ
æĸĩ ä½ĵ
èµ· çĿĢ
èĢĮ éĿŀ
æľ¬ åħ¬åı¸
åıªæľī åľ¨
æĮĩå¯¼ æĢĿæĥ³
P an
å®Ī æĬ¤
å½ ¤
åĪĽ ç«ĭ
çļĦä¸Ģ çĤ¹
t im
ĠC ru
åĲĪ çº¦
Ġresp iratory
Ġdis ability
y our
åĲĮ çŃī
Ġ19 85
å°ı éº¦
Ġqual ified
ĠL ead
\ }
ä¸ļåĨħ äººå£«
æĶ¯ éĺŁ
ĠR en
æł¸ æŁ¥
èĦ± èĲ½
ĠP ay
Ġviol ent
Ġpert urb
æłĩ æ³¨
Ġo ught
19 9
he ll
* ]{},
è¯ł éĩĬ
éĹ¨ çļĦ
è¯Ħ æ¯Ķ
ĠS QL
è¡Į äºº
Ġinval id
form ance
ä½İ è°ĥ
text bf
ĠGu ard
äºİ ä¸Ģ
æĸ° ä¸Ģä»£
Ġph ases
Ġfood s
20 4
ä½ĵç³» çļĦ
èı ±
Ġover whel
åĪĨéĴŁ åĲİ
ac et
åİĤ æĪ¿
æķĻåŃ¦ è´¨éĩı
éĶħ ä¸Ń
ç»©æķĪ èĢĥæł¸
ä¸ĩåħĥ çļĦ
æĶ» çķ¥
éĽ¶ éĥ¨ä»¶
MA X
æľĪ èĩ³
çĹķ è¿¹
ä¸Ģ éĺµ
ant o
åĢŁ è´·
Ġmix ing
11 11
ĠA ud
ĠP ot
}} $.
Ã «
L ocal
èİ· åĪ©
ic i
ut y
Ġar med
æĹ¥åĨħ ä¸İ
Ġexpress ions
ä¸į åħģè®¸
ĠY eah
Ġrandom ly
ĠS aint
Ġbo olean
åªĴ ä»ĭ
ĠC u
ĠG i
on ical
Ġvac uum
äºĨè§£ äºĨ
æµ· æĬ¥
Ġas ks
Ġcont ends
è¿ĺæĺ¯ å¾Ī
å¯¹æĸ¹ çļĦ
Ġ{ }
Ġsatisf ies
l ate
ĠG NU
Ġtarget ing
ke ys
è¿Ļ æľ¬ä¹¦
è¯¥ é¡¹çĽ®
Ġsy mp
çĽ´æİ¥ å½±åĵį
åĢ¼å¾Ĺä¸ĢæıĲ çļĦæĺ¯
å¸® ä½ł
Ġdes per
opl asm
çīĪ çļĦ
Ġp ipe
Ġne u
åİŁ ä½ľèĢħ
ag an
be ing
Ġc oding
Ġ19 84
åĻª éŁ³
Ġcompr ises
ĠK ong
Ġins ight
æ²¿ çĿĢ
Ġ\ ;
çļĦ æķ°éĩı
Ġen vironments
æĮ ļ
ä¼´ éļı
æıŃ ç¤º
åĲĳ ä¸ĬçļĦ
è¥¿ åĮ»
ĠD am
ĠL atin
f oo
v ance
çĮľ æµĭ
Ġfol ks
æĶ¾ å°Ħ
Ġmole cule
g ov
æķĻèĤ² åŁ¹è®Ń
Ġele ctions
Ġarter y
es ity
çĿ¡ åīį
æĸ¹å¼ı çļĦ
è¾¾ ä¸įåĪ°
Ġ10 4
Ġref uge
æ°´ åĩĨ
åĽłä¸º åľ¨
ag ic
è¿ľ çļĦ
åĪĨæŀĲ åĴĮ
ĠCont in
Ġv ital
çľ¼ åħī
è®¸å¤ļ äºº
Ġadvert ising
r b
ĠR ights
ak i
åĮħ è£¹
è¯· ä½ł
Ġbe ach
æĹ¥å¸¸ çĶŁæ´»
Ġwed ding
ĠL im
ä¸Ńå¿ĥ çļĦ
è§ĤçĤ¹æĪĸ ç«ĭåľº
m ade
ç£ ħ
neg ative
ĠW is
ç«¥ è¯Ŀ
æĭ ±
âĹ Ĩ
ĠN ick
Ġexpect ations
Ġsequ encing
æĸ½ è¡Į
Ġrec overed
åľ¨ åģļ
Ġgu est
t ree
ä¹ĭ æĥħ
Ġcoun cil
è°Ī åĪ°
éľ² åĩº
çļĦ ä¸Ĭ
ill ary
pt on
Ġen orm
Ġaddress es
åĽłä¸º ä»ĸä»¬
He ader
åĲĥ èĭ¦
Ġt ied
Ġm oon
æ¶Ĥ æĬ¹
ari os
å¼ł æŁĲ
Ġde position
åĮº åĨħ
åĪĨ çº§
rem ove
è® ¶
Ġfound ation
ĠS anta
åĪĨ å±Ĥ
are r
ç¦ı å·ŀ
å¾Ĵ åĪĳ
åĴ¨è¯¢ çĶµè¯Ŀ
å¤§åĬĽ åıĳå±ķ
ç¯® æĿ¿
Ġdel iber
ä¹Ĳ äºİ
ĠJ un
ç¾İ åĳ³
æľī ä¸Ģæ¬¡
é¦ĸ éĢī
Me an
Ġbare ly
Ġ âĪ
Ġgr ate
åįĹ æµ·
Ġlimit ation
åŃ¦çĶŁ ä¼ļ
ä¹Ł è¶ĬæĿ¥è¶Ĭ
å¯ ¡
Ġresid ual
ä»ħä»£è¡¨ä½ľèĢħ æľ¬äºº
åĪ¹ è½¦
åı² ä¸Ĭ
Ġs essions
åĩı å¼±
ä¹Łä¸į çŁ¥éģĵ
Ġprom ising
Ġh int
Ġun expected
æĥħåĨµ çļĦ
Ġjud icial
æŃ¤ åĲİ
Ġbu ck
Ð ¶
éĤ® æĶ¿
ĠInd ust
des c
P ut
æĸ° åĨľæĿĳ
Ġmedic ation
Ġche cks
Ġsh oes
éĻ¤ éĿŀ
ä½ľä¸º ä¸Ģç§į
Ġaccess ible
TT P
R ange
27 0
åŃ¦ éĩĳ
å¢ŀ å¹ħ
æ°¨åŁº éħ¸
ãĢĤ âĢ¢
Ġun like
çº¢ åĮħ
et ts
ĠC at
Ġaccept able
Ġ1 15
è¿Ļ åĩł
è¿Ľ åľº
The ta
èĲ¥ä¸ļ æĶ¶åħ¥
Ġt ears
åľ¨ æİ¥åıĹ
Ġd ates
åĲĪæł¼ çļĦ
èģĮä¸ļæĬĢæľ¯ åŃ¦éĻ¢
al o
æİ¨ éĶĢ
im m
å¿ħ å®ļ
Ġfacilit ate
ç¨ ł
å®¢æĪ· ç«¯
åºķ çº¿
éĺµ åľ°
éĿ¢ä¸´ çļĦ
*~ *
ä¸İ å®ŀè·µ
ĠST AT
Ġo h
åĮºåŁŁ åĨħ
Ġn it
iz abeth
ä¸ª å·¥ä½ľ
æ· ĳ
åĵģ åĳ³
Ġm ol
Ġrec ruit
Ġdro ve
IM E
è± ¹
æµħ è°Ī
Ġm ood
å¦Ĥ æľīåħ³
h our
å¯ Ŀ
Ġt ips
ĠÐ °
ĠPr ince
åľ¨ ä¸İ
éĥ½ ä¸įèĥ½
åī Ķ
åĺ ²
çĺ «
Ġd ad
set t
d ouble
Ġsust ained
Ġcut s
Ġfeed ing
èĴ¸ æ±½
äº® çļĦ
ĠA B
å©Ĩ å©Ĩ
ç§¯æŀģ å¼Ģå±ķ
ul ative
Ġphilos ophy
åıĪ ä¸į
H i
æ¯Ľ åŃĶ
è´§ è½¦
æĺ¾ çİ°
åĬŀäºĭ å¤Ħ
åĬ© æĶ»
å¹²éĥ¨ èģĮå·¥
u ations
rop ic
åİ» çļĦ
Ġfl our
Ġstudy ing
ili pp
åĴĮ å»ºè®®
Config uration
Ġnormal ized
èĤ Ĩ
T otal
c z
å¦Ĭå¨ł çº¹
ĠC M
com fort
ĠA ction
ĠC ustom
ĠRep resent
æľĢ éĩįè¦ģ
æĪĲéķ¿ çļĦ
Ġsh adow
over ty
å¼¹ ç°§
ä¹Ł å¥½
çĤ¹åĩ» è¿Ľåħ¥
est yle
Ġet t
Ġrep orter
æ»´ æ»´
Ġprom ised
Ġr anging
Ġthrow s
çĿ ¿
w all
æ±¡æŁĵ çī©
å®¶åºŃ çļĦ
éĥ½ ä¸įæĺ¯
ĠHe ad
Ð¾ Ð½
Ġresid ues
ĠW as
Ġâī ¥
ĠK it
Ġdis advant
åĩº è®©
ĠR ome
Ġde leg
çīĪæĿĥ æĪĸåħ¶å®ĥ
f all
Ġpark ing
ä»ħä»£è¡¨ä½ľèĢħæľ¬äºº è§ĤçĤ¹
æĹ¥ åĲİ
å¯¼ è¯Ń
ç¼ĸ ç¨ĭ
æµģ äº§
ä¸į çŃī
é¥ ¥
å®¾ é¦Ĩ
2 25
ç¬ ¨
æķ£ çĥŃ
ä¸¤ä¸ª æľĪ
åħ¶ åľ¨
æ· ¤
åħ¨ æĸĩ
ST AT
Ġass ays
å¼Ģ åı£
é»ĳ æļĹ
çīĽ çļ®
Ġwonder ing
ä»İèĢĮ ä½¿
ĠWith out
ä¿Ŀè¯ģ äºĨ
ç¬ ĭ
åī© ä¸ĭ
E val
P ass
åł ¤
Ġoccur rence
\ >
Ġatt ributes
cy cl
éľĩ æĴ¼
ĠM P
ä»¥ä¸Ĭ æĸĩç«łåĨħå®¹
Ġint ense
back s
Ġdiff usion
åĴĮ è¦ģæ±Ĥ
åĬł åĽº
æīį åı¯ä»¥
Ġalign ment
ĠF ord
Ï į
å¦Ĥæľī ä¾µæĿĥ
20 5
Ġre putation
è¿Ľ çĲĥ
éĵ¶è¡Į çļĦ
äº² çĪ±çļĦ
Ġin k
åĲ¯ ç¤º
ap or
ç³»ç»Ł ä¸Ń
Ġ10 2
Ġact or
Ġphys ics
çļĦ åĬŀæ³ķ
if i
å°Ĩ å¯¹
å¤ļ ä¸º
zon a
sk y
Ġdest ination
Ġpromot er
č Ċĉĉ
æľī ä¸įå°ĳ
åĬł ä¹ĭ
çĭ¬ å®¶
äºİä½ľåĵģ åĨħå®¹
å¦Ĥæľīåħ³ äºİä½ľåĵģåĨħå®¹
g ame
13 1
åıĳè¡¨ åĲİçļĦ
ä¸ºäºĨ è®©
L ocation
å± ģ
é¦ĸ å±Ĭ
Ġcont est
Ġ** *
çīĪæĿĥæĪĸåħ¶å®ĥ éĹ®é¢ĺè¯·
çīĪæĿĥæĪĸåħ¶å®ĥéĹ®é¢ĺè¯· äºİä½ľåĵģ
Ġpo inter
éº» éĨī
ä»¥ä¸Ĭæĸĩç«łåĨħå®¹ ä»ħä»£è¡¨ä½ľèĢħæľ¬äººè§ĤçĤ¹
ä¸Ģ è¯´
å¡« åħħ
è¡ĮæĶ¿ å¤Ħç½ļ
ä½ £
rop ri
ĠGeorg ia
Ġnut rition
çļĦ æ¸¸æĪı
App lication
Ġsc ream
çīĪæĿĥæĪĸåħ¶å®ĥéĹ®é¢ĺè¯·äºİä½ľåĵģ åıĳè¡¨åĲİçļĦ
åİŁ æłĩé¢ĺ
åĶ®åĲİ æľįåĬ¡
Ġinsu fficient
å±Ĭ æĹ¶
åĽ½ ä¼ģ
f inal
Ġtrack ing
Ġread ily
ä»¥ æĿ¥çļĦ
ä¿Ŀ å®Ī
æĮ ¨
å·²ç»ı è¢«
Ġbl ot
Ġb ub
Ser ver
ä¸ĭéĿ¢ å°±
Ġro d
Ġeffect iveness
æĸ° é¢ĸ
éĩįè¦ģ ä½ľçĶ¨
ä¸įåĲĮ äºİ
å» ĵ
Ġde ck
Ġm Ã¡s
æĥħ ä¾£
å¤§ æĪĺ
æ²¡æľī äºĨ
æĶ¶ æĶ¯
å½ķ éŁ³
é»Ħ çĵľ
åľ¨ è¯¥
æł½ åŁ¹
ĠSy ria
å®īå¾½ çľģ
Ġearn ed
çİ¯å¢ĥ åĴĮ
Ġput s
Ã ·
å¹´ ä¸ŃåĽ½
æ¯Ľ å·¾
Ġby te
on ing
åĪĨæŀĲ å¸Ī
ol ine
å¹´ ä»¥ä¸Ĭ
åĩłä¸ª æľĪ
å¤§ äºĨ
ĠÎ ´
Ġidentify ing
ĠP riv
Ġinv ited
æľŁ å¾ĴåĪĳ
IN S
Ġvalid ation
Ġpro pose
åıĪ ç§°
Ġpan els
åı¯è¡Į æĢ§
w indows
èĤ ĩ
æķ° åĢ¼
Ġpresident ial
Ġrecommend ations
çł ¼
Ġang ular
================ ====
è¿Ľè¡Į æ£ĢæŁ¥
é¦ ħ
å®Ŀ è´µ
f our
çļĦ ä¼łç»Ł
åĵª ç§į
Ġembed ded
ĠB ru
æ°´ èĤ¿
åį ī
}} )
set minus
æ¬¾ å¼ı
âĦ ¢
å¯¹ éĿ¢
18 6
æīĢæľī äºº
å½ĵ åľº
T P
Ġsc ar
HE CK
ĠPat ients
çī¹æľĹ æĻ®
ä¸į è®©
and ed
æĺĵ äºİ
è¯´æĺİ ä¹¦
ĠAd am
ĠG re
Ġreson ance
s ed
Ġv ag
Ġpers u
et ary
Ġse asons
S earch
cl ock
å¤§ è±Ĩ
å¤¸ å¼ł
Ġcar b
ä¼° ç®Ĺ
èĥ° å²Ľ
ä¸į åºĶè¯¥
Ġsole ly
çļĦ å¯¹è±¡
a way
Ġkid ney
åŃ¦ åīį
å¯¼ æ¸¸
è¿Ļä¸ª äºº
h z
ĠW hether
Ġassoci ations
æ±¡æ°´ å¤ĦçĲĨ
éĽ ģ
æķĻ ç§ĳ
éģ ı
æĦŁ æħ¨
f act
å¤ª åİŁ
é¢ģ å¥ĸ
ick ing
åĪĩ æį¢
ä¿® çĲĨ
å¼Ĥ åľ°
ä¸Ģ ç¾¤
Ġg otten
Ġ( @
j ar
ĠPh ot
ou ston
èĥĮ è¯µ
æľī å¾Īå¤§çļĦ
éª ļ
éĿŀå¸¸ å¥½
ĠN ic
æĲľç´¢ å¼ķæĵİ
æ¸ħ çĥŃ
ĠTH IS
æ´» çĿĢ
çļĦ æİ§åĪ¶
ç»¼ ä¸Ĭ
èĩª åĬ©
æĻļ ä¼ļ
if ting
ĠN ight
åĩı éĢŁ
ä¸į éļ¾
æĸ° å½¢åĬ¿
æī« é»ĳ
ĠF air
åı ®
Ġterrit ory
O p
Ġep idem
Ġj ail
ĠU I
Ġcl imb
å¿½ çĦ¶
Ġm uc
çīĽ ä»Ķ
Ġswitch ing
éĤĵ å°ıå¹³
åŀ ¢
Ġprelim inary
Ġcomplex es
åĮ»çĸĹ æľįåĬ¡
æĪĳ æĬĬ
am ic
Ġ10 5
ĠP op
Ġpar agraph
çļĦ åĲĦé¡¹
Ġha z
19 78
çĦ °
ç¼ Ķ
Ġatt itude
Ġro y
æ½ ĩ
}} $,
å·§ åħĭåĬĽ
Ġemot ion
Ġg ear
è§Ĵ èĲ½
ç´§ è¿«
ĠT enn
æ²»çĸĹ æĸ¹æ³ķ
ob ic
æĭī å¼Ģ
å°± ä¸įèĥ½
æģ ¤
åĩº å¤Ħ
æł· åĵģ
è¦ģ åģļåĪ°
æĿ¨ å¹Ĥ
åı£ å¤´
ĠUn fortunately
×Ļ ×
ut t
ĠD er
P ORT
Ġconstit ute
å¥ĸ é¡¹
ä¸į åłª
æĪ¿åľ°äº§ å¼Ģåıĳ
Ġfeat ured
Ġpsych ological
Ġcarcin oma
å¤¯ å®ŀ
ä¸Ģ åħ±
Ġdest ruction
æ°ĳ ä¿Ĺ
ro oms
åİŁåĪĻ ä¸Ĭ
çĤ¹ åĴĮ
éķľ åŃĲ
Ġimmun ity
16 6
å¤§å®¶éĥ½ çŁ¥éģĵ
ĠR ound
æ¦Ĥ è¿°
çľŁ ç©º
éĢı è¿ĩ
éĤ µ
Ġmac roph
èĬ± äºĨ
Ġhosp itals
ion es
P res
ĠO pt
è¯Ĩ åŃĹ
çļĦ ç»¼åĲĪ
çŃī ä¸Ģç³»åĪĹ
æķĻ ä¼ļ
ä¸į æĺİ
ä½Ĩ å¦Ĥæŀľ
ĠMar sh
S w
åıĳå±ķ æĪĺçķ¥
t mp
14 3
Ġclean ing
17 6
ç»´ æĿĥ
m ates
ĠD or
Ġver ify
Ġcheck ing
åºŁ çī©
Ġisol ation
å°¼ äºļ
ĠT er
Ġvacc ine
é¥Ń åĲİ
Ġan not
Ġwe ird
ä¸» ç¼ĸ
äººæ°ĳ çļĦ
å°½ åĬĽ
ä¸įæĸŃ å®ĮåĸĦ
associ ated
å¹» æĥ³
f ound
Ġc od
é¼ł æłĩ
æĬĹ çĶŁç´ł
Ġrestrict ion
å¼± åĬ¿
Ġ\ "
Act ivity
m v
ä¹¡æĿĳ æĮ¯åħ´
Ġ! [
éª¨ éª
ä¿® å»º
èļ Ĥ
æī§ çĿĢ
B ook
ç»ı è´¸
åıįæĺł äºĨ
å® µ
å¤ĸ æĿ¥
Ġintellect ual
X iv
Ø ©
ĠH o
é«ĺ ä½į
å¼Ģ è¾Ł
ĠGr ant
ç¹ģ æ®ĸ
æķ° æİ§
g un
ä¼ļ ç»Ļ
Ġprofession als
å¸Ĥ åħ¬å®īå±Ģ
ograp her
p red
çīĩ çļĦ
irt ual
çĭĹ çĭĹ
ä»¥ èĩ´
Ġhead ed
æ¼Ĥäº® çļĦ
ĠM ah
ocol ate
è¯ī æ±Ĥ
ath y
ä¹¦ æľ¬
åī¯ ä¸»å¸Ń
æģ° æģ°
Ġenzym es
Ġt ension
å±± çļĦ
w ould
ä½ķ æĹ¶
æģ¶ å¿ĥ
Â µ
Ġlib eral
æĺ¯ çĶ±äºİ
ĠA F
ivari ate
Ġphr ase
âĢĿ ï¼ļ
Ġsu icide
opl us
ä¸ĭ è¡Į
åĽº ä½ĵ
Ġl umin
ĠCon ference
ä¸ĢèĪ¬ æĥħåĨµä¸ĭ
Ġrel ating
al so
Ġ10 6
S V
ren der
Ġvis its
LE D
Ġcomput ing
Ġest e
åħ¨ å¿ĥ
åĽŀ éģ¿
åĵª åĦ¿
çļĦ ç»ıèĲ¥
Ġwork er
ĠPak istan
åı° é£İ
Ġasym pt
at ile
éģĵè·¯ ä¸Ĭ
èļ ķ
Ġf ert
å¯¼èĩ´ äºĨ
ĠZ e
Ġconsec utive
è¿Ļ éĥ¨åĪĨ
Ġd ent
Ġult imate
èº« ä¸ĬçļĦ
åĪ¶ æĪĲ
å¦ĤåĽ¾ æīĢç¤º
åįķ èº«
ä¹° åĪ°
Ġover ride
æķĻ å¯¼
su ccess
Ġin cons
ä¹ĭ éģĵ
Ġs lic
æ¹ĸåĮĹ çľģ
Ġb id
æķ´ å¤©
çīµ å¤´
ç° ¿
èģĶ ç»ľ
Ġtreat ing
Ġthe rap
ä»Ĭ åĲİçļĦ
Ġpred omin
éĩį å¿ĥ
å¸Ĥ çļĦ
å¥³ äººçļĦ
èµ° è¿ĩ
claim ed
arch y
éī´ äºİ
Å Ļ
Îµ Î¹
Ġpro jection
g rav
åĩº ä¸Ģä¸ª
å¯¹ æľ¬
éĵ ²
åĪ¸ åķĨ
åıĳæĶ¹ å§Ķ
ç®Ģ çº¦
çļĦ éĴ±
èº« ä¸º
æľ¬ é¢Ĩ
è®©åŃ¦çĶŁ åľ¨
Ġinf ant
æĺ¯ å¤ļå°ĳ
åŃĹ æ¯į
Ġappe als
th read
æ¶¨ åģľ
p ow
ĠR os
èĿ ´
Ġ1 27
ä»İæĿ¥ æ²¡æľī
æĢ» çļĦ
Ġd ella
åľ¨ åħ¨çĲĥ
Re ference
é¦ĸåħĪ æĺ¯
ody nam
h om
ç¨ ½
ç§ĳåŃ¦ éĻ¢
Ġassign ment
åį³ä½¿ æĺ¯
ĠOffic er
å¼ Ľ
åįĹ éĢļ
ĠS on
is l
èĽ Ļ
èµĦæł¼ å®¡æŁ¥
Ġadapt ed
å¥ł å®ļäºĨ
é¢ĺ åŀĭ
SI ZE
olester ol
d ers
ot ide
ĠF BI
ang ular
RE G
ç´ł çļĦ
Ġutil ized
åĽĽ åĳ¨
Ġbreak fast
h ang
Ġp ounds
çĳ Ł
åĲĮæĹ¶ ä¹Łæĺ¯
ĠPro cess
è¿ĺ ä¸įå¤Ł
E GF
åĵª å®¶
IS A
åıĺåİĭ åĻ¨
æ¥ ł
b ian
ä¹³èħº çĻĮ
Ã¤ t
reg ular
ĠIn dex
åĮĹäº¬ æĹ¶éĹ´
è·Į å¹ħ
æł· æľ¬
à¤ °
è¡ĮæĶ¿ éĥ¨éĹ¨
çļĦ èĮĥåĽ´
ãĢĭ )
; ">
Ġany body
Ġcontact s
Ġb ird
è§ģ è§£
åľ¨ å·¥ä½ľä¸Ń
çľĭ ä¸įåĪ°
Ġbenef icial
ĠAnd erson
Ġse eds
çĽ®çļĦ åľ°
Ġpregn ant
Ġt u
i y
èĥ¸ éĥ¨
ĠSov iet
è¿ĲèĲ¥ åķĨ
äº¤ è°Ī
ĠS A
æĬĹ æ°§åĮĸ
çĻ¾åĪĨ ä¹ĭ
oun ce
T I
ĠW ord
ĠL ady
Ġent hus
æĻºèĥ½ æīĭæľº
are a
è®¾è®¡ åĴĮ
cond ition
åķĨ è´¸
Ġpr ay
Ġcap s
Ġd oses
scrib e
ä¸¤ åĲį
Ġsh ield
æķĻåŃ¦ æ¨¡å¼ı
éĹ´ è·Ŀ
}} }\
H istory
ĠTh om
åħĪ å¤©
åı¯ æĢľ
' _
l ined
pr ison
å¼Ģ éĩĩ
ĠD ick
in ator
Ð¸ Ð½
IC ENSE
T ool
Ġatt ributed
ä¸ĭ æ¸¸
ç¿ ¡
Ġdifficult ies
åĴĮ æĸ°
iz able
æĢİä¹Ī åģļ
Ġingred ients
è¶Ĭ åįĹ
^ )
Ġinvest ors
çłĶç©¶ è¡¨æĺİ
èĭı å®ģ
å¤§ èĴľ
S pe
ab bit
æĥĬ è®¶
æľĭåıĭ çļĦ
å®¶åºŃ æķĻèĤ²
è¯¾ çļĦ
and y
éĢģ ç»Ļ
rep resent
ol en
Ġar rive
15 3
Ġra ising
ä¸Ń å¹´
å¼Ģ éĺĶ
çĲĨè®º çŁ¥è¯Ĩ
æ°§ æ°Ķ
Ñģ Ñı
F E
ĠM as
æĮĤ éĴ©
Ġf illing
Ġpul monary
Ġguid ance
ĠR ose
Ġl ys
d iff
Ġ10 9
éº Ł
å¤ĦçĲĨ å¥½
ett ings
ç§ĭ åĨ¬
æĥ Ł
èĥ¶ åİŁ
u cl
Ġvol unt
ĠÃ® n
ç®Ģ ä¹¦
! )
ä½ł å¯¹
ä¸ĢèĪ¬ åľ¨
Ġcon vey
åıį æŃ£
åīį ä¸ī
å®£ è®²
Ġspirit ual
Î¹ Îº
ĠV iet
çļĦ æıĲé«ĺ
æĥ³ ä¸įåĪ°
Ġdispl ays
ĠChild ren
çļĦ èµĦéĩĳ
åıĻ è¿°
Ġdut ies
low er
æł¸ å¯¹
ä¸Ģ å¹´çļĦ
k v
åī¯ å±Ģéķ¿
æľĢ éĩįè¦ģçļĦæĺ¯
he ld
åĪĨ è¾¨
ä¸» æĴŃ
çľ¼ æ³ª
Ġref lection
t oken
åľ¨ å®¶éĩĮ
ĠD ue
+ "
Ġlaug hed
D O
Ġs que
ol is
Ġenthus i
S ection
B U
åıĺåĮĸ çļĦ
éķ¿ è¾¾
Ġmat rices
Ġun clear
ĊĠĠĠĠĠĠĠĠĠĠĠĠĠĠĠĠ ĠĠĠĠĠ
Ġpost erior
æĹł ç§ģ
åİ¿ æĶ¿åºľ
åįĹ éĥ¨
å¤ļ æł·çļĦ
Ġimplic ations
çĲĨè§£ åĴĮ
æ®ĭ çķĻ
è½» å¾®
sem ble
Ġdes ert
åĩĢ æ°´
å¤§ ä¸ĵ
å¤į èĭı
äºº éĹ´
åħ¨ åĳĺ
ĠJ ordan
ç½ĳ æ°ĳ
Ġan ger
Ġn ations
Ġcomput ers
ĠH ong
Ġexpress ing
å®ļ é¢Ŀ
è¦ģ è®¤çľŁ
è¿ĺ æľª
as ive
36 5
ort ing
æ²¡ äºº
Ġes cap
æľª æĪĲå¹´äºº
åª ļ
Ġmer ch
çļĦä¸Ģä¸ª éĩįè¦ģ
OU R
Ġw ing
Ġfe as
Ġvar ied
æł¡ æľ¬
åĲĪä½ľ çļĦ
åĲĪ ä¸Ģ
è§Ĥ æµĭ
æĮĩ çĶ²
clus ively
æ² Ĥ
Ġlay out
åĴĮç¤¾ä¼ļ ä¿Ŀéļľ
å¾® åĪĽ
èĹ »
ĠC ost
æıı ç»ĺ
ä¸» åľº
Ġin herent
åĿĩ ä»·
åŃ¦ä¼ļ äºĨ
çª ¦
D ER
Ġv ig
åľº éĿ¢
Ġth rown
ac co
19 5
Ġcan n
ä¸īä¸ª ä»£è¡¨
art icles
åı° ä¸Ĭ
Ġconc ert
Ġcook ing
Ġdys function
å¸Ĥåľº èĲ¥éĶĢ
art s
å¤© èµĭ
15 7
åħ±åĲĮ åĬªåĬĽ
çº¿ åŁİå¸Ĥ
Ġo cean
ĠF L
ç¦»å¼Ģ äºĨ
Ġspecific ity
en v
æīĢä»¥ æĪĳ
à¥ ĩ
âĢĶ âĢľ
Ġdec ent
Ġoccur ring
Ġwat ers
ĠStud y
å®Ī æ³ķ
ä¸º æľŁ
iox id
åĶ¯ä¸Ģ çļĦ
Ġvess els
éĩĳ çīĮ
å¤ª å¤ª
Ġneigh b
å¤ĸ åľ°
ç»´çĶŁç´ł b
F s
erg ic
åħ± èµ¢
Ġphys ician
Ġfuck ing
Ġle uk
çĶµ åĬ¨æľº
ynam ic
åīį èĢħ
Ġm old
æĹº çĽĽ
~ )
ir th
Ġmy th
çĶŁäº§ çº¿
æĪĲ åŀĭ
æķ° çłģ
è¢« è¯Ħä¸º
çĺ ¾
ä¸Ģ çŃīå¥ĸ
æľī æ¯Ĵ
ĠAf ghan
å¦Ĥä»Ĭ çļĦ
Ġbur st
- *
frame work
Ġfl ags
å¹¶ è¿Ľè¡Į
ä¼łæŁĵ çĹħ
ĠLet t
éĩį å»º
Ġth rew
ĠĠĠĠĠĠĠĠĠĠĠĠĠĠĠĠĠĠĠĠĠĠĠĠĠĠĠĠĠĠĠĠ ĠĠ
çļĦ ç§ĳåŃ¦
Ġch amp
ï¼ģâĢĿ âĢľ
ä¹ĺ è½¦
åľ¨ ç¤¾ä¼ļ
èĿ´ èĿ¶
ĠG R
å¿ĥèĦı çĹħ
å¼Ģ çĽĺ
15 9
Le vel
Ġce rem
Ġstom ach
Ġconsist ently
çļĦ é¢ľèī²
Ġdim in
åĩº éģĵ
ĠAn ton
èĲ¥ä¸ļ æī§çħ§
E ffect
oc ols
Ġad oles
ĠUn ivers
è·Ł æĪĳ
T ake
æĢĿæĥ³ åĴĮ
ĠN az
ä¸İ æĹ¶
ĠBr ad
çļĦ æĥħç»ª
é«ĺ æ¡£
ä»İ ä¸į
Ġsho pping
èģ Ĩ
k u
}} (\
ES M
FL AG
æīŃ çŁ©
éĻ¤ æģ¶
ç²Ĺ ç³Ļ
çĿ ¹
Ġvisit ors
Ġcontract s
éĺ¿ å°Ķ
ĠM att
az ione
ĠF oot
Ġhop es
èĦĳ è¡Ģç®¡
ä»İ æł¹æľ¬ä¸Ĭ
è¯ģ çĽĳä¼ļ
æŀľ çĦ¶
ch t
Ġign ored
Ġbox es
âĶ Ģ
ĠWe ek
Ġ ---
åĽĽ ç§į
éĴ» çŁ³
}} }$
åĲī åĪ©
burg h
åģļ æĪĲ
Ġsa uce
Ġd in
ä»¥ åħ¶
B T
æľ¬ èµĽåŃ£
ach us
èĲ½ åľ¨
, $
åĩºç§Ł è½¦
å°ı å°ı
æīĵ å¥½
ä¸į çĪ±
çĤ¹ çĤ¹
Ġmitochond rial
æ¡ĥ èĬ±
ç»ĺ åĪ¶
çĲĨè®º åŃ¦ä¹ł
Ġillustr ated
c ases
Ġinterpret ed
ple x
f ish
t otal
_{ (
äºĴ è¡¥
ast ed
ä¿ ¯
é¢ģ å¸ĥ
çļĦ çľŁå®ŀ
l at
Ġgu itar
ä»£è¡¨ å¤§ä¼ļ
Ġh its
ä¼ļ å±ķ
ol n
Ġemerg ed
ä¸į ä½³
å¤§ åĽ½
Ġtal ent
ä¸į å½±åĵį
ä¸Ń åŃ¦çĶŁ
ĠL es
Ġcr ash
Ġtop ics
Ġmar ijuana
us r
^{ -\
æĲ ĵ
Ġimp ression
Equ al
äºĨä¸Ģ ç³»åĪĹ
Ġown ership
ĠA G
äºī å¤º
st op
form s
æĢ§ çĸ¾çĹħ
ĠĠĠĠĠĠĠĠĠĠĠĠĠĠĠĠĠĠĠĠĠĠĠĠĠĠĠĠĠĠĠĠ ĠĠĠĠĠ
ĠM O
Ġde eper
è´£ä»» çļĦ
omorph ism
ä¿Ŀ åį«
èĮ İ
Ġar ise
Ġbranc hes
åĨį çĶ¨
ä»¥ä¸ĭ åĩłçĤ¹
Ġlif etime
, {\
Ġattract ive
Ġ ----------------------------------------------------------------
è¿Ļä¸ª ä¸ĸçķĮ
à¥ į
en z
ä¸Ģ æīĭ
de bug
Val id
R ES
çļĦä¸Ģ èĩ´
åĬ¡ å·¥
Ġarg s
Ġrul ed
ä¸º ä¸ŃåĽ½
åĳ¨ äºĶ
dom ain
ç¨İ çİĩ
åĽ¢ å§Ķ
ou ter
å°± è¯»
ĠM E
åı¤ èĢģ
è¿Ľä¸ĢæŃ¥ å®ĮåĸĦ
hold ers
åĽŀ åįĩ
çº¢ æŀ£
> \
åľ¨ æķ´ä¸ª
Ġregist ration
ä¸Ń èģĮ
ĠĠĠĠĠĠĠĠĠĠĠĠĠĠĠĠĠĠĠĠĠĠĠĠĠĠĠĠĠĠĠĠ Ġ
% (
ĠS ource
end or
æĺ¯ä¸Ģ æ¬¾
et c
æİĴ æ¯Ĵ
å·¨ å¤´
è¯Ħ çº§
Ġland scape
ç»ıéªĮ åĴĮ
st ers
ment e
Ġdi am
Ġtox ic
åĮ» çĶŁçļĦ
Ġintegr ity
pl ane
Ġar c
20 6
åľ° åİ»
Ġalong side
ĠM icro
æĺŁ åº§
ä¿Ŀ æļĸ
è°ĥæŁ¥ çłĶç©¶
é¢Ŀ å¤ĸ
çļĦä¸Ģ éĿ¢
Ġconnect ing
pe ople
R un
Ġconv icted
par ams
Ġgrad ually
ä¸ī åĽĽ
åįķ è½¦
åºĶ æĶ¶
èĭ¥ æĺ¯
ot helial
èĬĤçĽ® ä¸Ń
é«ĺ æĸ°åĮº
æĸĩ ä¹¦
n orm
åĤ¨ èĵĦ
do i
æ¸¸æĪı ä¸Ń
é£İ æĥħ
åĪĳ æ³ķ
èİ·å¾Ĺ çļĦ
' \
IG N
ä¹Ł åı¯èĥ½
è´¨éĩı ç®¡çĲĨ
Ġremem bered
names pace
ĠR yan
M ake
åĨĴ éĻ©
ow ed
ä¸º ä»£è¡¨
æĪĳ èĥ½
ĠColumb ia
c opy
æĿĨ èıĮ
ç®¡ çļĦ
Ġconj ug
æ¼ı æ´ŀ
ĠA z
è¥¿ çº¢
å¹³æĸ¹ åħ¬éĩĮ
æĹł ç©·
Ġyour s
æł¼ å¤ĸ
SE LECT
Ġliter ally
ä¹ĭ å®¶
ra it
åĪĽä¸ļ èĢħ
çļĦ åĬ¨åĬĽ
Ġb undle
å¾Ĺ çĽĬ
Ġdist ant
ä¸ĩ äº¿åħĥ
ç¼ĸ çłģ
h u
Ġcust ody
p rom
èĢ ½
ä¸º çĽ®æłĩ
çİ° éĺ¶æ®µ
Ġcollect ive
Ġin fect
v t
Ġpl asm
Ġprefer ably
ĠCo ast
Ġche ese
Ġgu ests
æĹ¶æľŁ çļĦ
è¯¸ å¦Ĥ
] -
Ġ{ {
et erm
ĠA ccess
Ġcos m
inn ers
åħī çļĦ
Ġdefect s
plic ity
Ġsatisf action
Ġfib ers
åħ¬ ç«ĭ
é¦ĸ ä½į
Ð¾ ÑĤ
åĪ©çĶ¨ çİĩ
äºĨ ä¸ŃåĽ½
ĠĠĠĠĠĠĠĠĠĠĠĠĠĠĠĠĠĠĠĠĠĠĠĠĠĠĠĠĠĠĠĠ ĠĠĠĠ
éĿŀå¸¸ æľī
part y
2 12
æĶ¶ åĽŀ
Ġt ang
Ġburn ing
f usion
ĠF unction
ä¸ļ æĢģ
è§£ æ¯Ĵ
z one
å¿«ä¹Ĳ çļĦ
æĸ° äº§åĵģ
RE E
Ġg athered
M ain
äºĨä¸Ģ æ¬¡
åĲĳ ç¤¾ä¼ļ
Ġf ibr
ä»į æľī
ä¸ĵæ³¨ äºİ
ĠF if
Ġlabel ed
è¿ĩ åī©
Ch ange
Ġtrans mitted
åİŁ åŃĲ
Ġat om
èį §
æĦŁ åı¹
çªģåĩº éĹ®é¢ĺ
ĠProfess or
ä¸ĩ ä½Ļ
Ġbank ruptcy
çĸı æķ£
ä¸¥ å¯Ĩ
Ð¾Ð ±
Ġentr ance
Ġm s
å¯Į è£ķ
ĠN AS
ĠC ond
æŃ¦ æľ¯
å¤ª æŀģ
çģ¿ çĥĤ
ig ate
Ġd rain
Ċĉĉĉĉ ĉĉĉĉ
è¿Ļ å¯¹äºİ
äººæīį çļĦ
äº¤ æİ¥
æ»ĭ æ¶¦
å®ģ å¤ı
ä»»ä½ķ ä¸Ģä¸ª
Ġrepeated ly
Ġgrav ity
Ġconf ident
äººåĳĺ åľ¨
æ¹¿ åľ°
åģľ çķĻåľ¨
Ġlik es
+ ^
è¥¿ åħ°
å©´ å¹¼åĦ¿
æĺİçĻ½ äºĨ
ä½ł æľī
Con st
éŀ Ń
åıĹ ä¼Ĺ
å¤§å®¶ å¥½
Ġremark able
çļĦ è·¯
éĵ¶ è¡Įä¸ļ
æ¯ıä¸ªäºº éĥ½
åĲį å¸Ī
ä¹Łæĺ¯ ä¸Ģç§į
éª¨éª ¼
æķĻ æ¡Ī
é¥ º
Ġres idence
al ities
ĠC ub
åĨľ çĶ°
ä¸ĭ è°ĥ
å¼Ģ æĶ¯
Ġdescrib ing
Ġbeg un
ub le
y ers
åıĳå±ķ è§ĦåĪĴ
åĩĨ åħ¥
Col umn
ä¸Ń åħ¨ä¼ļ
çŃ¹ å¤ĩ
Gen eral
èµĦ æ·±
Ġconv in
æģ¶ åĮĸ
Ġexist ed
å¼Ģ ä¸ļ
åģľè½¦ åľº
åĽłä¸º å®ĥ
ä¸ļ ä½Ļ
è¿Ļ ä¸įæĺ¯
Ġv oor
V C
æ¸© æ³ī
aps ed
Ġl ap
Ġ6 00
app lication
çĪ µ
b ury
éħ ļ
æĶ¯ æŁ±
IT ED
m ons
Ġcapt ain
e lect
ä¸Ģ çľ¼
Ġupt ake
æĻļ é¤Ĳ
ä¿Ŀè¯ģ éĩĳ
Ġinterview s
äº² äºº
éĶ ¥
çĶŁäº§ ä¼ģä¸ļ
ĠQu ant
3 80
æľº åºĬ
Ġt act
Ġo lig
less ly
ch a
ç¨³ åģ¥
ç¬Ķè®° æľ¬
Ġcross ed
ric ular
ç¡®å®ļ çļĦ
Ġderiv atives
æİ¢ æµĭ
Ġdef ines
å¸¦ çļĦ
ĠPar liament
ĠPol it
Ġbrother s
ä¸įä»ħ èĥ½
Ġsa ke
ä½ıæĪ¿ åħ¬ç§¯éĩĳ
Ġa qu
Ġreve als
c ourt
æĽ´å¤ļ çļĦæĺ¯
ĠĠĠĠĠĠĠĠĠĠĠĠĠĠĠĠĠĠĠĠĠĠĠĠĠĠĠĠĠĠĠĠ ĠĠĠĠĠĠĠĠĠ
ph ia
åħĪ çĶŁçļĦ
æĺİ äºĨ
qu ot
ä½¿çĶ¨ æĿĥ
R ad
å¸ ľ
rit er
çļĦå¤§ åŀĭ
ĠH it
ĠOx ford
ub er
b oot
çıį çıł
ç²¾ç¥ŀ çļĦ
èģĶåĲĪ åĽ½
Ġexec ute
æ²¡ èĥ½
Ġvot es
æ»¡æĦı çļĦ
Ġcoord inate
Ġ ul
ment ioned
Ġn i
ĠP rior
ä¼ĺæĥł æĶ¿çŃĸ
Ġvalid ity
ĠE ric
å´ ĸ
S che
å®ŀ å¤Ħ
è¯Ĺ è¯į
ag ent
éª¨ å¤´
å¤ĸ å½¢
æĭī åĬ¨
åīĤ éĩı
æİ ı
ĠS R
å·² çŁ¥
h im
Ġgalax y
an alysis
æĸ° å¹´
æĬķ æ¡£
çļĦ å¥³æĢ§
Ġspec ify
ä¸įæĸŃ åıĳå±ķ
å¾Ī æĺ¯
å½Ĵ å±ŀ
Ġphys ically
s yn
ur ations
Ġgenu ine
Ġweight s
ä½ł çľĭ
æĦ¤ æĢĴ
å± ł
èĮĥ æĸĩ
Ġsus pected
ĠLew is
éĩįåºĨ å¸Ĥ
æĬķ æľº
ĠA sh
éĥ½ä¼ļ æľī
Ġshould ers
ĠL ear
âĢĿ ï¼ģ
Ġarriv al
æĪĲç«ĭ äºİ
é¢ ¤
p b
çĲĨ ç§ĳ
å¾Ģå¾Ģ ä¼ļ
æĬ½ æŁ¥
å¯Ĥ å¯ŀ
æ¯ı ä¸Ģä¸ªäºº
æĺ¯ä¸Ģ åĲį
ĠCon sequently
æĢ ł
æĦŁ åºĶ
è¯· åħ³æ³¨
> &
ç®¡ è¾ĸ
å½±åĵį çļĦ
necess ary
ĠW in
æīĵ ä¸ĭ
èĢĮä¸Ķ åľ¨
ĠHol ly
Ġdoct rine
Ġdecl ined
èĦ Ĳ
W ill
Ġin ev
N um
çľ¼ éĥ¨
Ġmem or
åºĶ æł¹æį®
Ġmonth ly
ard ed
åįģåħ« å¤§
è¿Ļ ä¸ī
çİ© èĢį
èģļ ä¼ļ
åĲĦ æľī
Ġdesign ated
ä¹ĭ ç±»çļĦ
å¹² ä»Ģä¹Ī
åľ° å½¢
Ġgovern ments
çĶ±æŃ¤ åı¯è§ģ
vers ely
çĳľ ä¼½
Ġmus e
Ġblock ed
cp u
æĸĩæĺİ å»ºè®¾
b ur
çļĦ è¿ĲåĬ¨
Ġ1 24
J o
Ã °
æĺŁ çº§
åĲ¸ éĻĦ
åĲ ¾
æĬĬ æĪĳ
b ind
æ¢ Ń
åĳĬ åĪ«
æ£ ķ
Ġret riev
Ġmin i
Ġshort ly
ãĤ ¤
j u
è´§å¸ģ æĶ¿çŃĸ
åĬ¡ å¿ħ
Ġdis rupt
Pro cess
Ġde als
Pro duct
çĽĸ ç«ł
P osition
elf are
at on
Ġanc est
çĵ¶ é¢Ī
éĢĲ å¹´
Ġ10 3
og ram
Ġsymm etric
d epend
å¨ĥ å¨ĥ
æĿĳ éĩĮ
æĶ¶ æĭ¾
2 16
ç¦ıå»º çľģ
Ġ\ #
éĩĳèŀį åį±æľº
fig ure
åĩ¡ æĺ¯
Ġfr ames
æĳĦåĥı å¤´
. ).
effect ive
ä¸İ æĸ¹æ³ķ
é¡¹çĽ® ç»ıçĲĨ
Ġsp ont
æİ¥ åħ¥
Ġwa ited
ĠP BS
f ather
ä½ĵç³» å»ºè®¾
å°ı è¿Ľç¨ĭ
Ġl y
ä»¥ éĺ²
itud inal
ĠH ug
æĦı åĲĳ
ç¬ĳ çĿĢ
å®ŀ ä¾ĭ
éģĩ è§ģ
Ġencoun ter
åı£ çļĦ
Ġt ent
çĻ½ èıľ
Ġm L
18 7
Ġvert ices
w alk
éķ¿æľŁ çļĦ
Ġ ).
å®ŀéĻħ è¡ĮåĬ¨
fl ags
Ġc ot
åīį è¡Į
Ġmus cles
ins ert
æīĢä»¥ æĪĳä»¬
on omy
æłĳ èĦĤ
ä»į åľ¨
é«ĺ åİŁ
b ec
Ġf ate
è¥¿çº¢ æŁ¿
Ġch ains
æ°¸ æģĴ
çŃī é¢ĨåŁŁ
å®¢ è½¦
ä¾ Ī
ĠK ar
åľ¨ ä»Ĭå¹´
Ch rist
M s
å¼º è¿«
ä¸į åħ¨
åįİ å¤ı
Ġt ap
Ġrestrict ions
æĬķåħ¥ åĪ°
x s
åĩı æİĴ
ĠS ometimes
è¾ŀ èģĮ
æĪĳ è¿ĺæĺ¯
åŃĶ åŃĲ
Ġhas h
t bl
æĺ¯ éĿŀ
e ed
æľ¬èº« çļĦ
w er
Ġfall en
è½¬ åĬ¨
Ġden y
Ġcateg or
ĠJe an
ĠBer lin
çĶ¨ å·¥
èĨĢ èĥ±
æĭ¥ æľīçļĦ
Ġtw elve
åľ¨ æĦı
l m
éĩĳèŀį æľįåĬ¡
Ġl ands
åĽ¢ åĳĺ
Ġ1 11
Ġcorrel ations
vert ed
Ġmem ories
çŃī éĥ¨éĹ¨
åħ± éĿĴ
æ¯Ľ çĹħ
Ġunder went
L P
éĹ º
Ġlo ose
æ²¿ çº¿
ĠSte phen
ä¸¤ å²¸
) ãĢĤ(
æ¸Ĳ è¿Ľ
æ°´ èµĦæºĲ
æ°Ķ è¡Ģ
èĩª æĿĢ
Ġ+ +
çİ© ç¬ĳ
æĶ¶åħ¥ çļĦ
åľ¨ ä¼ģä¸ļ
ä¸º å¹¿å¤§
ad en
éŀĭ åŃĲ
ä¸» èĲ¥
æīį åıĳçİ°
Ġbl ame
Ġdo zen
Ġsize of
æ·¡ åĮĸ
åı¦ è¡Į
æ²Ļ æ¼ł
å¥¹ æĺ¯
æ¯į ä¹³
000 2
ĠC reate
æĿĳ çļĦ
çº² è¦ģ
ä¸įå¿ĺ åĪĿå¿ĥ
os omal
Ġp u
ä¸İ åĲ¦
p ur
b inding
20 8
æŀľ å®ŀ
åĦ¿ å¥³
ĠB C
Ġkn ife
åı¯ä»¥ çĽ´æİ¥
åĲį æł¡
æŃ ª
æµĵ åİļ
Ã ħ
ĠM ill
Er r
ĠB ra
SE D
clip se
ord inary
Ġconspir acy
æ® ·
Ġple a
æĪĳä»¬ æĺ¯
æµ· é²ľ
çļĦ åĲįåŃĹ
å¼Ģ éĹ¨
å¾Ĺ èµ·
å®īåħ¨ äºĭæķħ
Â ¤
çĽ¸ è¿ŀ
å¤§ éĹ¨
ac ht
æ³ķå®ļ ä»£è¡¨äºº
Ġ1 22
æķ´ é¡¿
åıĺ éĩı
Ġp neum
æłĩ è®°
å·¥ç¨ĭ éĢłä»·
èĵ¬ åĭĥ
ay a
çĿ ģ
Ġsure ly
ĠV en
g ly
ut o
åħī èį£
Ġf i
19 79
æĹ¶éĹ´ éķ¿
Ġsuppl ies
Ġb old
ä½ľèĢħ ç®Ģä»ĭ
Ġoff ensive
è¯» è¯¾æĸĩ
print f
ä¸¤ çĤ¹
ure au
ä¿Ĺ è¯Ŀè¯´
çĭł æĬĵ
IT E
Ġepis odes
ĠM it
ard ing
å¤į è¯ķ
em pl
D el
Ġd ip
Ġd ar
ä¸¥æł¼ è¦ģæ±Ĥ
çĶ» åĩº
D i
è¿Ļæĺ¯ ä¸Ģç§į
ip o
æĤĦ æĤĦ
å¼Ĥ æĢ§
æĪĳ ä¸ĢçĽ´
å¯¹ äººä½ĵ
il st
Ġass istant
Ġvari ant
ä¸į éĢĤåĲĪ
achus etts
we re
éĻª åĲĮ
çĶ» å®¶
Ġf its
pe ction
ĠB ul
dis c
Ġ$ .
Ġf ought
åłĨ ç§¯
MO ESM
it age
è®¾ æĥ³
f ar
id ine
Ġor bit
) âĢľ
Ġpoint ing
çļĦ æĦıè¯Ĩ
ĠĠĠĠĠĠĠĠĠĠĠĠĠĠĠĠĠĠĠĠĠĠĠĠĠĠĠĠĠĠĠĠ ĠĠĠĠĠĠĠ
Ġinc hes
Ġfif ty
é¦ĸ ä¸ª
äºĳ è®¡ç®Ĺ
Ġfact ory
w ick
Ġp ushing
ĠW ild
Ġassum ptions
è¯´ æľį
æĦıä¹ī ä¸Ĭ
âĢĶâĢĶâĢĶâĢĶ âĢĶâĢĶâĢĶâĢĶ
èģĺ è¯·
è¿ĺ éľĢ
Ġch at
Ġh ip
éĵħ ç¬Ķ
adel phia
m ma
å ¬
T ask
ro cy
######## ########
åıĬ çŃĶæ¡Ī
Å į
åıĺ æį¢
ĠK at
al g
Ġm ais
ail ing
roph y
19 81
ç»¿ åľ°
Ġgover ning
ul ent
od d
åĪĨ è¡Į
Ġseg ments
ç¿¡ ç¿ł
åĢ¼ çļĦ
ĠR A
ä¸Ģ èĤ¡
r ass
åģļ ä¸ĢäºĽ
éĹ®é¢ĺ æĺ¯
åįĹ çĵľ
å¤§ åľ°
å±ŀäºİ èĩªå·±çļĦ
åıĳ è´§
Ġmax imal
ä½İ ä¸ĭ
Ġ1 29
Ġchem otherapy
look ing
åİ» åĮ»éĻ¢
$ ^{-
èĦ± åıĳ
** .
åºĹ çļĦ
inst all
Ġf itting
åıĪ ä¸Ģæ¬¡
ĠAn th
gen ic
ĠSer ver
æ·± å¤Ħ
ERR OR
Ġreli ability
è¿Ļ ä¸¤ç§į
éĽĨ ç¾¤
w indow
ç¾İ å¾·
æł¼ æłħ
Ġgl ob
èļĤ èļģ
ĠMin istry
å¥ł å®ļ
æĬķ ç¨¿
Ġan terior
ä¸Ģ ä¸Ŀ
Ġpeak s
ĠĠĠĠĠĠĠĠĠĠĠĠĠĠĠĠĠĠĠĠĠĠĠĠĠĠĠĠĠĠĠĠ ĠĠĠĠĠĠĠĠ
æĪĳ å®¶
ç¬¬ä¸Ģ ä½į
s end
æĶ¹ ç¼ĸ
Ġlab els
äº² æĪļ
Ġb orrow
ĠMethod s
ç¼ Ģ
Ġdiv or
m c
æĽ´ æĶ¹
Ġpredict ions
åĢ¡ è®®
ĠIslam ic
ov en
é¦ĸ åıĳ
ä¸įçŁ¥ ä¸įè§ī
åĳ¨ è½¬
Ġvari ability
äººæ°ĳ æ£Ģå¯ŁéĻ¢
çķĻ æĦı
25 00
Ġed it
çº¢ æĹĹ
Ġdefe at
ĠD at
è¿ĺ å¥½
é² į
Ġeng agement
ç½ĳç»ľ èĲ¥éĶĢ
æĭ¥ æĬ±
æĬĢæľ¯ åĪĽæĸ°
é¥² åħ»
gr oups
åĬłå¿« æİ¨è¿Ľ
æĻĭ åįĩ
Ġ1 12
é¢Ħ æĬ¥
Ġ1 19
æľĪ äº®
Ġequ ilibrium
åįĥ éĩĮ
è¿İ æĿ¥äºĨ
Ġth roat
å¤ĦçĲĨ çļĦ
éĽ¨ æ°´
Ġexp on
æľº èĥ½
Ġpack et
æĪĳ å·²ç»ı
å¼Ģ çļĦ
7 50
å£« åħµ
ä¸Ģèµ·æĿ¥ çľĭçľĭ
P os
Ġp ad
se ason
Ġinstr uments
æĽ´ åħ·
Ġpolit icians
i u
18 9
ĠIm ages
Ġbrief ly
w en
Ġret ain
æĪĺ éĺŁ
ä»ħ ä¾Ľ
âĢ ħ
çŀ »
çļĦ è¯´æ³ķ
Ġden otes
c ache
ĠM arg
éĥ½ å·²ç»ı
èīº äºº
åĪ¶ åĨ·
å¤ĸ äº¤
Ġmod ul
çļĦå·¥ä½ľ äººåĳĺ
ic ations
æĥ³ å¿ħ
éĽĨåĽ¢ æľīéĻĲåħ¬åı¸
èºº åľ¨
yt es
Ġbehavi ors
æ¯Ķè¾ĥ å¤ļ
å®£ä¼ł éĥ¨
å¥³ åŃ©åŃĲ
åħ·æľī ä¸Ģå®ļçļĦ
èį· åħ°
ä¸į ä¾¿
åĳ½ ä¸Ń
Ġsuper n
é»ı èĨľ
ä¹ ĵ
è¿ĩ å¤ļçļĦ
Ġl um
æĢ» æķ°
å¼Ģ æĮĸ
big g
Ġexcess ive
æī«é»ĳ éĻ¤æģ¶
Ġaw esome
ĠE ffect
Ġg re
ĠSc iences
åĳµ æĬ¤
b old
åľ¨ ä¸Ĭæµ·
ĠL I
å¸¸ å¹´
Ġhol iday
åĲ¦ å®ļ
é«ĺè´¨éĩı åıĳå±ķ
ä¸º ä»ĸä»¬
ĠC ome
ç½Ĺ é©¬
ä» ķ
ĠP etition
ä¸įå¾Ĺ è¶ħè¿ĩ
é¢Ĩå¯¼ èĢħ
Ġinstall ation
é£İ æ¹¿
C a
Ġd op
Ġen ables
èĥĮ åĲİçļĦ
Ġi Phone
æıĲé«ĺ åŃ¦çĶŁçļĦ
ä»ĭç»į ä¸Ģä¸ĭ
Ġdelay ed
Ġn ie
Ġelig ible
çī ¡
æĬĵ èİ·
Ġinsert ed
ia h
Ġluck y
èĽ Ľ
åĪ¤ å®ļ
åĨ Ī
å·¥ä½ľ ä»»åĬ¡
par ison
ĠAg ency
or o
l ag
æĿ¥ åģļ
Ġsp oken
é¡¹çĽ® éĥ¨
çī¹ å®ļçļĦ
en za
ä½İ ä»·
Ġbond s
ç¾½ æ¯Ľ
è§Ĵ çļĦ
Ġcomb ine
ĠH ay
æĸĩåĮĸ åĴĮ
è¯Ħ å§Ķ
Conne ction
ä¸Ń åŀĭ
ä¿± è¿Ľ
æ¼Ķ èīº
Ġ10 8
v ir
15 2
Ġam ended
Ġc ub
Ġequ ipped
Ġin sect
é©¬ è·¯
çŁ³ åĮĸ
ph al
Ġhe aling
åįķ åĩ»
é¥ ¶
è¿ĺæĺ¯ åľ¨
ĠBe ach
ä¸į å°ıå¿ĥ
é¡ ·
aceut ical
ĠN ature
itz er
é¢ Ĥ
Ø ¨
Ġestim ation
éĢĥ éģ¿
ĠÐ½ Ðµ
ĠC ore
è¿ĺæľī ä¸ĢäºĽ
ä½ł è§īå¾Ĺ
Ġdifferent ly
Ġden ial
èĶ ļ
æŃ£ èĥ½éĩı
Ġconf used
ç®¡ åĪ¶
æľĢ ç¾İ
å¤§ èĩªçĦ¶
å¤ª è¿ĩ
Ġfunction ality
Ġquad r
åı¯ä»¥ æĬĬ
ä¸Ń åıĳçİ°
èĥľ ä»»
çªĹ æĪ·
çº¢ çļĦ
è¾ĥ å¿«
èĩ Ģ
Ġtrans actions
ä½į ç§»
Ġp ressed
åĲį äºº
æ¦Ĥ åĨµ
æ¬¾ çļĦ
å¤ľ æĻļ
m eta
Ġsh aft
äº² å±ŀ
éľĢè¦ģ æ³¨æĦı
sec urity
æīĢéľĢ çļĦ
åĬł åĪĨ
åįĬ å¾Ħ
Ġsurve illance
åĨľ åľº
Ġphosphory lation
ä¸įä»£è¡¨ æĸ°æµªç½ĳ
å¢Ļ ä½ĵ
D em
Å Ł
ĠPr inc
Ġbreak s
Ġ19 81
åĬ¿ å¤´
ple te
ä¸ĭ åįĬ
ç³ ľ
çŁŃ æĹ¶éĹ´åĨħ
åĲİ åı°
> ::
èĩª åįĳ
å°Ĩ è¿ĳ
åĥ §
ç»ıæµİ çļĦåıĳå±ķ
éľ ¾
èĥ½ åĬ¨
æĸ¹æ³ķ çļĦ
å°ı å¾®
Ġover night
as ia
Ġdark ness
ĠC F
y ard
Ġv ibr
æĸ° ä¸Ģè½®
å®īåħ¨ æĦŁ
ĠP rom
èĩªä¸» åŃ¦ä¹ł
æİ¨ ä»ĭ
Ġreg ulated
ä»ĭ è´¨
åĮ»çĸĹ åį«çĶŁ
Ġtransport ation
ĠÙ ħ
æİ¥ ä¸ĭæĿ¥çļĦ
çĹħ äººçļĦ
Ġ1 26
Ġmat ched
ç»Ĩèĥŀ çļĦ
çŃ ·
com ment
ä½¿çĶ¨ äºĨ
Ġweek ly
ĠT erm
17 8
Ġd ating
Ġphys iological
èĦĤèĤª éħ¸
å¿ħè¦ģ æĹ¶
Ġscen es
åĪĽä¸ļ æĿ¿
hel p
Ġbound aries
éĹ´ éļĻ
å¼ ĵ
Ġaccur ately
Ġnames pace
è¿ĺ å¾Ĺ
ĠO P
aud i
å¥¢ ä¾Ī
A h
ç¨ ļ
å°½ æĹ©
Ġant agon
æĪ¿åľ°äº§ å¸Ĥåľº
æľ¨ æĿĲ
å°ıç¼ĸ å°±
y cl
ãģ ķ
çī©è´¨ çļĦ
ç½ĳ æł¼
å¦Īå¦Ī çļĦ
der ived
V I
Ġcoll apse
åĮĸ çĸĹ
Ġcult ured
end ers
çĶŁ æľº
Ġper ception
ä¼¤ å¿ĥ
N ull
æ¯Ķè¾ĥ å¤§
ĠAri zona
Ġg raft
å®ŀ æĥł
æĬķèµĦ äºº
å°Ĭ ä¸¥
æ´ĭ èĳ±
enn is
Ġprevent ing
Ġod ds
Ġimpl ant
æŀ¯ çĩ¥
pr im
ĠP rem
åıį ä¹ĭ
p air
w ait
ĠL inux
çĻ½ äºĳ
Ġ1 16
s ime
Ent ity
ç´§ç´§ åĽ´ç»ķ
ĠF ull
Ġsc anning
Ġs quad
ä¸Ģ é¦ĸ
ob acter
å° ¹
ĠP ath
ure r
ĠPy thon
æ² Ĳ
Ġm ock
ä¼ļ å¼ķèµ·
éĵ ¬
æ¸ħ ç®Ĺ
C le
å®īåħ¨ æķĻèĤ²
åľ¨æŃ¤ åŁºç¡Ģä¸Ĭ
Ġm l
æľĿ é²ľ
åĲį è¯į
åĪĽ ä¼¤
Ø ¹
ä¸ľ äº¬
æĸĩåĮĸ éģĹäº§
å¯¼ ä½ĵ
æĪĳ å°Ĩ
è´¨ åľ°
orne ys
0 25
Ġf Ã¼r
as hes
éĻĪ è¿°
p any
Ġpart ly
ä¸´ è¿ĳ
Ġsusp ension
Ġse ats
èľ Ģ
Ġcardi ovascular
c ia
æĺ¯ ä»ĸ
ĠColor ado
å· ħ
Ġren dered
th ree
åĲĥ å®Į
æį® ç»Łè®¡
inte rest
èĥĨ åĽĬ
Ð¾ Ñģ
Ġr ating
Ġsynthe tic
Ġ1 14
ç¤¾ä¼ļ åĲĦçķĮ
å¹´ ç»Ī
å®ī å¿ĥ
C ustom
Ġart ificial
el come
åħī æ³½
inte gr
äºĨè§£ ä¸Ģä¸ĭ
Ġdis crete
æĸĻ çļĦ
Ġplatform s
t n
Ġsm ell
~ \
Ġdam aged
ä¸¾åĬŀ çļĦ
ç³ ¯
Ġsystem ic
Ġop ens
è¡Ĺ å¤´
Ġphen otype
Ġoccup ied
Ġaffect ing
åľ° åŁº
Ġle ak
çŁŃ æĿ¿
æĹ¢ èĥ½
åĵ Ł
æľĪä¸Ń æĹ¬
ä¸Ĭ æ¼Ķ
hand le
æ¨¡ çī¹
miss ible
Ġconf usion
åİĨåı² çļĦ
çļĦ å®¶
Ġprogress ive
Ġmy st
E s
éģĵ æŃī
T X
ĠReg ister
å¹´è½» çļĦ
æľ¬ é¢ĺ
åĸľ åī§
ĠB L
Ġscal ar
ĠKore an
Ġobt aining
m ask
åĽ¾çīĩ åıĳèĩª
Ġpro pri
ä¸ī ç»´
inn ed
æĻļ æĬ¥
æłĩå¿Ĺ çĿĢ
ok er
äºĨè§£ æĽ´å¤ļ
åĲĪ å½±
ä½¿ æĪĳ
èµµ ä¸½
çŃī åĨħå®¹
åı³ ä¾§
Ġd b
å°± è¶Ĭ
æį® ä»ĭç»į
Ġtransform ed
ãģ¦ ãģĦ
en na
æĦŁ æ¿Ģ
ut able
Ġcl ause
h ash
æīĭ è¡¨
Ġelim inate
id av
Ġperson ality
çķ¸ å½¢
å¢ŀ é«ĺ
Ġsp ark
k çº¿
æ°´ åĴĮ
T itle
"} ;
ĠN FL
ĠC reat
æĹł èģĬ
c pp
m ethyl
åŁİ ç®¡
éĶ Ĥ
Ġsp an
B as
ĠĠĠĠĠĠĠĠĠĠĠĠĠĠĠĠĠĠĠĠĠĠĠĠĠĠĠĠĠĠĠĠ ĠĠĠĠĠĠ
Ġparticip ated
Ġhead ing
cont ainer
èĴ ²
ĠS av
Ġleg end
çº¯ ç²¹
çĽ¸ éĢĤåºĶ
é«ĺ åĵģè´¨
ç¢ ĺ
ĠÎ Ķ
ä¸Ń éĺŁ
Ġstri king
ĠAdminist ration
m other
Ste p
åħļé£İå»īæĶ¿ å»ºè®¾
sime q
t or
ä¼ĺè´¨ çļĦ
åıĳ åĬĽ
å¼ķ èµĦ
RE F
ĠNav y
Ġaim s
Ġpro position
s ession
Ġcontem porary
Ġ19 82
[ **
ä¸İ ä¼ģä¸ļ
ick er
åĨ³å®ļ çļĦ
å¦Ĥä¸ĭ åĽ¾
ä»ĸ è®¤ä¸º
çĥŃ å¸¦
èĢĥè¯ķ æĪĲç»©
å¤ĩ æ³¨
Ġs oph
å®¶ éĩĮçļĦ
åıĳçĶŁ åıĺåĮĸ
Ġcompat ible
é«ĺèģĮ éĻ¢æł¡
éĺ ľ
è¦ģæ±Ĥ åŃ¦çĶŁ
Ġquant ities
çŀ Ĵ
p ic
ä¸į å°½
k k
requ ency
èĩªå·± æĺ¯
æĬļ åħ»
åįł æĢ»
st age
åĽ¾çīĩåıĳèĩª ç®Ģä¹¦
ress ing
ç»Ń èĪª
22 1
ä¾ ĥ
ç§¯æŀģ ä¸»åĬ¨
ĠCons erv
çļĦ åĲĪä½ľ
Ġex port
ĠL ev
åıĳ åŀĭ
ĠC C
Ð¸ Ð¼
åħ¨çĲĥ åĮĸ
çºµ åĲĳ
l ass
at om
l anguage
Ġreflect s
âĢĿ ï¼Ł
ç´« å¤ĸçº¿
20 9
Ġthreat ened
aw are
çıł å®Ŀ
é«ĺ å°ļ
ĠB rian
Ġ1 35
è®¡ çĶŁ
æ¾³ æ´²
ou ds
Ġtens or
Ġh ill
åĢ ª
ĠJac ob
ĠHarr is
O pt
æĪĳä»¬ å¿ħé¡»
. ãĢĬ
x imate
}$ $\
= >
å¨ ¶
è¯· æ³¨æĺİ
åĽ¾çīĩåıĳèĩªç®Ģä¹¦ app
og a
Ġth rom
Ġr h
c ad
ä¸ĵ å±ŀ
æĪ¿ ä¼ģ
Ġappro ached
åŁºç¡Ģè®¾æĸ½ å»ºè®¾
. *]{}
ä¸º ä¹ĭ
Ġestablish ment
æĺ¯ å°Ĩ
ĠPl ace
ä¼¼ çļĦ
éĤ ±
åıĳ æİĺ
ä¸į ç¨³å®ļ
éĻ¢ å£«
ĠIsrael i
ĠT NF
èĢĮ è¿Ļ
æľī çĶ¨
æĹ¶ ç©º
Ġincor rect
Ã ²
b untu
çļĦ æĦıè§ģ
st rap
ĠH istor
è´§ è¿Ĳ
å¤§ éĿ¢ç§¯
åĨ° åĨ°
äºĭä¸ļ çļĦ
ack er
åıĭ æĥħ
Ġpublic ly
ĠPro duct
cell s
ä¸İæĹ¶ ä¿±è¿Ľ
ä¸į è¢«
ä¸įä»£è¡¨æĸ°æµªç½ĳ è§ĤçĤ¹æĪĸç«ĭåľº
æĸ°æµªç½ĳ èģĶç³»
æĹ¥åĨħä¸İ æĸ°æµªç½ĳèģĶç³»
Ġp ace
èĤ¯å®ļ æĺ¯
Ġbre ach
è¿¹ è±¡
æĪªèĩ³ çĽ®åīį
é¢Ħ å¤ĩ
H ar
åĵ ĳ
Ġut ter
Ġste am
æĢĿæĥ³ ä¸Ĭ
ç²¾å½© çļĦ
t f
å½ķ åĥı
Ġm u
ç¦» èģĮ
ĠC e
çļĦ è¯Ħä»·
Ġn as
åĨħ åŃĺ
Ġbr illi
éĺ¿ æĭī
èµ·æĿ¥ äºĨ
ĠSpec ifically
äºĨä¸Ģ åľº
è¾ĥ å¤ļçļĦ
éī´ åĪ«
Ġtren ds
Ġcorpor ation
Ġattempt ing
æķĳ æ²»
a I
con v
ĠEl izabeth
åºĶ è¯ķ
çļĦä¸Ģ èĪ¬
D raw
å»º æŀĦ
éĢł å°±
Ġsens ors
Ġob esity
æĮĩå¯¼ åŃ¦çĶŁ
çļĦ åĳ¢
ä¸Ģ çĻ¾
ä¸Ģ åŃ£åº¦
Ġsol o
\_ [
Ġepit helial
2 24
ä»ĸä»¬ å¯¹
åĳ¼ åĲģ
Ġfocus ing
Ġe ars
äººç±» çļĦ
Ġdevelop er
ä¹Ĵ ä¹ĵ
ä¸ĩ çļĦ
bib r
ac les
ë ĭ
ç®¡çĲĨ æ¨¡å¼ı
Ġ" /
Ġtrans mit
Ġple ased
ç²¾ éĢī
cm d
èĴ¸ åıĳ
ç»Ħç»ĩ åĴĮ
ĠN othing
o ice
çļĦ æĥ³æ³ķ
ĠS W
Ġhop ed
im mun
oc key
Ġcomb inations
ĠF I
Ġprogram me
è¯Ńæĸĩ æķĻåŃ¦
ch annel
Ġk an
çĶŁæ´» ä¹łæĥ¯
Ġpot ent
ç¿» çĤĴ
ç§ģ åĭŁ
æĢĿç»´ èĥ½åĬĽ
d irect
un es
åŃµ åĮĸ
Ġm erg
M enu
h uman
Ġcomp lement
^{ +
all as
gg ed
Ġcort ex
ĠTor onto
Ġoccasion ally
Ġgl ut
æĲŀ ç¬ĳ
Ġinvari ant
23 5
Ġpain ting
anc ers
Ġmicrosc opy
abl ing
å®ŀäºĭ æ±Ĥ
ĠJ SON
Ġlov ely
Ġte ch
ik es
Ġprob able
éĻķè¥¿ çľģ
Ġrevers ed
ĠT en
b est
åģļ ä¸ª
åı¤ åŁİ
ĠH an
ĠW he
æľįåĬ¡ äºİ
Ġcap abilities
m n
~ *
èµĦæł¼ è¯ģä¹¦
äºĶ åįģ
çĲ ¦
ä»¥ ä¿Ŀè¯ģ
U rl
å¤ĸ åįĸ
éĦ Ĥ
Ġselect ive
ï¼ļ ãĢĲ
000 5
ir ts
æĪĳ åıĳçİ°
éªĳ å£«
p read
Ġviol ated
pl ates
Ġdeb ug
cl osure
Ed it
è¦ģ åģļå¥½
åĩº æīĭ
Ġconvin ced
ä¸įå¾Ĺä¸į è¯´
æ²»çĸĹ çļĦ
åħ´ èµ·
Ġnucle us
åıĤä¸İ åĪ°
Con f
æĪĺ åľº
è®° è´¦
} '
ä¸ī åĽ½
M us
è®² å¸Ī
Ġst ake
s creen
IT ION
å¥½ äºº
Ġr anges
Ġst iff
åħ·æľī èī¯å¥½çļĦ
Ġstret ch
v ised
èĢĮ åĲİ
T ube
Ġst ained
ĠP ri
çłģ å¤´
or ient
æ°´ æºĲ
ĠT ax
anc ial
æĻļ æľŁ
Ġpro long
Ġelder ly
ce ive
æľī æľŁå¾ĴåĪĳ
æĪĸ ä¸į
ang o
èµŀ ç¾İ
am os
Ġtong ue
é¡º åºĶ
g it
Ġs aving
ĠDu ke
C ore
Ġd reams
çł´ è§£
Ġst ellar
ä¸İ ä¸ŃåĽ½
$ ]{}
åºĶ ä»¥
app ropri
åıĺå¾Ĺ æĽ´åĬł
å®Į å·¥
M iss
æ²¡ äºĭ
}} _{\
f b
Ġ1 33
äºĮæ°§åĮĸ ç¢³
Ġwin ner
åĪĨ åĮĸ
ĠPs ych
çľ¼ ç¥ŀ
å¤ĸ è¡¨
åį³ æĹ¶
åĪ¶ èį¯
Ġab dom
D ist
åĲĮ ä¼´
çĶ· ç§ĳ
éĤ£ æł·çļĦ
å®ŀéĻħ çļĦ
ä¸įåĨį æĺ¯
çī¹ æľīçļĦ
30 1
éģı åĪ¶
ĠMedic ine
å°± åı¯
Ġconstit u
Ġext ending
ie ve
ä¸Ģ å¿ĥ
ç§¯æŀģ åıĤåĬł
Ġ19 79
ä½ı åľ¨
è¶ħ æłĩ
å¹´ å¹´
åĨł å¿ĥçĹħ
ä¸º ä»ĸ
çł´ è£Ĥ
B UG
Ġfavor able
D ir
ä½ĵ åĨħçļĦ
at iv
ĠK now
åĩĨç¡® çļĦ
Ġvulner able
çģ«è½¦ ç«Ļ
Ġt ie
Ġf iction
åľ¨ åĽ½éĻħ
Ġdiscl osure
èĮħ åı°
æĺŁ æĺŁ
Ġdis abled
sc ope
ĠM om
Ġrec ipe
åŁºéĩĳ ä¼ļ
20 3
Ġcirc uits
æĤ² åī§
åĪĨ æĶ¯
æĪĳ å¸ĮæľĽ
å¾®éĩı åħĥç´ł
çĹĺ çĹĺ
Ġdetect or
Ġal arm
è¿ĩ ç¡¬
æ£ ±
çĹħ çĲĨ
ĠB u
åĨ· æ°´
Ġinvestig ations
çĤİ çļĦ
å¹¶ åıĬæĹ¶
z es
ç¼ ħ
æ¸¸ çİ©
åģ¿ è¿ĺ
Ġenem ies
W ait
Ġmind s
é¥ ª
0 24
20 2
Ġl on
Ġd ump
Ġm ile
Ġsc aling
M ac
P tr
S ing
æľī å¾ħ
æİ§åĪ¶ ç³»ç»Ł
Ġpros pective
ed u
åĲį çīĮ
æŀģ åħ·
åħ»æĪĲ èī¯å¥½çļĦ
è´ ¼
F our
_{ -
æĴŃ ç§į
æĹ¶ æľī
èįī èİĵ
åŃķ æľŁ
çıł æµ·
æīį åįİ
Ġbi ke
ucle ar
Ġbelie fs
ç«Ļ çĤ¹
è¯¦ è§ģ
å½ķåıĸ åĪĨæķ°çº¿
Ġ+ \
æİĴè¡Į æ¦ľ
ä¸į çĿĢ
I AL
ç¼ ļ
å¤į å·¥
æľ¬ æ¡Ī
ä¹Ł å¼Ģå§ĭ
Ġdist inction
çľ¼ çĲĥ
ä¸ĢèĪ¬ æĺ¯
omorph ic
Ġsh ots
å¤§å¹ħ åº¦
V ari
Ġum a
å»ºè®¾ åįķä½į
Ġvot ing
Ġoptim ization
Ġsurround ed
çĸĳ æĥĳ
ĠAg reement
ock er
infl ammatory
åľ° å¤Ħ
Ġvis iting
èĦ¾ èĥĥ
çļ®èĤ¤ çļĦ
Ġprosec ution
åĴĮ ä¸į
åľ° æĬĬ
Ġsubs id
éĹ® è´£
le e
Ġprepar ing
äºĴèģĶç½ĳ éĩĳèŀį
Ġ ĊĠĠĠĠĠĠĠ
å¹´ èĩ³
çŁ¿ å±±
ä¹Ł åºĶè¯¥
çłĶç©¶ åıĳçİ°
Ġp ap
tr ation
!! !
åĨĻ äºĨ
Ù ĥ
æ£ į
Ġtoler ance
Ġp overty
FF FF
åģļ å¤§
iss a
Ġdisc ount
çĥ¹ é¥ª
çłĶç©¶ åĴĮ
ĠR ather
å¥³ è£ħ
è¯¾ç¨ĭ çļĦ
å¹´ éĹ´
é«ĺ æīĭ
éħ¸ çĽĲ
åĤ¬ åĮĸ
Ġd ying
ä¸Ģ åĳ³
ĠB R
è¯´ ä»Ģä¹Ī
çĶŁ çĮª
child ren
C r
æ·»åĬł åīĤ
p d
col on
ĠC re
ĠT yp
ä¸º æĮĩå¯¼
åı¯è°ĵ æĺ¯
d riv
å¾Ī å¼º
ph osph
sh aped
Ġlet ting
çģ° å°ĺ
è¾© è¯ģ
Ġman ually
åĪĿ å§ĭ
v ia
çĿ «
17 4
ro ck
ph ot
Ġg ross
Ġadjust ment
ä¹Ļ çĥ¯
) ãĢĬ
ä¸į é¡¾
å²Ĺä½į èģĮè´£
Ġexp ense
d id
xx xx
ä¸Ģ æĥ³
oc he
Ġste re
æĭ ĩ
17 3
æľ¬ å¸Ĥ
åı£ åı·
å¤§ ç±³
å¹´ èµ·
b order
He ight
æ¶Į çİ°
ens ing
çīĪæĿĥ å½Ĵ
ig m
çİ¯ åį«
AN G
; </
æīĢæľī æĿĥ
Ġcompar isons
l ings
se q
åİ» æī¾
ãĢ Į
ĠS S
èµ· éĩį
Ġp ending
ãĢ į
æĥ³ è¿ĩ
ĠEmp ire
åĲį é¢Ŀ
æŃĮ åĶ±
èĶĵ å»¶
Ġor ange
Ġin verse
è¢« èªīä¸º
æķ£ æŃ¥
Ġcirc ular
Ġgener ator
ä¸Ģå¹´ çº§
Ġc ul
? )
ack ed
ç®¡çĲĨ æ°´å¹³
ĠA venue
ä»¥ä¸Ĭ å°±æĺ¯
Ġo vere
æĸ° éĻĪä»£è°¢
ä»¥ä¸ĭåĩłä¸ª æĸ¹éĿ¢
è¶ Ł
æĺ¯ éľĢè¦ģ
éĵ¶è¡Į åį¡
script ion
Back ground
Ġemot ions
ä½Ľ æķĻ
ä¸» æľº
è¿ĲåĬ¨ ä¼ļ
ĠRad io
æĹ¶ æķĪ
Ġhand ed
å¼Ģåıĳ çļĦ
Ġp anc
çħ§ å°Ħ
e cho
ç¥ Ī
è¿Ŀæ³ķ çĬ¯ç½ª
è§Ĥ åħī
å®¶ ä¼ģä¸ļ
* (-
æĹł æĦı
Ġcommunic ate
åŃ¦ åĪ°
Ġx e
Ġattack ed
éĢĤåĲĪ èĩªå·±çļĦ
çļĦ å½¢è±¡
ĠÑ į
æ¿ĢçĥĪ çļĦ
ä¸º æĪĳ
Ġ[ '
æľ¬ åŃ¦æľŁ
é¢ģ åıĳ
b oy
å®Įåħ¨ åı¯ä»¥
b ad
çĶ· äººçļĦ
ĠC rim
ific ant
Ġfor ty
æĸ° ä¸ŃåĽ½
è¿ĩ å¹´
ĠP O
æ¯Ķ åĸ»
èĲ ĥ
Ġbr on
çĪĨ æĸĻ
Ġ1 18
åĭĺ å¯Ł
doc s
ed e
Des pite
id get
åºĶ æĮī
æ¶Ī çģŃ
äººå¤§ ä»£è¡¨
Ġtick et
Ġcour ses
ç§ ¤
Ġb ab
ell i
Ġfrag ments
åĢĻ éĢī
æĺ Ķ
æļĳ æľŁ
äºĨ åĳ¢
åĲĪåĲĮ çļĦ
è´¨éĩı æİ§åĪ¶
åľ¨ èĩªå·±
èĩª æŁ¥
Ġsec ured
è·¨ åĽ½
anc ies
æľ¬ æĬ¥
ĠH ad
ĠMass achusetts
s un
æĺ¯ åĽ½å®¶
ç»ĵæŀĦ æĢ§
åĪ° åĮ»éĻ¢
TH ER
V ar
å¯¹ åŃ¦çĶŁçļĦ
ä½ķ åĨµ
Ġin jected
è¿ĩç¨ĭ çļĦ
Ġstrict ly
comm and
es ota
oc oc
æĹ ·
20 7
æŀģ èĩ´
èĤ¢ ä½ĵ
Ġf ru
T L
æīĵ äºĨ
Ġ} )
sh ort
èĲ½å®ŀ åĪ°
åħ¨å¿ĥ åħ¨
çķĮ å®ļ
åĨł çĬ¶
B s
field s
Ġl ibraries
å¿ĥ æĢĿ
æĿĳ çº§
ĠD om
å¿į åıĹ
p ing
ä¸ļ çķĮ
J an
Ġsymb ols
çļĦäºĭ çī©
åħļ æł¡
å±ķç¤º äºĨ
Ġp ist
æķ£ æĸĩ
im ages
Ġact ed
h ole
ç»ĵ æł¸
ĠB ible
ĠÏĦ Î·
ĠG ree
åĺ ¿
å·¥ä¸ļ åĮĸ
ä¸Ń ç¾İ
od ge
Ġfat ty
åįĪ é¤Ĳ
åıªæľī ä¸Ģä¸ª
è¡Ģ æłĵ
Ġbreath ing
ä¸Ģ åı·
åĸ §
åĬ© æīĭ
Th us
å¸¦ ä¸Ĭ
Ġag gressive
C am
)) /
å¾Ĺ æĽ´
éĴ ¦
æ·± å±Ĥæ¬¡
b n
j et
Ġan th
ä½ł ä¸į
AB ILITY
ĠS em
Ġtra its
ç¾Ĭ èĤī
Ġn ons
iot ics
14 9
Ġtri ple
ç»Ħç»ĩ éĥ¨
qu arters
Ġal ien
å¼Ģ èĬ±
æĪĸèĢħ è¯´
æĹħè¡Į ç¤¾
çļĦ åĲİ
è¿ĺ åŃĺåľ¨
åĨľ å®¶
[...]
